// har_wclstm Model Weights — FPGA .mem export
// Total parameters: 122949

// kernel  shape=(5x9x64)  count=2880
3e1d767c
bd392189
3e52b000
3dfd0702
3d8dc158
3db17daa
3e609369
3e6295c6
3d8e9b9a
bd3eaf90
bd4a3cbd
3d2e2be8
3e243433
bdc99799
be33a1b3
3d98e06c
3db1d842
3db945da
3e948411
be0aabbc
be6fb1af
bbb64b9a
bd1388d8
bd7a3b84
be2c0969
bddb4c4d
3dc9fe13
bd36e0c8
be38e942
3e454db8
bc81411b
3e23f992
bc868148
bcf97885
bd57086e
bd62a0c9
3aebce80
3da232b2
3dcd9ac4
3d3c4bdc
be28ce27
3dd54593
3d9ca079
3dd7e580
3d98fc39
be0b779d
3e2f8bdc
3cdb0ede
3d4ff8af
bdea29f2
bda2c6a3
3c0ac52c
3e2ba9bb
3cd77956
bd30b728
3dda3992
3d907c6d
bd2114cd
bc969ba9
bdf8897a
3e52e9f5
3e1b2c5b
bd51c17b
3e074dda
bdac6e67
be281a9b
bb424d2e
bd8e12b0
3cc8e89f
bd8b01cb
3dbbd002
bd0b3195
be2a3652
bd8e63cd
bcba599e
bda9fad7
3c2827fd
bdb95b07
3c618215
bd8d3c97
3c878c6c
bdd7d5e4
bd30b0d5
bdd19488
3c8a3dc2
bbad8322
3e19d307
3db1a991
bdfff5cd
be0bd193
bb238c0d
bbad3424
bca2572e
bcb6c27b
3e13f9dc
bdbdbc2b
3dd9977b
bdbbbfc1
be15f0e2
baf06ff9
bdfe2d41
3d99dab6
3c9a9928
3c174ced
bc484d0b
bdc998dd
be293d8f
bdabb71a
b9fd66c2
3cd683b4
bdd440dd
bd11078b
bd4c2097
3da06b00
3d4d5d01
be5324da
3d349990
be41b7db
bd2b5224
3d0c8813
3dcefc83
bd60e8cf
3df71120
ba044786
be0c0a7d
3cbd9fd8
be000093
bd089808
bd8ef010
bd34be19
bcde756b
bcdb8ed2
3c982613
bd507329
ba2dd81a
3da965cf
3d541d0b
baa9dd28
3ca5bd70
bda92774
3d094c5f
3da3d9b4
bbf61a73
bc7ad5a0
bdd217e3
3dd7eb87
bd920896
bcf9694b
be1c2290
bdd1bbec
bc28bc8d
bd25d395
be2143f0
3b6c5c37
3d67a301
3d8dd5c1
bd7e66cb
3cb8533d
3e48de05
3d80c797
bd3994b6
3cd27286
3d836e25
3d457ab6
3c6add95
bb1e2c00
3cae0d37
3d5a9c02
bd9b7814
bcdeeb26
bca8d920
bd55e614
bd27333c
bbfd1a5d
3dc446be
bca05ab0
bcaa552c
3d97c4dc
bd8cfe0a
bc59fe4a
3cabe56b
bc850622
3dec7f6f
3d90d014
b9c6da53
3d0948aa
bd09fbb9
bd72d51f
3c1dfaca
3dd2f9e9
bd6ee42a
3dabeebd
bd377ff9
bd1c1fee
3dc56c5f
3e37e6e1
3e79c1d3
be0fb1d7
3d4d0928
be24144e
be2ba9eb
3d3839f4
bdb14798
3d32851a
bda09dd8
bd5c6cf3
bb9fe695
3d92b58f
bd58e366
3dcc1dc6
3d4a8492
be1772cc
bced66b4
bb95dd42
bc5ad3a5
3ccca248
bd174a76
bd819ab4
3c5fbc94
bde5df6a
3db7ef9d
bd25b5ca
be0aa5b1
3dca9bbc
be09f6c6
bdcb6538
bd7180e9
bd8442d9
be56a140
3c27771e
3d8155b2
3e0d6fdc
3cb2a3a1
bda2e219
bddedca7
bda8b12f
3c4009b2
bc7929cc
be1a1778
bd0ec836
bc3353d2
3d0300c3
3d7bf8d1
be68e1b6
bdd37bb1
bca46aeb
bd823439
3d939d77
3d6dc03e
bc2f6975
3d90d78a
3e10c460
bde33c51
3de4dfc2
be10c77b
bd0121d1
bcf6cb87
3ddd7986
bcf4e9b3
bd5f7029
3c97a2de
3dbe8970
bc7d589d
3d8cda9d
3d442b8a
bd9c8830
3d4c770d
3d443240
3e233f24
be0b9358
3d23153e
3d0c475f
bd1e4d4c
bd72f4b1
3d1b5e22
3e07be6d
be59c6b7
3ca52171
3c1d3885
3c290df6
3c42a794
3dc8b677
bcbc5570
3d9a2802
be001d60
bbf99434
bda5d255
bcb0c027
bd2ee061
3d80ec4e
3d8b184b
3df712c1
3d45fd2c
3c90cbd0
bdb9b9c9
bbca497b
b8e90d59
3d2c6eb5
3d1faa15
bdf4d143
bd82f86d
bd8ae667
3dc04224
bd100f66
bddda720
3dcae1d3
3cdd41a0
3d67d4e0
bcc3a18c
bdbb27d5
3d2a0547
bd2a714e
bd32c8b0
3d13c756
bd4bc843
be0660a0
3d85ee5c
be067aa0
bcfd5ba3
bdd0017b
bcd98faa
3dbe7451
bd85b710
3d16758e
3dc08f75
bccc6252
bb0a8122
3da772c4
3d03fc13
3d0c8af6
bcd6f575
3c8657e5
bcff8ac7
3d5a1cfa
3db7b2c5
3d08de92
bd3772d4
3e0d4516
bdff6faf
be121710
be529861
3c8bad66
3bf93752
3d5e9be8
3c955a38
bcd4a8a7
bc1cee49
3d86255e
be2508ad
3e17f4af
bd045b42
3e275f91
3dc3a852
bc8aaa83
3d7f899d
bd8fc322
3d8b48ff
be0741aa
bcdb3fed
be09c38b
3db66150
3df968d8
bd64d468
3c88c80f
3dd9e3fd
3d06f358
3e32858e
3beb399a
bcf31380
bc9aabb3
be1a44d4
bd64f707
3d3295d9
3d3342fb
3e355b92
3da3b122
3dded2ec
be11607d
3e0b6c93
bbdf7e17
3df8abcf
bd201fe4
bdc7e473
3d972924
bd7f1031
be8caf5b
bdbd13e6
bdcd75d7
3baaa92c
bd9dc7ca
3cb7cfbd
bd1ad243
bd094607
be1d8f2c
be6c43b0
bd923778
3d46abfb
bde69246
bcc87f9a
3da6f5e5
3b0c4b41
bdb91a28
bd98c58c
bd995d01
be12e491
3c3f858b
bcaff744
be5c79a2
be6b3e57
be338502
b965d4f0
3c0f01bd
be864feb
3e249980
3dc19968
bcd93682
3ddd4b4d
bda82bbe
bd763fb4
be1a369d
3d1c40d7
bdb1cb0c
3ca863fd
be3d2f85
be4c9088
bc6e8212
bd454c86
3d0c51a1
3d93722e
be1f88bb
3a7f46aa
be6465d4
3d336cda
3c4d5429
be3a44fe
3c033cc8
3db12396
3e24ae08
3d8554df
be556127
bcc9eca0
be49733f
3e5a362e
be537fd6
bdc66c25
be099c94
bdbd8595
3e10f5a4
bd14344b
3c138596
3de4bfa9
3df701c5
3de2b4ec
3db5ad5f
3cc0b574
bdcf3846
bd7bf0d1
bcbfbcc8
bbc022b0
3a9a01fa
bd90888f
be1da6ff
3c0ecf8c
3d26ef5e
3d258f78
be0f1125
bca0e651
bd1b87c8
3dd26ffd
bd85af7d
bdc39a47
3d538eaf
bcd83411
bd8c7432
bd8e19a7
be037fe2
3d3211da
38c18792
bb986e55
bdb4607c
3d8118d2
3de6dce7
bc3050a8
bd7ae6bf
bde72f32
bc3c8074
bd507351
bd869341
bd9678b2
bd43c04c
bd8a378a
3dbe00f7
3d810c06
3c141cc2
3c67f9aa
3dcb8f0e
bd22f8a9
bd75c4cc
3cf02480
bd2fd8a4
3d45c9df
3d9d9fea
bdcb2a09
3bcf150a
3dae6506
3dd419ee
3d778e13
3d994cc2
bdb24e59
3dc71ffc
3c392c28
3c894f14
3dce1cd2
bd030402
bdd3036f
be0803fa
bdaff1bf
3e8fb9aa
bd851cc1
3e21c363
3db1e5c1
bda18e40
bdc1b8d6
3c41207b
bd34c51d
3dbf9e3f
3c86b6d3
3c20158f
3c82b78f
3d33f841
3d40c6c8
3d90253d
3cebe7e4
bd103062
bcd8a370
3aa5f468
3d8faa67
3dd57278
bda5f79c
3d9095a5
bd3a6032
bd8321fc
3d2fd041
bc161d11
3e08f7ba
bd494a12
bca14ffe
3d689981
3e63f794
3ad6f119
bd1bf826
3b8da85c
3d2afaf1
3ce5e045
bd3e4b14
3dd44a94
bc91daa2
3d8bc9fe
3decf50a
3d84b736
bbfd9f5d
3d18b106
bd7d60ba
3d589d33
3c9e6560
bc080865
bd2c34b9
bd8e04d9
bdbc8eef
bd9c42eb
bdb7a36a
bd5af973
3cce0fa8
bdb9eede
3df55510
bd34240c
3d342c4b
3d996cfa
3d7d04dc
bdb4fba3
3b4859a2
3e18ed03
bdbf8ae7
bd61ab0b
3d99c8f6
3d6b3fe1
3cd13bce
bd835dbd
3df45738
bdc6dafb
bd36fd9b
bde39fc6
3c196a77
be11d396
bca1b942
3d4175c0
bcba5c1b
bc73a6fd
bc9141d3
3e24f473
3d575dc9
3b65ae4a
bda53616
3e16cf9e
3c0408db
bd126d73
bdb11140
bd7e02a9
3d7853bb
3d0d352f
bc61d9e3
bd8ffe14
bd8a044b
3d832673
bda19b15
3e4d33a4
bd3b6dea
bd880ca5
3e18addd
3d15cd26
bcca2a20
bdd98d5c
3dbae36d
3e2e0372
be29f921
bdacfcdb
3dc5b8a6
bca1c7c3
bc24a071
be216056
be2dc12a
bbeab296
be06904c
3e35db3e
bd955a0e
bd00c8a1
be18c92d
3d79ee1e
bdbf3e92
3d115a42
bdadb041
3d78109b
bdbe8c33
bda8b3a5
bbd137c0
bd6ac843
bde9188d
be574735
be018d6b
3da0a744
be1c8dcf
be75dc96
3d3ee968
3ce890ca
bd3bd59c
bdfb8899
bd013fe7
3df0ebdf
bdbf7192
baaffcb6
bd9b1870
bd02a7f2
bdd2527e
3e2c7d45
3d24b066
3dc01e23
bc38d182
3bc9e7d8
be02e023
bdf9d13c
3e053d99
3d92cf56
3e097ffd
3dd20ca2
bda9f180
bdaa3941
bcc0dfef
be297d27
be34d84b
bd939929
3d8f962a
3b9385eb
be14365b
3d540d0c
3d2f1b81
3d8aff0d
3bee8b79
3aec6464
bd35db4a
3d8c5010
3bac7fbc
bdd2542f
be4a1898
bddb72b5
3c71f353
3dbc92d7
3e08b17b
be2471d7
3dbd171d
bd14e700
be0fa95a
bdfe8c37
3cb591ed
3b8b8536
3ab2fda1
bb26de1a
3d9a989c
3dd4bc45
3d9e8ecf
3d04490a
bd524891
3cea020d
3d03aa2b
3d6aca6e
bd88ef3c
3cb03007
bc5a467e
3dc194b9
3d9b80b5
bde17b12
3d5f1908
3d8a3de6
3e18c775
bd13d650
bd21ff36
bd5a7b53
bdc00a51
bd0de8a0
bdbffe30
3d693e99
bd2f94ae
3d418388
3deb22b7
3da28bcf
3ea49318
3d9bb215
bd3b750a
bca96f70
3cb76d4e
3b0cb60b
bd497671
3cd6b17c
3d91bac9
3d4103a9
3d6362ad
bda2e075
3d17c3cd
3d2fe0f5
3c4b259f
3b45a2e2
3cf5e6dd
bcfff992
3a5e26f9
3e02caee
3d709b61
bd044ea3
bd43f366
3d413b48
bd15b28c
3dc89b4b
bbc62fba
3d1b1970
bd960a00
3cc8a601
3cc059ea
3c30fd33
bd3a0e02
3db3aa61
3c9ea019
3da5271b
bdf18a29
bd4cfdea
3ca6124d
bc3e4ec3
bd979969
bddabba0
bdf86c10
3b088c6e
bd6f8352
bd933870
bcd312bc
3b8b717e
3def6b82
3de3536b
3cef781d
3d89d88e
be070abe
3d60ceb1
bcefa630
3cc2bc9f
3cff70fa
3b8c3acf
3d02f5bf
3e04b52d
bd0ed088
bd81aa27
3ca3262d
be0a72df
be30b5e0
bd979622
3d425355
bc8e17cb
3c1cfadc
3d143682
bcadc29a
bd934158
3cbecc7b
3da46bc1
bcae546e
3d8fab49
3deb5357
3d91436b
bca54be3
3d8583ec
bddfdbf7
be0f291c
3c555954
3d971b9f
bd2a87bd
bd3bf346
be17cbaa
bda99a31
3c80f385
3c4258ee
3daa6dae
be03a56d
3da1fa89
bdbf44d8
bd0f821f
bd9471e3
be348630
bdb8bc4c
3d901342
bd44ac06
bd12f687
3e0e4add
3d6adfa2
3e19039b
3d34c62c
3e1bc1b4
3da1eef2
3cacfbce
bd5357b6
3d0988c7
3dac003b
3d349a91
be0f441c
be0e517d
bdeda804
bd44b5a0
3d980f98
bd8a32e4
bd49c8c9
bd98d8a4
37eee443
bcf30f1a
bda38581
bce3a60d
3c88eba3
be03345e
3c754f1d
be18e760
3d1742a9
bd30418f
bd979fe2
bd66a1e7
3a829457
3e36b166
bc0c237c
bb8a23ee
3df70efe
3c01f1d5
bc9c2afa
bcaa42d4
bd62f870
bdbb87b1
bd2f6339
3d15cb35
bda42ef8
bd3f2663
bdca27c1
bdd1267c
3c4cc169
bd95fb32
bdbe542d
3d5d0974
be01fa02
3dc58c94
3d094e97
bcd9e2df
bd81faab
3daf08f9
3bdc0474
3dd8a4c9
bbb8702c
bcbd90bc
3d711630
3cce8e35
3ddcdfc5
3d023915
3c5784c8
3df12d02
3decae9d
3daf94f9
bd3da917
bcfd9027
3ce93f36
bd50f5a2
3de43c87
3ce16644
bd87a2fc
bddb418e
bd2e0e3f
bd3dc8a9
3d77f104
bdfefe8a
be5b00b8
bdc9db4c
3d9949b3
3e2577b5
bc305ba9
bd4b1b09
bc87b0a0
3d434e1c
bdf8ea2b
3c98b633
3c307283
3e0afc75
3dbf4245
3d9ab7f9
3dae4389
bdd6e590
3d228d9c
3d449838
bd9f2fa1
bdb527f7
3d7d0c29
3bb251d3
3d9dff2d
3e039aa9
3c860fd4
3cd15f82
3cbf2912
3b1ee70e
3d065d7d
bced039c
bde21cd8
bd00485d
3d522f95
bdaa733b
ba36cc49
3ca560a1
bd7d2568
3cb438f6
3d564c2d
bd2afe2f
bd8a21d6
3c99bd76
bd88e93f
3dc36395
be3de058
bd3f4ecc
be0c0a60
be1c8901
be45af8d
3e50dc7c
be4f43b8
be59f287
be6597df
bdd13fd3
be043b09
3c6825e1
3d16e18c
be02a669
3d7367b3
bd9a348f
be5823fe
bdb66eb0
3d26229f
3d94c0db
be7f61ce
bdf4e812
bdb4ad83
3d65d3a3
bd4f748d
3a81bdeb
bd8f0ab9
bcf44232
be5b9747
bdcf0f48
3d1c7cee
bcc516c8
3da5e8c7
bdfc9c6c
bdd7f60d
be347793
be54f6f1
3bf159c3
be2a0350
bcef274d
bdf94669
be7ced4c
bdec7b97
3d8ed196
be21e9be
be512494
be45ce83
bd72e10c
be5f136f
3dce9f5e
3d75ae59
3cc6beb6
be82889f
3d001cda
be8a8a09
be7f4aa1
bd96c760
3cb9255e
3ba19fd9
bd1727f9
bdb4cd7e
be1e4f60
3db360b9
bd5cb350
bde26ff6
3d6528c8
3c88f381
bda08b92
3d21b8d1
3e04a0e8
bd9561f9
3ceb1f3f
bda66084
3b82c550
3da74507
bd07ae3b
bddb741b
bd52a5ee
3d16a1f8
3da7a0d3
3e17127f
bc2724b0
be1c4f83
bd26d7e0
bd47f28e
bd4df3d5
bdf25083
bd8af4ba
bd8fba2d
3bda7e27
3d192e56
bd8824f5
bd8764c9
bddcedfc
3ccba9b8
3d82da02
3e569f5b
bdc9a33d
bc7ee3ef
bdf87aa8
bdf00fe5
3d0f04e7
3dc31086
3daa69a0
3d479f93
bdc66c7e
be2486b6
3d905ba7
bc4d4cf1
3d8e3545
3dc085df
bdec0012
3bf83069
be3d74d5
bdf29437
bc1a6611
be150aed
3deb0387
3df13d92
3d8838a1
3e0f7803
3d357510
3e5d77bf
bdaae06d
bba2935e
bc851697
bcb7f5d8
bd34eecf
3c324668
bd56b6a6
bda97804
3ba8a8f8
be087376
3e43b789
bcb0f5e9
3d0614f6
3d9ae387
3bbabc50
3d9598c2
3d936c98
bdcf9827
3e197be1
bd0c0dcf
3cb6391c
bd9fd446
3d24603b
3d667e43
bd77c01b
bce0ae08
3cb67af0
3dd22df0
3ccbef96
3cc0eadc
bc9371e4
3da2cab7
3d91c07e
bc14501a
bd98fdb0
bde860ba
ba79ed0c
3d1eba59
bd8d3b40
bd3407e7
bae1d8d0
3e137926
3d649397
bd950dbe
3be49a3c
3cdf6b57
3d07dbb5
3d23fa88
bd1364e8
3dbc6c85
bd0166c1
bd9c5d91
3dcce5c5
3c8eb957
bcd108a0
bdaf2aa1
bc455b09
3de085b1
3dbf9337
3b13c39c
bdf96b52
bdf30825
3c548500
bd7fff62
3de67cfa
bd33b8df
3d481415
3e1bb075
bcdb82a6
3dc3560f
bcb2b14e
bdd192a7
3d952030
bdb31199
3c867216
be08e53c
3d5330a1
3d937e41
3dcaddec
bc06bdf0
be212c46
bc761697
3e1e245b
3e10718b
bdbf00c3
3d2ddd93
be03ef00
bd968b1b
bde3e8ba
3e51ec75
3cd52251
bd91d8e5
bdc39038
bd897503
bda15dcf
bdb125f9
bc803469
3de07eb7
bc3e8261
3d3ee46f
3ca63ac3
3d0774af
bdbb89e0
bdcf91b4
3d583a46
3daf5656
bdca1624
3c46adc7
3cbfad07
3dafea9b
3c64f6e4
bdd185c4
3d9f1a9a
3d0e7b2a
3da414dd
bddb621d
3de75b6b
3d1e21fe
bdb445e1
3de00772
bd287a06
3ca94c0e
bc60a71d
bd49eed0
3d4186dc
3ce41a03
3cb3b64c
3bab6d77
3e3d22e4
be212d54
3d27801c
3dd35373
bd40b49c
bbdb90a5
bd814a59
3d993e26
bd4e3652
be2bb53f
3cfccd09
3b6cee2c
3e2b3938
3dcc86a5
be01755d
bb11cc55
bde8d6e4
3daa060a
3c82c6d5
bdbd0f19
bcdd0179
bd8db3d9
bd2030fb
3d599afb
bd2d1b5e
bd4a0fc7
be1f08b0
3cd63d8f
3dcef775
bdbb1d25
3df18c8e
bd0302af
3e50d05c
bdc7b343
bd8211ae
3e3e8f96
3d1af11d
bd9a1422
3c39095f
3e241397
bd31b42c
3e69c2b3
bbba43a9
bd88df98
bde792ef
bd085d6d
3d9b3160
3e2e4cd6
3df1eea5
bce14b45
be649064
3e47c460
bd02f36d
3ded192e
3da3c6b9
be3396d2
3ce5e3fb
3d2b53c2
bc107701
3e0d7e0d
bda72261
bd5939f9
bd8aa66c
bd897af1
bdbd8136
bd267391
bdcdb62d
bd90b82c
bc7e1449
3db2884c
3c3707ef
3d99ff7a
3d3ce207
bcec9126
bdbda0ea
be094694
be43922d
be2053da
3dc5bea3
3db81e55
3d193c3b
bdb5f37c
bdc694ce
3ca50e29
bd8fc578
3dbc32ba
be02c285
bd7fcb2d
be370447
3d8b35dd
3d65a367
bd52750e
3d1e83a0
bc84be9a
bced2705
3daaf55a
bd96821d
bd726d9f
bd9027d0
3dfb195a
3cdf5c83
bc845a40
bc987608
bda4306e
be241f1d
bda76f96
3cdfcb4e
3c354469
3d0e6708
bccb3fa6
3d74564c
3dfb911d
3ceda950
3d9c81ec
3b4a42f8
bd4c9582
bc0b95a4
3d88a2d2
3cee02a0
bdd77e25
be084212
3dfb5105
3d8abe31
bd13c5fb
bd14681f
bc906b26
3d1b869a
3d608b49
bc1b4484
bdb903ed
bd725f28
3d732557
bd8aada6
bce0a1e1
bd9ff207
bdcd0114
bd416630
bd598e9e
bda4e0a2
3ce5c127
3df6b4f5
bd34e7e5
3d0e2a07
bce5ae7e
3d37cec6
bd7b483b
3dbbedcb
bc43a7a6
3e196d3a
bd61f339
bdd836f4
bd1a8311
bd7564f8
bd803350
3cbf9f70
3db8a090
bd5b23fb
bcde0cdc
bc8bd44a
3d94b349
3d027e9b
3da3f4b1
bd62ea5b
be687670
bdd0c88c
bcc10db4
3dec9a78
3caed14d
3ce46350
3dcb3d50
3db87fd8
3c6909d7
bd2a4a0e
bd8c54b4
3d8eb529
3dcd94b7
3dfb08cc
bb40f175
bdbe0e33
bb972a72
bddca432
3dc3247b
3e1397a5
bbb32412
bd575e6a
3da0ab30
bdd9a267
bcd6ad24
bd4f58b9
bdb28456
3bb4aa57
be2cc189
bd157d0c
3d8d0c21
bcf09bb4
bd30dc8e
bd971a08
3d486ec0
3c666ea7
bdd7aae4
3e0bc8e6
bd2c7de5
bda50ed4
3c0b7110
bdceaf04
bd138f1a
3d5136c1
3c7d7433
3d16638b
3c89e2a8
3d00d601
3dc5743e
3ccc14a8
3de6c8bc
3cd53d4d
3b415ee5
bc5374ff
3d3d8dbb
3dd84c94
b9a6fa4b
bd84df3a
bd766b0e
bbf916cd
3dc1ca71
bdbaf6e5
bd57c90a
bd8320b7
bc6c4063
3cc99ddf
3cb4bbfa
be069fe9
bd9490ba
bb85b4a9
bd26d314
be00aba7
3d277a6a
3db501fe
3d7b7084
3d853d1b
3d64fdab
be055e57
3dd271d6
3c113702
be141810
bd981271
3d9193a6
3cf2b90e
3dbdb7df
be259e5d
bcad5c00
3de677a5
bd4bf61f
bca5288c
b98351fb
bd5f7073
3d8bda5c
3d11039d
bde5c1fc
3d27cdc7
3b25deae
bd37676b
3c75adb2
3dc2f520
3da2bdbb
3d5ab8a2
be2c950b
3d3382cd
bcfdeda5
be0722a3
bd469348
3d2343c2
3d3381c8
bd1aadec
3d4b9331
3d1e577b
3d81f592
bdb0f2f6
bd27e67c
be0fce7e
3d2bcf29
3e0c156e
3e133421
be1a4b81
bd45979f
3e178d28
bcbb6b2f
bd176afb
bcb0b889
bd08cf36
3d9fd4ae
bca57627
3cb7f92e
3e099540
bddb648f
bd2ad58e
3d460848
bd4f574e
bbedf5c4
bcaba4b2
bd9efabe
3d6932d3
3da8891f
bda3605d
bcee6c98
bcb93a73
be04c0be
bd2c9fd6
be2f38b5
3dd2f544
bde3bd85
3da2720c
3db898d5
3c2a0cdb
bdefcaa0
bd33eaca
be094345
bdbc7e13
3d85eaf7
3d97c79e
bdb90beb
3e07c635
bdbd3d61
3cf1e12a
3da6552f
bc4961c7
be505965
bddd729a
bd8d99de
bdcaba5b
be0719cc
3d1e1a57
be575c44
be6f0088
bd441104
be399a6f
3aca1797
be1c45e1
be0ddff5
bd0b4f47
3d730d74
be61dc96
be5241d6
bd9ce351
be6f0cde
be54137f
3baab4c4
be1d4792
bce3a322
bbb91ba0
bd8927ee
bdd029df
be696f19
be1022d8
3d0a725b
be47aa2b
3cd3cac5
3d84e045
3d7f4c62
be507cfb
be0c3bb6
bda9ac13
be09c8e2
bd25d5fd
3c182905
be2926c4
bcd29218
bdf49b0f
be6853ec
bce1dbaa
bde03a2a
3d96a104
be0b95ce
3dba4b72
be22220b
bd826af5
bde5f223
be201b05
be3df825
3e1e3102
be8aab07
be1d701f
3dd8deea
be27e57d
bd499be8
3bede17e
be25fa93
3cd87a13
3e1312f7
3b2e8256
3cd4d14f
3c81a951
bc7c5332
be180110
bd8fbfd4
3e616a1c
bd133267
3e01b511
3b4890fe
bc2875f5
3de10cdc
bd8835c9
3e24cb42
bdc0028c
bdd2907a
bdef13ce
3deef609
bcb66998
3c964211
3dbdb183
bca676a4
3a6129f9
bdcc4269
bcc5394a
bdc6f9a9
3cb40999
bc57f63f
3c767e9c
bcd18366
3e0992d6
bdd59661
3da245dd
3e75f1da
3df7e98b
bd94a792
3d0032e8
3e09a91d
3dd1a900
bda1818c
3cad696d
bd757a0a
3dc36ebc
3d3ed76e
3c4c4b1a
bd7ea72b
3b021d33
3df0e897
bd47f7d1
3ca062b6
be7105d2
bd43f927
3e257606
bd495811
3e007ee9
3da6bd85
bd8140e9
bc363922
3db00c10
3dd0c909
be1d512a
3da89e9e
bdc7a159
3e81df8e
bd1d601e
bd38e8fa
3d466574
bd9e665e
3d741107
bb8445c6
bc91ef19
3de80918
bd930a18
3d8c9642
bc910928
bc629197
bd3bb063
bd5224c1
3da1df17
3e2935fc
3dae35ae
bceddcbd
3d8b7306
3d742438
3c0aa4df
bc80cb81
3d620c6f
3e108ffa
be114607
3d67b095
3c1fa5ee
bdcf551e
bbd2a5f5
3dde40b1
3e247c97
3d62a0de
3c335251
3ddfba76
be194303
3c9cd0c0
3b83f86b
bd89338f
bd74db0c
bc9f47bd
bdc6063f
3e50177f
bdc6489d
bd2f8431
bdc0d3f6
3d937ae3
3db2b2c6
be14d5c6
bc301f99
3d7f3607
3ca589d6
3e0ff5e9
bd600492
bd2f71ed
3d2394ab
3c920da8
3b8e4f75
3d689794
bdce7256
bd34a586
3a75310e
bd68f327
3d9515ba
3a89c108
3d41122f
bdd85155
bcc17911
3da1987b
3d8062b1
3e4415a2
be3fe3d5
3d67b857
3cf4e274
bd272862
3d7a7f10
bc89e1d2
3decf7b8
be0bedb3
3cdaa4ca
3cdcf1e4
3d823ca9
3e04c883
3d6930c7
bdda3a69
be00e9b5
bd187add
3d8093db
3d09775b
3b38a95e
bcb31c19
3dbbcf91
3dcf5dbe
bdbe1d8a
3d06bee6
3e3083e8
3d02d80e
3e138860
3d45cb4a
3c83e77b
3c97cd8a
bd7e5383
bda5cd25
3da031ec
3d932084
3d6565e8
bdce4eb5
bd8f2a4a
3da471f2
be01b225
3da57750
bc712be7
3e41728f
bc4fe255
3d7941d3
be3452c5
bdf33f8c
bcfd8c72
bd4023c2
3dab438d
3e208def
3c6d3657
bc9024df
be0bd343
bd78fddf
bd6b18df
3da8e7a4
be20c1b8
be39895f
3d43aa45
bd9d2204
bddf9051
3e19c667
3e178b31
3dab188f
3e6456a0
39fc8b3e
3d2183c6
bd8e90c9
3dc02acc
bc0a2cec
3d1163f8
3cc0441f
3c8a5f7b
bd526a61
3c1e1c54
bdaf0ba2
be3005be
3e5dfc95
3c36110a
3e1fc374
be21e2e0
bdf410e4
3e3df00e
bdda2f21
bd52fa5d
3d536c26
3c0e3f07
3e192612
3e04bb4b
3e0fbcb8
3d64478f
bdcde454
bb088b1c
bd867704
bcfc5fdc
3bb4d23e
3e04335c
bc5ff3fc
bdbca5ee
bcc6ba86
be11ba71
bd738f37
bdcd4e1d
bd139333
bbea01f8
bd69dd99
3d903266
be3651c8
3dab9c5e
3dcea0bb
3c8972f2
3ccc2185
3ca7780d
bdcb05f4
bdcc8fe8
3d68c472
3e2d0a07
3b474e60
3e113c96
be11d20d
3db96bd1
3cf25794
3d8f52dd
3d3f7a11
3d49057c
bbbd93d0
be1ed975
bb840636
3d89c0bd
bd230b46
bdcef8dd
b99e72b8
bd89f526
3dd7d931
bdade15b
3af3cc7d
bd21f322
3d2a67a6
3dc92715
3e18b78d
3cba9b62
bc153068
3d3f60af
bd84bc18
bd3ee659
3d107878
bc7bfe68
bcc67adb
3da9dbb4
bd2c6ad0
3d57c995
bddd60a4
3d358c5e
3dbc8d82
3d356892
3da73e02
3d062368
3c72a2f7
be1694bd
bdda34d0
bce50c60
be04ac67
bcb8e57f
3d9634a7
3d9e8a43
bc99653f
bc887836
bdc041ea
be1b0d5d
3da12358
bd9f454d
3d4b36c9
3d0336b6
3cfde14e
3cd7d100
3d6a4545
bd7d8303
3d8fe2bf
bd12dcf6
3cd883d3
bd11a7ac
bcb7afd2
be065692
3d68c158
bd98433f
3d503c5b
bd9a62ce
3c7c6ab6
3c85493c
bc88ae3d
3cad46e1
bc936dac
bdeff150
3dacc190
3da5c376
bd19378b
3cf64db3
bca05637
3d820e3e
bcfd4d3f
bcd0dbdf
3d69cd29
3dfbc81e
3d180bb8
bd97143b
3d074f8f
bda14a33
3c8a63ad
3d468368
3db16619
3d231631
ba813581
be09153d
3cd43150
be0632e4
3d5b67f4
3d8c1128
be5790aa
bd582941
be051560
3d23c84c
bd2fc9ad
3c3d5799
ba43c24e
3d0434b4
bd3467c2
bc2b0206
bce690bc
3d5b653a
bd83776c
bdc0e91e
3d7e3afd
3cc0d5f1
3d0ec5f9
3cf44c21
3cf54b6f
3e666ef1
bd0c1d29
be2853e7
3d1d3ca3
3d301cb2
3df43f1d
3d61eabc
bd12430a
3a17889b
bddb8767
3d6b86a8
3da50e6e
3cbccaf3
bd81d493
bda458a7
bd0f5f30
3d48da81
be4da0d2
be3e5013
bdef2a6f
bd6f88a7
bd009522
bd4de63b
3dc8257e
bbdfbcb1
3aca376e
bcf50ffd
bd76e35e
3db390aa
3decdb03
bd099eb8
3d08abca
3c7011b1
bdff99e1
bd9d643e
bda9133e
3d275cac
3c957456
be9221a0
3d90bed1
bd4f2e4a
3d9bd764
3d88a483
be0fa2b4
bc53ed3b
3d1ab100
3e0e0fae
3d47b2e4
3c5b4157
bc8f412a
bc863444
3dddb79c
be0fd51f
bd9f1475
3d06098d
3e089b00
3dc2359f
3d356a27
3d5518c7
be25529c
3d7c2462
3cbf6601
bd2f36df
3d51c861
bd8e67bf
bd4646c6
3dd641bd
3c214e80
bd1e5aae
3df12068
3d38a5d4
3d58bfac
bdd86eab
3cef05b2
be390824
bcbbf2c9
bd8f3d0d
3da1f384
bddb6c64
3cea0461
bd7c086b
bdcc5d66
bd9b7810
bd94691f
bdba1b09
bd99f53c
bd8e3b09
3d93bfb8
bcf61282
3df1663d
3be9b50c
bdcf6c5e
bd9d1fb5
3dbdcd40
3dd0c86b
bcf67542
3bb57058
bd3fd5d7
3e0dfbb4
3e5217e0
bda469ce
3d1cf2ac
3d57b50e
bd21fe89
3d96ec2c
3b3fd5d4
3e255c6e
392d110e
3e280bc8
3a8a0f0c
3be0796f
bdd59bb1
bdbcf1db
3cdb8709
3dc6604b
3e027d6f
bdf3bfae
bd9096fd
bd1862c7
3cf21b72
3d8ebf52
bd0118c9
bdf0eeff
bdacd00a
bd255748
bcf43bea
bc8eaaca
3c7ae87f
3c4fe386
3c8771be
3db4d052
bc9c2165
3d9edb3d
3d692e91
be07cf25
3d9914a6
bdb6a11d
bca38d84
bb9ae49f
be1d9f6b
bdf7bc31
3d56457c
be1476f2
be0621e4
be624ab2
bcf43f13
bda30727
be595012
3dda0f99
bde99e22
bcb10a65
bdd13d60
be448031
bdb22a0e
bdaf9f0e
3d9f0de8
bd80cbba
3cebeb77
3def7ee5
3d56bb49
bdf08fa7
be168401
be67795e
bd5601ed
3d0e9b7b
be374ad7
be46eec2
be5b13fd
be3e0bc0
bc38af2b
3c4c1d53
be274752
3d046832
be4c1aaa
bd86567e
3e3388fa
be88250c
be799ec9
be0e4055
be460e31
be1a685e
be121bfd
be6de61f
3d0b8826
bc34f43b
be40fdfa
3a2cef00
3dcca11b
be54b080
bdf1b66c
be859137
be05feb2
3ca20fc2
be563428
3cf68a59
bd361b17
3df42c9d
bb98a74c
bd83432c
3ddd39c2
bdffe74e
3e22c899
be235fce
bc80646a
be305a3e
3d9ea126
bd90d6ff
bc9330f1
bd8d5897
3df19003
3d52442a
3ca13565
3da2b2d2
bd1851f6
bd0449dc
39e062ee
bd52ba68
be12eba7
3e3a7269
3c99cfc1
bd898827
be0166fa
bdbbf471
bdd4cf31
bd526754
3debe8f6
bdb9cb00
3de893d5
bb0f7dd5
be23bdc4
3d5407c4
be12d833
bccc8ffa
3d364b4a
bd40fe0d
3e19eb06
3dc7299a
bd8e7a58
bcc95de5
3dd0f124
bc67ad06
bdfc2447
3cfdd282
bd599f01
3d820659
bc0607f3
3dd87777
bda5e41b
3bb66b56
3db2c734
3de41f37
3cf70007
bdf012a4
bce7ddbd
3e3cb372
bdfcac6f
bd6197ef
3d8e212d
bdad23ba
3dda9731
3e58a8c3
bc57d8b8
3d9bdeae
3d5f48fe
3e0f07e8
3d661815
3d8f076f
3dcc2bf9
3d255e93
3e659652
bd7fc5e7
bce09d55
bcb49df0
bdaa7c47
3cbcc37c
bb19a558
bd651daf
3da1325f
bd9c6fd9
be1b3e35
bd6a0171
bdb32b9c
bdb56e61
bc16f00a
3d0366f7
bceb9645
3d3a8962
bd608f81
be00d3de
be12d30c
3cdd573f
bcaf14a1
3b87f197
3deaad6e
bdda9f12
3d4cc4c6
bd9ef2dc
3d1e5ec1
bd30af64
be0a8c1b
bdad6c84
3d4263c2
3d791611
3e11b713
bc83bce5
3c5122b8
bd341743
bd6ca7e8
bc220c25
3cef07c7
bd822ad8
bd7d9ca7
bdbfd05c
3cb98c51
3d0b9889
bdc74f37
3d619d31
bd5f25e8
bdd4518e
bc865322
3d3ef0a0
3d0beb13
3d26e390
be269704
bdfbb50b
bd20402a
3b66c81e
3d3e3273
bc99997c
3caf49c1
bd3e0e69
bd9277e9
bdcada46
bdc59f50
3cd1d3e8
3dc10137
3c1526a2
3e5b4bb0
be011898
bd6927af
3bb24f09
bd932a96
bdfb86c3
bdd5b3bc
3db47e98
3d40819d
3dc1c78f
3e0003fe
bda22c42
be01e0a0
3dc75a6e
bd4fa0cd
3d0ca511
3dbd4ca1
3d42252a
bd488aed
bd67ff83
3dbb78a5
bd8f6c3c
bd968ff7
3e106114
3d307fb5
3dfa2fc8
3e13c92a
be22a39e
3d8dc535
3df83080
bb2f905a
3de93e0b
bd380173
be0ae642
3d79700f
3d21ec8d
bdd233a8
3df343ef
bda1f06b
bd8bcef2
3de970a6
3e0f5d65
bd956972
be21b1d1
3d9dc1f3
be25a4f5
3ccce57d
be2a14b6
3e048daa
3c9ad3a7
3df27de9
bde1c1fe
3e3d7bc1
3dc2498a
bd88bdbd
bdb05d90
be126414
bdad5d1e
3dfcd56e
be322f80
be44091e
bd742920
3dc93ec6
3e28a221
be079007
3d8ecdc6
3d88a4b1
bd6bbe8a
bd7e4b6c
be492c39
be1a595b
3c433863
3df19bd9
3d6707ba
bd24d2eb
bbb4faba
3cac6c1f
3d98341f
3dd16694
bb467886
bd8c9fc2
bc0c50f4
3e1cbc3c
bde722df
3d35e42e
3df177c9
3d77d988
3da37af4
bd99ebb4
3dec3cb0
3d75ce27
3d2b5efb
3dacb2fc
bcea970c
3cacca95
bd15d4fb
3c55bf2d
bddd65dc
be07b146
bddca6a6
be26ce94
bc5133d2
3e3b3728
3df06fc2
bc98adb3
bd9608bd
bdca24af
3e5cf30b
be1f78ed
3d88484c
3d8987a7
bd7a9acd
bd0ed8cf
bde13558
3d3846f8
3e037a46
3c8d9c49
bb64949d
3d277b1f
bc911fdd
3c5a2ca1
3d0a0c13
be27809f
bda58175
3e0d58c2
be270887
bd1b8509
3d9310c9
3d3c4697
3cf2d926
bbc39000
3db1d4ca
3cf7b953
bb82fb1f
bd80697d
bd00cf76
3cb5a89e
3cbd080a
3c856856
be05030c
be24889e
3db0ddf4
bd989373
bd936a38
3d12167a
3bb70438
bbd517e8
3d2c7422
bd36a047
bd5c2106
bd3d527d
bd85ed47
bd959dbb
bde01d5e
bd1169de
bbc0663c
3ddd523b
bdb4b673
3ca8702b
3d45be60
bc40b72e
bd841681
3cb13610
bc8daa04
bdd1cd4e
3dc8c65d
bc729b90
3bd13b7c
3c03b1ad
3d5498c0
bd3e23ff
bd24ea93
3cb3260a
bd1058b7
3c366dd7
bd6eb24d
ba6fff88
3db7d9a6
bceb9648
3be47fbf
3d60229c
bb729220
3d9b76eb
3df8046a
bd6df7d6
bb54b46b
bb7d0fd4
bd72d97a
bd981a55
bce89dff
bd5c0a82
3cd46a3a
39c99cbb
bcc210c9
3da2ac7d
3d14eb7f
bcb6a6e6
bd8b0f66
bce8804a
3da068fb
bd817286
bcb82c57
3d696cb4
bcfe90dc
3e014bc6
3d4e4777
bcb8112b
3bc315e4
3cc97691
3d1a9fe9
bc76b3ee
bc24571e
3dbd9759
bbcdc7eb
3cdc9ec4
3d495813
3bbef9fc
bda7055e
bcdd2085
bd3d9994
bd961990
bce490c9
bd1422a4
3c3f9938
3bdfe33f
bcc9bb2a
bd052c01
bd966252
bc9a317d
3da636ef
bb28ae1c
38f88f76
bcb6c4cc
bd65af17
bd42489f
3dec8ece
3da4a855
3d6f8b31
3da11f4e
bd023c10
bda4c4cd
bb3e07fc
bd5f9460
3c922962
3e4245a3
3dce56fd
bdb90f47
bd170d52
3c98e1e8
3ceb3877
bcf33316
bd35f962
bd54816e
bd309fec
bda25985
bd62340a
bd0242c3
bce56e89
3dad1dec
bcec1121
3d73b374
3d95a9cc
3def8fcc
3da8ac04
3cea0be8
3c6ab9e1
3b604edc
3ddb0b42
bdc8a61b
be031cec
bd7b7883
3cb1c251
bcadcaa4
bdb731bd
3c99cc82
3dc06a2c
3c0f8cb0
bdf97545
3d131852
bda3ff19
3d553a56
be08f0d0
bdf3d65a
3cab4095
bd195972
bdf23f31
3ca8b909
3d125c19
3ccf27c8
bd017eea
bc01ff0a
bdb98175
bd148c74
bcd20395
bc13392c
3ccd37c7
bd61eb3a
bd84bcb6
3d9a4b85
3c5c8bf9
3d9f3abb
3c709171
bc132eaa
3da1dc4f
be13f099
3dbd2418
bd78380f
bc20f448
3cd86358
3dda0950
3def43e7
3c392013
bd98847b
3dcbed9c
3d7ccf35
3dd7a1df
3a9dbc1a
bdb56b7a
bc66642a
bde037ce
be118073
bd469643
3db7d647
3da91e8f
3ccf3fca
3d45d78b
3d31a387
bdac132b
bce69648
3e07d3ef
be489bc3
bda7677b
bd97ca35
3e40102f
bdb7cce0
bd65919e
3c35435d
bd7c9424
bcebbb0c
bd910dbf
3d325ac1
3d03654e
bdbd4866
3cb1fd12
3cf7c19c
3e5ad6bd
bd29451f
3e8ab056
3d1b9788
3cf53eaf
3c9535e1
3d2cff95
bd5df5c0
3d08f859
3d4e509d
3d4cd463
bdd27957
bdf126fe
bc2b7784
bcde0b55
bdccc840
3d8f3511
bb96d4ce
be0fa40c
3c437ad1
be1c091f
be097eaf
bc598aa3
3c1deba7
3c9a8ac3
3c272eca
bdc088fd
bd754ecf
bda5d13f
bbba2882
3cdcf289
be014e8a
bd2b88d3
3ca3d3e4
bdc683c5
bdb979c2
bdb4274a
3c126f93
bb8d9449
bc86e187
bd46ec2c
be10143c
3e164d07
bbd70840
3d3976e4
bcc22f9e
bda44939
be3fff2c
bcc84c3b
bdd6f9ef
be0e6d93
3c36d5d3
3e1218ec
be7dc8c1
bd79c4b8
bc2c2460
be3b08eb
be5cc1df
be0c02e9
bd34ac49
be4c4e1c
bdc31534
be3e7a4a
be1e4eac
bc85d3da
3b07e6a0
3d4f8071
bd72f078
3d83c62f
3d9ec205
3cd260a6
bd93c0db
bd189c45
bdd40319
3dd663db
bdb740c7
bc83a529
3d3470fc
bc84a64a
be26bc55
3dca5b91
bc1681cc
bde0d1ef
be448695
be88d764
bd38debc
3d1f36ba
be50e56f
bc41bc9c
be117f18
3da531de
be039a78
bd396521
bdccfc14
bde9bbe9
3dd102d8
be8e6721
bd8e1629
be60869c
3cc6dc4e
be10d660
bbe24179
3d0d4b3d
bc13cfbc
bd36ed39
bd8d8bb8
3e5eea0c
be1b1dd4
be1a2233
bdfb3764
3d5d152f
3d3b0342
bc5b8d25
3d84518b
be0ae1db
3e0c78bc
bdbb068c
3ddaa964
3d8f1696
3b7a0f16
3e0a3ca5
3dfe71d5
3dea9c7d
bdb9d4a2
3de53be9
3da5a66b
3d4aa272
bda44216
3c888bc3
3da60860
bdaa67a1
bd2a0967
3c6bcc5f
3e66a06c
be0d43ec
bdb4a5b0
bd849f84
bd04bb02
bca9161c
3c6441ea
3dbf46b5
3e3de813
3d80a8b4
3ddb85f0
3e0ca5ce
3c1d685c
3cc8c6ef
bd40f645
3c79fc10
3d73286b
be33034c
3e1c756d
3bd74e82
3d0386b3
3e5fea38
bd094e56
bd8e6e97
3d9bf5c5
bd4329ce
3ec86d97
3d638c06
be1a47bd
bd832d73
3e2908f7
bdd960ed
3e061f60
bca0cd5e
bd894f20
bd4c883e
bc83d88c
3d8abbc2
bd237b93
3d4eaea5
3d337970
3d914b41
bd819b2f
bdf30587
3d44d0db
3de9a15f
bb2ab962
bcc671d1
bd2c6396
bd0bc663
bdbba0d3
3dd3c04f
bd444cba
be1b172d
3d6d2ad2
3a777292
bd9660f4
3ced074a
bcdcd594
3d292531
bdb11462
3c43c097
bda31e72
bcc9ba07
3e02836a
3d709dc1
3d4378af
3c940d88
bd20ddbb
bd52b856
3c2f7601
bde4bdca
bdbd4d50
3d2b8642
be0fdf5c
3da759ee
bd7aacee
bdcfd889
3d989d5d
bce1ff0a
be1aabbe
bdd04bf8
bd4b86b4
bc856607
be230b0a
be4d6f13
bd3ba6a9
3c07d24f
3c60dc23
bd71e491
bde8ab9c
bd0f3136
3d7b0cc3
bd19c142
3ceea4e5
bd8ee6ac

// bias  shape=(64)  count=64
bdb96e9e
bda5e603
bdd09d73
bdf5adbb
bdd2d581
bd15610d
bdb1224a
bd988f68
bdb6c8ba
bdb92f0f
be009921
bdd3cba5
bde79b9e
bd96c18b
bdc9d0f8
bd9c3d24
be04c925
bdbd510d
bdb345e5
bdb7332e
bdc1c9e2
bda6ad4e
bd9953ae
bda218de
bd86881d
bdcfb90b
bde18529
bda9f271
bd82d8d0
bdae0c19
bda3321c
bdb919fe
bcb9f9ed
bdc04f2c
bdeaad3d
bd9facaf
bd9604d2
bdae4c48
bdd8f344
bdd37000
bdbcfda1
bdae41bf
bdc56f5d
bd93f1af
bdeb423b
bdc8882e
bdfe5b11
bd943394
bdbcea9a
bd848563
bdc6a394
bdf934f6
bdbe1abb
bcf8b73e
bdbc02ea
bdd3af09
bdc5c763
bde3e579
bd841c28
bdce844e
bd9c8422
bd9ca86d
bd5bb1be
bdcdbb89

// kernel  shape=(5x64x64)  count=20480
3c7e5d9b
3d7fe838
be0110ab
bcba68e2
bc342119
3de855bc
bd8b04e4
3d3de1cb
3d2ccf21
bd6ac1f6
3ca2b43b
3da173e5
3cb3c48d
bd2414eb
bd99e3a2
bce2b48a
3dde6f13
3d33f6d6
3d832749
3ce3c2cf
3d276d80
3c0fda98
3d339d55
3df3dd31
bd10e2c8
bdbc6806
bda5f05f
bc388696
3d492f86
bd43148d
3d7dd132
bae2adff
3df01efc
3c3bf67f
3df16059
bca57786
3df85119
3ce54cae
bdf066bb
bb1decad
3e10e7d1
3df382c9
3cf42824
bd62816d
bd018c2a
bce6cfd4
bd79c482
bde9cbb3
3cd9fc16
bdcf1ee5
3dc6c9b5
bd15c154
bbe69941
bdcea3c8
bdac9214
3ccb6d28
bd71aa06
3d48be8e
3ca06670
3dee1e09
bcccd058
bd9822e7
3dfcd578
bdd60f81
bd5289f5
bcd36aa6
bd1149cd
bdc32015
3d21f4b9
3e2e2f34
bd8dff57
3d21af76
bc5669fb
3db4795d
3e13a453
3daec36d
3d59a219
3d854994
bd10b90c
bd19d796
3defc8eb
3c4bb052
39f3f00b
bd65f87f
3dfa28e1
bd831701
3de58dbd
3e1204f5
bd5136d1
bdb99786
3cef5cbe
3dd7934b
3ca56e80
bdcf016e
bd1c4ca1
3dc367ad
3e00331d
3d75711e
3d162e1f
3cf3f810
bcd09250
bdcb6d62
ba69daeb
3c2e522d
3e033c2a
3df95045
3d8d11c9
3dee4d3f
3e02e5cc
3df0e17e
3c9f14a5
bd6f056f
ba8d8164
3cd3502c
3e157636
bd972a6d
3c8519e1
3cb8c605
3d89b315
3ddd232b
3def74da
bd64ab67
bd6e9034
3d68558e
bd547e21
bdd3f279
bc21c70e
bdc5c2af
bbd7c631
3d82d548
bc813165
3de9e023
3d009e47
3d435fe8
3a96fe07
3d9e13f1
bd781c18
3df2bb95
3cfacdf4
3d879abb
bca5f9ae
bd108969
3d9d857e
bd027929
3e16eb40
3d3021e6
3dbbf142
3d9ce547
3d6672ae
3da56555
3d5936e7
bd843792
bd621b44
bd24dd2c
3c89b408
3b3264e9
3dd7743f
bc80695d
3db67f43
3ce57bab
3d35f7e3
bc975d3c
3e18f77e
3ddef572
bd16a06b
3d576513
bddef402
bd986324
3d7c716a
3cd056f7
3da5a32d
3c714f41
bbe28fc8
bd0c67fd
bdb5694e
bd09e76c
bde19b17
3b919bc1
3c708ef2
39f466a6
bd60a83e
3d4af3e1
3d224944
3de6ddab
3d7f89dc
bd8679f3
3ce850f0
3d387cae
3bd195d3
3d836eaa
3cafbe58
bceb2837
3d8e87f4
bdd7de12
3d038480
3d0639a2
3d8e1f9e
3cdbf9d1
3d80afbc
3d946671
bdd70d1a
bd3e1b8e
3e043034
3d9230c1
bd94400c
3d872458
3d2075c5
3d77bed1
3e0d2990
bd9aa599
3d8621b6
3d34ee33
3dd6a4be
bdade628
3df58380
bbb5c73e
bd9b84c5
bce01b8c
ba26b356
bc037f14
3d7106b9
bd568ded
bd4818fc
bd7baa58
3c49299c
3bf1c1a5
3d4e3fdf
bbecf423
bd25800a
3d7ccbe9
bd3f050e
bc1bf0b9
3de6b467
3e083161
bd16e497
bcff3f94
3d2901da
bd8769ac
3d80e622
bda45d01
3cb9d281
bda9332c
3cb947c4
bd8ff5e1
bc9cf9cc
bdad2150
3d8c7519
3de6fdd1
3b3caa9a
3d38cda0
ba87679c
3dd3aa18
3d1de693
bcad0fbc
3db0e994
bccd0ab9
3d3bf0ff
3bc01b22
3b900baa
3da9b08d
3da2ce2d
3d87d2b9
3c8ff83f
3d0a5d66
bd12ffd5
3d96bd1e
3e3840f2
3c9ee07e
bc461da1
3db85d57
bd9eec14
3e2bbbf9
3d797f30
bdc8887a
3d710c04
bdfa584a
bc96208e
bd184bf0
3dad0fcf
3d1eedf7
bc829185
bcd9143b
ba64ed7c
3e267b6e
3dcef4b7
3d7afb37
bd982fac
3dd433a5
3dc04d54
bcd560b9
3de2ce0d
3d9b64ec
3d236183
3ccead97
3bf0f71d
3c824d93
3d923dda
3c9d3e47
3d5b30f8
3e144644
3d9fba05
3c04e1c9
3c45cc60
bd2278f2
bb7e6da7
be0242f2
3de9ca2f
bdc4150a
bda0b0f0
bd34e4fc
bcf989c6
3dc77951
3cd6ecd2
3c806e8e
bd957034
3dc4331a
bdd829f8
bd86f052
3da2e8f9
bca21371
3dabc6a6
3dad6589
bd5b6c32
3d169a18
3dd558f7
3d2e0f0e
3da0f279
3da7dca6
bd0ea8e4
bd7cf11e
bde2b1bf
bcec5207
3dcb39ed
3e027983
bd8888f0
bb8c7942
3d315f92
bd6b83c2
3ce91f97
3c150f37
3cf15316
3d3be5c4
bd39509c
bc2840f0
3d102db8
bdacd87a
bd86bd26
382a3570
3d5e0aff
3c3492bb
3df50453
3d088e34
3dfd3310
bd81d8f6
bd4cf759
3dfbe822
bdd18020
bd20ea66
bd1ab24a
3cf7798b
3ca9e77f
3d70b3b8
3d69055a
3c991839
bd45c578
3dd1812d
bc8a56ff
bdc29735
3d8b2a88
3e0c2c4a
3d97d91c
bd1fdf1e
3ddc861b
bd9cbec5
3d580699
3c19c2cf
3e168af1
bdcdecef
3e499b31
3cbfe8bf
bd0906ef
3d99f14c
bdaa99af
bcc5eae6
3d54760d
bc2dd15b
bd85caf7
bd580842
bc87ce1a
3da89719
3d991dd0
3ddaf847
bc17d729
3caa398a
3d30eb53
3e16bbb6
bc8c467f
bd9312be
bdc63213
3e8387c4
3d99083e
bba442d5
3cd6599f
bdf0df67
bcd50b77
bd4eeb7e
3c339756
3e11c247
bc1786c9
bc48e364
bdae14b6
3d892332
3ddb1fa1
3c9cecc8
bd37b5cc
3d93008c
3db10deb
3bcb3231
3e0103a0
3e113bda
3db07ef0
3d59d5eb
3d233836
bd1232b2
3d32f544
3e03ed91
3c9462cb
3d5a3af7
3c977f09
3b2b1a21
3d998593
bc0e6698
3c97c84c
bd06bf85
3d1d000c
bcc270b0
bdcae286
bbd965b3
bc14e8d5
3d7dcdd8
3cd52b1d
3da265b1
bd7156bc
3e074125
be0370b1
bd02ea53
3d3c8c7b
3d18f9de
bde5647b
3c98bbab
be0536b1
3db1cb95
bbcb30eb
bc8efbfb
bbdaad05
3d09d932
bda7e93a
bcc931e5
3cbbd871
3cedeaab
3d51e639
bd20769a
bdd75cdd
3e6415ef
3daa5c0a
3d87d266
3d9bc3a6
3d885e63
3d2346fa
be341873
3dff6cbf
3d80718f
3e26f8d2
3d513d34
bd5206fb
3e01273f
bbe38103
be055052
3c36cb67
3d771287
3da7ca64
bd482bb1
3d815c85
3e1022b5
3e17ab0d
bd3a2b0b
be14d1c8
3d56b190
3da83625
3d81fe1a
3e2b338f
bc02fe88
3db69915
3db5c06b
3d5c88d9
3e20707b
be0198aa
3c9fe152
3dc2df52
3d29f297
bd9f1df5
3e009794
3dcc326c
3d599ed5
3d92bd27
bce1377a
3d7f7ec8
3c312a77
bdbc4f54
3c603ac4
3dc1c308
3d4b9c8d
bdb1f2ec
bddc1d79
bc33357e
bdad97e8
3dc48b7b
3d618045
3d046e79
3de0a1fb
bdb59751
bcfd5d19
3cae87be
3e08993d
bc232340
bcf14545
bc2f488a
bd9543dc
bb82373e
ba5209a2
3c6f2665
3cd5ac90
bbca15ae
be19e50f
3d84c6a9
3cf5a352
bd802424
bab60a66
bdb13050
3db8d326
3d6a102d
be0d837a
3c646a76
bbeac54c
3df7586b
bd34693c
3da10f20
3bc495ba
3e096d25
3d8e293a
bded4105
3dd50c32
3df8ed17
3de92347
3c28b75b
3c68a217
bbac94dd
3d86e94a
ba76567d
bb8eaa0f
bd28654e
bddb8067
bd8991cf
3db89083
3c793cd5
baad7604
bd726078
3d02d5f8
3d2a5323
bd063715
bd96a2a8
3d1baa69
bd80f01a
3d9803da
3d439b7d
3c6852e0
bcd7d851
bd88dc69
bdd38e05
bd0d01d3
3d046b14
3dcf0992
bd1240b4
3d78c9d7
bd31019b
bd9ecd1b
3d2ef3df
3bf2b7fa
3d92bfd8
bd299c1f
bdb34d25
bcff65a0
3d864b9c
3d715e58
3c9a4065
bd80a226
3cc29d61
bdd6de80
3cd17d49
3e141b0d
3cd7a858
bda50bea
3c9390fa
bbe2d940
3dca3048
3d511faf
3c5cb546
bd0318fc
bc1dd2cb
bd698643
3da45e50
bd5044f7
bbfa8831
3d381e9e
bd8c9cb0
bd2bf274
3cdc3c33
3d2173f1
3cd10403
3dca645a
3dfc3d03
bdc06ad8
bdb374ad
bdcfb136
be29501f
bca9e09e
3d8cc23d
3d0b0eef
bd877c11
bd409580
bcd875cb
3d298aa3
be0b75e9
3dd5268b
be0fb263
3c984c23
3d1628b8
bdc59450
3e0b33cd
bcef83d4
bcf4ec1e
bc699795
bd8d169b
bd94e89b
bccf4c02
bb9f5792
3d610e64
3dcf78b9
3d91c6cf
3c27f390
3d9e8ca8
bd447e06
3c12b3cc
bd1d1968
3d4c084b
3e0ed036
bd464912
bce7c933
bb6d20a6
3d60684e
3d9ca305
bdbf5999
bd9c5c67
3d6ccbbe
bcfa504b
3cf78276
bdba43cb
bd99b087
3d2c114d
3d0053a3
bd78bc06
3d1c9745
bac0ef60
bd3e9d59
3db1b3e8
bdb01404
bdf599a2
bd8041ac
3b610144
bdc1f2a5
3c97a078
3df18dd1
bd4324e9
bd29d01a
bc29325b
bcf69c14
3da4a484
bca487a6
bd87af3b
3d852366
3dcbb157
bd2f8ce5
bcfb5a9a
bd1b5e4e
3d09350e
3d99a26a
3d96373f
bda96804
bcf2d789
3c81b65c
bd9137fd
bd7d3e20
3deb3339
be33aaa8
bdf9d32b
bdb5256d
3cdbbd7f
bc8af6c2
bd2b35f7
bce99e2a
3d88decf
3e0bd770
3c9a842e
bc34dcec
bc90e866
bd031c88
bd20823a
bb83c439
3dc85196
3e009801
bd1a63af
bd9974c1
bd01e442
bca6fcca
3b5d6ba8
bdca39d0
bd4ad400
bd8b54bb
bc889887
3d946b9e
bd509252
3da9aedc
3df41cb7
bd3ad33c
bd3baf06
3d911681
3d2564c1
3b81620c
3d4deb2b
bd1f763f
3dbb8703
3d2469e0
bdcef2e9
3d0a3b5e
3e1b533e
3dbb620c
3d5cbc04
3d698a7c
3d7b8c1b
bce3be1d
bc16028a
bd51891f
bdcd3081
bca75b62
3dc8f3f4
bd8b89b3
bd49acec
bc1cbc49
bd45682a
3e0ea2c5
3ddfaa33
bc3973cc
bd294437
3d9626a4
3d8ca5f2
bdadc2dd
3de1608a
bcaa0bbb
bdb932a4
bd8d03bf
bdbc84e4
3d9b6daf
3d10a2f0
bcbec8ef
bcbb06bc
bcf7330f
bdb5da9c
3d903c11
3da359f3
3ca73a6a
bc15cdd1
3dcf1d75
3d81a31d
3d1353e0
3dd53083
3cd809c4
3d9a71d9
3d144e85
bcfd8c91
bddeef5a
3c0082a9
3cfd5961
bb2d340e
bd06732b
bdc0540a
3da3f542
3d1e3bd4
bd44b68e
3c7eb4c5
3e027325
3d8d52e4
bb02b993
3dfa7655
3c7e33d5
3e4199e5
bd5e9fab
bdfbd138
bd1f6265
bb65128b
3d965464
3d109873
bd0e0102
bd3af47c
3dd5f9df
bd7d77e8
bd97dad4
3cc5eb7d
bc79d7ed
bb1ab3a3
3cf814ad
bda5feae
be0da036
bd8d157b
bc6c0f4a
3cc28223
3d4afa82
3d985968
3d6e59bd
bc804a7a
3d244174
3d9390eb
3cb6b0f8
3d7c0c3a
3dac7cb8
bcb7252d
3da2727c
bd22ca52
3c4d2559
3d43e46a
3c95b1cd
bd94e9d2
bd173b52
3d7ea650
bc712155
bda8a948
3c8f6153
3d31a7cd
bd64a764
3e1a6c1d
bdb1d9f2
3db7509d
bc9c2883
3e2259fc
bd18a837
3dab2829
3da42a0e
3d764593
bb4b9e36
bc6d01d2
bd006ad0
3d158157
3caf8633
bb273420
3dc2e0ab
3e0acd3a
bd24e24d
3d0c08bb
bc5241c4
3d08f7ae
3d0cb588
be0729e3
bdafdf6c
3de71e85
3e15f2de
3dc4664d
3e14882e
3c7f0b76
3dd4ce22
3d888743
bcfe7c7c
be62410f
bd3e90b4
3c4cbec2
3daab5d3
bd706725
bd821422
bdd11f41
3e0ec2c0
be192ace
3d193e67
3d718fab
3da2868b
bc2b35ca
bde7b9f8
3dfcad47
bdf1d3d1
bd8bf475
bd8c16ca
3d0d93e3
3d1111de
3d8da3d4
bc5b9f6c
3c4051ff
bbc72593
bd90e0bc
3d1603d3
3d11331d
3d9461f0
bb0f9610
bdba397f
3c7b65d0
3e2e27ea
bd16120c
bd52f58a
3d87fac2
3d18b11d
bc0d8a2b
bdb9748c
3cb64022
bd18376e
3dc58faa
bdaa9f83
bd3d7ae4
b8dc4d43
3d1e1450
be042336
bd47b9a1
3dd780a4
3d6ed95c
bdac01d9
3d739039
3dc1a04b
3df0f3f0
bd8988b8
3dac13a3
bc57e5a9
bd2bcb1e
3d7d43b2
3dc263c1
3d987258
bd1df0d7
bbe607fd
3d03c5eb
3ca2b09f
bc834a4e
bd639549
bd8c4880
bc90b814
3b8c0920
bccf411d
3d4c1cfa
3d745896
bdd381cc
3d8374f0
3da00cba
3daee25b
bde51b01
3d9c09ea
bd9fbcb4
3cc4bc25
bd428c2f
bdc58087
bdf258d1
3d3808ca
3ca433cb
3d07da77
bdc2873e
3d39f6f9
bd9aea0c
bd8671be
3c81f332
bd79a4c5
bd98b94e
3db0573d
3dd0c1ba
3e8c6c08
3da4e4d5
bc1d14ff
bb12d37e
bc8b244f
bc0759d5
be1d8e36
3bbdb481
bd4b3745
3c12a97e
3d7356e3
3d80731f
bdb1d5af
3d08d7eb
bd853129
bd577d28
bd695254
3cd220e1
bdbcaed0
3cf7c85a
3d759ef0
3d4c8c82
bc9aa960
3d7af72c
bd7fe414
3da388c6
bb15ab08
bda29171
3d76bd8d
baaa02a7
3b9a4f95
3d055e0c
3d4a34d7
be198750
bd4a5bbe
bd2525f2
bd4d012d
3b06ee09
3df32b34
3d079e48
bd500023
bdb27f96
3d2598ce
bdcb506f
3d9ec757
3b2b554f
bab42240
3da997a9
3d0f9daf
bd2b7527
bdcfaef4
3dfc9983
3bca1042
bcaa65b0
bc8d7e25
3c9d08dd
bd10fad1
3d870fe2
3c00dcea
bcdb9881
3e0ba018
be0050a7
3d708398
bcdf06f0
3cfa596b
bbadeb1a
bd24294e
3b851b70
bdc632c7
bd27bcbf
bdee175e
3c62f11b
bdd33a60
be05fd1e
3da2270b
bdb5a5f5
bd4e6393
3db30eda
3c420894
3c9ffb27
bd6b332e
3e0b8c88
bdc56dbc
3d818250
3da829d1
bdae9ca6
3d32bfe0
39d9fc05
bd9eea17
3dc70f04
3d907341
bca088e7
bbcbe650
3d276738
3d94d15f
3d90789f
be0565bc
3d52953a
3d60a469
bcf579a3
bdb42df0
bcd8706d
3dacfcea
bc8c45b0
3d2c4ad8
bdb45be2
3cf99149
be33b8f8
bd7e66db
3ccafeef
3b93dba9
3b29d1c2
bd727d5c
bdb6ae80
bca71d71
bdbd28b0
3deecbff
3d23dd6e
3dde409d
bdd25ec5
bbccb3ae
3e2c0a5d
3d783944
3d4087fc
3d8a0da7
3d86f190
bd3d82d3
bd4f2202
3dda5529
3e18a1f5
3bd98235
bcb10a71
bcccb9c8
3db98298
bb028fea
3e3632b8
3d7406ea
be172847
bd0148a3
bd8585fa
bb3af7b1
3d5869a5
3d47b9a9
3caa6f1d
3a2bd3a6
3d342e3f
3dbdcb08
3e21fd40
3dfd89fd
3d7081f8
bd23a698
3c191cf9
3d1a9bc2
3dd86bc4
3dec2f93
3dea4636
3df1c8ff
3cacd0f4
3db635b9
3dc8e892
bdb5ab8d
bced668e
3ba4019b
3d2ffb62
bdb6b8dd
3d9c902c
3de6b41d
3de2e5e7
3e0379d0
3b716aa1
bd42dc99
3c70c75a
bc9c1ff3
3d0e1c1e
3d2b1fef
3d98a9c1
be789110
3ceacf98
bdf1fbc5
bd0699c3
3d1eb104
3d2220b3
3dba9409
3dc906a3
3d7c0027
bcb1cf47
bd3532b0
3dc4f9dd
bcab3fe2
bc2b36c2
3da395b4
be12978d
3a0ae85e
3e348de0
bdc30140
3d4130fd
bca6e1a5
3e1c8edb
3d278cd6
bc034ee4
3e006fc0
bbc45213
3dd33264
3d9aff55
3e2dcbec
3cf3ace3
bd5ca34b
bd577aa1
3d8a57a5
3e0d366b
bd100d7a
3d55250c
3dd4973e
3e3482c2
bb431bee
bda09c58
bdbf3b02
3db334f3
3e13e62f
3e1b54c4
bc8e7424
3d38df77
3d52bd1e
bcc22735
3d2dbfed
be05e29a
bdcb198c
3e38ab4d
3cfde9c2
3d3c4a68
bdd748fd
bce45990
3cf6f25a
3e123131
3d67c878
3b93bad4
3d22d401
bdfcd941
3d7deffb
3df0b882
3d9f6d78
bdba28cc
3da78db2
b8fd6cd9
bda9df24
3e1e6b35
3dfe36fc
bdf29d23
3e01f0ec
bc18f39c
bdac06d9
3cdf410c
3e22136d
bd1e59a4
bd7fe99d
bd0ce2ba
bd92d3c4
3d38474b
bda68743
bc051667
3cfa21a2
bba6eaf7
3cad8d10
3e163325
3e0e74e8
bdb70ce7
bda8609e
3acfa9ec
3e204c93
3cfb6acc
be081cc1
3d867839
3d51c234
3dd6fdb4
3e06f7c8
3d800909
bd33bc53
3e04311a
3d519caf
3cdd334f
bdb6ac09
3ce4755b
3deec15f
3e16f38f
3d783cf4
3cb0a758
3e18aea6
bce935d0
bd24dfef
b9f9fbb1
bd245e74
3da8f979
bd17e828
3d68669d
bdaf7170
3d0572ef
3e2b3308
3d897927
bd48027d
3d5726cb
3bf1f9df
bcc879e5
3d9c4882
3d900122
bcc9db10
bde07a95
3c2425c8
bc97699e
bd045a4d
3d8281d7
3e4656f2
bd3db4f5
3d94e2d0
3d4c9f18
3d307010
3dc051ad
3e42be85
bd8f3d1d
bd8f4614
bd2ffca8
be49e6cf
3e423f82
3c51f883
3d911d3f
3cc313c8
3e2ff6ca
bc2d94c7
3cde7f0f
3d82f933
bc629ff7
bd5ef8ea
bdaaabb1
3cf5ebf7
3de81b8e
be0f10c6
3d897c8e
3d81ecb5
3e3f5d37
bd2dfa59
3d6086b9
3db6508d
bc8eeafa
3d9f8b39
bdb44689
bc642183
3e37891a
3e26a3a9
3d97558c
bc84fc54
3c296a31
bd64a2ba
bdb0ef0b
bd1db090
be02359b
3da057b4
3dbdc375
3d01fbea
bc5221b9
3cb07342
3d8ac874
3e3013d2
3d8b6a51
3d7a2f48
bd83083d
3b3c71ea
bdb89cfe
bd93b2d8
3d51ab06
be5eda62
3b12fb79
bda4ed75
bcfd396e
bd9bc76c
3d1e0e4b
3ded5ef0
3bc13812
3d0521e3
3db9adcb
bcdf046b
3d8066fd
3e1ce8b5
3d08ab8d
bd2ce48b
bd3ddba2
bc944a94
3d711381
bd14b38a
3d07211d
3b91a57c
bca6f5be
bd4c2bd5
3df145ff
3dc6b06c
be0fa2a3
3d48bf06
3c6d85e6
3dc6414c
3b4253ad
bdd0a924
bd49f81c
3dfad9b6
3bca9f90
bbd4df01
bd303f6c
3c303d2d
3d4c3a88
bd011958
bdc9fdbc
bd37a607
3dc0b656
bd16a30a
3d29ee36
3dbd0ac0
3d3252de
3e2864af
bd7889d4
bda1b635
bc3ca7b1
bd326346
3d326f59
bd540f09
bc91ba5e
3e01d936
bd8f9d78
3dbe37a3
bde22760
bd9798c2
bdb0b95a
3dbead1b
3d8b96d6
bd95df36
bbb5621e
3d7ddb9c
3d5c4b54
be05a4fa
bd34598d
bd1116cf
bdf5ecac
3bea8697
be5aacae
3d08e7d5
bd4dfe8f
bdb66549
bd255a4b
bc50b27f
3c3959a7
3a412c97
3db0dfff
3e06b9d8
bd1e57ee
3dade6ae
3b89fd22
3d9049a1
3dcfde5a
3c2a3c71
3d3569e0
3d64a4bc
be0c4090
3cfbd1e6
3a0d62cd
3d9bccc9
3ce68328
3dadd5c4
bc9d118c
3d4f01bd
3e19d659
3dfc8b61
3d4b36a8
bafc0e37
3e00bc99
bd1b2c5d
bc75f472
3dacaa92
3d7ca0e8
3ddc14b9
bc5b44e3
3cff20a4
3ddc659d
3d3933e7
bda72d14
3cd7aff1
bd9165d9
bd88f907
3da5afe3
bdccfe80
bc8eb655
bda09c8f
3d10bc4b
3d068365
bce9448f
bd8fda12
bd7c5cd1
3dd5a1cc
be0ff8a9
3d17b82b
bc03667c
be586a2d
bdce4e4a
bb81d718
bcb34a3d
3d3cd0d1
3d1c9448
3db67960
b8becc22
3c3e4215
bc926249
3b835aab
3d0a69b7
3e03a3d1
3d4292eb
3ddbeaef
be0da03f
bcf8ddc7
3e042e00
bdc7d3ba
3d952a51
3d4b5b20
3c858682
3c9d90ae
bc579bcb
3df4b663
bd958c1b
bccd12b0
bc1448e2
3e2357ef
3daa2cf2
be3393da
3dc75291
3d1e9f49
3e119b25
3e0ffb8c
3cb33858
3ddad49d
3cf7fd53
3d452485
bdbc6df8
3d64f563
3e35ddc6
3cda60ee
bba6b84a
3e0a8e34
3d8c4fb5
bda85696
bd1e4ef9
3d45063a
be1b97d3
be003102
3e0b1ce8
bd78cb72
3d938e0d
bd6debb3
3d87e435
3d16cbc1
3df88cbd
bd7ab7e0
3c32b89e
3dbaed7b
3ccae8dc
bc717637
3dfd4baf
bdbc014e
bbfa0352
3d0db08a
3d6c90dc
3d26c71c
3dfdfe7c
3d0cf8ba
bdb595fb
3c6cb725
3c73bd2b
bd2f2992
3e10e0ed
3d9006d8
3dc73e00
3d94dc47
bd838ec2
3da75c64
3cc7dcd5
bd4e9e2e
3c8d8c06
bda847f9
3d8f2e3e
bccd9800
3d8207e4
3d3e328e
bd1f68d1
3d5e869e
bc3975d5
3d0cb065
3b8d3953
bcb07268
3dbfebcc
3daba7bb
3de17e7d
bc0d0b7f
3da477b0
3d2a8866
3c1b1a7b
3c0e7c53
bd5805fc
bd60cdd9
3dee8cbe
3e0359b7
3ccf5709
3e14604f
3da93918
bb82160b
3c3416ea
3ccb39fd
bde262b3
3da4a84c
3e1d8e6a
3d98b449
bcf896a3
bda06a24
bd4d209c
3e13dbb0
bde8b82a
3d839ecd
3db4b729
bc1dd884
3bb978c5
bc9e69fa
3d9460f9
3cb90383
3d972444
bd4d9830
bd6c36a9
3d2d9de5
3d94f0d4
3d970e9d
3de7141a
3c22096e
bb3614d0
3d08a2c8
3bd67677
3d4b96de
3dde086d
3d312ab0
bbeea89f
3de7ddb9
bc278616
3dadb974
bd04129b
3bcab137
3dbb5321
be552c08
3d9bb0a4
3c38813d
3dc06eaf
bd9432bb
3c3d7c73
bd739ec0
3c8a484b
bce16a56
bb977426
bc295cff
3dba4186
3d16ae10
3b46688b
bd26be53
bd83ca40
bd35b5e1
3d12f20e
bda44cdf
3e11a1d3
3c906016
3d185456
3d82cf62
bc95c004
bdc619af
3d4ed261
bc96dc68
bde1bb18
3c53dcf0
bd4bea00
bdc3e7ac
bd52fb25
bd7ce4c4
3db53986
3d540478
bc883e0c
3bc931b0
3d9b43a3
3d81a9c7
bdeb42dd
3d0c108a
3cc6c083
be007f34
bcc85e14
bcf761e1
be08f3f0
3d16522e
bd8c7a0d
3cec50d5
bcace223
bd2e234b
bd532446
bdbb994d
3b0d692a
bd97caba
bdf85cbb
bd3350b3
3dce1b03
3e0fe2e9
3becab45
bcca9ab6
3d88ca6f
be00c1e7
3d1c2d71
bd471179
3d5ef196
3db4d6c3
be0378f0
3c391254
bd801836
3c18f609
bc63ec25
3d48917a
bdbb2d91
bd0c1752
3de65887
3cddd2dd
3db35de5
3d875d00
3d67ffdf
bc9075ac
3cd8afd2
bd0abd03
3d9deb3c
bd4df6e7
bd0e422c
3c580448
bc254776
bc7412ef
3d75a9a9
bda944df
bdb7d18c
bde7a507
3d702613
3d7f8caa
bd745e00
3dde4bf0
3d451678
3d2b7aa0
be16d7ab
3d8630d3
bdb6a205
3df27d3a
3c8b1cea
bdf0166b
3e065a3f
bd8497ab
bd036011
bd53d069
bd46f267
3daa7d4a
3dc9af00
3d76522b
3c1cac97
3daa3aa4
3cc8d321
bdca6bda
3d8d5b0e
3dabc706
3dcc3738
3d482f4a
3e00c385
3dbe1929
3d62a25a
3ae8c355
3d9025b7
b9b9363b
3d3c0ce7
be006cb7
3d942bf1
3d82d464
bde8dbf1
3da53241
3c2582ef
3dcd2ff5
bda83c19
bdf52fbb
bc4dbab5
3d5bac89
3d9da36f
bc49eba8
bdb124e0
3dc61051
bd01e7c6
3d983243
3d69f542
bced1930
3c67a8f0
bcc0b791
3df3a635
bd677dfd
3c6086fb
bdd0762f
3c576dc7
bcc8904c
bdbba225
bdfa201d
bc667d7f
bd75b4fa
3d348c21
bd16712c
3d27e20b
bd80addc
3d189a81
3b0f3682
bd959c49
3d88b1c9
bdef5345
bda12b54
3da9d69d
bdca0c9b
bd2ce436
bccbdb4e
3c968f99
3cb3da57
3e127f9f
3df7221d
3d309e5b
3e306cbd
3c50d24b
3dc35fc0
3d4811f2
3e2a727c
3c0ff1bc
bce41826
bda92f9a
bb1ed6ad
3b3baa8b
3d6d627a
3db20cd7
3d839d9a
3d33cea7
3d147dc4
3cf6da27
3dc9b054
bd9f73ce
3d8579a5
3da7eb4d
3dbf3779
3c1ff07a
bbb20d2f
3c5a54e2
3d008d7e
3e329962
3e0601b8
3caece72
3cf7912f
bc9fb324
3d2b2dd3
bc1dd9d1
bdfe9419
3e0e471c
3deb76dd
3e487b7e
3dc8c25a
3c80dfdc
bb8f5dae
bdbe3511
bc808235
b93fa10d
bcc662b4
3e348d99
bdb08671
3d9b87ed
bca18419
bd5198cf
3e010ac9
3d850c54
bcfd3676
bd01c2e8
3ca3409e
bdf8a7c6
bb280126
3ddf45dd
be4ace4f
bd1ea582
3d39407c
3d9183a5
3dac9026
3e1860e8
bcbfe42e
3ca854f1
3d4307db
bc4935c4
3db1e412
bb17b592
3d72ae1e
3d2b59b0
3dceaae6
3d6b7eec
3d4e8a30
3df7cf59
bd903a78
3dbda7cb
bdb4701b
3e35d46b
3c2df66d
3e28a022
3dd0246d
3ad27191
bcdaad45
3d7e3f53
3cb0df39
bd537946
3c838176
bcee1f26
bbc625c5
3df0a1d9
3d7d8b25
3d0d3f06
3e09c66a
bd428800
3dcb1b31
bd93e8a8
3cf31e69
bc923d49
3db7eb7d
3da0a190
bd1d9b0f
bd7fe9ac
3dfc7928
3e07a6d5
3c003f30
bcb6f0d8
bce2e052
3db37002
3d6ccf5b
3b89a16c
3e034f7f
3d431bfc
3db0c427
bd2ac57a
bdc2c64d
3d2cda27
3d209a8e
bd17499b
3dd9b1af
3e184624
3d8b6af7
3cd1a69b
bd910293
bd99e612
3d82acdb
bd949942
3d584286
bd9c2ee4
bda23842
bd97df08
bd9ace3d
3d3bf8ac
3cb4385c
3c7128dd
3d43cad2
bbaf4966
3c0a7421
bcd07901
bdcb6dbb
bd7544f8
bd72aafe
bb132897
3d8f2e0d
3d7d0e7f
bc50d6e8
bda88275
bda6598b
3d238d6b
bd2ff51e
bc2617ec
bcdefcbe
bd947686
bd0e781c
bd9327f0
3cff480a
bd662df0
3d07692f
3e3733bf
3c48d41e
bd3e4af2
bcb88867
bc8860ab
3d27181a
3d78c2cd
3dd35605
3d0c1c8d
be0bebe6
bd7fd7d0
bd24f2ea
be1ab7fb
be78d9cc
bc0b995c
bdc6a160
3d4047dd
3c0de294
3c273777
bd0e9dd1
3d3f3e04
bd7be51f
bd1b29e9
bb89cb7a
be27c739
bd88542b
bd20c4cb
be6c81e9
bd397e33
bcfe866a
3cfb7b3b
3d78c005
3df06952
bd836ffe
3d7b6e73
bd1bd197
3d96eb31
3cc0a270
bd724efa
bb67f566
3da8517b
3da30dfe
3d79940e
3e06ceaa
bbba45e4
3d30c4b7
bce8a297
bd955bf9
3dd787b6
bdd7d71a
3c8aa3da
3d71823c
3dd1fae7
3d8be536
3d33c123
3da4bf14
3c3f1de1
bd4cfcd2
3bcad473
3d080ee6
3b7e12c9
bd975962
3c694e1c
bc9d5b01
bc5cd6ea
3d3f2e83
3d6825ba
3cc65490
bb232741
3df86ba4
3db100c5
3d5005bc
3d8ebc85
3e15a27e
bd8d6c09
3d70bd53
bcb695d0
bd21264f
3d2311cf
3d9bc76c
ba812f61
3d6364d9
3cc424f7
3dd1e1b3
be1123a5
3ca01662
3d840ce6
bd04dc78
3c6a226d
bcc51b4d
bd650245
3d80c595
3c936e12
ba5f84fb
bc72d37c
3d12a279
3e5bc983
bdb6b99b
3e831015
3e16a96a
3ccd586b
3dad4876
bc3edc66
3dd967c1
3b61b5da
3cdf5247
bd026ec3
3ddbefbd
3deb0728
bd58288a
3cf96dc9
3d442d3d
3d551363
bd1432ed
bc2717b8
3d7d083d
3e15cc62
3cd99a80
bcebd36e
3dae6da1
bc86c27e
bd86fc49
bc851fd2
3db0ab63
3d0708ed
3d952b02
bd79d609
3ddba779
bd112661
3dc24406
bc001e3d
3e035eab
3e1e1f7b
3d93a269
3c8cc97a
bb3622e6
be1e1fbf
3e00a3d3
3e0b0463
3d8e3308
3e6118bc
3db1c087
3e0dc7aa
bd8a73dd
3dbaa260
bd7e6956
3d550896
bdfbb9d5
3b461ba6
bddc79fe
3e0afef5
bd901223
3e1f0b14
bacc875d
3d74cb24
3e3d9b19
bd133bb4
bd9b9b71
3d5826fe
bda720c7
bbdb8527
bbcc51f4
bd750e24
3dfff726
bdd1c2ab
bc741f96
3e007404
bd0ba53a
bd5fa772
bd8e7297
3d4df2e2
3ba95ce5
3d088371
bd378b5d
3ceca295
bd888972
3dc16f6e
bb06ad5e
3c9a92af
bc3a8d91
3c018d6f
3d893a4e
bdcaa00d
3d4d9fad
3d680ff7
bd369609
bd4057bd
bd1590b6
3dc8136d
3d006a18
3e182f5a
3da2c93b
3e1620c0
baed01f3
bbb2fc26
3c904a58
3d8fe43b
3d84c0d9
bad18508
3cac6408
3d7bd4e9
3d5d3cd9
bd8caecd
3d95da18
3d6094ef
bdec8d2f
3e0766a6
bbf4fdae
bd868d7b
bdda0088
3d857f71
3e0a3d1d
bc8b6799
3df45fcf
bd11baa6
3c7c12a1
bd856594
bdb7e1b8
3c031761
be2193f5
3bd7bb19
bd9c914a
bc9155e2
bd46b5ef
3c3a2917
3dcc3ddb
bd15ac49
3ce4d473
3d9516b2
bdde9a06
3cbaaf6e
3d7572ea
bd8f376c
3d4fe73b
bcf4a646
3db9da90
3ca7542b
bde9936c
3df60f6d
3c5604ed
3dfe2753
bde73585
3d0afe88
bbe91292
3e099fb9
bd4c46b2
3d79d770
3c506dc8
bb8405df
bc2a4ec5
bbfe499f
3d204a63
bc28b4d9
3dc2a4ef
3e04551b
3cd07e91
3dd42ef4
bdac523f
bd8327d8
3c4d9039
3c49d5d4
3b841377
3df5c5d2
3dc33842
3e0e564d
bdb1a518
bd7680a1
ba9b1793
3cf635de
bdbf27bb
3d080f97
bcfa6cc2
bc866efe
be013add
bda93d91
b9887a9c
be108d0c
bdc046f9
3caa6196
3df512fd
bd89e431
3cb0e677
3d69fa94
bd10dd3d
3d67be11
3d07ec51
bd483dc5
3d37c65e
3e07bfcc
3bd3503c
bdf9093f
3a8102ec
bdc3256c
bdbed0f2
3dc2f500
bc811582
3d135082
3d3d8991
bd85502b
bd2413f5
3d8b39b6
be0eec8c
3ce9ae48
be0453d8
3dcd6bd9
3e08c727
3e0b6f1e
3d53c4c9
bdb6afb8
3d508d4d
3cc0818b
3d8b1c73
3d34834c
bddeb6ad
3d822648
3cb65679
3e0f6f6a
bce9897e
3dad5e4b
3d8d7e87
3ddfd2dd
bca3cce5
3d522c5d
bd9ad769
3e1e56b6
3d866cd0
3dd4fcdb
3d6b63a2
3bfe7ed2
bca83336
bd692d92
3cc02858
bd89d1b5
3cf969e6
3e10d343
3c081438
3cbc77a5
bda6d474
bd7eb0b7
3dfc530a
bd985b8e
bd15256e
bc1b0b67
3d49b06e
bd9aa836
bbf2babc
bd8707a3
bc45f9fc
3d49e325
3db36d76
bddd87ed
bc0c12e5
3dad184e
3a667c66
bcca310b
3dcd5888
bd7d0141
bda21297
3d464fd5
3dc11ff2
3d70f19d
3cc5a7d0
3c3d12fd
ba846234
3e2362da
bd240bd2
3de018c3
3d289de4
3ac90ebf
bde02bd0
3e00acb2
3db897ea
bce08b5e
bdacb9bc
bc233aef
3df5a27d
3ddce072
3c3842b1
3d4968b8
3e0d438c
3b9b9600
3dd70d34
3dbbe138
bcba921c
39b652d1
3d900b10
bcd1c5cc
bd9c87d1
3e2c0271
bc988684
3da22f11
bb9ae4fe
3c94eba7
3ab8a5f9
bd761d7c
3db14b76
3d6976ec
bc8bb4d7
3d091e32
bc15e7e2
3d14084c
bd965628
bc471ed0
3e2ba806
bce3ca36
bd3bc6bb
bd34361c
3d6a9d79
bd9ed0e0
bdc3f5bb
3e026ce2
bdaafcfa
3d0e6d85
3dc0168f
3c1fab28
3dec6aac
bd07c0ea
3ba3cd32
3d22ef0e
3e0d0023
3d2dcf49
3c8df694
3ca86e1e
3e005651
3d23e681
3d505c82
bd0626ac
3e6812e5
3dd41c31
3c5db6dc
3d1b66d4
3d954aa8
3df82190
3e08055e
3d432f2b
3cb42001
bda75443
3d184b7a
bba92610
3d539d8a
3d33b8c9
bd01b403
bc740e00
3d92645b
3c01568c
3dc102b8
bd61ca60
3dc74142
bc2df66d
3de42f90
bd736b98
3d8d79d5
3df3e554
bc1c8979
bc85f45b
39907f47
bd6af765
bb224702
3d3e7fca
3cdd6893
bcdcd6e9
bd69410a
bd1f18cd
3d53de67
3c8d427d
bd864728
3d47c387
bbb28068
3c8a887f
bd2b7129
3da4d2c0
3d6537df
3ced821f
bc897166
3dea2241
bc80e85d
bc84cb1f
3c99c68a
be0f56c1
3dbeea37
bc6f3b92
bc358e1a
bc6a809d
bc00630e
ba92815d
3c8defb9
3d08900b
3e0d696e
bd2b4134
bd1baf9d
be1e5a12
bd8b48da
3e003a12
bc22ba20
bd88d466
bca96ac1
3da85d95
bc301b72
3d955c03
bcf0e0d0
3d2a997c
bd25e266
3cbb7817
3e18efec
3dd165a0
bd001970
3d025efb
3de34a45
3d35d7de
3de097d8
bcc2bf25
3c5fdd53
3beb38b3
bdac540b
bd85a19c
3d0e476c
3d1a86e0
3df3f56b
3c608c30
3da2a982
3cbbe594
3c839b9b
bc7e0754
bd1444b1
3da68b72
3d01668c
3dda337e
3d680567
bd5ccaef
bd318ee3
3d23ca19
3de90f1b
bdb6b42e
3aaf239c
bd949e0a
bc045d60
3d422ca9
bd851ad3
3c8c00a4
bd03fba8
bd041e72
bc87ca7c
3bfc3e83
3c15bde4
3c9f57b3
3d0fa6b3
bc2691cd
3da30577
3d5c63ed
bd94b36f
3e0e37e7
3e0a08b9
bc86c4ce
bd360577
bdb9413f
3d968915
3c4b3b2b
bd90b27c
bb978ba2
bdb24724
3c9c837e
be04fef1
3d006822
3ddff592
be13e40f
3bec849c
bd1bbc2d
bb5e18ea
3dfbf3c7
bd967ece
3ced0fcf
3d164ed7
3d85a350
bbfd2f37
3e18a08d
bd2cc13c
3dc15c29
bd6f6123
bd82df89
bd808f6d
3dc8ba0a
bd1606a4
3e3bcf6a
3dcaeadf
3d9358b6
3d9a44b6
bd8830fa
be170fa9
bdf088cd
3cec6822
3c9cd759
bcd3eb41
bb60c70e
be05c7e0
3d5d7c3e
3df3940a
3db5799b
bd96c530
bc8f0945
3c762ff4
bd4cb4dc
3d931099
3d4ff8d1
bdaa8cfc
3d8fc783
3c8699da
3e2409ae
bc31b45f
3dd70f48
bd042438
bd1ddd0c
3d9455d3
3c89c6f9
3c994903
3d49b698
3e301a33
3d8a9585
3dcc5296
bd85a927
3e6a9b11
3d9ed351
bc863048
bd07627f
3c86c7f4
3e0aa413
3c92d473
3d936604
3c513a2a
be0622d1
3c24fcf1
bd934bb0
3d11528f
bcd28976
bd996f47
bc6b6f2c
3de1f9ec
3df10360
3cc683a5
3d93b816
3da0f130
3cd84de8
3bbedae8
bc426d8c
bda2beac
3c75cc57
bc471e02
3e163b7c
3da2928a
3db6f2f3
3de7d6d8
bd5bad30
bbe208eb
bd663c95
bd1caa2d
3d261c6e
3c825138
bd39fee1
3d13ef9a
bcabeab3
3d33ec5a
be07d233
3d9a1e22
bd688db2
bd0e9bbf
bdd2aa7a
bd81333a
bd275a1d
bd9341cc
bd843a11
bd1cd30f
3d3c2daf
bdb60e68
bcc9bb75
3d8c84a3
be2dbe0a
bc8f4984
bba6d657
bdad6037
3de4c143
bd100c86
bcaecb86
3dce1567
3d4bb039
bd9535db
3d101988
bd7ec99d
bd70360d
3c8bdcca
3d637c9f
bde13abb
3d05113f
bd50c287
bd0d1fb3
3d617452
3cb32aae
3c9a77aa
bcefc514
bcf31da9
bd5345e5
bc4cbfcd
3d194e6e
3dadfc39
3d8998f6
bc58c6f0
bd27d215
bc2e0cc9
bddec616
3d5350b0
baa2c478
bd31f6e6
3cbc74a1
3ddb198a
3daa1259
3bac168d
bd8bc1e7
bca1b0bb
3d650beb
3c4af4c6
bc8ad8a0
3d5c2498
bc0ae689
bce79d12
3c2419c7
3d9f4fd1
bd983278
bc03d0c0
bdfd80a0
3cb074f1
be00ae95
3d56e96a
3c4dfe23
be278867
3d8ec989
bbbe995c
bdcbcf46
3da6e467
bd793bef
bcf1ef73
3da85a62
3db3e4d7
3d48b950
3a614c14
3ccf2d38
3e25e52c
3c86a40d
3d887460
3cb85b31
be4778c3
3cf73486
bd24f94b
3dbf65de
3d1d0900
3e0f8ba2
3cfba377
bcffc3a2
bc343e41
be031567
3c80daf9
bb0c1054
bcffa994
3da9d01b
3d02ae7e
bd0d10f8
3d34d53d
3de1e012
bc59bb96
3dcf92f2
bcfec577
3d9e5cf9
b9c454b1
bca213c8
3dad4b7e
3da51ebc
bc733dbe
3dce9c4c
3e02f343
bbd843d3
3c6bea67
bd69ce73
be0f486c
bd8b5374
bd915ae4
bd0cae37
bd96a1aa
3a5d0733
bd699ffd
3c889c56
3de83b89
bca43da5
3dd667a4
3a6a66e8
3b00e914
bdfd4795
bd056e38
3d83ddc4
bd5eac57
bce36724
3c5754ff
bddff257
bccfd07e
3df8c6e2
3d2876a3
3d01a990
bd2a28d3
bd80119d
3ca18c86
bde9aceb
bdbb86ab
3d035d70
3da6ca07
3dd7cb82
3d21e1cf
3db11502
bd948c39
3d857571
bc7363f6
3dff6ca7
3b88284f
3dc030e0
bdc31c29
bde54260
bda4442f
bc042248
3d481cbb
3d086e97
bd72c53e
ba61738d
3dc13784
bccd5697
bda1eebb
3d4c541d
3de5b399
3be615e7
3d8c8594
bddf2a75
3d77ee9f
bd94046e
3c7f5335
3cc393af
3d94e18b
bcca5ade
3d3982d7
3c8409b9
bdd4f117
bc482d41
3e090a58
bda25d33
3b980237
bd150221
3ccf5c89
3d764923
bd8503f3
3ca19b94
3d238e0b
bd1ed2da
3db84c80
3df663b5
bdbd0f89
bda168f3
bce22228
3d96b16a
3d6259cc
bd9a1165
3d6f6d5d
3d63b518
3db30695
3d8ab1f6
bc1efaec
bca2f437
bd48d61b
bd6dfe07
3bcfd96c
3ceae159
bd342c74
3da46a6f
3df03baa
3d8c9aae
bdb7e937
bce8baac
be01268d
3c8bc501
3d8981ac
3d49c6d1
3d8205f4
bc935e4f
bd268cba
bd706557
bcc592ca
ba6adcf1
3c4d9e7f
bd4d79f9
3d4b24ae
bd06a400
3d49901b
3d996238
3d846269
bc6ddbf4
3d80fd77
bcbfdfa7
3d8a56d1
3c51cb1b
3dae4991
3dc8a87b
3dad1a2b
bd8b524c
bc04be71
bd10f041
3d6343f5
3d3085fe
bda618ad
3d3ce3fc
3ca51ff6
bce1b13a
bd0d3b6a
3d149f51
bd4c37aa
3c0d8740
bdb19f70
3d96f2ea
bcb1534d
3dd789d5
3c19db2d
3d46ab94
3d98bb15
bc792c8a
3cb1035c
3de79b7a
bd95ffd6
3cb6819b
3da5299b
bd86f9a2
3d760069
3d83f8ee
3d75cea1
3dede744
3e139086
bdd6e415
bd31df43
badef33a
3e360023
3d87b63a
3da5e438
3dacbe9d
bd16c595
3e070c6f
3c130c9b
3e0bcbf8
3de686f1
bd3f7ae7
3dc3002f
bd9d5d04
3d2c19d6
bc8cf29b
3d7cb3f2
3b9e0c21
3e051265
3ce369ea
bb3299ba
3d1a03fe
3d2e2458
3ae6adb7
bdb00f61
bdda304f
bb87b077
3dcc62d7
3d806413
3e1e523e
3d2a0c20
3df564f2
bd442537
3cec18b8
3db536bf
3c09a3b9
3d9d14b2
bcefcc28
bcec65f5
3d6e264c
3dd83cc2
3d746cc6
3d81a125
bd8a1753
3cb966e9
bc994ce6
bc4feb4d
3d66b926
3d80dd58
3cd49c42
3c7cfb94
3d157540
bc84720c
bbcaac13
3d6cce87
3dd16618
3c95e704
bdd32794
bc772d20
bd92f0c7
bd502062
3df6a4af
3c52cc50
3cadb5fa
bd6bab74
bca293c3
bdbd2ae1
3e3a3d42
bcabdb65
3e011776
3c495cca
3e1be127
be01b891
3bcadb3c
3d802b0c
3c54c6bb
bd10f03c
3da35d32
3d830928
bd20ff2c
bd92e5d0
3b98ff49
3dc5c72f
3e0507f8
bd9be994
bc0c57c1
bc5bdc67
bd2dd284
3d88dd75
be04ab20
bc724aae
3c808236
3d25ba7f
3d38c52c
bcdec73e
3e1092ea
bd169173
3db85da0
3da25337
bda3a108
bd896b4c
bd01eb73
bd833360
3dc85d9d
3dd2fbab
bd3e73b8
3db9359c
3d9ee84f
bdbb15fc
be1d884c
bc3e689c
bd4f5aa0
3d3b6fd2
3e42ea0e
3d7eda7b
bd0b239f
3da929a5
bd016233
bcaf3e7c
3e14b5ea
3e0228dc
bc2a06db
3e1437c9
3d35dcf2
3a5b69b2
3d9dd2b4
3d6bb7e3
be16f71b
bd49c40c
bbd1c6b6
bd874e1c
3dc4ee49
3c0096f0
bcb7a187
bddc67aa
3dca2aaf
3c5b66e4
3e0e75fe
3df848e5
bd97434f
3d58b39e
bd1d3445
3db235ce
bb93360d
3d928782
bd27e0db
3ddceb9d
3dc2f654
3d4981ac
3e2129e2
bd1da87d
bdb13ee9
bce1544f
bdaaa3ab
bda33202
3dd57f53
3e1ecb31
3d9801ab
3d8b744f
3e000cbf
3ba610ab
bc968b0e
3cbbc2fc
bd69b7e2
3ac5a446
3ab61b04
bc836fd9
3dad94d5
bd17eac4
3c89b73c
3db4941b
3e1c54f2
3c8eadb4
3c519212
3dd4299f
3d4d65c9
3c868cc2
bbf2a06d
bdf41e1d
bdb359e7
bc8b39a2
bd900fc1
3dad875b
bd01d86d
3cdab913
bd9162d2
3d850fe4
bd4f70b2
bd170b9e
3df1f562
3dc3a420
bd224c13
3dd83b97
bdcd99f4
3e20a753
3dbd42e8
bc875b76
3d2f600c
bd5319c9
bcca6c60
bdb298c9
3a1c29a0
bd50eb28
bd521a8e
3d823bd8
bdc639c0
3cfcde39
3cfacc6b
be07c90e
bd130da3
3d05b468
bcf2aa13
3d9d9822
bd0321cc
3da3002b
bc9de137
bd99e2db
bddf4294
bd6af59d
3dc7b2e8
bc5351cf
3abc570d
3d42af5e
bd6c0004
3bbb9f16
3d7b06f6
bd844005
3da00cdd
bcc801bd
bd918f5b
bdf73940
3bed878c
bdb2cfbc
3da2533c
3e049389
bdc8aaf8
bd031c15
bdbbeb73
bd728e8b
bdd2669d
bbbe0dca
3d2cf016
3d797cf1
bdd9d58b
bba8781e
bd6ffed8
bdb57b59
bd94f53b
3d122d33
3dfa4dac
bdd21d85
bdb49ba2
3d873507
bc1a137c
3cbb0f51
3c65c162
bdc09002
3e0082c0
3d4e2d3a
be2836f5
3d6df74c
3bb7fc97
bb9b2118
39f28979
3da02727
bdfe8b22
3c0d2975
3e090072
3b108c8d
3b51fa78
3d41ed4c
3bba27c7
bd52c0f4
3c1e8a32
be3f8ce9
bdd44caf
3d93f311
3bc89f44
bd829742
3e0ba8aa
3c97bc96
bd8ff37d
bcb928da
bd9ea713
bd043937
bda57377
bdc98665
bdb6bee0
bc66435a
bd02a6f1
3d73cee6
bd99f0ae
bced5ae6
bd46c457
bd2dbb3c
bb74bbbd
bc951841
3c0d1afb
be0e50ff
bc8d9e29
3c18c4cd
bd234872
bd2e554c
bc1c3ce6
bd373205
3c0bd3c4
3d3bf0e2
3b11c86e
3d1ead3a
3da08713
bd425b3c
3c91f522
3e385f30
3d5acbea
3cfb8c09
bc186404
bd9031fa
3d5ebc0c
3e164be4
3ce1aee6
3d2ba285
bdc7d23b
3c342621
3ccd160c
3c31f999
3d8fb3b5
bdb626fe
3df3ea76
bc91b086
3d519157
bcf656cf
bcf9e945
bd56eb6f
bd88dbe5
3d07b863
3e199b26
3cb67568
3dcfbe0f
bceebe92
3db101ed
3addb9dd
3e3a6ed9
bd2749e7
3d52c5be
3d1d99f8
3d170bfe
bbd42e43
3e366b19
3d2f3d75
3dc2618c
3de6580c
3d5cf34b
3c3b73a2
bace14da
bd30c53d
3ba50b8e
3dbe4f49
3d5c3dd2
3ca1f88f
bd5037a7
bdd9d7bb
3ce010e3
3d56008f
3d96c8dc
bd511d83
3d6be2aa
3e0075be
3becfd4a
3d9dbb42
3daeed33
bdfd5729
bd07708c
bdfc80f8
be385414
bdb850ee
3dfa4bb8
bd4c2de2
be2c2568
3dc569b4
bd66ba8b
bdbd05d4
bd9a88d7
3cb49610
bc0f6b5d
3d099f62
bc033898
bddff1da
3d831bc6
3cb1dca5
bd5a807a
bd891469
3d474098
bcd9482f
3d459c50
3c89b5c6
bd8b1af3
bdaee972
3c3b7ca1
bd0c4228
3dab2587
bde286d2
3cbc8fdb
3d80e1a8
3de87b9b
3dcb48ed
3d92f161
3d4a5d17
3df44167
3dbffc2a
bd720ea4
bcf8c813
3c42424c
3cbe2914
3d1e75b6
3d825245
bd605512
bd789b07
3dbc1fea
bdd70dfa
bdd4a5f9
bd8f280a
be1f730b
3d5790ef
3dc332f8
bd471287
bd78efa1
bb5c49a8
bcb86984
3da170bf
3d7a7463
3d6b4652
3b954b74
bdae9bef
3c00f1b3
be3e7ab6
bc93ee97
be000591
bd3f42d5
3d69973e
bce603a7
3dc1306b
bd8508c4
3e00a8b4
be00c0de
bd259860
3d3f57be
3d7024ea
3caca4db
bd2ed2a7
3d649c80
3d99ded0
3c909541
3c168bf6
bb62f0a0
bdf3d707
3cedb8c0
be037100
bd3d076b
3d3067ef
3bdee6fd
3949f77d
bd6dff39
3c08c37e
3de319df
be2849e1
bd48b34a
bd936671
bce09e59
bd31e349
bcb00eef
bc135a3c
3c82712e
3d9179e8
3c633332
bdc37d7d
3b634bf6
3d26fbd2
3d188c50
3dc8dd8d
bcb2e475
be029c00
bc85e6a6
be122d71
bdb41fbf
bbb664f4
3d8fdc68
bd079020
bd7e7252
bcbda29c
3d778182
3c8f32fb
3cf5ac1d
bdb9d7e7
bdfa4370
3d485b52
3ce7067b
3d2a2978
bd119e2d
bbf4eac0
3b580c9a
bc03148d
bc4e0982
bd82099a
3d1a0f54
3d58fd0c
3d995ec4
bb9b7c97
3c040598
3c0307ce
3d83acb2
3d86a72c
bd6ec514
3dc59f65
bd52705f
bc6858ae
3d94f9d6
3dcee5b1
3cc07d68
bc8f5033
3b5d7f04
bd31465c
3d8a8d1c
3de159a2
3ae9234a
bd71e1ba
bdcfea00
bc00de86
3c807c71
bb568162
bc12a4d0
3dad5891
3d3156d7
bc81570e
3d8fedb1
3c8efc62
bdfba249
3df553ea
bd82e471
3d3b437f
bd229aa5
3da7194f
bca59151
bd601ca3
3ca935a7
3e35105f
3d64d93e
3c8ab1a0
3d82f72b
3c1ba8dc
bd002946
bbd76773
bc1d6f0a
bc7f39af
3c92ec8f
bd5a1ac5
be56f312
bd6a97ea
3e156067
3d230112
3dcd2a9f
bc39884a
bdd10b86
3e3e333f
bd81eff8
3d800c39
3d7a5793
b820c1d0
3dee28f2
3e1ba7ec
bcc5b215
3aa323bc
bc106492
3dc1df3c
3e33efc0
3c615466
3d855b55
3ddfc46f
3ce90f4f
bd7ec2fb
3e19da4b
bd6e6eba
3dba943d
bd3e9dc8
3df9eebe
be29c46c
bcba170f
3db07c8c
bda902a4
3d2844e1
3c9b203c
3db863e0
3bf22c7b
bd33a7de
3c920a7f
bd525766
3ded3c28
3cc839d4
3e1275ac
3c9d34af
bc990dcc
3dd2e552
3c9d2478
3cffde4d
3db07c77
bcdf9b3f
bc832e26
3de1fb08
3dcaff9a
3c35c6e4
bd0fe21b
bd85d7f0
bd68d6c7
3c59e1d2
3d3258e4
3c8b94d7
bd4290a9
3d621550
3dc8ab6a
3d0834bc
be04d08f
bd9dda89
be0f984d
3bcf6bff
bdb7a24a
3db9f5b5
3e3db902
be018cc0
bda25db9
3d9add07
bcea5651
bdb2de4f
bdb1a6d7
3dcd3b46
bdbbd62e
3df4eb60
bb04b12d
bd3b7c7e
3d8adeb1
bcde283b
bd06dad2
bd86bd63
bd1cfaa3
bb2beff0
3e2a808b
bdaaef5d
3dcb6af0
3b1d3ecc
3d2ba8c6
bd71f4ff
3cce5285
bd81ff61
bc89a8c0
bd422c58
bd9a9c6c
3dc7bdab
3d3760b8
bdd9fd98
3c8e948c
3d3ed535
3cfad16d
3d851c7d
3df0556a
bd2fee4b
3d98f1c3
3cc92356
bda45bf9
3d6c7d24
bcc5f20a
3d942abe
3d917c32
3dcf94ef
3c221be2
bd9feb4e
3d1f545c
bd8d74e7
3d67e963
bd77ea14
3d963f7c
3d8fbf73
bd110594
3dd74414
3dc3bdf2
3e427b82
bdf7ca11
3cd8839a
bdf7bb41
3cd2e5b1
bb2b5c10
bc84579b
3c8172bc
bce5e1b5
3c9b4896
3d35d123
3a3fa21c
3d1fa41a
bb9c2f0f
bd17345c
3d633baa
3bd83c04
3d735491
3dab1d2d
3dabb7bb
3d7d460f
bd9a4f5a
bd905834
3ce12d02
be05fc07
3defbaa9
bb2965ca
bc6bb7f9
3d5d8b4f
bd5afcd6
bbb29e4d
bdb0a851
bcb011df
bc751951
bd021154
bd91b0e2
3d07eb08
3d4be3a8
bd810fa4
3d92e24c
bd5c123c
3c9cb1bf
3dde758c
bda2ec2e
bccefa71
bd20eab0
bd6faab3
3acfadec
ba791032
bd6cc0b3
bc47ef4d
b9e8bbb2
bce2f846
bdb4ba39
bd06f93b
bce4e458
bdecb89b
bc9b5351
3ce3f7d7
3cba16c2
bd82984f
3b4a9640
3dbb49d9
bd026116
3d95b0d5
be331ae0
bd603731
3d1a3ed3
bc999a9a
bc4d2e3f
3d49aad3
bda611f9
bd0183ad
3c901fc7
3c07c3b7
3deda9ad
3d59cfbb
bc8ab8bb
3dca09f6
3ce5ba86
3d9d44df
3cc19629
bcd29eaf
3d6f71bd
3c9ea2ae
3cc9a9ad
3d6711d4
bd9e09df
3d3972f3
3c5f0bcc
3d1dc2a3
3dddbf0c
3da74020
3e05ee1d
bd9e51d7
3d55e5db
bb699497
3d72e1c8
3c91e5a5
bd1b5fce
3e03ec5c
3c34accf
3c1cc5a8
3db21675
bd311b39
3d25a2a6
bde2d254
3db5e57a
ba415410
bb435cea
3cba5db3
bd86f5ea
bc295412
3c96a847
3dc76d51
3ddcadf4
3dacad04
3db3dbd2
bd28b349
bd811b47
3db6cfad
bc488b51
3bfd2c6c
3d6a3259
bd4bf171
3dfb136b
bce71d32
3db3e8a6
3dd98566
3d6a170a
3d1aace7
bd020b0c
bcdda00c
bd704d45
3d079ed3
3e208209
bda36241
bd816f58
3c1df04b
3c16cb58
bc8743fd
3d9a4564
bbf58e27
3e5c2b45
3cba2c21
3d98614f
bcc1fdf9
3d1e9bd7
3de8ff98
3d9a9e7a
3da75d47
bd538c6e
3d363495
bb25ae74
bd0117e2
3dc66057
bce6b0fe
3cbd8b4e
bd781ae7
3ca9303e
be01278c
3dc2e3c8
bd110322
bdabf7e2
3ddd5c0d
bd63b313
bdabf0aa
bcd88e82
bbcc2180
3dec88af
3d7cec68
bd559c95
3cdd782d
be3add84
3dd5c60f
3d7ee670
3d12f862
3be9730a
3e005a6f
3dc23f10
3dd34f62
bdb44b3b
3dcafb55
3d847984
3e02284b
3d844d49
3e047303
3ce6df64
bbb3c9ed
bd489a58
3e1e3615
3bb715f1
bd161c81
bc972a54
bd76131c
3e527ace
3d8102c4
3da82681
3dcb609c
be029a2d
3dbb32db
bce40dd7
bd912246
3d11c3aa
398bd3fb
3e103caa
3e319a2c
bdcf11fd
3c095312
bd9799eb
3cdbb84e
3d97901c
3d9a8190
3bf1d3f1
bae29318
3c2448d4
bd78acab
3dc8a1a5
3d4b302a
bb2f2bea
bde55f5d
3dfb05c6
be1f0810
3d54710e
3dbda327
bd812bce
3cf58f5d
bdcc7768
3e119e44
3db166b8
3daa037f
3d251e97
bc34328d
3decc0a2
3dc309c5
3e211391
3d47bbdd
3dc4eb59
bd442edb
bdc5e1e1
bdb22c12
3e486b7e
bc5c2969
3d9936f5
bafa5de2
3cc07c23
bd1ea7b6
bd951218
3dea09ae
3c91b855
3d7f5f6a
3db59efc
bc50b7fe
3d24f561
bd5644b0
bd844d20
3d6485fc
3dcfbe5d
bb28f5dd
3cbec735
3e182f0f
bd4399b9
bd939900
3dd0d24c
bd2dffa8
3c09a579
3d285a58
bd32c3e0
bd265729
3da6bb99
bcc45901
bd8f2c49
3db9cdcf
bd17f563
bcae7452
bc301bf5
3dca5338
3d6e39ee
3d081121
bd6d0796
3d9ca64f
bceeb6a6
bd23002b
3bf7653d
bcf3e3e8
3de02adf
bdcf25cd
3d832cd1
3da35da1
3de43ab5
bbad0e85
3cf5376f
3d81603c
3db61f51
be18d683
3c0f297f
3e0a7666
bd4fb09a
bd2e2a9c
3e0269ed
3ca301a5
3dce4431
3d2e5490
be1450af
bd8f2c09
3d8915e9
3da3690a
3e041f2b
3d9f4893
3dc9e43d
3cd97c7a
3d83fa7b
3e2ed7d3
bdc7c4bd
3cf19ebe
3d8cad86
bc98412b
bbd6d917
3ddaf55b
3ddcee6a
3d29b683
bdef9a7e
3cd0908f
bd860d20
3dac815e
bdc86737
3d7d1d17
3dada1e8
3dc4e833
bd2a2748
bda0007d
3d2ef8d7
bd7c1a4a
3c7f4329
3e30b601
3da43a24
3db10428
3d549398
bd8d085f
3daf1cfb
3d0f5492
be08c654
bd931186
bd4b2904
bcfca3fb
3dc41b81
bd4fb8d0
ba81a5f2
bdcfbee6
3d302ee0
bd016e2c
3e0188db
bc213421
bd771e56
3d81b45f
bd8a7627
bc79efc9
3dc8357a
bd915105
3dbda474
bbc2fa12
3dbeea89
bc9a6e4b
3aed1586
bd2bfd64
3db2e3a4
3db28f85
bd7be968
bd5b6c38
3e16d3c7
bb4ae706
3e2c9a34
3da3138a
3dd6fe12
bdb7f355
3ccf4128
3d91309c
bdded0fe
bde4e253
3e14898c
bd2187f4
bd87f659
bdd4909f
3baf62f3
3d831ae8
3e2b367b
3d7d113c
bb20276c
3da8b82a
bdc4ac2f
3cdab1f5
3b31bd20
3b05fa08
bddd0e36
3d45b04c
baf5215a
3b27cdeb
bc023080
bd2a7fe1
3d656bf4
3dd0bd37
bc7ee377
3db8d95e
bd873636
3d000605
bda7698e
3d947fcf
3d82c002
3d2a0ade
bd052625
bb315d73
3da1d66e
bd533d91
3c9081de
bd85e01c
3daafd60
3def0d13
bdbb058b
3b612f6d
bd6eab5e
3d44247a
bc525219
bd17c661
3db73c1c
3d695fe4
3c7711b6
3d3ca9c9
bd543bfb
3ca9337a
3d43dee7
bcd5a35a
bdb4d262
3d7918ad
3c1864e5
bd1f81b4
3dfb969c
bc883c31
bdcd9c34
3df9e00d
3c6c60fd
bd3580ea
3d2d16ac
3daf2ece
3d59a7bf
3d14cf2d
bb1e18f1
3d1d62fc
bb716c8a
3dd5a165
bdb66d0c
bd3053fa
3cc21602
3d6d4c42
3d7d79cb
bcf9f363
be06e60e
bd2e85be
3cf51994
bd45e8dc
3ccbfb72
bcc9ddcd
bc2f5849
3e158542
bd0b653b
bc044dcb
bc376f9d
bd8047b9
3df17dcf
3d50ef19
bcfae4e0
bcfd46e7
3db77da5
bd3304a7
3d974694
bbaf69cc
3dcdac54
bd908be8
bd316791
bc111472
3c971cf2
bb2ae0cf
bd78cf71
3d15e2c7
3d978d74
bd090db6
3db2207c
bd0a8519
bc957604
3b738a95
3d781119
3e0503f0
3d7e3682
3e060c17
bd2e09cf
3ddae68e
bdbde3df
bd78742c
3d69d05d
3ccfc78c
3d0faac6
3db30288
bd0db4e7
3d359698
3d8926ff
bd5a1cac
be1119f0
be11d916
3cc09aed
bd742314
bdca8ba6
bd745988
bd5dd2db
bcd0e3f1
3c5fded3
bd6bdb8f
3cc56d9e
bd45279e
3cc83056
3b394751
3dfc0350
be112494
3d6c6586
bd36a1f6
3d7c230a
3ca8dd78
3d878d3f
bc5c22ac
3d68d69a
3c4b1217
bd8d3634
bde6db08
3dbd15dc
bb565f60
bd79e437
3c7bf39a
bd9f0844
bdd20629
3e06c6d4
bdd051e6
3d91722c
3afac86f
b9691752
3cb18079
3d96ef68
3d4aec0b
bdea4de0
3d74d6ee
3d9cc714
bd722cc7
bc6dd325
bd0adafa
bdbb10e5
3c2d3cdb
3d8300a7
bc948875
3dfd33f5
bd604724
3d53678c
bdf9957d
3d69f67c
bdb44a48
3d1ff030
3db55369
3d08cf5f
bd2c24c5
3c920af2
3d992cca
bce6ee8d
bd81ff66
bd47c811
3d295516
bb4e33bb
3d87fd65
bde800fc
bd7f8854
3ba68ca2
3d3e52f6
bdcb2c32
3d5fcbab
bdc4250a
3deb17cc
3d463e01
bdc4db92
3de7b831
bd5f272d
bdfbffef
3d6f2216
bd729c84
bc78e9b7
bc963b16
3db470cc
bdba2dd3
bd2ad090
bd3473f3
bd016859
3c2139d0
3d2314b4
be090307
bd982439
bcc80944
bce70211
3c2eff58
3d3f4aaa
3cf834a3
bd970e0b
3cb73dec
bcec23ae
bcb89240
3d9ea449
bd295569
3d0d5c7b
3d664b75
3cbcb715
3cd052c3
3cf73883
bb12a9ea
3c82cd32
3dc64859
bc10604f
3bb01de8
3d6e0101
3c83a4bf
bdaf4617
3d9af60d
3d965f24
bc00071b
bc308bdd
3e12a14d
3d833120
bb44aa9b
bd48e7d2
3d774c72
3d01e967
bc91b8cc
bdacc2e6
3de4491d
bc3a0be5
bd84a43d
bd319dcd
bccd440a
3c40976c
bdbd7a5e
3d097e4b
3ca27570
3dec5514
bc178f4f
bd00a83e
3dc93548
be56696a
bd4dc222
3d1cae4b
bbcf7793
3d9da398
bc9350f4
3ddf59a4
bd9786db
3d214aa3
3d7600ee
bcbc76d7
3e3e9cb6
3e3385d4
bca4a2c2
bc7118c3
3dc96a9f
3d0f994a
3d3acef0
bdb5a7d7
3c9a5240
bd2f72d4
3d6794f5
bda4135a
3b84e4aa
bda10d1e
3d659192
3d15d377
bcfe0c93
3df20dca
bcb157d3
3bd4b27d
bd0ad4b1
3df8e0ef
3c8ba320
3cb2f911
3e226e30
3dca8c34
bd52eef9
3c52720a
bd95b0fd
bd67bd33
3e382e74
bd18cd4c
bcb8e4df
3d71d9a4
3df37eb4
3d3afc12
3d0b883d
3d3817c0
be439712
bdecab43
3b22d757
bd82dbbc
bcbf98fb
3c8fa4e4
bc2814bb
3d0b2e15
3d7e4c1b
bd0e0f4e
3d6881f1
bd7268d6
be06d6fa
bd452da2
3d12c0bc
bd88f31a
bd6ad78d
bdbb94a8
bd0ad3e9
bbffc3ca
3d97795d
3cfb2e47
3c9201dd
3cc3bddf
3d9e72ad
3d3b53e3
3ddfdd1e
3e23a0bb
3da96f1a
bd00db46
3da2b1dc
3df33594
3d16338b
3d92511f
3d9d5bfc
bd90b6f9
3d829b44
bd6f71d6
3d0a22d9
3d445d8e
bd6d04c2
bca337c0
3d0792f5
3e26ccbd
bd83b461
bde72c58
3ccfba32
3df9a5c8
3e1fb026
3c530fc5
3d61228d
bcc4f6fe
3d35445e
3b613ced
3de44d86
3b25854d
bc6c94d1
3df5f3f2
3d94bf4a
3d9eb047
bce48373
3e01cbb8
3da318d9
3e23a45f
bd9a6e92
3ce87dd2
bc86f53e
bcddbe53
3dcd10ea
3d1fb552
3de6b2d9
3d76ac42
bb647510
3d74dc58
bc3a0d63
3db40c3f
3cb34ddd
bdaabf78
3e009d44
bdbd0431
bd75d627
bdb42d1d
bd8349ed
3be481bb
3da98040
3e272a1a
bdea8282
3e0857f0
bd25d765
baa61016
3e2d76d7
3de3e37a
bd9a3b6c
3d20e200
3ccd3f30
bc6f862c
3e1118d2
bd053119
3b8463a0
3d87b3ae
3e10f3cc
bd498498
3d3120e7
3e052f13
bd807dee
3d90572f
bd0cde86
3dc90e0c
3cc2eb1b
bd2a1bc2
bd83fa02
3d70ebf4
3d97933f
3d374484
3d93285c
bba602e4
3ddef384
bd8c718d
bd007b41
3dd809bf
3e37f4e1
3ca03bf8
3cbcafe0
3d2ac596
3db39bf4
bd8381f3
3d4b7bd5
3d8c944f
3d448357
bd5b582d
3e299345
3d8d683f
3d93bbce
bd99a996
3dba66e3
3dbcaa5c
3e2b2d77
bc5e2b06
bdef5478
3e1d1037
3cf5988a
3d3d5c99
3e0498b8
be7a8ec4
3cc0d3b2
bc3cf171
3b4994e9
bcc9b017
3e2b5642
bbd7966b
3e5ed897
bd1a1d17
3d083176
3d92accb
3d47201a
3d3e7507
bd2e1796
3cf3bf49
3cf33ef8
3c9e7522
3dc91d32
bd4f5b0c
bd9d0bf0
3d0b74be
3cb19400
bc884d59
3e178255
3cc1889c
3df2391a
3d666c7a
3b8ea220
bd2d61f7
bddad4aa
bdc4e03c
bcb270fa
3e00abfd
bd994522
bdebafb8
bd364f84
3d2e18a0
bd678136
3d1efbb4
bd0eccc1
3d14b853
bcfa2962
3da6bfb1
3da4d139
3ca212af
bd9b11d4
3e187d19
bcd424b4
bd7cda46
3e353cd1
3e4f2f39
3def12de
bd2603d9
3d4c31d6
bd8cc198
3d902589
bd54cb6f
3d8a2eb8
be1fb483
3dd6e615
3c92c18b
3d9b8c5f
bde94b75
bdf1a4ac
3e5dfa8a
bd737d20
bdb70464
3d077696
3c73aa6c
3cccb9dc
3dcc7552
bd1075b0
3cc5f402
3c9db8ab
bdb9ddad
3cd364e1
3e278ab4
3d6e8245
bce00af0
3cf46277
3d28b8b8
3df50d6e
bdba6a06
3dbaf094
3d80271f
3e0fe08c
3b816b48
3cf66595
bc1f0910
bd5584f4
bcda1e15
bc43ee85
3e0d29c5
bd4e2b01
bdd65ed7
3d8789db
3bd0da52
3d8d6452
3a64e981
3dd5a6e5
3d5b9feb
3d54310d
bbd0255f
bca4cdb6
b9bdfab6
3e161540
3defac73
3e1f2d41
3df99f27
3c4b28c5
3cfa4648
bdb41dba
bcabd0bc
be0f1f43
3d899e6a
3ca05a11
baa27b5b
3d9cef60
3d18e67c
3d904550
3c57e1ff
3d453222
bd9d1d49
3e023cac
3dcb5c08
bd37e9fc
3c305c8b
3d481f3e
bdb7d8fe
bd9ac13e
bdf839d4
3e0788c1
3dc62d56
3e36bf04
3d71220f
bd90c3db
3c1507f2
3d894f5d
3d64abdf
3ccebf07
3e3bc20b
3dc75444
3d18b476
bca6502e
3c38f211
3a47ddb8
bd890e01
3d87d7f8
bdc2b373
3d94f0e7
be011fe3
bbb5e682
3dc1acda
3afbd818
3dbcd29d
3b873ff1
3e083595
bc7ac5fc
3c1d985f
3e092a8d
3c6a0cca
3e254f5b
3da38b27
3e33daf8
3b8e0e34
3e161972
bb9f9b1f
3b7edd5a
bd5f0027
3dfb5109
3dc6e388
3c06f2e3
3e117dc2
3cbaf8de
3da3341a
3c51e0cb
3d5b5c09
bda6aade
3cd9559e
baa0f923
bd63f5ab
3d0ef275
bda41641
3cbe9e32
3d5ae53a
3d630d84
3d4606dc
3cb230a4
bcbf7ced
bda00077
bdb36930
3d998807
bd7c01eb
bda8f0f9
bdc0f1bf
3dd31d21
bdb9dd71
3d0285fa
3d9ee9e1
bdea51c6
3cebcac7
3b75753e
3d2b62db
3d4b8aac
3e167d39
bdc46c9b
bc81e4b0
bccbe50f
3e4f2782
3c5fe7f7
3d9e548b
3c7672e4
3c245947
3d5697ef
bba2ef8d
3e003cca
3dbfe532
bd2196e3
bcc71c97
bbced9a0
3d435034
3dc20902
bd5a893d
3d65a573
bb79baa0
3d26b2a7
3dd3c7a7
3e0cf209
bc0f7240
3dffebc1
bb7ede18
bcdef60d
bdb0a8bf
3df5dab4
3d0ba03c
3df2fe14
3c8661cf
bd608f0d
3c9e4c5d
bdc600f5
bc91b5d2
bd3a43dd
bdf3907b
3dbe55c4
bd29bf28
3d57a32e
3da051ff
bd87a293
3da4c59d
3d339da6
3ca1f8b2
3db7487a
3de57502
be09459c
bc71a24b
3c902970
bc32921b
bdd0cc25
bda817bf
3c8b889e
bd8a46f8
bc2696fb
bd1c369c
3d802daf
3dd6d649
3b395731
bd20e6f0
3cf73c73
3c3fed32
3c93ec5c
3da0ab22
bca37257
3e87fc55
bd273bbd
3cec77b8
bcee5cdc
bc9e4bb8
3ab89b57
3d287a09
3d95a712
3ddbb804
3c9d3bb9
bc6c894e
3bac291d
3db4d647
3a88dce1
3c476d5c
bd2cfd30
bd9e1fa2
3d89161a
3de5d542
3de4644e
3ce7db5b
bda8367c
3cc6ec99
bcec5e9a
3c61c84f
3e0e1c0d
bc8cf964
3d65412e
3da34773
3dc38cc2
bde8ddc9
3d3fbb50
3d5e6f44
3da6d493
bd71a850
3dc082ce
3d818fd4
3d48c419
be10527b
bca89476
3dfa4d38
be504244
3cd68e59
bc9ea843
bccda634
bd9b61b3
bd163151
3d60eac3
3e221e9c
3b2a30db
bdb3b48f
bd9e24f0
bd6ccbe6
3db4d453
3dd7c594
bd88625c
3d9a3371
bdd43a98
3d15b750
3dc3bcc2
3de3613f
be0c6c7c
bd8f069f
bc374bc8
3e7c8136
3e093186
3c9a5456
3bde3d8d
bd1bf00f
bd17ae30
bdd211d5
bd816fff
3dc789a0
bce21788
3d3557f6
bd30db89
3bb4c4c9
3c8ac7e9
3dcbbca4
3da7999a
bdaf3ffc
3dff4a58
bd5c0ca3
3df6716c
bd8e4006
3dc6580e
3d7e9b3a
bdd2375b
3c45a4e1
3d2f4f3e
baa4188b
3ddd88e2
bd134e33
3de1bbaa
bda8f199
bdc26ef3
bdc2df88
bdf3d627
bd9ececa
3db79623
bdb3137a
bda684cd
3d6d32bb
3dae7f0a
3d3c1662
bdf92221
bdb11f07
bdd6a807
bd8f3c52
be08b1dc
bd29b868
3d923ee4
bd8ee1ac
3c7548a3
bd99fa49
3dbc6dbf
baf1eac7
3db36e00
bd038dd8
3d82e8eb
3d89b3f4
3d6df666
3dae1d92
3d7df6ab
3b484e7c
3e06f2e4
bd3cde65
bc7bc53d
3e19399f
3da593d3
3d41a55d
bd00732b
bd2818a6
3d4cc2a7
3db19554
3df1e68c
3d9899e7
bd44ff04
bc58226f
3d90634c
bc048520
3d82c739
bd3ab738
bc6c229b
bc548693
3d734392
3d857948
3ad62def
3dee3724
3c4945d2
39b14b46
bcb690f9
bd3375bb
bc6bc2c9
3d969412
bb8ce344
3b4b3966
bd763453
3dd5683a
bdbe2beb
3d67d236
3d9db7bd
3bc5705e
bd53c78c
3da0070c
3de80846
3dc140d8
bd369a95
3d3eaacd
3c1e5833
3d21baec
bdc6650b
3d34d6af
3c8a91ce
bd806ec9
3d017802
bdb1734f
3da24c90
bd8226c1
3d8e5680
bd7a411a
b9922a54
bd0cef0d
bdb78287
3d83854b
3d30f464
3c15fc34
3dd20849
3d69259b
bb9851ce
3d1380da
3d413618
bc1e704e
3c2674a0
bda80ed4
bcddd178
3d12cb43
3daeae23
3b238ed2
3c45c6cd
bd2318d2
bdf82fa6
bd17092a
bda6e98c
bd41f108
3d7cf0f6
bd1de493
bd8a83ac
3bd0a1b2
3cac92f2
bcc93741
3d972c4d
3e158672
3d6b05a0
3db7f359
3d492ba2
bcf07715
bd8475f9
3d6f259a
3b9da081
3cad0aab
bd1e87e7
3dcf8ea6
3c5aed38
bd391fe5
bdaf4057
3d843c9e
bd874a1b
bd85db19
bc08809d
bdecb9b3
3db7c24d
3ccbf1b5
bd621159
bdc2bb55
3dac8bd5
3dc86106
bdd4162b
bd571e7a
bc175be5
bd3bbae0
bd6776a7
3d800904
3c298469
bd48fe4c
3dbc48b0
3d95640f
bd87fd26
bcc40139
3d29f31a
bde00e65
3d87d74b
3beb9e0d
bd8207b6
bcd8e78a
3d7ea5fe
3dea0fc8
bb817a0e
3d80ac17
3d03cfc3
3cc68827
3ca9bfbd
3d050698
3dc72dad
3e0c462f
be042d90
bdd9309f
3d5b174a
bd243f8f
3d4ffbf6
3df7ab48
bccd56a8
bd5acba7
b90f1dd8
3dae64de
3d01552d
bd454c5e
3e2c2bd9
bd63472d
bdab5acd
bd15afff
3d235a73
3d9f372d
39823f71
3df1d77a
3dedea76
bcd7f9cf
bd131e19
3c7d3d69
be51c3c5
bdada4d6
bd815569
3d95dd11
bc931ade
3d8c6b43
bd9d8f16
bce19376
bd103d3b
bcc507dc
bdbe234a
bd76a4b9
bdc8356c
3d6501a3
3df4aee9
bd5055d2
3d027941
bd5bacee
bdf815b5
3dc96e54
3dea5606
3d8be218
be46199c
3dfba496
3d764748
bcd3b103
3da0df73
3dac8ca9
3c02ad6f
bc0bd941
3d585a7a
3e6e475e
3c2b33a9
bcd4d408
bc11e752
bdb855f0
39c5d06b
3d8a3f7c
bc0c1876
bd0f1b96
3c917b09
3d206df3
bdc97a01
3d8ac63b
bd5d6b87
3d1f1d00
bd79431d
bcd717fb
3d930350
3ca04078
bd4a4a74
bcb05507
bbf24f48
bd28f790
3d1d12e9
3df31ae5
bd5df6bb
3d94cccc
bd6fff2e
bbabf1d3
bc2fef24
bd3f01a2
3d68ba9c
be18a79d
3ccafaa8
bd01f7de
bc66be9a
bc983143
bce31d77
3da4ae18
3db22b21
bd3a6e52
bdb6d796
3d7c4270
bd5bfd71
3ba06bc9
bd30dba6
bd921516
bd4d4c02
bcf2f833
bdbfdd32
bde0a01a
3cfab535
3d628ddd
b8bfc39f
3d9918cf
bdfd5407
3cb59bee
3c51a6c6
bd916f0c
3ddf6e13
3b94f1cd
3dd83b73
bd25259c
3d6a69ae
3e0fa9af
3c00fe54
3a358afb
bcf57e16
bd80e22b
bb9e318b
3cc17e36
bd80a0b8
bcdb411b
bd88a541
bc857cbb
bdacbb56
3da887ad
bcbb125e
3d9f70a5
3a86192d
bd935361
bcf7308a
3d394f19
bd1c8be7
3dc41e9c
3e1d477b
bd4110da
bc30b70e
3cfe13d9
3cc08d5e
3dcf349f
3c87b9e1
bd8e4d15
bc1b7b8a
bdff333b
3be8f2a3
bd839836
bde3dbf8
be123aab
bca7948d
3cba7112
3d633397
bd06dc84
3a84cc4c
bcc0558d
3d45b4c6
3dd4ef7d
bd21d270
3d771664
3d39e230
3d570a58
3d49ef45
bd194a55
bd89fc49
3d6abb80
bcafd749
bc949412
bd4fca84
3c0535fd
bca0221c
3ca0dfee
3d694a11
bb1caf3b
3da166d5
bd22f3f7
3e0f639c
3d84894d
bd13d001
3b99441b
3d4314ec
bcab07d7
3da81d8e
3d8df284
3da9a16e
3d1066bc
3d7a5262
3d9331bc
bdd59918
3d0276be
3c75e571
bd7b43bc
3c99fef5
bd46aca8
bd62af03
bd92bcb3
3ddd7f73
3c09b157
3dd63958
bd6808ca
3d8c21a0
bd1fda53
bd9c5b82
3d2161dd
3d0ab2db
bb81fd24
bd4be930
bd3c266e
3d0a49ab
3c5537d8
bdb4d96b
3c789a81
bd84bf3d
bcd9da65
3b057804
bd468f01
bd4d8fb4
3d47fbfb
3dd06ed3
3dab0bd7
bdd1772a
bdab732c
bc76c035
3c354bed
bd4970b1
bcc23d25
3dc1b0fd
bd8453fb
bc08881e
bdc6a57e
bd476fac
3dd5da4d
3d5ec0c2
3df5445f
bd8bd633
3dd2c0af
bcaf1f38
3d8c47bc
3d3394cc
bc60c4a7
3d5dd9c0
3db2e9d2
bbc5e11b
3d912dcb
bc9dcf22
bbed59d6
3d0e7ca4
3d53f2d3
3d2bf507
bd369a23
3d65aace
bd0056c5
bdc94e48
3d18b46c
bce9fe54
3dd69972
bcd47296
bd11a166
3cc9a426
bd39c2eb
3d40aea3
bcc9c19b
3dac9105
bd38b33a
3daac94a
bd78e319
bdc2b911
bd95b0ab
3adad331
3d3823fb
3d5ee101
3ca8b74b
3c681977
3c346e6b
bd9714b7
bdfc2bf9
3cfce615
bcd29f41
bd207510
bd3d5726
bbea8bd0
3d251a8b
3d3d8a19
3d491ab9
3d367ad5
bc99a98c
bd2d686e
bba54c81
3d740c7a
bdb133ba
bc42f3a2
bc022089
bdfb0303
bd3ad119
3dd7cd4a
3d27c56b
3d52c666
3d1ca83e
bcbbbdbd
3d6653ac
bd0861ca
bc1544ab
3de4a037
3dce6c52
3d4842e8
bd93cede
bc7d41f8
3e4645ec
3e018350
bd45d4dd
3cd095bf
3c9a1ee2
3e075dfc
bd8de779
3b73e769
bcb1f903
bce17323
3ddcb229
bca0c4fd
3e3509d1
3d959209
bd6d5655
bd810a69
3d56a1e5
3d3d0d26
3df25817
3e370bee
3dffe753
bd23fc23
3de31a18
bd9496c5
3c93218c
3b66713f
3e0f2903
3cf20087
3cc0dff4
3bdae16d
3dc3cd14
bde48d99
3e3bcf45
bd2de63f
3d8b9fa7
3cdf0fa3
bca1baea
bdab942a
3d04bbe4
3d877ba9
3dc599c9
3c9b05e1
bd954f3e
bc60cd8a
bca6e9ac
bd54c2b6
3d3404ca
3d0ca582
bd6c28a0
bdb67319
bd62e9e9
3c6bfb2e
bd93fdb8
3dbc1e12
3d780c61
3de894a1
bd083d2d
bda0e437
bd6b8127
3cab6612
3d1ba4e9
3baa5c8d
3cf15df8
3d3d319d
bdf2eefc
3d92e5c9
3c5c7a7c
bd1f2e0a
be01c715
3d9a407a
3d00ff3a
3c6ed29b
3d1b89d8
3dff93fb
3d322ef8
bd97d06a
3dd1fd22
3d6795f9
bcd34ab8
3d5ddb6e
3a559049
3dfd7a41
3dca2724
3c94dcad
3c153cea
3df5de75
3c270362
bdd820c1
3b5463f6
3dac98c8
3da19141
3cb15e83
3d85c970
3c5eec67
3c3e5727
3ced052d
3d7946aa
bdb950b7
3ce6beaa
3cf6f4b5
3d90a0da
bd9aaf9b
3d934af8
3cb907f3
3ca1c6dc
3d486e54
bd896674
3d77f007
3e0919f2
3d480957
bd44a267
3d670ccb
3e0b92e4
3c807306
3d8be068
bc96a81d
3d49b06e
3dc512d0
3e136cb6
3bde1fdf
3dbfecb1
3c915df4
bd85eba6
3e5ed0d4
3e05af05
bd9c3fc5
3caf37ff
3d4cec06
bc05aff6
3e333a90
3c0b031f
3bdc2378
3d158e30
3e115958
bc96b283
3dced818
bd12dbcb
3c1c80a4
3c2e7197
bd21d4de
3c293c12
3dd97a54
bc497b93
bdd7a6be
3dd1029e
3dcf2a2a
3d8fae8d
3e159733
3dc2e7cd
3b241eb4
bd88e837
3d83cd11
3e05317e
3de488dc
3d4f0e1a
3e02501f
bc4d390f
3cf2824f
3d6329d5
3dafac44
be05d599
bd97205b
bd5a5291
3de24871
bdaceabd
3dd1cf06
3d8cb42d
bd537ad9
3e34dd7c
be3601ed
3da2298f
3d45ae76
3d7a8636
3d16aa07
3dbba8ef
3e137e39
be51c098
3cee8d2b
3d75e82c
3c3b5115
bc1e4944
3ce864a8
3e01f610
3d093dba
3c790df3
3c915dbe
bd901b4c
3e122a88
3dcce9c2
3dcac701
3c850e58
bd294015
3e36f568
bb6f97d2
bd742dd4
3ddeabd3
ba4c65d5
3de4361c
3db75092
3cfe5b2f
3c6bb6e7
bd0b6d42
bd3f176e
bd403755
3dd869f3
3da607d3
be23cb5b
3d95c7b5
3dade5e6
bcb4cf6b
3da75357
3df79732
baf5348f
3d198a5c
bd931482
bcaeebbd
bd7b142f
3e2bf4fd
3d59167b
3da4da17
bc421844
3e21e86d
3d191e63
3d88af72
bc93614c
3c685ef5
bd999a77
3c5e4cc7
bdd26a34
3c641c4c
bdb3b3dc
bb8a0f93
3ccb02b3
bcfeb15a
3d898b9c
3c27bb83
3d754986
3c5f0f4d
bd927a99
bcf2420b
3e2460dc
bdaf77bc
bd0d590d
be127a7c
3d9acf1b
bcfb1b20
3d89db9a
bd900f36
3db16131
bdad5b79
3ce742c0
3d593861
3d9d9be1
bdd29b6c
bdbcc570
3e0b6d0c
3db1992e
3d97c8b9
3cd4bc19
bb96c381
3c047cb0
3e00ac7b
bd9ed1a4
bcbcc247
3d14de27
be061c0a
bc571465
bb86d5df
3d7bc30b
3cac9f8f
3d83511d
3da91142
bdea9988
3e0bb533
3deaddb2
3ba19559
3cc68478
3dfea431
3d6ba0ea
bcc1dec4
bde257c5
3cfe8d62
bcc4fc94
bc3917df
3d460273
3dce6117
be429300
3d047cf0
bd3d97da
bdd1e8cc
bd238abf
bd604399
bccd969e
3d6b1b48
bd7751d2
bc669174
3c30556c
bd718aa9
3cf2b3c4
bba003f0
3d94edfb
bddc66f0
bd330d67
3cff7a75
be276bd0
bb388e0b
3d8f73df
bab6d869
ba36b75a
3e0673da
3d23e234
3cff35a9
ba8b396a
3d2fcf9a
3d7b1fac
3e05acfc
3b6e7b22
bdfbd5b8
bc2975a2
bd99d6a4
bdc40159
3db51dda
3ca9d8af
3c5e0e6f
bd671c91
3e0c654b
be046426
3c942739
3dee767b
3d0774b9
bd4b339c
bd90a5c2
3d7fbf28
3db921f1
be62a479
3d974673
3c615f7d
3dab9a7c
bccf0b5a
3e1413b1
3d1dbf3c
bdac6491
3d928df2
3bd5ecc4
bda1d8e5
3d9128c8
3dfaecdb
3db0a0fc
3dd15d4c
3e035a9c
3ddbd43c
3c9d5102
bc94f9a7
bd1f15ec
bc455db7
3d6ee924
bcc10765
3daa2a52
bd1822fa
3d15df65
3d76727d
be57100a
3d975a94
bd615b1b
3d938e68
be03d247
3db06da3
3de0bddb
bde6121f
bc32a478
bcc99e88
bdb4e98d
bd936d47
3dda3154
bcd390b7
3c7df0ac
bcad0350
bce78fce
3d8b2ef5
bcd07ab0
3df9a48d
3b04ebec
bce3b5f8
bde9bb7f
3df55743
3e1058ed
3d443826
bc850d53
bdf22f07
bcea9054
bd8f8bf4
3d38f7d8
3de48091
3de34518
3d8cde7e
3d2b58eb
bc70a5c1
3c808ab8
bdac80e6
3aa3022a
bcafa7c2
3b5a9188
3df78133
3e081898
3dccabb3
3e08cca6
bdb1dcf9
3c188d3e
bd7a615b
3e27bbd1
3df9a649
3d484cc1
3d9d8381
3df21da5
bd7663b1
3d5d53e5
3dc78387
3bd51894
3cce149a
3dfb5651
3d2edb57
3d56acd0
bdaef77b
bd83368d
3e290e76
3d56fe86
bd04ae9c
3dafb423
3c084865
bd074296
bcb800f7
3e047c44
3d9f548d
3d8c0c30
3daac6c4
bdb65a5e
3ca9ca07
bdb7b743
3df4e53c
3dab263d
3da3a7a2
bc132c16
bce1fbdd
3d114460
3cace65b
ba1b5a00
3d3ff47d
bd6cca8c
3d8b0b14
3dc23e73
3ced66b2
3ddf81c2
bd2d9c65
3b8c7e75
bd22d236
3cf55f3e
3dd34a83
3dba458e
bcaafc64
3d9c21f3
3dcd6892
3d13ca4d
3c9e6fae
3d2fbb21
bd8c16b9
bbb817cb
3c5c7cf2
bd3e3ba7
3dc96d5c
3cb6b6f3
3da6af2f
3cacc65d
bcee8397
3daf33fe
3df84f54
3a2e0a52
3da295d1
bc400250
bd876b57
bcb954ec
3d3728e4
bda2b0a8
bd4e05a0
bdaeeea7
3ce0e289
3be5f6d4
bdd41984
3db864b3
3e1e23e9
3dea5635
3d2dbb0c
bdf085ed
bd0755f3
bc66d656
bdbf1f9f
bd0e71e0
bdda7ab7
bdca023a
3d8749d4
bb417d9e
bd825036
bca7f219
3d626100
bdc0cdb9
3db1f2b3
bdf29c21
bd35716f
3dee13d6
bac75f64
3de0bd6a
3bb67e2d
bdce8343
3d648885
3da5fe49
bdac347f
bd6c84d0
3d529ae1
3d8e0f00
bd34dfea
3da4498e
3d8871a1
bc5df987
3d59cf15
bdd96566
3dd76c08
bc89f3b7
3d9f7de6
3d85c262
bcd6f6f0
3da9a8fa
3d7ac0b7
3da00f9e
3c2ab330
3d507bdc
bd683c7e
3d1c3627
bcbc598e
3e0e9a49
3d4df772
bd0f10b1
bd5234fb
bda84e3d
3da2a9ca
3c5a1f57
bd60a2c8
bdf5adf6
bd153ebd
bd029842
3c7f6c06
bdc51389
bdc1b83a
3d9746c9
3dfc0f38
bab61bd5
3cfbca9f
b9a30a81
3d7727a6
bdf9b9ab
bd29fb91
3d7b3053
bdf81c0f
bbc9eb09
bd7d847e
bdb68e41
3bf0325a
bd94f902
bc701df0
bd7539a1
3cbc4b6c
bd001b9c
bd6d39ff
3d6da6ef
3d7ea231
bd45826a
3dc6da49
3e0e0cfd
3d8dcb92
3cdddff4
bc4acb53
3dbe81ba
be031671
3cf90d27
bcda400f
3d80dda5
3dd5f01f
3c50ae0b
bd30d7bf
bcb36fc7
3da213de
bc979f0b
bdd71c49
3d2b9fba
bd812d86
bc95b680
3cc9d1fb
3d15d859
bbeb671e
3d8b6929
3a345498
bdb02675
bdefe824
3d0f8e4c
bd3aadf7
3cc1fbca
3bb10238
3c227d2a
bd1894ca
3d426bd6
bd175324
bdb4430f
bc9b6d6d
3c4e0ee1
3a4d92f8
bdb1b14d
bcbb8baf
3db7666f
3d7cbfd6
3d2bd12c
3c903eda
3d777637
bd8bdf86
3ce5981f
3cfb19d7
3da83141
bcb283c1
bdd8f924
bd8020de
3d4c8833
3d4cefa8
3e00ee17
3dd3c47f
3d8a8e1f
3e07532a
bc35fe3f
bdaa821d
3cd1dd84
3c842f4d
bddafece
3d8ab053
bdcd695c
3e29fb3a
ba844bab
babaaaaa
3d596f5d
bcd21807
3de1d2c3
be2419d3
3c2e29dd
3ddcdec3
baf951fe
bd684c42
bde1185a
3cba1ba6
3db3f0d9
bdf3e4d2
bdd57f02
3d9ece7e
3b958e51
bb3aa5b4
3da81d3d
3c0f6a28
bcd265bf
bccb0fa3
bcf84271
bd952db1
3e0c58e4
3cb69880
3de1d56c
3dd0e310
bcd6387c
3d793b67
ba81dd67
3e0f4dca
3d28dcbd
bdda5178
3e165ee4
3d0a153a
3bf64639
3cfd5ff9
3dda593f
3e2c4c48
be77ef1b
bc1cd6d2
bd1c85fc
3d807436
b864d3de
bd1efb08
3e347d1a
3db828c2
bd83f6ed
3c9a1fac
3d8ccf38
3d58841c
3d6e9e56
3c95a868
bdec33ed
3c470e72
3de086ce
3d778a3b
3dfc50e0
3e21f75b
3e2fe9f9
3d4c7756
3dab48ca
3e334af7
3e3ca82e
3cab55f7
3c5dd8c9
3d6f099f
3e278a3a
bddcc705
3e1b7f52
3d5a3d5e
bc2600e9
3ddb7a0a
bdb0c028
3dfd210b
3c400608
bd2b4dd4
3d25ec6a
3d0ff98d
3c6f03a6
3dc1c432
3d7bf88e
3e1a838e
bd50c2cc
3d534165
bca4b55e
3c40a1d9
3c2f8936
3e086fb8
bc5846d9
3e05c190
3d6a424b
3d8c765b
3d271f48
bd14a7c9
bdabc634
3db40355
3d5d6b9a
bd275371
3d08c405
3d118cd7
3c175320
3d8cc45e
3e3a9cde
3d9fa372
3e0b0540
bbe2dc72
bcca3a15
bcfbed63
3cefebfe
3dc352ec
bdd02d8a
bd3338b3
bd95a93e
bd94c277
bd300672
bd8cc616
bddc105e
bd89815b
bd57b94a
bd7efab8
3d4220aa
bd03c1f5
3d744981
3c5b4507
3dd32e48
be3886da
bd8029ff
3d80eda0
bdf902e9
3c0fe642
bcb8cf35
bd908e42
bdc2a843
3b8657bc
be1ceb82
bd0f8244
3c534cbb
bdc04dca
bd993db2
bda3d2f4
be128d8f
bdb7f016
3d70ba02
3dc8d8cc
bc942d6b
bd317cd6
3e0d6bbe
bc69f2d3
bd27d122
bc8a9cb1
bdd066d5
3c3b3218
bd2f5432
3daa129b
bd08be91
bccf1bd9
be127cb5
be0188c7
be6f472d
be10e117
be22b3fd
bdc89380
3d206474
bd97bcdf
3cec443a
bd862905
3ac7f648
bd92a5ed
bd801b87
bde12fdd
be0491de
3d6095e0
bd2bbd0b
bdf8102d
3cafaa6c
bdba8e58
3d789c3c
3ce803e6
bd8ed980
3d86d4ae
bdc78f8d
3d10f4ef
3cd91b41
bd561df8
bdd2610e
bd8c382b
bda1277a
3d453e8e
bd550f5b
bdb3920c
3ae8e7dd
3d26e1d4
3d30222f
bd8e49c3
3de724ca
3da9b0cb
3dd0ab85
bd251404
bdc4aea2
bda8dcff
bcb212e8
3db0ecff
bc592218
bcce033d
3d9b5f29
3d43d9cd
bd625517
3caa980d
3c600fc5
bdb15e20
bc65e6f5
3dae5a83
be09d96c
bc54b279
bda89427
3ded01cd
3b0a8938
3c97ab28
3c509031
bd0b94b5
3b7089db
be21953d
3c431ae2
bd71c6c7
bd94ab0b
3d4627b9
bc849ac6
bde5253e
3d8c9ef8
bd2cf2a8
3e02964f
3d12d8cc
3e06ddaf
3d9f7650
3dc357a5
bc9d52e7
3c973fe5
bcf0e0cc
3bff3537
bba9413b
bdb194dc
bdc294a8
3e82d2db
bcb07be8
3e5d277c
3c29e3d4
3d8730f1
3bb03a45
bdfffb5f
3bc91e68
3d26e34e
3d3b13df
be357f09
3cdce19b
3dff5e4b
3d533726
3df57939
bd37a60e
bd016a1c
babccd1c
3d8e83ed
bbdc1c2e
3ddfc82e
3d6f8c3f
3d30a36d
3ddd517e
bd7c88f7
bd916472
ba954fe5
3d09a01c
3c82a722
bd8d3fb5
bd8f8887
b95103f8
be12b95a
3d24c15f
bd378104
3b52db80
3ddfc210
3d243be4
bd2d2a58
bdd50d0a
bc88bd3f
3df47dde
bd29641b
3d8f4361
3e0e7108
3e2d788e
3e28eec3
3c322fff
bd206bbe
3b459386
3ddb595a
bddb3dd2
3d78c74f
bd3bda2b
bbaaecf7
3d525ece
3d18bfcf
bd1aebe9
3c5f4bf1
3e3b4fb9
3d004bf7
bd28034f
3da55251
bd15068f
bd97c2e5
3dd47a88
3bab1f07
3d71f38d
3d2c7cc2
bc4fdcee
3b050a00
3dd0fa2f
bd3d1648
3d4af5d7
3e0bb51b
bc71b344
bcc30d12
bca4290a
3d7fdd8e
be01eb7b
bd23257b
bc69809d
3ca927e3
3d760809
3e1735a6
bda10ff6
bd00bb79
3b8fda9f
3c1d0631
bd1eba2c
3c33dee8
3d933b97
3d2a134a
bd0fc879
3d565c35
3d9f7ca1
bd70469d
bdeb2f29
bddf5c2c
3c8f74ec
3dc2540b
3e02d0f8
3dd9cb8f
bbafbf2a
bc3b7508
bd831e5f
3cec1286
3e189fa6
be132bd4
bd689fa5
3db071d3
bd90432d
bd9a58ec
3d2c5b6f
3db5cbd0
3e1568af
bd6ce65a
3d094be3
3d0dcf06
3cf022de
bc82237d
3d4acfa6
bc46ed5d
3d4dda96
3d58765f
3d65aca2
bd820051
bdeb332a
3db65e92
bcced3b4
3cd610cd
3dd45673
bcbcbc58
3d2fa52a
bcd27dab
3cd36a1e
bc0fbcd5
3d61d537
bd6a6fee
bda8c155
3db0369e
bcb09764
bd0f01c5
bdd784e3
3d4e7657
bd582fa4
3e07af5d
3d41be4c
3d23f981
3d156c24
3d1ea611
3de46120
bd620093
3cb2dbbe
bcfbebf3
bc3630e8
3daad83d
3da045ac
3d781dce
bd85269b
3de1a761
3d76112f
bcf4b729
be046edc
3cfe6608
3d929a0a
3db64740
bc4a98f5
3dbd647a
bc1a04f9
3d415c47
3d9d55b2
3b72e44d
3d85dd3c
3df9c62b
bceb3b73
bde22a3f
3ca542a6
bcb4b467
bc251b13
3d691a50
bc377f15
bd56208f
bd0aeaf7
3d88b6b3
bda9ff29
3dbead70
bb0ed0fe
3d5ebfc3
3cb204e2
bc8eeb74
3d3037d2
3cb24047
3d1f2950
3c30a98d
3d84fae0
3c1bc872
3c16d2f7
bc9dea84
3dc10cb3
bdcddd29
bdc5197d
bc1c25df
3da17bcc
3d3e2169
3beeebac
39f44f67
3d6039bf
bd387078
3da44f79
3d9f86a6
3d966506
bd19c45f
bd8f8e18
bdd844c5
bc9a22b4
3b82b357
3d081f6b
bdbbad68
3cab948e
3d75430b
bc5ee1b2
bd076fb8
bd6ceccc
3e216dbf
3d5639cf
bdb52521
3d610375
3ac6328e
3dc24da3
3d0a1abb
bd430041
3dd36208
bd4d409a
bd0d9fe4
bbcd670a
bdadd14a
bcd1b387
3d8a2c2a
bcd94da8
bd0fa1c6
3d719d79
bca9df1d
3d82a955
bb80c1f4
bc839235
bdac669f
3c36c025
bc87223e
3d06f5ad
3e0dab2e
3d2897ae
bd593463
bdc7ef71
babade60
3c25db8a
3dd2cf6c
3d498f1d
bd29a9b1
3e21418d
3d925746
3d25ba65
3dc8d4a7
39d21525
bddb0e63
3dc2be7b
3d3b6f96
3e46dd05
3cc0a9ee
3d976dad
3d3e94c2
bc892188
3dd4fcd9
3d7982a1
3c797602
3dd63bc7
bd2b3f32
3ad67962
3d54b0e5
3e37504c
3dfbc9e5
be2765ae
3dc719ab
bd0e3da3
3d99faf7
bd14ffad
3dd74a5d
3e0b523e
3d1a7604
3ddc3ff2
3cc25401
3c11d650
3e329e9e
3da50a1c
3cb3b6e1
3b393d3c
3de504ae
bd821f4e
3dab4f8e
3920d242
bd4d1684
3c9dc9da
3c49b2b2
3c433ed2
3d7ae3d9
3d9b1d3d
3cfdc41b
3c9e81d6
3e090b64
bd147086
3de55fa8
3e074fbc
3d48d1b4
bd8c6745
bc92022c
bdec8c58
bcc52372
3d67b9c4
3da7542a
bd80d4e9
bd096409
3db1b2ec
3d5d6d45
3d630695
3d348304
3d5370a6
bd1d0c17
bd4bcc0e
bdb1fe1b
3dcc533f
3c0c00c1
3df3eb29
3c1447d5
3dc134e6
3bdec5eb
bcce27e6
3d831797
bd493709
3d5d8c93
3dab689d
3df2138b
3d9addb5
3d2c5bfb
bd69f4f9
3d555135
3c804c2a
3ced5bad
bd7f9475
3d426bf5
3d8b56f0
3dca0fe3
bbd717b2
bb98bfde
bd0300f4
bbaf1e15
bdca4a9a
bd8290b5
3bb3661a
3dc85dce
3d990fb9
3d981119
3dbb5f74
bcf2ca78
bb18a2e6
bc94162c
3caad5c1
bb91088b
3c5db7da
bdcd1d67
3d9e819c
ba59529d
bd7440e4
3d66d9e4
3db2bfac
3ccd179f
bd79f2ab
3d54754e
3c3f3a9b
bcf71575
3df33a60
bd0bff52
bdd26d89
bdd2123b
3d619715
3e1dc854
3cd77fdc
3ccf98f5
3dcdd90d
bd58c725
3d46faaf
3e0b6677
3c08deca
3c8998f1
bd4f5f2e
bc39df11
3db1b36f
3d72c12b
bd39e919
bc5d540c
bc9969f0
3ceb0fe1
bcdaf585
bc7bd7be
bc1331fe
bd34d3e1
3db93d44
bdc5300d
3d63f3dc
3d503885
bdf86381
bd44e53d
3d2b4803
3e0d12b3
bdadf6c0
3d5462c2
3db2e67d
3ca58159
3d2f2e5e
bd4c33a5
3d2c6f16
3d968598
3d2e6009
3b1cd1ef
3dbbf0ad
3d67e357
3cf7e405
bdaee83d
bc921f0a
3d8ab358
bd35879e
3dc0914d
bd9bcef9
bd100651
3d77cfd8
bca6b9a7
3e1a1ace
bc65f4f1
bcfe8fd9
bc2553c1
bc308ffe
bdafe520
bd287109
3d8f124c
3d787a31
bd6a76d0
bc023379
bc3f4782
bb8217ae
3d5bfc6a
bbb48b28
3d9aaa49
bd8b6b70
3d10727f
3da58d06
3d9c81d7
3cdd9db0
bc4c6ad2
bc9965fc
bd9589d5
bd307cfa
3d5216df
bdb7454f
3d8f864a
3da4bb14
3dde2bce
ba70e279
3d086697
3c02e346
3ca3b25b
3da827bd
3cc23e58
bda2988d
bcbe0128
bd13d028
3d14cc52
3d5f0ff3
3e230ff8
bd5816a6
3c74f001
3d127bfd
bc34aaf1
bd56e3ea
3cec17e6
bda6d283
3da6bef4
bd42b00e
3e1ebef9
3e0c7f27
3df3a10c
3b1b47ed
bded8828
3d90ef68
bdac5956
bd5b1116
3c1f6c43
3c805060
3d91ef50
bde0cbbc
3d8d5b74
3d5780e4
3b02b9b6
bd763ddd
bdd0c974
3e0d0c3f
bdf17872
bcdaac7a
3deb0628
3e48f980
bd659d4f
3d7ca586
be2c33c9
3db73ae0
3d3372eb
3e0cb025
3d3eaa75
bd39a1f8
bd3a5534
3db4a67a
bb15bfe0
bd2cb4d7
bdb161ea
3debc5a7
3c9d26a7
3bf402c0
3c94d23e
bd5cd40a
3d6e07d8
bd101215
3df0193b
bd553887
bbc21869
3e00f196
be1a9e8e
3ca492f8
bd5b4ae1
3d4ef7fb
bd6e0e76
bd7147cd
3d689e80
3d69044c
3cffc8f8
3dd5b2ca
bd5fecfc
3dedd81b
bd46837e
bc6012b2
bd1fa685
3deb7254
bd03269b
bd63c699
3e08deb6
bd0f9a37
bd823178
3d82b475
bd7692be
bd7eed38
bdc5714d
bc83fcd0
3c54285d
bd9256cb
3ca7e679
bc211c63
3c47320a
3de206ce
bdb62c6f
bca97e72
bd4eac7d
3cc4d01d
bddddd12
3c44576c
bb70b24b
bd3fd177
bdb1fabd
bdddbd97
3d093008
3c89f0bc
3d5aecd8
3cb5b52e
bc18afc4
3902c032
bdbfef11
bd8a5311
bd2b2484
3d4d1ec6
bd88e955
bc9545d9
3d91a233
3e253adb
bd5f370b
bd57a740
3dc57358
3cf0b089
3d81a90e
bd008d4b
3d176cf7
3dfce8d5
bd35de28
bcce6069
bda8e5b2
3e04ae1a
3d92f19e
bd357c22
bd6b9b0e
bd66ad7c
3d7fc45e
bb085409
3d7bcf6c
bd1d9a21
3d8e947b
bd892845
3d085bbb
3d95d7d5
3d72b67a
3df640cf
bd4bd124
3d2583e5
3dd9ff46
bd3dd677
bd295a6e
bdb08503
be40d452
bd863019
3db64bae
3d93f68a
3d8499c6
3d160d82
3dbdc309
bc95a559
3c9d27aa
bca91dda
bdc1fb66
3c2cd5ed
bce51be9
bc308d27
bcfaaf54
bc535400
bc8271f4
3d660fa9
bd0d63d0
3b027854
bdc1d148
bd10196b
3e0d2906
3b1f01b2
bd918003
3be688f0
3d980e6a
3d021260
bce6acb6
3d2ddfee
bcbf563f
3e4df29a
3da4c97a
bd9e1753
3dd3e63e
bc4b10ff
3e1e7eaa
bde64326
3cbe8240
3e087d55
3de18acf
bdb9196b
3cc863ef
bd8dea3d
3d155a79
bd438a24
bc0a4dce
3c859e0c
bc7e4e5d
3dc01037
3e1e7d1b
bd613fe8
bc81b482
3dbc64b5
bdecd50d
bc8e63b5
3e28bb4e
3df327b2
bc33022a
3dbce695
3c865cea
bc825ac8
3d9cbe94
3e16b905
be021b72
3da01e9d
3e00117d
3d351596
3d7c0101
3cb6c9d3
3d464c1b
3e308574
3a8d89eb
bcdeb7ec
bdb8ba22
3d049238
3d785635
bdda6e31
3dfe5db0
3e03893c
bd0827c3
bce16432
bdcb1ff3
bde96a77
bdd39315
3d4c2e2d
3cf5086c
3d836325
3d0408bc
bd1b1aee
3c21668b
bd21b9d2
bbb2bedd
3d8818de
3cb6cad7
bdead000
bca1fe35
bcde4d69
3db7977e
3d676c25
3d9acd3f
bd2d592e
3b688493
bdb378dd
3e368655
bdb3ca43
3d98f255
3c9df125
3d6165cf
3c9cb833
bc7874d8
be04fa6d
bc52678d
bdd66b15
bbc7ec15
3dd21341
3c7f0db6
bdc21ae0
bdbb969f
bca0da1d
bda69af2
3d2053c0
3c1583e2
bd03f279
3cbc1192
bd7d585f
3bde446d
3e19d9bb
3dac3f7c
3e0c0622
3da2d948
bc689762
3d43f7e7
bdf0a2b1
bd3445ef
3b00b8a9
bc6d0712
3de2e4f1
bcffb2f7
3d84aec3
3ce598d5
3b982a03
be13dd10
3e35071c
bdb02b73
bdad19a0
bd848982
bcebddd0
3e0c0c3d
3d66a07d
bd9ab18c
3d82e98a
bda5d43a
3caf191f
3de582a3
bd6918c8
bc1db9cf
3da810d6
bcc67f5f
3eb8211e
bd621ecd
bd59605d
3d10fcf2
bddac8ee
3e100533
3d6a0bc5
3cab310b
3c62c38e
3d637252
bd959345
bd35c723
3d541ac9
3c05dda5
bd4047ee
bd614742
bc35a657
3d93a9fb
bd63f034
3d846edb
3e066280
3df00532
3d5145fc
bcfb91f8
bcf18ff1
3e0551c9
bc041113
bd19aa6e
bd31a563
3da0e785
3ded9f95
3c0b2723
3e06a32c
bd6bdf10
bd6cc08b
3dd4ca29
bd8e3837
3d616c25
bdcb8cbb
bda80354
3deb308e
3d585f3f
3d7c9740
3d4d71f7
bd5b811b
3d5a04a9
bc81fbae
bb5dddc1
bb12cefb
bd729515
bc593291
bde3d15a
3d669350
3e105dbf
3dad2e42
bd97a311
bd03494b
3c4f2993
3c71168b
3dd0c3f6
3cd4a42f
bbdb668b
bd0d4739
bb8307ad
3d62987f
3d842f19
3c9990f9
3d6d61ad
be03bcee
3c2733e4
3da123e9
3d9d03b1
3d04764b
bc6cce59
3d7971ce
3d17821d
3e1afd4e
3ded529d
bdd04468
3d17a0fe
3d8d89e0
3ceda32b
3cb0791d
3d8ae898
3dba4697
bd95da08
3d3a8bb2
bdcac32b
3db4511c
3ba0eb3c
3d6dd90c
3e22fa4a
3e1084da
3d89da99
bbe16207
bdb37053
be238edb
bd8a4328
bd9ba658
bda519f7
bdbc68f7
bd8ad4ce
3d841698
3d879a1e
3c5b414b
bcfcace1
bb21b240
bde937d2
3e0487a7
bc0eb535
bdb61b82
3db5df42
bddb01c1
3d907fad
3bfb4c8a
3d898006
3d2f3a91
bc9fdaf0
ba8d8170
bdaefe82
3d86caba
3d668be2
bd2b1e23
3e280ae7
3d8d4d3b
3da775f4
bcd3a353
3c2e9d9a
3e038f5d
3e29377b
3cce9910
3e144dec
bd09f304
3dc29001
bc1f74bf
3db70511
3d93c2cc
bd91cd47
3de025ba
bd631e4d
bd0381ff
3d827bde
3c9ce2b2
3ae8a9aa
bdb02a53
3d920d75
3d8d2b73
bb701c73
3d91d929
3e34225f
3d1daeff
bcb03ec3
3c90c358
3e0cbf34
3dcbdf03
3cc14d6a
3c2bbe08
3da446e7
3c7b4e6d
bd84064f
3db317af
bc20d481
3d507178
3e0acb8b
bd561fe6
bd6dca52
bd8e05e6
3dc830d5
3d96d943
3deb0e2d
bd9a2d3e
3d7c91e7
3d86c865
3d63e274
3d7cf6e6
3db37b7b
be31ff04
bdeb5717
bd090a13
bd20e805
bd7e719c
3bbab47a
3de118c3
baae9865
3a13d027
3c7d7e52
3db05c7d
3e24737e
3e1d7629
bdc33607
bd8215aa
bdd01c7e
3d8c317f
3e2a4cf0
3d627d26
3d8e9215
3c199999
3dddbefa
bc80420e
bba14bee
bd36381a
3aab9d8b
3caa4553
bdbad876
3d1ebdf2
3de2684b
bdad029b
bd9269b6
3dd8c112
3e415a5f
3db45c4a
3dd321bf
3d4fe3f5
3bf89969
bdb198ff
bdad8f38
3dbb5917
3d80ede9
bc1a99f9
3e155019
3dbd8a50
bc700869
3cacc532
bcbf57d0
bd418723
bd06cc2d
3d6016a8
3e015061
bdc7aebe
3d6958fa
3d0a4276
3d950e36
3d87f5b0
be0ae11d
bd61e3e4
3c6d8eec
3c78d5ed
394ebc9f
bd491a5b
3de2a739
bdfa817d
3ce3ecd5
3c5545e0
3c5f350a
bd4074ee
3d939aff
3d138d99
3c76ef29
3c722c7e
3cb5a7c7
bb9479ce
bc9120c4
3de41f43
3c851728
b9d34db0
3d6e81a2
3d6b4755
bd3136cc
bc30ec8f
bd0a1750
3d0a2a06
3d6c3786
3c765781
bc569af4
3c6b7e3e
bb5a6a22
3d1cf8a9
bd8108ae
3d64c928
3daea883
3cf9d92f
bd7a3917
bc4452b8
3dbeec57
bd63fe9b
3d527e26
3b76ddba
3db13850
bd291063
bd6c052a
bd383e33
3d6c517b
3d826d9b
3d9a31e5
bc4d151b
3cdbf004
bd80348c
3d8abb05
bda27557
bdc92233
bd487b41
3cfd1c2c
bdde46ba
3bb69ea0
bd7dbece
3da5d761
3cd2953a
bcb9588b
bd336a6e
bd72c469
3d32706b
bde52dd4
bd9da1e7
3b7f60e4
be0a93e4
bd31129b
3dcd0a4f
3d93eced
bcdc3a17
3ddafc07
bdb41792
3baf8473
bd11e4c5
bde46647
3a8bce84
bb07c421
bd5f6e67
3c893398
bd0e904e
3e13941e
bd498002
be174608
bc769815
be339a8b
3d8dbd98
be0b50dc
3d79e5b1
bc43ebea
3d05bfae
3db93902
bd8abd22
bda05761
3c9ca747
be0c1311
3d3c8c50
bd8bd9af
bca70253
bdbc75b5
3c99f385
bde3ae2c
bd482f63
3e2b2631
bc4f513a
3cd8138d
bc3f8b00
bb8be3bf
bbd78434
bd9d04b7
3d07487c
bd82d06c
3d75afd1
bc73fde3
3cca89b9
3b501b9f
3dea8c89
bdea9c88
bdac3948
bdce5b8c
3d1180a1
3cb8c43e
be00f6f1
be298695
bd164239
3d96e0df
bda5d7e7
3bdcef79
3d2edc48
be3553bd
bd7009fb
bc33283d
bdb47741
bd007a19
3d0cb162
3dfe6dcd
bc19b6e7
bcd77df4
3b391bb3
bd18cd39
bda3c46a
3e275802
3d1d44bb
bcdf31bc
3d6f7fdf
bcac1e48
bd10c55f
3da09735
3cac83e8
3c61e9fa
bb4dd587
3c949e29
bcb4534e
3e174d8b
3d928d5f
3cd4b1ef
bd5eac46
bdb07e15
3def2841
3d9d7b60
3ca6d2c7
bbb77c2d
3d862dc9
3e060f94
3dbb14fc
3e2a583e
3c4fb09a
bd488c5e
bb81829d
3d2c4a08
bd0cd4bc
3d9d51ef
bce9cf20
3e2bb1ce
3e1b84cb
bcd59227
3cf5bce1
ba54bdd9
bd955b55
3d586a2f
3d909022
3beadd18
bdcc1671
3d4cb3d5
bc8aa6e7
3d250dc0
3df8dab3
3b8216a4
bd4ab6f5
bc0924cc
3c3aaadb
bcf6cdb4
3dae4c88
3d9126c7
3d85890d
3c0e7783
bdadc398
3d4d9507
bdb50cad
bd684740
bdafbd83
bd873346
3d148e94
bc95cf7f
bd99d1ca
bdd63299
3dbade98
bda6f52e
bdbc4af4
3c95854d
3d8fda2b
bd181c3f
bca39d96
bd545396
3c62a41c
bcb2d7da
3d37442d
3cc0c683
bad28f08
3d67ba2c
3ba2244e
bd18a942
bc78131c
3c9ba339
be00c83a
bcc8dd10
bcc6fd50
3da34862
bdc566c4
bcc3c24e
3d252901
3ddbe73e
3b129758
3c917590
3b0082d4
3d417b71
3d0e0d8c
3db8d79e
bc5ab390
3d8a1d1e
3b51f0f3
3d00db94
3dc908ca
bd74853f
bd7c993e
3d8a973f
3d862bfe
bd7ab38d
bc46b59f
3b52f05e
bd99ad2a
3d342316
bc3079de
3d56e67f
bd39357d
bda9428e
bd5c4d6e
bd954f03
3da57365
bd322900
bce94702
3e0c9bf5
3d3b5c67
bd87d8e1
bb9aeadc
bde7c38a
3c2e3dda
3d3e78a3
3d6038b4
3bba2191
3dda26a0
bd90e893
3cc520a6
3d34cccf
3e814045
3c04ee63
bda8da3f
3d167c1d
3d0ad9b6
3d6de08f
be2e87f0
3e10b150
3dea7f2e
bdabe955
3da6f192
bd5eb641
bd3ad575
3bca233d
3cbadca6
3cdc0d95
3d9ef3bb
3c135c23
bd325770
3ccee4c3
bd4c7a27
3d25cff5
3d1b9493
bdd96aa2
bcaae8bd
3e2edfcf
3e14efeb
3debde8e
bc12042f
bd2f64ff
3de099a3
3d497fdb
3ca09ee1
bd9c4b23
bd94c80e
3c1cecf6
3db77d37
bd080437
bd9b8dd3
bd59e6dc
3e0f9bf4
3d95237e
bd80d2ac
bb80d0b8
3dbe4581
3b1e48b1
3daf1f17
3d0d3879
bda70a8f
bd38e8f1
bcb2ff25
bdb8532c
bd975f4a
3da6b39c
bd950771
3db49fdc
3d86bc27
3ceeba73
bcfbd93e
bd9f0154
bcde2d02
3c81cbce
3db7a57b
be4c174f
3de94382
bd216e94
bd367f6c
ba5ea919
bd7f78cd
3dc49603
3e077a43
3dac7176
bd864aa6
3d5b551d
bdb224cf
3d82400a
3d2e6695
3d7d99d2
bdd1e55e
be00707a
3c71d39b
bd209652
3cf2b399
3db5aca0
3bc18258
be616f78
3d827524
3ca51de5
3d8d9560
3b9c468c
3d58850d
3d558504
bd20ac3c
bdac2490
3e813bf2
3cafa4ef
3d7c9795
3c924276
3d47208b
3d64476c
bc63e97f
3d973423
bd5361e4
3dab9e43
3d548180
3d23cb0c
bda6ee5b
3e0b51a4
bb83b63d
3d19e3b1
bce74909
bd27b4f4
3dc78b03
bda01df5
bc33015e
3e088a27
3dd6bb7e
3dba6976
3d54f8b4
bd8ada0e
3db374f5
bd93c1ba
3dcafc9d
3e038600
3ca08525
3d8e0ac3
bd78bb4e
ba924ed7
3cf39632
3dee2199
3d3023ee
bc7d1b0b
3d8a1b4f
3ad498b2
3d757d84
bd510816
3dec6f1e
3d03790f
bd0c84ce
3b44cb73
3e1d6bcc
3df7c988
3d6f44f7
bb808294
3d0ce409
3df65899
bbf345c5
3e222694
3dbb3be7
3e108ade
3ddd513f
3d188d1c
3c4bcb87
3d8d0a38
3d122960
3c806a3b
bce906b0
bb9b0ec0
3c9cfa94
3d492157
bdac53ba
bdecad85
bd091c2d
3d9d1ecc
3db33fce
3cf8bde8
bde5fb73
3b32de83
3dcbc7af
3dce2029
3c8a2179
bddb40c7
3e0cb8ad
3cfcc261
3d95ec14
bc60069e
bb413557
bd2e5e66
3d0da8a7
bdc46b5c
3d52a975
be0c5d57
3d8bc55d
be20cadc
3d7c6f59
3c3e33a6
bd9e5a8a
3de07268
3d7dd99e
3cd6e514
bcd9bd94
bd66e644
3d98a322
3d846876
bc8e6780
3bef2224
3cfa544c
3d703df9
ba5e3ef8
3be28f8d
bd6936b8
bbede032
3dbbe692
3c5d4904
3d14a75a
3c8a76e5
3c607fd2
bc54f1d8
3d83bc90
3ccbecca
ba982035
3cf9780a
bda33b74
3a6fd3cf
bcab29e6
3d15dede
bd97bf56
3e03693c
3e0fb5c0
ba12627b
bd3e4903
3d61ea85
3d7b2f0e
3cf7bf9b
3bc33d4c
3d588405
bc1a5769
bdb4f2af
3cbd1c6f
bc66dd1b
bd4751b3
3d58e570
3e3120c7
3da2b1b1
3c23f40a
bd766043
3da258b8
3d47f2d4
bd72c273
3d9a94bb
3d125660
bc0a3ab1
be13d604
bc207eeb
bd91cbc2
bc07835e
bde32dd6
bdc81700
ba67b2ee
bdb66e5e
bda145fb
3d61ac73
bdbdda98
bc233667
bc5b016b
bce077f3
bd5d4fd4
bd9b9e10
3da061c1
3d694b2b
bdc1b4b3
3d479c13
bde86c06
3d57d606
3a1bbbd5
bd6a1da6
bd090983
bd90aace
bd83b2b5
3db2048b
bd682006
bcc20c41
3dd916e4
bcd1bf61
bc95b8a7
bd080167
bd88d3dc
bd50c3e2
3db5588b
bd61c9e0
3d915083
bdada8e1
bd2994d6
bddcefc6
3da62f20
3d734517
3ce45076
bc82587e
bd3a3bde
bd92496b
bd623c58
bcece042
bd7bc56d
3c82a014
3d4cc024
bb94799d
bd904e69
bdc063cb
3ca8ef95
bdccc076
bcaf0c15
bdcd8a13
bdd491a6
3dc57697
3c8ede7f
3d8c099b
3d2e4214
bc5fe8af
3dc199c2
3dc4c7fc
bce9028c
bddd3210
bda41ff8
bc69f0aa
bc280a82
3c4415cf
3d297a2a
bd96d51a
3db07975
3d629b91
bcae4cf1
3cb91a64
3dfb515e
bb4fd3d5
3c9eadb9
b7c11a34
bda31095
3d50fc1f
bdc16813
3cf95eab
3de54b32
bc3d0a1d
bc5a9630
3dfcfacc
bd4785e1
3d173eb7
3d85f362
3d7a441d
bd30cb15
bd43ee9a
bd67aa68
3c37ffa6
bd76915e
bd4021ee
bd85b0ff
3dee8089
3d2e2ece
3ce223fb
bb178052
3d1d15d0
bd709098
3c8560af
3dd8b298
bdd99944
3d5ac533
3da1bf7e
3daf36a6
3d711557
bc608af7
3d78343d
3e11f40f
bde75f1d
3d9474cb
bc010e43
bd2e3af2
bd2a95e4
3c17373c
bc048cfd
3d8afcd3
3d8cc9d9
3cd988ba
bcaec5e0
3dfd8d8c
3e478159
bd0753ed
3e46a8b1
3c9a54e2
bdd96fd6
3e1c97fd
3cea57e1
bd2f20c6
3d983b86
bc16c462
be3e6a64
bcc7019f
bc162fd6
3bd328d4
3d514323
bbeceb50
3c066d2e
3d6542d0
3c19b543
bda9f52e
bc8528d8
3d580f12
bd131cb9
3db88a0b
3d173530
3d87d73e
bc848e14
bcea737a
3d9c111e
bdfe9ddd
be04cc2c
3c98f2d1
bd2fe9ef
3d86f2be
3ce1a4b7
3df8b5d0
bc4f9aff
3d1c5819
3b99a83f
bc88287c
bd84c55c
3cbeb7f3
3d8e8891
bdc71215
3e298cee
3d2db7fb
bdde2c2f
bd917139
3c32b9a2
bd119d73
3d55651b
bd6f93e5
3d460f21
bdf8b7d1
3e272187
bd44c09b
3e130b2e
3d4698a9
3d6beab9
3d1f2751
bd434e60
bc144f46
3e11c21c
3dbe2574
3d8a0470
3de5c7c0
bdb0c5c4
3e3a4e0e
3d787683
bd485245
3e3761cc
3dba0369
bda0a9ec
bd73300b
3c1b1674
3e104791
3d83d41d
3bec9807
3e249392
bdcfe24b
3e267abd
3c96df0b
3de8e954
3dac88bf
3d373f88
3c03ddee
3d11a26f
3e247c89
bc9d94d4
3c9b0da3
3d419d79
3e1a2566
3e531635
3dec5fff
3dc17757
3ddd2374
3da059d7
3d40ede3
bc0dac8e
3c5cf827
3c8503cf
3e219cf2
3dffa13a
3ca85aca
3d38c150
3e165a41
bdbb64c6
3dbe58fe
bd370fe1
bd3f63a6
3de767b7
bdbba995
3d88c40e
3d4b9982
3b9472e4
3d6a86af
be072668
3d941c58
bccb4cba
3d602e8d
bb0e7c5e
3c2ed32d
3dfd2098
be4621d5
bde2b6a1
bdbd05ad
bd59e173
3d22c531
3dc6bc19
3bb7c27d
bdb240bf
3d97a8d9
bcd2cb95
bd327195
bcc6f4b6
bb9b582f
bb21f838
bd31f858
bd338cd9
3e02f7a2
3d8ad76f
3b92b383
3cf9be11
3d8bffe9
3dfe38aa
bd73833d
3db2b16a
3cf62466
bd979769
3d207baf
bd5109d1
3d627c92
3ce355a0
bd97e7a1
3e158edf
3c1ea524
3e084655
bdb046f4
3ddb9aeb
bd5cd334
3da15bac
bc0a0b46
3d5f3b36
3d3d95e0
bc9e2038
bc02285a
3d2ce65b
bd6abb2c
3dd855d7
3d4e647f
bdc336fe
3d055f0c
3d84bb9e
bc244679
3d3a4a82
bd864e7a
bda53a24
bc83a158
3d96a761
3d298027
3d9b3d6b
bd7b7e67
3cb242de
3de33a85
bd3558fe
bc449443
3c6d53e1
bcf6a907
bd379a92
3d921cb3
3cec08ce
bcf2c78f
bc1df979
3d513221
3d9aa9b1
3c77baa9
3da8ef66
3d834d67
3dc258fc
3dcdd123
bd367f86
3d7c6e3d
3d306c65
3d9e1fb3
3caa384b
3cf26963
3d01f594
bdf97a54
3daf1aa1
bd46b7e4
3e12d4de
3c484a7e
bd6bcbcb
3ae43230
3da96df0
bbcab0d6
bd047fe7
3d21d8ae
bdbabb75
3db4a046
3e4e56e9
3d0ab66c
3e263751
3dae08d7
bd1d170a
bc47d268
3d2af217
3d849190
3e35e0da
3c1ab358
3e3d39c8
bc06bb1e
39f980b3
3e034ca9
3d5e9659
3d847972
3d042e2d
bdac641c
3c569a96
3cbfa177
3d75ae8a
bccbdc55
3d660912
3e091fbc
be44d0bd
bd43d7d1
3cb5c986
3d151138
bc2d6e54
bd01f593
3e1e02dc
3d9b9321
bd54b329
bcb7a4c5
bdc8de0b
bc5c034e
3cc69cea
bd5209f9
3d8ecdd8
3e0907a5
3d4a2599
3cc369ea
bd03a9d6
bd24adcd
be05fa39
bcd195cb
bdd2ba27
3d30142f
3d377548
bd1d58f9
3dbcea31
bc8deafc
3d833181
3d0e59b7
3d9ab97d
3dc498fd
bc39543c
3dc84200
bdb261cf
bcc6f1fd
bdc9d828
bd12ee51
bde47d11
3d985943
3dbf23e9
3dc31838
bdf84fd3
3da6265c
bd8f346a
3ce96fb9
bd284675
3d192fad
3d9e0d74
bcdc014e
3d410038
bda63881
bd3e3a29
3e08f11b
bcc4123b
bcf9c0ad
3e0519b2
3d02f45c
3db5b971
bda2ee6d
3d77cd93
bda07f50
3d7d4005
bd10fedb
bc383d62
bd9fdb91
3db2af6d
bd7365f9
bd870032
bd1dfeee
3d79cfa9
3d848557
3bd7ca45
3da79c20
bb9de839
3c6c8db3
3dcb2991
bd20696f
bdd978ff
3d79b65e
bca8b061
3da09c1c
3da20e0a
bcfb45b3
bd3837a0
3bbda815
bd4e6507
bc26c030
3c5d8f78
bdcd906f
