// HAR 1D-CNN  FP16 quantized weights

// conv1d/kernel  shape=(19x1x12)  count=228
2e83
2bbf
b246
b4b9
acac
32a3
acb1
aa4a
2f2d
ad82
2bc6
b0cf
9f8c
2ffa
2e58
2121
2ae8
ac28
2f40
308a
aa8f
2f62
a117
35d3
2cca
2e2c
2eff
adc8
196f
2c6b
0201
b0da
a24a
2453
2bc4
2fef
2e27
b7cd
302b
b1f9
2f16
300c
b14f
3134
b39f
b2c2
29a8
b300
32c2
b40d
3513
aab8
2d5c
3326
aebc
33db
14d3
b58c
ad90
a678
31bf
b848
360d
ad65
33af
3572
b1da
34a4
b0f3
b4c4
3106
9f7e
33d1
386e
3540
b99c
327f
370d
b9e6
3529
ba5a
3c0d
b92a
b6a1
b134
b8dd
b5ff
3a53
b1d8
b675
3c84
b5b8
ba60
3756
3759
3878
a789
af1b
a056
3261
ac52
afd7
b4fa
2c12
b112
3046
31a6
2c0b
b1c4
a688
b17d
3523
aee4
2f28
b17b
b094
286f
2caf
2939
3182
b215
2d66
a02b
2d66
b157
b13c
2f78
2b2c
ad89
30bd
aa50
b428
b008
29a4
b03e
24f5
b075
a9eb
22f3
b120
a7c3
2d11
a4f9
b32b
34f5
b54c
3064
b0b6
3512
3335
b285
2ffc
b047
b20c
2ce8
b395
323d
b4ba
306d
afb6
3440
30f5
b11a
2e10
aa97
af47
2a98
b0b6
2c6c
b79f
3435
9e64
2e9e
35c0
1c80
35cd
b046
b216
3087
ad7a
3042
b69a
2e90
b16c
33ea
3074
a906
3375
2664
b31f
2f75
a44b
345f
b59f
34ac
a840
3047
32b9
b243
3495
ad6e
b44a
2c1c
b1bf
2608
b539
358b
b42d
322c
323c
ae4f
280a
aa51
b5c6
281a
a4de
3247
b621
345c
ad38
3217
2a71
b44c
3021
b0aa
b4ab
ac39
b44a

// conv1d/bias  shape=(12)  count=12
341c
3557
3672
2bbe
34d4
3568
287f
3594
2e01
30e2
aec9
24c1

// dense_output/kernel  shape=(12x5)  count=60
3a9f
b96e
a859
b719
b06d
bb04
34f1
3c66
b9b1
b91e
3a06
b4f7
bbaf
ac08
b08a
b95f
39b9
bd93
3c37
a001
3ae9
b583
2eeb
a00c
32e1
3958
325d
b8f4
bb0c
b855
b73c
2cba
bfb1
38b7
ac26
3963
b935
3027
b6ed
b15a
b229
b96f
38ed
3cfc
2c2e
b54e
3a57
33cd
bcac
b538
b129
bd69
b48b
3be2
2eaa
ba76
3784
b756
3a0a
b896

// dense_output/bias  shape=(5)  count=5
3274
2406
33ac
b1fa
b3da
