// HAR Model  INT8 quantized weights (symmetric)

// conv1d_1/kernel  shape=(5x9x64)  count=2880  scale=2.5230979356e-03
3a
06
65
26
11
97
0e
ba
e1
d2
d4
1b
49
f9
f2
bb
19
fe
6a
23
0b
22
e4
4e
07
46
aa
29
e1
d1
12
09
f8
08
01
d2
ba
2f
b9
c9
d2
fc
3f
af
35
07
a0
e7
9b
92
e5
19
ec
ac
d3
55
14
31
22
16
51
28
f5
0f
ef
e8
fb
ec
14
f2
e3
03
08
23
27
11
15
d6
d0
cd
0f
04
dc
22
1f
19
25
cf
c8
16
d6
d4
ca
1d
d5
07
0f
d3
27
ef
f4
13
de
0c
08
dc
df
e0
e8
22
d9
3a
2a
04
2d
dd
f4
ea
33
df
03
2d
e2
d9
13
dd
e7
ea
ca
ef
01
2a
d9
33
f0
f7
1b
fe
f6
28
cb
be
b6
02
3d
2a
de
0e
12
29
08
1a
e2
e9
14
3c
e3
de
e1
f6
fb
20
f8
07
e0
10
c0
0d
e6
32
0f
c4
f6
19
ed
ff
cd
0c
0d
1b
14
1a
04
df
e3
cf
c9
e3
2d
33
ec
07
cc
28
2d
06
1a
ef
ff
df
44
dc
0a
13
18
e3
f1
f9
e8
2f
f4
eb
e6
11
f6
49
20
03
46
e2
37
28
16
17
47
fd
c9
ed
fe
da
17
5e
24
ca
40
ee
12
c3
37
f8
2c
e1
02
00
0c
48
0c
0f
29
e3
c9
2a
cf
15
19
19
2c
b3
ca
23
0a
0a
05
18
e9
1b
08
05
23
ee
2d
e6
f0
2f
04
12
e9
d8
0a
e5
c6
f3
e1
08
f7
fc
cc
fb
dd
e5
1b
52
0d
f3
cb
e9
d3
12
bf
0d
19
d8
ff
ef
04
e4
f3
06
e9
28
08
41
da
fd
07
cc
c9
c3
04
e9
e7
f6
28
f8
0a
10
1f
e1
31
ee
16
f2
ab
fa
ed
d9
07
bd
f7
01
4a
3b
19
fb
ff
a1
06
0e
03
ec
cd
df
08
06
f1
02
38
40
d0
0e
f0
05
17
e6
d2
f5
1c
28
01
05
ed
c0
18
0d
df
25
df
0b
00
d7
1d
30
11
1e
2f
0e
08
f8
38
14
e5
cf
08
08
ef
0f
cf
f4
d3
db
b9
32
eb
1d
bb
1d
b5
28
d3
d1
f6
c3
f2
ad
bf
e4
d6
f0
38
12
fa
01
34
ed
e0
bf
22
e2
e0
f0
00
1a
03
ea
dc
b6
d8
18
ff
d0
1c
51
f2
00
31
ff
38
c3
12
d5
0b
0f
0d
e6
e0
29
cd
e4
e5
ee
0d
17
df
04
d7
af
f4
0e
e5
18
cc
21
c3
27
b0
f3
03
18
e6
d9
c5
1e
f0
f1
fb
e0
15
d6
c6
2e
ef
06
e8
c0
09
16
2d
18
06
d4
ad
f8
10
27
04
cb
da
2d
31
7f
41
d4
1a
5d
dd
06
41
29
eb
f4
df
53
16
ff
0b
1a
23
de
d4
e8
0c
16
00
39
0a
1c
08
07
e8
0d
df
12
b9
02
14
07
f3
13
d6
1b
07
14
35
fe
fb
df
15
33
0b
0f
fd
07
1e
0f
d3
25
dd
c7
1b
52
fd
00
f8
44
2a
13
59
d0
63
1e
f1
b0
05
c6
d3
b4
bf
17
37
c3
c4
ad
2d
dc
6b
e9
ac
2c
0a
4f
df
50
ad
d4
c7
11
d5
ef
15
45
04
dd
11
1e
b1
f3
fe
c0
56
9b
20
bc
d7
08
aa
95
e2
da
dc
a0
07
32
09
de
40
28
42
fa
fb
28
ff
28
1f
01
ea
d8
0a
07
2a
e8
2f
29
25
da
0a
ed
1f
19
c2
fe
23
d9
36
d8
02
d3
16
b7
f5
c4
09
e7
e0
03
0a
f7
2a
e7
01
fb
f1
e1
16
46
b7
e9
d9
1c
32
29
ee
db
ff
23
12
de
e3
fe
0d
ee
c6
ff
ef
25
fc
1d
cf
1a
19
38
14
ec
f9
1d
e8
e1
ee
c5
e9
1f
3b
16
21
3f
fb
0e
f2
10
22
da
f8
22
2c
1a
0e
e1
2c
15
30
18
14
0b
c7
04
05
e2
07
ca
dd
1a
28
f9
e9
ec
3e
08
0a
fc
18
e3
e2
1c
f6
fe
f9
f8
e4
fd
01
2d
d4
cf
f9
d8
41
1d
1f
07
1a
11
1c
ff
06
23
e0
ea
2f
e7
0d
16
15
32
f8
cc
4c
de
1d
41
09
d7
ec
1a
fc
15
0a
e4
ef
12
f0
1a
f6
f7
04
f6
1a
12
05
33
24
fc
d9
35
d0
0d
1a
de
c8
2d
0f
ee
00
09
06
b9
1c
fc
af
0e
d9
ed
01
ea
f8
fc
36
d7
2f
fc
3e
1c
07
e5
28
b0
20
14
fe
28
ed
e3
c6
e2
03
1e
22
dc
e2
19
37
f5
18
ed
cc
e0
d3
e5
f6
fa
f7
2b
e9
39
fe
ee
1a
27
d8
21
bb
ed
dd
2b
1c
d4
f6
3b
05
d3
ec
fb
27
09
1d
ed
30
d9
0a
2a
ac
10
ca
f3
16
c9
13
f9
18
dc
dc
dd
03
a6
12
ed
0b
df
1a
21
f1
13
0c
03
33
37
dd
de
fc
c2
09
0e
d9
e0
1f
ed
38
d7
d1
fd
26
11
cd
ea
f5
08
05
17
d5
2f
48
fc
f8
e0
f4
1a
f7
ee
f8
1a
fa
f7
09
14
0c
1e
cc
01
ba
0a
1b
35
e2
f6
b2
e3
23
01
cc
bd
14
b2
f5
f1
a2
a7
19
da
fe
ef
07
29
dc
9f
1e
10
1f
31
b9
fd
06
00
e1
af
d2
1f
0f
ea
07
3c
15
ed
26
dd
de
9b
d4
e7
0f
e4
58
d4
e6
eb
ed
16
fb
d5
20
db
20
ed
04
b8
d4
2a
db
4f
2e
ca
df
db
cd
e9
f5
c3
ed
ec
17
1f
bf
04
14
09
14
d0
0b
08
07
cb
d7
d2
de
d7
e7
e1
d3
d3
c0
fa
e7
0a
53
c8
d2
e3
02
30
2d
16
20
4e
0b
2d
2b
26
e6
eb
ea
15
cb
fb
1b
25
17
f2
0b
1c
02
0e
de
26
ee
d7
d8
d4
c6
e8
d1
09
e8
4e
ea
d9
c6
3d
b3
f8
24
ec
29
bf
0d
ee
10
ef
c5
27
fd
16
1e
19
1b
e4
2a
d5
3a
63
e1
cd
ed
3d
45
ca
67
f1
6b
f8
cd
da
0b
a1
f3
0b
fb
30
2b
a5
e5
a4
07
d1
75
30
b3
04
df
3d
e2
4f
c1
df
f4
19
18
c9
30
18
ed
b6
d1
40
e0
21
22
d1
74
a1
43
ec
ad
fe
99
8b
cb
cd
e3
ac
1f
f3
fe
38
37
3b
71
0d
00
f3
e7
fb
c3
04
d6
0b
e8
13
0a
e2
d0
17
f8
30
cf
15
24
d8
d4
eb
15
01
0c
e8
09
e9
07
f2
02
e7
13
e9
10
e2
0c
12
cb
0c
cb
e8
13
33
0b
f6
fb
da
2c
00
31
2d
f6
1f
1d
ea
f0
c2
23
d5
d0
cf
c5
c1
18
eb
e2
0c
c8
25
d4
dd
10
08
33
e8
27
e1
0c
29
ee
17
33
22
fc
23
20
3a
fc
2d
22
06
f5
3c
25
cd
02
16
eb
22
04
32
ec
b7
1a
fd
26
f5
06
37
18
f5
1a
0f
d4
fa
3a
e5
01
14
01
2d
1c
13
04
f2
1c
25
f6
21
e3
22
1a
f5
e3
dd
f7
3f
11
e0
26
e7
eb
c2
ee
15
07
40
eb
d4
d6
1e
d4
67
4b
e1
44
ea
4e
fc
21
0f
1c
e6
f3
d6
cb
df
08
33
00
fa
dd
d4
f9
dd
e7
dd
fc
2d
e1
19
f3
f4
20
fd
08
14
c3
c9
10
e4
f3
f5
2a
93
15
2d
02
c9
ff
15
dd
fa
05
d3
4c
0f
51
d5
04
fb
e2
d5
37
d5
03
08
b7
db
d8
d1
13
ce
e0
51
dd
0f
0e
48
2e
f3
05
f8
f2
02
27
fb
e1
f9
16
0a
03
fc
c9
14
d9
2b
eb
03
d8
1b
06
cd
e1
cc
f6
ff
34
cf
01
1a
01
0c
f4
36
1d
26
1d
09
b5
22
fc
e5
13
1b
1f
fc
06
0a
0b
e0
1e
0e
e1
db
ce
da
e3
0e
28
38
e4
26
03
00
c7
db
2f
c5
f8
fb
1f
07
e2
e1
08
36
1d
ec
29
e7
d9
cd
08
08
db
f4
01
13
23
ed
fa
fa
26
fc
35
fb
ad
e0
ea
44
1c
29
c5
fc
b7
e1
e8
ea
df
31
12
1b
bf
0c
e2
2e
ca
d3
20
c6
b2
f3
a6
d6
0b
1c
d4
14
fd
03
1e
a4
c8
dc
cd
f6
dc
0a
cd
21
f4
dc
0d
f9
fc
a9
fe
f0
e9
fb
f1
11
0a
e3
d0
d3
12
cf
46
bc
00
e1
23
e0
cc
c0
2b
28
d9
09
ed
ca
c9
37
de
38
dd
e1
1c
e8
05
1b
ff
e2
25
17
1b
f9
0b
05
1c
d0
3b
15
18
00
e6
03
d7
0d
f1
d7
d0
cc
01
f8
ce
13
46
e5
4f
f6
11
3b
1e
7b
28
d1
1e
34
0c
3d
4d
11
2e
16
34
2c
df
ef
0a
1b
f7
fe
25
20
dc
23
e4
2a
f8
03
ce
04
ef
ea
e1
1d
c9
46
c9
b4
f4
45
b2
34
02
e2
19
ca
e8
e8
32
fd
01
e6
03
d6
27
fc
e4
21
e0
15
21
61
11
cb
01
fe
37
2a
45
01
61
d8
0a
f7
f6
a5
1b
f0
0d
39
31
fc
e9
a3
52
bb
6a
09
bd
3e
ea
43
f0
44
da
1f
19
d9
e1
f7
46
28
0f
08
f1
fa
ab
21
0c
c3
49
ea
50
d7
a7
ba
dd
e1
b8
10
c1
c3
2a
f3
e4
2a
58
05
21
38
eb
2f
d7
ff
e4
2c
29
1c
11
25
1a
1a
02
09
b9
d4
11
0c
e2
e1
f8
2d
cc
d8
d0
f0
de
ff
d1
ba
12
c5
41
0e
f2
0b
f1
21
00
d6
cc
1e
d7
2a
de
0e
20
2f
fd
ee
25
12
c0
f4
0d
f0
0d
cc
ef
25
ac
f0
bd
f0
e2
12
16
d7
d6
d4
da
df
24
26
ed
e2
e9
e0
1a
0e
26
d1
0d
0a
d3
1d
08
f5
11
f5
f9
f9
d7
31
2f
e3
ec
f7
2e
02
f8
1b
08
17
3d
db
0f
d5
e4
26
11
de
21
13
16
1b
fa
e3
e7
44
13
21
18
0a
e1
17
c9
2f
1c
02
e8
d9
c6
f4
28
ec
fc
de
0f
0a
2b
d8
f5
18
27
12
d7
34
e5
d3
df
12
db
6e
3b
1a
55
25
49
e5
fe
ef
1f
f8
1f
e9
fd
d8
01
4e
15
ee
e9
28
28
1b
02
12
f5
2f
0e
16
25
f6
0e
c3
26
3a
f2
04
18
00
01
2d
f8
d9
cf
21
b1
e4
d7
06
2a
d2
d4
d9
1c
0b
e5
fa
f4
e8
e5
0b
31
d5
2f
11
d4
fc
d8
ce
ef
f7
f6
1f
3a
ed
fe
3a
1a
13
06
23
ba
ff
49
df
fd
05
ed
e0
15
d8
ea
00
f6
2b
0f
32
e7
ea
d6
2f
ef
c0
e2
2f
3a
2c
d6
19
ff
22
ec
03
0f
09
16
f4
0d
31
f2
1a
ca
20
f6
dc
e6
3f
09
12
12
3e
16
01
ed
d1
ec
2a
ff
36
f3
18
03
fa
19
dc
dd
27
10
3f
f7
26
f8
1e
16
22
cd
25
12
dd
fc
0d
08
03
2e
ca
0f
12
10
11
2c
11
e7
d7
f3
1a
b0
ec
07
23
d0
13
09
30
ce
d2
05
1f
e0
ea
04
11
b2
f5
e9
f3
de
eb
d7
da
c1
09
bf
ed
e7
14
fe
0d
e4
e3
0d
ea
ee
b6
d2
24
cc
f9
ed
f7
f9
cc
05
09
08
f4
fb
ff
d7
18
20
12
25
a4
0b
27
d4
df
47
02
04
03
27
ce
18
b5
f4
e2
d4
cf
eb
01
cd
19
31
37
c8
1f
d0
fe
d5
e0
c7
e8
1f
03
26
36
d2
16
dd
e9
37
c8
d6
e0
20
07
17
b5
2d
20
15
26
d9
29
f3
ca
46
20
42
eb
e1
33
0f
7d
5f
14
f3
32
25
49
fc
e2
f3
1f
fa
4e
e7
ef
db
07
cb
0a
28
05
1b
2c
22
0a
12
01
ec
00
d2
fa
d3
dc
03
44
29
ea
bc
39
c4
ea
23
1b
2a
fa
06
f5
e3
20
03
24
e6
31
f8
16
09
eb
2b
0e
24
25
f9
1a
1d
f0
37
fb
0e
06
e8
d9
d5
de
f9
b8
3f
e8
e8
32
08
cf
ef
ae
37
10
63
3b
da
0f
05
47
01
4a
e1
31
1c
df
dd
f8
f0
f5
0b
f2
2e
33
cc
e1
d7
bb
69
da
4e
de
ea
b3
a0
ae
e4
ec
d3
9c
23
29
08
2b
ea
0c
3f
fb
09
17
fa
07
13
ee
1d
ff
02
20
e4
fa
13
f5
cf
39
f7
19
c6
f2
da
12
df
d4
c8
09
c4
d8
e4
10
db
17
1c
21
f3
e2
18
e5
10
dc
fd
12
25
00
b5
5c
31
e1
2b
d1
2f
f0
f5
17
26
08
27
dc
d5
de
b2
e4
d4
d0
17
12
1b
e9
18
08
15
d1
fc
de
f9
17
14
03
da
1c
01
d9
32
2c
e2
40
29
2c
36
f2
06
35
2f
40
0c
06
03
f4
d9
14
ef
06
23
06
0e
f4
05
0e
e6
f9
d9
ed
fb
f3
25
31
14
00
05
f5
09
2c
e7
fe
ed
fa
d2
30
0d
01
23
15
d8
07
1f
d7
ea
2d
01
2a
dd
f2
0c
c1
fe
f0
16
35
d4
19
e5
d9
04
62
19
c9
4a
f3
4f
02
33
dd
1c
19
14
e6
1b
d7
00
5e
14
0c
3e
f5
1a
df
1f
ec
01
19
1d
26
2a
29
fa
1e
cc
12
c8
ed
e2
de
d8
0b
0d
8f
e2
08
e2
22
12
bd
ed
23
cc
13
3f
fd
da
1c
f9
eb
dd
0a
0b
00
01
2f
0d
05
c4
03
eb
0b
f2
53
f4
d2
f1
1a
3b
18
e5
3b
bc
d9
11
1e
db
13
2b
ca
bf
e9
01
e5
13
c1
f3
c9
f8
07
e2
f8
2a
fc
23
f1
0d
03
2c
ef
fc
d5
d7
f4
e6
f2
13
d4
b8
01
db
10
09
f4
0a
d9
13
26
1e
3a
cc
3b
c5
ea
03
0c
24
11
e9
f9
f7
2a
f4
ef
de
df
e0
f7
e3
39
40
1c
19
0f
eb
37
0f
28
e5
17
f0
ce
12
fa
2b
f0
e4
f6
2f
e9
da
fc
e1
04
14
ec
ec
d8
fc
20
c5
1c
e0
fd
fb
d4
c6
db
15
30
c4
17
b2
f1
fe
cc
dc
f3
ff
b5
d2
21
cc
ad
33
20
d6
d9
0e
34
fa
f0
17
c9
12
ff
e7
f4
09
d6
0a
e7
d7
d9
fa
d5
21
42
ed
f9
07
e4
1f
a9
e7
1d
ed
0a
55
c8
02
f9
05
de
22
a9
e6
d3
22
ff
f0
dc
01
07
23
fd
d7
0d
e7
07
d6
12
be
c7
e0
d2
05
25
05
0a
f3
21
e3
da
f7
27
07
da
08
bd
fb
f8
d9
e6
f9
db
c9
bd
12
df
19
0b
c5
f7
37
4f
37
04
12
2e
e1
48
48
e0
fc
da
13
43
f8
d0
e8
0f
16
31
09
f7
f8
f2
13
2e
f0
0f
21
d3
0d
09
19
fb
d9
12
e7
bd
1e
43
c1
e9
1c
21
4c
bf
1d
ef
d9
00
01
13
22
d9
d7
eb
0d
f9
14
0a
31
23
fb
16
30
0d
27
eb

// conv1d_1/bias  shape=(64)  count=64  scale=1.0164060931e-03
f0
16
b0
16
2b
05
b7
d1
b6
1d
81
f4
ae
f9
fe
da
d5
f8
e0
0e
bd
16
ea
dd
dd
cd
be
e1
f3
df
19
24
e1
e5
0e
ea
db
d3
f8
f3
10
f2
a9
e8
da
09
d3
f9
cf
bb
ec
c8
fc
e9
c4
dc
42
15
d5
df
d5
16
38
e5

// conv1d_2/kernel  shape=(5x64x64)  count=20480  scale=4.4475948717e-03
1a
01
08
01
ee
02
04
0b
04
fb
f4
fe
10
00
f0
06
fc
ec
1d
20
fe
f6
0b
f3
f7
fa
19
f2
16
08
fb
07
11
15
d1
19
fd
0c
17
0c
fb
07
0d
f0
16
0b
04
16
09
fe
07
07
0a
f9
fa
0f
ff
04
04
f8
17
04
f4
e6
1c
14
05
fd
e8
29
0d
fb
f6
0d
00
0d
ec
0e
ed
0e
0e
e7
16
fc
fb
fc
ef
00
21
02
fa
01
d6
e9
10
06
ed
f4
01
ea
fd
e8
06
14
ff
10
ff
12
f8
17
1a
1d
09
03
08
fa
fb
0b
09
df
10
eb
b4
fe
d8
f1
e7
fe
e9
0d
1f
11
05
e5
06
f8
fe
0d
f4
11
04
fe
fa
f2
0a
e4
e4
fa
f9
17
f9
f6
e8
28
0c
fb
e5
0a
fb
f2
0c
23
ec
24
fe
05
03
f0
03
0c
07
02
10
01
e7
ea
dc
fa
12
01
f8
0b
e1
00
03
01
06
03
f6
fa
16
e7
0d
ff
04
05
0a
25
12
f7
00
f2
f9
10
e9
f8
f5
0d
fe
03
01
0c
07
f3
0f
11
0d
f3
ff
03
e5
de
f6
02
09
f6
0c
fb
dc
12
1c
fd
dd
23
04
03
fb
f6
0d
1a
11
0d
05
ff
f5
f8
11
fa
ee
f9
dd
04
e5
e3
f0
15
21
e8
30
fc
eb
e8
05
f0
e8
03
1a
07
eb
19
ed
02
1a
ec
f9
fc
f3
0d
20
05
26
ff
0f
1a
ec
f9
24
d4
e7
f4
21
f1
f3
0e
f4
0e
f8
0a
f9
12
f0
12
1d
2a
12
03
f6
f4
19
f6
f2
f9
15
00
cb
18
e6
f3
e6
09
01
15
24
11
f8
fc
16
09
f3
12
eb
09
fa
16
12
f7
e3
f0
fa
04
17
f9
f7
ff
0e
1a
14
e7
00
13
f2
0e
03
1c
f6
05
f4
0a
0c
e5
03
e9
1b
0a
ef
0c
df
fd
ed
f4
fd
f6
04
f1
fc
0c
f0
18
04
e8
13
05
19
eb
f8
ee
ed
fb
13
0d
0b
12
f8
ff
0a
04
f8
11
0d
10
ff
0f
0c
04
14
0a
f2
e9
0f
f8
f8
fb
1a
1b
fc
fd
f6
f5
f2
00
ef
07
f0
05
0d
12
1b
fa
12
0a
f7
ee
f0
16
e7
01
07
08
f3
01
f2
0f
ce
0d
05
f9
f5
11
df
23
ff
f7
fc
ef
0d
23
f0
15
fa
12
fb
06
f1
08
f4
eb
08
09
13
16
fc
00
09
1c
fd
0c
fe
f1
09
ee
f6
00
06
1a
fe
ff
f8
00
f1
0f
ff
04
03
f6
fd
f0
fa
13
06
00
15
f4
17
0e
06
12
03
01
0b
08
08
18
eb
10
fb
01
fe
f1
0b
0a
fa
0a
fd
11
f5
fa
03
0a
0a
09
09
0f
e6
eb
14
08
15
27
f6
03
fc
eb
f6
10
ff
12
12
07
f4
0e
0d
06
11
18
0c
ee
ee
01
fe
fe
02
fc
16
06
00
e8
f1
08
0a
f4
f9
10
ee
0a
f3
fe
11
f5
b2
1f
0b
16
0b
0b
08
f2
17
f3
13
f6
10
08
d4
f7
07
0b
10
0d
ee
e8
ef
08
12
04
14
02
fe
29
fb
f9
db
12
ec
1a
1f
ea
ee
f5
1b
15
10
f7
e0
fb
10
ff
00
06
f4
0e
fc
0e
f1
05
22
db
26
02
ff
f5
f3
f6
f6
12
f0
f4
09
20
f5
09
10
17
e8
15
13
14
08
fc
e8
ea
08
f5
02
ef
fb
0d
e9
05
f5
e2
0d
e9
ff
15
0e
06
0a
07
e7
fc
fa
fc
e7
08
09
09
ec
fa
fb
fc
0e
06
1b
fe
f2
03
ed
01
13
0c
f6
f1
09
fd
e4
03
21
12
17
02
00
fb
fa
07
fd
0c
1d
0c
ed
0e
f7
fa
0c
11
d6
06
f3
e7
01
02
00
0a
05
1a
ff
fa
ef
15
e1
f0
fe
12
03
dd
0f
ec
0f
f4
00
06
e1
e8
f5
11
13
08
e8
0b
13
fa
e9
1a
07
fe
1b
10
f9
00
f7
e5
1a
05
fe
fe
0a
02
d8
ff
19
01
dd
10
0f
25
2c
e5
f1
ff
19
0e
1b
fb
18
2d
f8
f4
ec
02
f0
f3
0e
00
09
ff
09
02
fe
05
ef
1a
d6
0d
06
f4
0e
0b
02
09
19
fa
fe
02
f3
f1
26
d4
01
04
dd
08
f2
03
07
16
cd
19
fa
23
f5
09
fb
0f
1d
07
22
03
11
02
f1
13
fe
02
09
05
ec
11
fa
18
08
e5
03
05
0e
13
02
04
01
0a
15
12
f3
dd
f5
19
15
14
03
ee
01
16
f8
07
f5
01
11
ff
f7
1f
06
07
0e
f7
0b
ff
13
e3
02
11
dc
0b
f9
f9
f5
04
e1
f2
0e
ef
e5
ff
03
23
f0
0d
d9
0c
ff
11
08
07
f2
1a
0a
f2
d7
dd
db
fe
17
ea
14
16
f5
0e
ff
f5
e8
17
e7
f6
08
fb
0d
19
f8
1e
02
f8
08
1c
14
14
0e
f2
0c
13
0f
19
05
01
e2
22
e9
fa
e6
ef
19
07
ef
22
0b
00
ef
07
f2
1f
fa
0d
de
1d
12
17
f8
0f
00
24
f3
f1
f5
f5
e4
04
07
0c
0b
fc
17
1b
ed
fd
ec
15
f4
0b
e6
1e
00
0c
fb
04
03
fc
06
1d
09
ff
03
f8
04
0c
f0
00
05
f9
fa
f7
f2
fa
f0
fd
0f
20
e9
05
0b
f1
f5
09
0b
06
ff
e9
e9
f3
1e
0d
ff
09
f8
0a
f2
01
f5
f7
f6
fb
15
04
04
f8
0d
f1
0c
19
ff
14
ef
05
ff
eb
f6
23
00
25
08
f8
07
08
fb
fe
04
f2
04
03
ff
09
06
20
0e
f2
11
11
fe
1e
f1
f2
0a
08
f1
ed
0d
ed
f9
eb
ee
03
07
1b
fb
0c
f3
03
ec
ef
06
f1
06
0f
ec
10
ff
1f
f7
0e
0b
1a
06
ea
0b
fa
06
fb
f6
f8
e8
f4
eb
ef
17
fd
14
e9
fe
05
03
01
18
07
fc
11
1b
05
ed
f3
18
12
f5
e4
14
fa
fd
09
18
ff
01
ff
ed
01
2a
e6
fb
27
03
19
07
ed
01
13
e7
fe
f5
fa
0d
0e
fa
1d
f1
12
fe
16
07
04
00
15
15
f3
0e
e9
0d
fe
f2
14
15
1f
12
10
fe
01
fb
09
12
04
00
09
07
ff
16
fa
eb
0a
f2
ff
f8
dc
fd
e7
09
25
09
12
f9
d2
24
e5
05
01
25
ff
0b
18
06
ed
08
18
f0
12
f8
f9
fb
03
0d
fb
f8
0f
14
e6
05
1a
12
11
e4
0e
09
f3
23
df
f1
fc
20
fc
d9
15
ec
01
1a
04
1f
02
fa
0a
1a
07
fe
16
ef
10
16
12
10
fb
04
11
0a
0f
00
0f
f8
f3
01
ff
09
14
f8
0c
0b
0a
f9
e4
0a
0d
e5
f7
12
13
f3
ff
fe
16
0e
fb
03
ed
07
11
06
f1
e5
05
0b
04
ee
f5
ff
12
ed
1a
ec
0d
fd
ec
ed
f9
0a
f6
05
fe
04
e6
e3
04
00
f3
ec
f6
03
05
d0
1d
fa
f4
06
e3
ff
fd
ec
0b
12
01
29
18
f5
ff
e0
f0
20
f0
ef
05
fa
e5
06
10
f1
0e
f0
11
04
1b
e9
03
08
22
20
11
04
08
1b
0e
fe
03
0c
ee
f9
08
f4
f5
eb
0c
e8
15
e3
01
fe
ea
0a
2a
fb
00
07
e9
02
ed
0f
06
e1
f3
e9
ff
0e
f7
ee
df
de
1d
ef
0f
f9
01
e9
0c
fb
0b
03
0e
11
fb
f6
18
f6
0c
f9
fd
fc
0b
03
08
0e
31
f8
f7
eb
13
16
03
0c
02
14
fe
05
f7
16
15
ef
0e
ea
1b
05
d0
0f
06
f6
04
10
e6
fd
ec
09
04
16
ec
fa
18
e5
03
ff
fe
01
0e
fc
0a
f8
14
f8
fd
fa
fd
fe
17
0e
03
0c
fb
f5
ff
0e
0a
02
14
e3
dc
05
10
f1
05
0a
ee
f9
23
fa
20
28
e2
fa
15
1a
11
f5
fc
1e
f6
15
de
04
fe
00
18
13
09
04
f6
f1
11
fc
0d
0a
15
f0
14
ed
01
fd
f9
0e
03
20
1b
e3
1d
fd
0e
e6
f0
f9
16
01
fe
03
fb
eb
f6
0a
05
e7
f6
06
08
fe
08
07
f4
ec
fd
08
17
02
f7
16
f1
fa
0f
06
12
da
12
08
fa
1a
24
f8
15
f5
f4
f4
04
e9
06
16
f1
e6
f8
0f
0e
f6
0e
11
2b
f1
14
f3
e8
05
db
16
15
11
0c
08
09
e9
13
ee
20
e9
1e
0e
0f
0d
0a
fe
03
ff
23
13
02
08
19
f7
fc
0d
fe
0e
15
10
02
b8
f7
ff
f0
20
ea
f0
10
00
19
e5
e6
1c
f3
12
f3
e6
0f
e9
01
eb
13
01
f7
fb
f7
f5
05
16
12
f2
00
f1
f0
05
f3
07
1e
ff
00
f3
f2
11
f9
da
0e
fa
e3
e6
04
02
12
11
0e
eb
15
fe
0d
c9
ed
16
1b
1c
10
ee
01
05
01
ec
e3
05
03
08
e9
01
0f
e1
06
03
fc
08
11
00
f6
07
1b
0a
e4
f3
2a
ff
00
ef
ff
ec
05
0a
f7
10
f1
fc
0d
ea
fe
fb
18
e6
12
07
fe
0b
01
f9
05
11
f8
16
1d
1d
f8
04
fc
e4
08
ee
e9
fa
12
ff
00
f5
e8
fc
dc
eb
04
14
f3
e5
eb
10
0d
10
05
ed
f8
f3
1d
d1
14
e6
f7
0e
ef
10
f4
1a
19
09
0b
07
ef
01
fd
16
0c
0b
ff
e4
e9
16
f4
f8
12
cb
e4
09
ed
11
0d
f1
14
f8
12
f0
04
ea
ff
05
13
0a
f6
f0
09
f4
17
06
fe
04
05
f6
fd
01
05
08
ef
ee
0f
dd
00
d2
ef
ff
1d
f9
ec
dc
26
dc
04
f6
ed
e0
f7
00
12
17
fd
f2
12
fe
03
ed
1b
fb
0f
f4
ff
f3
06
f4
26
f5
f1
fa
26
0b
12
f3
e7
12
ed
08
f8
f0
21
00
fa
9a
19
fd
f4
fb
09
eb
f6
ef
eb
f4
00
eb
18
f1
08
e7
13
f1
0d
0b
e8
e8
36
09
f5
02
fb
e9
f4
e8
02
f0
e7
fb
f3
0b
00
09
22
fa
ed
f8
1b
00
0a
ef
11
f8
04
ff
26
25
1a
0c
01
1f
25
fe
02
0e
04
fb
f8
f1
f5
06
22
f4
15
f0
e9
fb
16
e6
04
f5
0b
f9
03
10
fa
0e
0b
fe
fa
12
f1
1b
e6
d8
f4
1b
00
12
0e
fd
ef
00
03
10
ef
e5
14
fb
00
fb
ef
0c
15
02
0f
09
0b
f2
ee
fd
dd
fa
f5
e4
fd
c6
f6
fe
ff
f8
02
08
fa
ff
f9
e4
20
ed
ee
ea
f0
e4
f5
ff
0b
e2
0a
ec
dd
04
1a
ea
e0
f1
02
e9
02
09
e9
fa
fe
ea
f1
fd
04
07
e5
f8
0b
07
1b
f2
e2
f7
fa
07
14
fa
16
ee
f4
ed
17
15
10
1b
04
15
17
e7
ea
e1
0d
e5
09
21
ff
d7
0a
f6
fd
ef
e9
fd
fa
dc
f9
fb
16
0c
fb
dc
e2
f2
ef
08
f0
ee
1d
f0
fe
c9
db
d5
e7
eb
df
0a
0e
02
df
c8
16
fa
16
bf
fa
12
f2
fe
f8
03
20
fa
14
07
1c
04
d0
0a
c9
fa
27
e1
e5
fe
10
04
ec
fe
fd
11
02
e7
fe
f7
07
f5
17
15
12
f4
11
dd
15
f5
0f
e5
f9
0a
ed
13
f2
e9
03
1b
12
11
f6
f3
15
0e
f2
e8
0b
0b
0f
0a
ec
f7
e7
03
e7
e8
eb
fa
ed
0c
15
ed
f3
f8
f6
0d
14
0d
10
0c
f3
f6
02
19
0b
de
00
e3
1b
03
12
eb
f3
1b
fb
fb
15
f1
f3
15
e8
05
ee
13
ee
fc
f4
03
f0
20
f7
ec
ee
ff
e3
11
14
05
04
ed
05
10
f0
e5
23
e4
18
06
ea
08
03
02
0c
e5
0a
ff
09
fc
d9
e8
fd
f1
04
d6
f4
f3
f2
f6
03
fa
e4
0c
f2
02
0d
06
fd
f9
18
11
f6
f2
1c
03
f4
f8
14
f9
fe
0d
f2
07
f2
f1
e3
00
f3
03
e8
13
01
e9
c1
07
f8
0b
ed
e4
04
fa
0d
ef
f4
fc
0a
ec
01
ff
17
03
16
03
e2
0e
0d
a6
0a
03
ec
03
f5
ff
03
e6
17
ff
df
0a
f9
02
14
0d
0f
06
fb
ff
fa
05
f4
f8
09
fb
fe
f8
fd
04
1b
f0
07
08
06
f4
f6
01
03
f6
0c
fc
05
13
ec
e9
13
16
05
05
09
e9
fe
0c
fc
fe
0d
f1
ec
04
fd
f3
0b
0e
fc
1c
01
06
fb
0f
12
0b
09
ea
03
fd
fc
fd
17
1e
20
13
1c
f5
08
0c
ee
fd
eb
0b
12
14
17
16
fb
03
01
f5
04
15
f2
17
ed
f7
00
f8
08
e3
05
00
04
ff
ff
e9
fc
0a
18
f7
e8
12
ed
06
fd
02
f7
06
e7
e7
0c
00
fb
fc
f6
10
19
0f
fa
fe
1b
12
fd
0d
f7
f8
ff
f7
0e
f4
e6
f5
fe
f6
ff
fe
f0
e6
0d
f2
1e
fa
f7
0e
06
12
f8
eb
01
fd
18
0b
15
16
f2
00
14
14
f8
ef
fe
f0
fb
f3
e6
02
19
0c
e8
f8
10
eb
1a
16
00
13
14
ee
f0
0e
ef
e9
ec
e3
1a
f3
04
ef
0b
05
0e
e5
f5
0b
f9
f9
07
19
fd
fd
08
0a
f8
22
1e
fa
f3
fc
f1
f7
ef
f9
ec
f7
fe
08
ff
11
16
d5
09
eb
19
04
e7
05
01
0e
15
ef
00
09
0a
22
eb
11
ee
f6
de
f8
f7
00
fa
f1
09
d2
1c
ec
0a
f0
2a
f6
05
11
15
df
e9
ea
16
00
fb
e2
ef
f6
22
fd
05
fd
1b
e3
f6
da
e2
da
e0
f1
08
ec
08
ea
ee
d9
23
0d
14
f6
fe
f8
20
16
21
0c
07
f8
10
1a
18
25
f5
0a
d5
fb
3c
fa
16
eb
fb
ef
f5
f9
1f
e5
f1
14
fa
0c
13
17
ec
e4
15
14
13
0d
ea
ed
13
dc
16
ea
0d
1d
27
fd
0b
ee
d8
e7
e9
30
12
14
33
11
15
ed
dc
f2
22
14
27
fa
0a
f7
f1
02
0e
13
29
1f
f9
ec
0d
f5
ff
3e
fc
0e
0b
15
e5
e1
16
c7
2f
f0
df
19
17
fe
0d
fc
fa
17
10
f4
05
02
e4
e5
21
11
1f
ea
f9
ff
26
fa
11
f1
e5
e2
ef
1e
0f
ed
11
1d
20
ff
16
08
02
06
11
f8
11
e6
19
f1
f1
20
1b
2c
18
1b
16
19
f6
fe
1d
fa
07
1d
f7
f9
06
f0
fc
03
f3
fb
00
04
fd
0e
ee
f5
04
07
fc
13
f8
f0
17
f0
14
05
00
f9
1b
ee
0b
08
03
05
15
fd
f6
ec
0d
05
0e
0c
06
fa
13
fd
03
05
fc
fa
fd
ff
fa
01
19
04
f5
17
0b
0c
0f
01
f1
ef
f2
03
17
11
fb
13
f8
f4
08
fe
11
15
10
0f
02
22
fe
ff
06
d4
0c
05
1d
18
07
dc
e0
0f
11
f3
04
13
1c
f8
27
fa
06
e2
00
0a
08
0e
01
fc
f9
f6
0a
1a
01
e2
06
f6
0e
07
13
fc
03
0f
f1
f7
f1
f7
ff
06
03
ec
f0
da
23
fc
05
13
fd
12
1f
04
07
f7
ef
ee
05
f6
19
e8
ff
e7
0a
1a
0c
f0
07
05
02
0a
12
ef
e7
e1
03
21
1f
11
00
ff
02
f9
f7
ee
17
13
f7
00
02
14
19
ea
0c
f5
18
03
f8
f7
09
ec
e8
1c
0f
f8
00
12
0c
11
f3
0a
ff
03
00
01
f0
fe
09
ff
03
ff
fc
00
13
e6
13
1a
ff
13
0e
e0
fc
f4
14
f8
0c
01
0a
02
ff
f4
f4
f2
0e
0b
12
12
e3
ef
0f
f7
f2
01
e9
f6
f2
05
07
f6
fb
0f
f7
ed
10
f1
0a
f6
f3
10
00
15
e9
e9
18
06
18
10
f8
12
18
0e
0d
0e
f7
0f
19
18
f9
f6
e5
15
0d
0c
04
08
01
07
1c
08
e9
f7
10
f7
02
04
1e
06
03
01
0a
fe
ff
fd
03
0f
fd
fa
02
f1
0a
ef
ee
0d
12
09
f3
e7
1c
f8
08
fb
ea
1b
0d
0e
f9
db
13
05
0d
ef
d7
06
f7
0e
1d
0d
fd
0a
17
fe
ea
f7
e0
fe
1d
0d
0c
e5
04
eb
24
ff
12
05
f9
ea
06
11
13
fb
1e
0b
03
f8
f1
0c
13
fb
14
e7
09
04
f9
e2
ed
1c
15
17
0d
f4
f8
f0
00
02
0c
0d
14
1a
07
ff
fe
18
fd
f3
e5
ee
05
ef
10
fd
f1
14
fd
e6
ff
06
02
f6
12
0a
fd
f1
e7
02
1a
ee
0c
ea
e5
f7
fe
0b
17
fa
ef
fe
06
0d
ee
01
07
00
fd
fd
f7
01
0f
fd
fc
fe
18
01
15
f1
0a
06
fe
f8
e8
ee
12
0b
01
e9
0a
ee
f2
ef
ef
fd
22
03
09
e7
01
ea
ed
0c
11
e2
f7
f1
02
17
f3
fa
ec
f1
03
fe
09
ee
02
fa
fc
05
0f
f9
ee
02
06
f8
fe
f8
1b
05
fe
fa
15
0b
15
06
2c
08
0c
14
1c
1d
09
f0
04
f4
07
ef
fc
06
28
02
0b
11
ee
03
c9
12
15
05
19
0f
e2
0a
ed
e8
0d
f2
16
fb
22
e8
07
fa
ee
ec
fc
f1
06
1c
f8
10
35
f8
fd
fd
01
ed
14
09
18
fb
fc
15
10
fc
ee
05
0f
e8
01
12
f5
10
fd
11
0f
07
0f
f9
de
1c
12
13
15
f7
0b
1b
0e
08
06
1c
08
05
01
0a
ec
08
f2
f3
e8
da
fe
f5
1f
f6
02
f7
07
05
f5
f3
f0
f2
0f
ec
1a
fb
1d
d8
15
16
08
0c
e5
0e
f6
0e
13
17
f1
ef
ff
0a
ff
17
0a
08
f6
02
f4
f5
f8
0f
02
04
ed
fe
ee
0c
07
f3
0a
08
f1
0b
f6
0e
ee
09
16
13
1e
ed
ee
0e
fe
de
ea
fe
07
0f
0b
17
08
16
19
fb
f0
f3
dc
0a
f3
ff
f5
07
12
f6
fb
fb
14
1a
10
ee
10
0b
fc
0b
ec
0c
fa
18
0d
f2
ef
0f
17
0b
f8
f3
fb
ff
f0
01
ef
04
1e
fa
fe
05
1a
06
18
ec
f3
08
0e
fa
2c
11
fb
ef
07
ff
1e
f1
f0
10
24
08
fc
e1
ff
db
e6
07
13
05
0d
f9
12
f4
0b
f2
25
f0
14
06
f0
f3
fa
0b
14
13
1d
f9
22
06
f5
00
e5
08
01
fc
0a
fb
03
f9
01
28
03
e5
03
fe
02
f7
e7
1a
ff
c9
0f
ec
fb
04
09
02
fb
11
ea
1f
0c
11
0d
03
16
c3
f5
0d
d2
04
eb
1e
07
f9
ed
0a
13
03
02
f8
1b
09
fd
23
0d
1e
0f
f6
f8
11
07
f1
e6
16
00
f9
03
f7
ea
03
10
fd
0a
81
04
01
20
0f
f7
28
1f
f5
ee
29
f1
e9
01
f1
03
0b
0d
ea
05
fe
e1
01
f8
fc
f9
08
13
fe
08
1e
0a
ff
0b
f7
0a
1e
05
13
0b
1b
1b
1c
0b
e2
06
fe
04
f4
fc
f0
ec
00
1d
e3
19
2b
01
21
ec
18
02
05
e9
f9
fb
02
cc
13
10
19
0f
04
fd
01
00
fb
14
1b
f3
e9
19
f5
fc
e4
eb
ed
0e
10
0f
13
0c
0b
16
12
1e
e8
f4
01
11
f9
0f
00
ed
f7
ff
0c
05
09
e4
f9
03
0b
f7
0d
12
fd
1d
11
14
0b
f8
02
04
02
fb
f1
11
ec
04
0b
04
0a
14
fb
19
fa
f2
07
1f
f5
fd
f9
f7
eb
07
e3
f4
fb
fe
15
07
da
0f
04
ee
08
d2
18
0f
15
e1
05
f8
f8
fd
07
15
ff
f5
f3
f1
08
08
f5
13
f8
1e
fa
09
ea
ea
f4
14
ed
f7
f9
11
11
0d
14
fe
2a
17
04
cd
16
f5
fc
1d
17
12
e9
fd
f5
f2
03
e5
e6
01
12
00
ff
fc
26
21
03
0c
f6
fc
f0
e7
0e
fd
20
1b
16
06
f0
f6
f3
07
07
f9
0a
f8
16
02
f7
f9
f5
02
01
0a
fa
29
0c
0f
15
ef
0d
f0
11
ff
fe
17
2e
fd
05
ca
f4
f1
fd
f4
10
20
f0
fa
00
ec
0d
e9
eb
e9
19
03
19
19
26
f2
03
03
e6
ed
13
fd
ff
f4
1c
f4
0c
ea
f4
1f
03
1a
d8
fd
f9
07
26
2e
1e
0b
fd
ec
13
20
e9
08
1c
df
f8
25
f9
f9
ed
f2
1a
ff
0b
ef
f8
fa
f9
05
ed
df
1c
22
c2
1b
ff
02
1f
f4
07
e6
10
ee
16
0e
19
ed
10
19
e5
e2
21
cf
e9
01
1e
ef
eb
e6
01
18
ec
11
eb
f4
ee
0c
23
2a
fe
0a
e8
f1
0c
07
04
e9
09
07
f4
0d
e1
ea
fd
11
eb
f9
fc
05
0f
f0
e8
19
e4
e4
e1
fa
10
fd
f0
26
f9
17
e7
e3
09
13
e2
eb
f4
1d
f0
f4
f2
da
eb
03
e9
fe
12
f4
f1
e7
eb
15
fd
1a
e4
f8
1e
e5
00
16
18
23
f1
0d
e5
0e
29
f3
f6
f8
0b
16
e5
08
e1
29
f1
f3
18
0c
f4
11
0c
00
04
fd
fe
f9
0e
04
f9
15
17
f3
11
13
f3
fa
08
01
fe
07
0f
fa
00
01
05
0d
f0
06
d4
16
f5
0f
ff
10
f4
12
ff
0b
23
f5
e0
10
f5
f1
10
0d
fa
ea
f1
19
f5
f8
15
ec
11
fa
fb
f8
11
11
12
f8
e4
18
f4
10
e7
f8
0e
1b
ed
0f
e4
f6
0c
02
1b
fe
fd
1b
f9
17
1c
0b
11
fb
f7
da
12
03
db
e7
13
e2
ec
fe
f1
ef
e2
1e
df
fe
01
ee
0d
0e
13
00
fa
f5
0b
15
1e
ce
f1
eb
b6
0a
d2
f3
de
07
e3
f4
1b
1b
05
ed
f6
0d
fb
27
10
05
16
fe
f4
07
2a
e2
e7
14
e4
09
e0
10
f0
0b
fb
08
0c
05
ec
0a
fc
0c
f8
0f
1b
1c
fe
fb
ee
f9
17
ff
17
11
ea
f6
e2
06
05
0d
15
df
e2
09
0f
03
23
0b
f3
0a
0d
ff
1e
f5
e2
fb
02
07
01
13
fe
ed
f9
0d
fb
f7
eb
07
00
f2
13
0c
03
f6
ee
0d
f8
02
05
01
e6
f0
13
fd
0a
03
f8
eb
e7
fc
17
04
f4
25
e3
f8
00
10
15
02
06
fe
07
f0
fe
ea
04
e3
03
dc
e1
fb
cd
fc
ff
f1
0a
07
1a
08
ec
01
fd
f5
00
e1
11
22
c5
09
0a
0d
12
08
0e
f3
f8
ec
20
1a
04
e6
13
12
da
06
1f
e3
dc
e8
08
00
fa
f3
e9
13
e4
1d
ff
09
ec
06
28
26
11
fd
eb
fb
00
fb
fa
eb
06
f8
e1
fd
ec
f6
e7
0a
ef
0d
31
00
04
0d
f9
05
06
0b
fa
fd
16
fc
fd
f1
e5
13
f3
21
1f
15
d8
07
00
fb
fc
0f
10
1e
fe
16
0c
0e
db
16
fe
1e
f4
f9
14
fd
16
f3
f0
ec
e3
04
f4
10
06
f7
fa
e7
f9
f3
ed
19
fc
e6
04
ff
16
ed
e0
0b
fb
ea
18
e9
0e
14
fc
fc
e4
10
12
fc
05
29
f0
13
12
f4
1c
02
f7
fa
05
0c
fc
07
13
06
09
08
ed
fa
13
e7
f0
fb
f1
fc
f8
08
12
ff
07
ef
f6
f7
10
14
fb
f0
0c
f8
ee
ff
0b
fb
ee
ec
00
f0
ff
10
fc
00
ee
12
0d
f0
17
19
0d
04
10
17
f8
19
f2
f9
ec
f1
f2
1a
0a
12
04
0b
fc
ff
01
08
ee
0a
ed
fa
0f
09
04
15
f9
02
06
ec
0d
1f
02
10
f4
0b
f9
ee
ec
fa
03
0f
16
f6
09
0f
f6
0c
eb
e7
ea
f4
1b
fe
04
13
10
f5
0f
e4
ed
13
19
f3
07
fa
f0
0c
14
f3
03
fe
fb
0b
fd
f1
01
f8
ee
00
f6
05
18
0d
06
06
0d
05
0f
17
1c
00
06
fb
05
18
fd
fd
09
0a
08
ff
0e
0d
f5
ef
18
0a
f8
08
f1
ff
1a
06
ff
08
f9
f3
07
06
a2
f7
00
08
ff
0f
1b
14
fa
fc
22
0e
fa
17
ec
0d
16
0c
14
17
da
0a
ff
fc
05
e3
fe
10
00
10
0c
13
f7
02
0f
14
12
08
f9
05
1f
0a
06
00
e5
0d
02
f2
00
f5
e6
fa
f3
14
e6
18
0b
e3
1a
ec
f4
ec
e1
1d
f2
f5
f0
0e
f7
1a
f5
05
0d
fe
f9
13
12
15
1b
f5
01
06
0c
ef
04
0a
09
19
fc
ef
ed
e6
fa
ed
11
05
0e
1b
fd
f5
00
fe
0a
10
03
f0
03
f8
01
17
04
f5
10
fe
19
02
f8
04
f2
11
f8
fc
e9
03
0a
02
00
eb
1d
fb
13
0f
e6
0a
10
f1
fa
18
f5
19
07
e7
02
0c
13
f2
ec
f6
f2
f1
f9
0b
09
08
21
1c
fc
04
ff
17
f6
15
08
13
11
e1
04
f2
05
0f
0e
05
f2
ee
f0
05
ee
f5
eb
e3
ea
f0
ef
17
0d
13
f9
01
0a
e2
1b
ec
25
f1
e5
e7
08
13
e4
04
18
1f
e9
fd
0f
16
2b
ea
e9
0c
1a
fc
05
ff
10
0b
f1
11
d7
f7
04
e2
11
02
f6
ed
e8
df
d5
0c
e1
0e
00
ed
fd
0a
0a
13
0d
02
0d
f5
0a
03
0b
f8
31
dd
0b
03
e1
02
f3
06
18
fa
d1
03
09
27
f4
14
f5
fd
04
fe
05
1e
fd
00
ec
f6
fc
15
0a
0a
fc
fe
f9
f5
13
e9
08
02
01
f2
0b
08
f6
1e
0b
f8
fc
fc
f0
ff
16
fc
0f
0f
ff
f2
f7
0d
07
f4
0e
08
11
1d
e1
03
1a
00
0d
0e
fc
ef
06
1d
fb
11
07
f0
0f
05
fa
0c
14
fc
db
04
0f
22
ff
00
ef
f9
12
12
fd
f7
e8
12
ff
f2
d6
e0
fc
e2
f2
ff
f6
ff
f9
ff
f4
1c
f2
13
02
ec
f8
15
1a
1b
f5
1c
f3
0e
eb
fa
1b
14
08
e8
06
09
0a
f6
f1
1c
f8
27
ea
22
ed
f2
f9
0d
04
00
0d
03
ee
f8
08
fe
fd
10
0a
06
e9
1e
ef
f7
ef
28
fc
10
00
f4
f2
ec
12
07
f6
15
10
ff
e9
ff
0f
1b
f5
01
11
0f
fe
0f
f6
05
08
02
22
f8
16
21
fc
fa
f6
ff
00
f5
0c
f2
e6
05
fe
14
00
e5
0b
09
02
15
07
ff
15
08
f1
0c
1b
fc
f7
ec
1b
f5
fc
f7
f7
1b
07
17
05
e7
e5
fb
04
19
f9
fe
08
f2
03
1d
f2
22
02
f4
00
f7
03
1b
ff
0e
f0
fa
04
0f
03
eb
f0
00
f3
f6
f4
fb
1c
15
fa
f1
25
0f
00
17
eb
03
ff
fd
ef
00
fe
0f
f0
f1
f9
17
0a
01
fe
19
da
fa
f6
09
fb
ed
07
fc
f7
12
fb
1c
e0
11
fe
21
1d
f2
01
fe
14
0a
16
ee
d3
f1
ff
eb
06
fe
f2
f5
13
15
dc
1a
fc
db
1e
09
08
ea
0f
0c
18
1b
f7
d5
12
ef
0e
1a
fc
e5
01
18
f1
e5
24
0c
ef
03
e3
f9
fb
13
1b
fa
0b
18
07
ff
0e
07
1f
18
16
f3
08
20
14
01
06
fd
06
16
0d
e7
fe
06
10
fa
04
09
f3
fc
f3
0e
e6
1e
fb
e9
fe
0e
12
fd
0b
f3
14
03
05
0f
05
e9
04
f9
1a
1b
f2
fe
f0
e7
ff
03
f6
eb
1f
ef
1c
0f
22
f6
07
04
14
0f
06
d9
f0
09
08
fe
e6
f3
0b
f4
0d
0f
fe
f0
ec
f0
01
f1
fd
ea
f0
e7
1c
f8
dc
f6
f4
f0
17
e9
0b
e9
f3
05
0d
15
d7
fc
04
0d
14
0e
e9
f6
ed
fc
fe
02
fb
f7
e7
f3
eb
02
16
01
01
e4
ef
29
13
00
0d
0f
ec
fd
11
1c
fe
07
0c
f3
13
ef
f2
fd
14
0e
0f
eb
ea
09
0d
06
f7
13
03
ed
09
01
13
ee
e3
ef
0a
0f
19
ea
17
f2
21
f5
ef
06
ec
ec
f8
03
24
18
e9
f6
03
fa
1d
f5
09
0d
02
10
0e
10
06
f1
fe
15
fa
dd
18
d3
f7
ed
1c
ec
11
f6
02
15
fa
15
0a
fb
fe
ff
0f
25
18
12
f0
03
0a
01
0a
e5
14
fa
f7
1b
e6
e8
05
05
dc
0f
f5
18
03
fe
e8
07
f0
ee
fd
0e
f5
ff
10
27
fa
11
ea
f4
20
0e
e1
e1
06
31
ef
03
ee
f8
e6
0b
12
12
fe
0a
0f
14
e8
fb
07
03
fc
e9
01
f4
ff
fd
f2
11
e9
f7
10
0a
10
fc
f3
ed
ef
f6
f4
e8
00
0c
ec
09
00
07
0d
cb
11
ea
13
fb
0f
fe
15
03
f8
00
f8
ee
e3
07
d9
fb
fe
02
08
1d
f7
14
ef
0c
fd
f5
17
f6
f6
fb
12
26
f6
e8
fa
05
1c
f4
13
05
f4
e3
00
00
08
13
14
ee
13
17
f2
15
28
e5
14
f0
03
00
fd
ff
01
f9
05
ec
0a
ec
f8
13
fc
0b
06
07
16
06
08
09
f2
12
e0
fc
04
fd
fd
0f
0c
ea
06
18
0a
08
e8
f7
e5
09
09
14
fc
0e
0a
ea
ee
fb
e3
10
fa
f5
ff
ee
0c
10
fe
f9
06
10
0f
f4
e4
0c
10
f8
0a
07
e8
f9
e4
1e
ff
ec
0c
00
09
06
fe
06
18
f7
0f
0b
21
04
fa
0b
f4
1b
06
fa
06
18
f1
05
00
e9
ef
da
12
f8
ff
1c
11
f9
09
f3
02
19
e9
01
21
10
f6
03
00
07
18
29
0c
06
05
08
20
f8
17
01
f6
ff
14
10
de
f3
e1
0c
0f
eb
01
fb
0a
08
f4
e6
00
fd
fb
f9
fd
16
e0
15
e5
0d
f8
f3
e2
09
ff
00
1c
03
fc
1b
ed
02
f2
fd
fb
1c
f2
0b
ea
f3
0f
06
d9
13
e5
0b
f1
00
0a
1e
0e
1b
eb
20
10
22
ca
18
13
01
18
19
e6
07
25
f6
08
04
12
19
05
fa
f1
ef
dc
eb
f5
1b
f0
11
f4
fe
fa
12
05
dd
ee
1b
07
f6
ec
f3
e6
f2
f8
f5
ee
e3
f4
fe
e9
07
03
12
f2
10
12
15
f3
06
09
07
f8
16
08
06
07
f2
00
dd
cf
07
f4
f2
1b
0e
eb
f8
10
f2
f6
be
fb
f0
08
f9
0e
05
1c
ee
f6
15
ef
08
05
02
eb
ea
05
f9
0e
15
f8
fd
01
05
f0
0d
eb
03
fb
eb
ef
0a
0d
ec
e7
08
13
ef
e8
10
d6
ed
f5
f5
e7
12
f2
fe
08
1b
0f
1e
f5
02
00
f1
01
0f
fd
1a
ca
16
f1
f3
fa
0a
e0
fc
e7
0e
e4
e2
f8
2e
ed
f9
e5
09
ef
01
f4
04
e0
24
da
f3
00
f6
e4
01
18
00
f2
ee
f0
03
f2
26
f4
16
01
08
fc
14
f4
0f
0f
25
ed
04
0f
13
1c
fc
1a
07
1e
04
10
0f
ff
05
df
1c
a5
10
02
03
0b
0a
01
01
fd
fc
fd
0a
12
1d
00
0f
f0
0b
f4
0f
e9
fa
e7
2e
03
f6
e8
db
e4
fa
ef
ff
00
11
10
05
f6
1b
ef
1c
eb
0d
1e
03
0b
17
f5
1a
03
09
f8
18
19
ff
15
eb
10
00
f6
10
f2
24
19
0d
10
ff
f3
17
03
02
ec
0e
1c
f2
f2
f0
ed
12
18
04
04
05
0e
18
04
ef
fe
f5
13
f8
d0
eb
05
ee
0c
f5
f3
e9
e0
09
ff
0d
f4
21
ed
f8
0c
f0
13
11
1e
f9
fd
12
10
0f
0f
dc
eb
ec
e5
fe
ce
e7
e1
f4
0a
fc
0e
07
05
ec
fb
1f
f3
de
ef
05
03
0e
05
1d
f0
19
01
e5
1f
0c
f7
f0
fc
0e
ef
03
f3
07
dd
f7
db
ec
13
f4
e2
f3
f4
0d
e2
1d
00
e9
08
10
02
02
11
14
00
0f
e6
00
0b
02
fc
fb
17
02
06
0e
e5
1c
fd
ea
08
ee
ee
f5
f8
fb
f1
eb
f2
0e
c1
ea
05
1b
f0
05
e1
de
fa
07
ee
f3
fb
22
ea
00
c5
e2
e3
ef
f0
e1
eb
e9
f4
f3
e8
f6
fe
18
b7
ee
f0
0d
05
14
0a
15
ea
14
05
23
08
d1
f4
e2
f2
25
f2
f1
ed
03
06
08
1c
ff
0b
f4
fe
ea
0a
05
0d
0f
1b
f5
f6
ff
f9
1c
f1
f8
e0
ef
05
09
f0
10
fa
01
1e
f9
eb
15
e8
11
ea
0d
0c
0d
0e
05
ff
0d
02
ed
08
ed
ff
ed
02
0a
fa
02
fe
09
f8
07
04
07
0c
f9
06
e9
ef
f9
02
0a
e6
0f
ec
2e
ff
f7
ea
0a
03
02
e4
17
e9
0f
fa
f4
1c
ea
0a
f7
0f
09
27
f7
1f
01
e5
03
0f
f1
f7
00
fe
f6
f7
13
14
0c
e6
0d
0c
0f
06
02
fc
01
02
07
02
07
0f
12
ef
e0
05
02
ef
f1
d8
01
0c
f2
0c
e5
d0
e5
01
f6
10
02
02
00
0d
0a
01
fe
ff
1a
fc
fb
02
08
0a
0f
f6
f4
09
13
12
06
0f
f9
f6
de
e7
06
ee
c9
0e
f0
f7
00
f2
0d
06
fc
e6
ed
01
e5
04
ed
13
f7
09
0c
f3
f0
fc
0c
b6
fb
f5
0a
fd
f9
0d
12
06
0b
0a
ef
14
10
03
05
f1
f7
fc
f5
e9
06
fa
f2
f9
17
f9
10
08
ec
0f
08
fb
00
11
11
ec
1a
07
07
fe
14
12
07
07
06
0d
fb
18
f0
f5
07
f4
01
0a
ff
f6
0a
07
03
05
f3
fd
09
19
00
0c
eb
0d
ef
18
f4
1a
09
e6
ce
f6
0e
e6
fd
0e
21
05
f6
f7
12
0e
13
08
ef
ff
0b
0c
ff
23
14
0e
08
f2
fd
ed
e4
18
12
01
f8
01
13
e9
f8
00
1b
fd
12
f7
f9
fd
18
18
12
0f
01
10
0d
e8
18
f7
ec
e5
11
0a
0f
06
ee
f4
ff
21
ed
0d
0a
f0
e9
f5
07
f9
fb
ee
00
fb
fb
fa
fd
f9
1c
f1
0b
f5
03
ed
f8
f6
11
0e
03
03
15
f4
10
df
fe
10
fa
00
03
f5
02
04
fa
f0
0c
d1
04
e4
f4
f2
f8
04
fb
ef
f7
08
1f
10
e4
06
04
12
09
09
ff
f4
f9
07
06
0d
12
eb
ff
0d
08
d7
10
e7
04
10
f0
15
0a
12
f7
e9
15
0d
1b
01
ec
fc
f9
17
ed
f7
fd
ed
f4
e2
02
07
05
f1
02
e4
19
f2
e9
06
1d
ff
15
10
fc
00
fb
12
e7
11
e4
eb
f4
e1
05
e1
fd
e9
fe
af
11
dd
08
0a
2b
f2
fb
f2
01
e9
0f
05
0b
e8
06
e7
0a
1a
12
0c
ef
e6
33
e8
f1
f0
e5
f5
f5
18
12
fa
14
12
03
d2
01
fa
26
e1
fb
1a
19
ff
15
0f
ff
05
08
fd
2f
19
0c
0c
ed
03
2f
ff
ee
f2
1a
03
fa
f5
1b
ee
07
18
07
17
24
10
0a
05
f7
0e
0e
19
fe
fd
22
f8
19
04
f6
21
17
01
29
ed
e8
f4
0e
07
18
06
1d
02
14
02
d9
f7
0b
0f
10
1c
1e
14
fc
eb
ff
1e
0c
1f
f9
05
02
00
08
3f
06
1c
1f
20
f9
de
2d
c0
14
ea
02
21
0c
ff
0b
19
ea
15
f1
ed
23
ec
e2
f6
0a
0a
02
f8
f3
eb
2f
eb
0b
ef
03
ff
da
07
1b
0e
08
18
0d
ea
07
f8
f6
fa
fb
f6
1b
05
18
06
10
1f
0e
15
0c
10
ff
06
df
f5
03
f1
f3
1f
07
f6
ff
04
18
01
05
00
0b
f7
14
04
f8
f8
f8
01
12
07
0d
03
ff
f3
f9
f1
06
f2
13
fc
05
0e
f3
e8
fe
1b
0c
0e
02
fa
fe
fb
04
02
0f
13
f1
fb
f0
08
15
ef
0d
10
05
10
1b
14
04
00
ff
f4
0d
03
15
f8
0f
15
07
28
05
f2
17
03
ec
11
f8
15
fa
08
15
fc
e5
da
fe
1e
19
0f
f8
db
e6
ed
17
fb
07
21
ff
12
0f
07
1c
d1
15
ea
16
fa
ea
eb
ff
04
15
f7
e8
ed
f3
f4
0a
ee
ef
e8
f6
f7
12
d9
fc
1b
f7
1a
e3
06
e8
e1
16
fb
fc
ed
06
fc
10
17
09
0f
f7
ec
f4
e8
06
ec
ec
0b
04
05
ef
f1
ff
0e
2a
02
13
d9
fd
e2
f8
0c
f9
03
1a
17
01
ff
05
03
15
13
09
11
f5
f0
f5
fd
12
f8
1c
19
17
f5
03
f2
f4
f5
fe
fc
fd
08
12
ef
f8
0a
06
ff
00
fe
11
05
fd
17
18
0a
1c
12
fb
02
eb
1a
0e
fa
0b
f5
0c
08
fe
fc
0a
06
00
06
17
09
10
f7
0b
ef
07
0f
f1
fc
0c
0a
f4
f8
0a
f7
f4
f9
09
ff
0d
f3
fe
0d
f1
ed
ee
0c
01
01
ef
02
fa
05
19
fb
0a
f0
0b
04
03
f4
01
04
0f
f7
06
f8
04
ff
ea
ff
10
09
fc
07
fa
ef
1d
00
f1
05
03
f3
02
fe
1d
0d
0a
f2
fe
13
f6
ff
0c
15
0d
ed
ff
e4
f8
07
fb
ff
13
03
ed
f3
06
10
f0
01
f0
11
ef
f0
11
e5
fe
16
f9
f1
eb
ff
09
0e
12
16
f1
0a
02
01
f0
08
fc
0b
0d
f2
f9
03
08
ec
0f
fa
eb
06
e8
00
05
11
09
0c
14
1e
20
0c
e2
08
15
10
0b
ee
f2
05
f1
ec
05
03
0a
14
fc
f7
0a
02
14
f0
0b
e4
10
08
ee
ff
09
26
00
03
f1
ff
17
00
12
f5
08
11
ee
08
03
fb
00
e9
08
04
05
00
f8
15
04
10
f3
fc
f8
f2
f3
10
0b
14
0e
01
19
ec
09
01
0d
04
ef
0d
11
09
11
f8
1b
07
17
0c
21
16
0f
f1
05
e8
e3
fd
0e
04
f6
02
09
ea
18
f0
02
00
02
07
fe
08
e9
f7
fd
ec
10
f1
01
ee
ef
fa
01
e8
03
fc
12
0b
fa
f1
f5
fe
11
f9
f6
0f
03
f4
ed
ef
15
e8
22
ef
f3
fa
ff
03
ff
eb
1d
f0
01
04
1e
07
01
00
0c
ec
16
0a
f1
11
1c
f6
0f
10
0e
ff
c8
08
15
f8
06
01
08
03
03
08
f7
fc
10
12
11
f8
03
00
e3
0f
f8
0c
00
1b
05
17
16
11
00
09
e4
fe
15
01
f1
ed
0c
15
fa
ff
f9
df
ff
f0
f2
fa
17
fb
19
fb
03
0b
1c
fd
e2
01
0f
f9
f8
03
0a
34
11
0e
f3
12
fb
fc
10
f2
fe
ed
02
fa
f6
d0
0b
09
0d
05
02
07
f5
ee
06
fd
ee
f7
fe
02
f7
16
fa
e0
1a
08
15
09
e6
09
f3
f0
f7
f2
ff
e2
fb
f7
ef
fd
19
02
f8
f7
0b
f5
0c
1f
f4
f7
f0
f2
ef
f6
eb
01
fa
17
e5
fd
ea
f4
ef
12
fc
f9
09
f0
0a
05
f0
f8
0b
fd
f9
05
18
19
1a
09
01
10
07
09
d5
02
fc
03
ee
03
04
04
08
ff
14
08
ee
0c
fc
09
ff
12
f6
0a
fb
07
f3
05
f9
08
07
f0
ff
0d
f6
f1
06
f1
f7
e9
f7
02
fe
14
1c
02
06
f6
e7
0f
01
f6
26
01
01
f1
fb
13
06
01
f9
ed
17
00
17
dd
ec
db
f5
26
0b
03
e7
0a
ea
ec
fb
f9
01
ee
0c
10
fa
09
f7
ed
11
ff
17
f2
1c
1e
fb
07
01
0e
f3
fc
f4
f3
23
fe
f1
00
fa
08
f4
01
ef
ed
ec
20
1f
ca
04
04
fb
03
05
f6
e1
05
fc
f8
fc
13
ef
f1
1c
de
e5
fc
ca
00
ee
14
ec
fb
03
0a
f4
fd
29
ec
03
f2
09
19
0f
0e
f9
ff
fa
0a
0b
09
00
0f
0f
e4
0e
02
0d
ec
15
f4
04
95
13
0f
28
0c
f5
07
0c
ef
e6
05
f9
fa
e6
ed
fd
0f
0e
06
0d
dc
f8
13
f7
03
13
05
fd
0a
11
02
00
e4
2f
18
16
14
e5
08
10
0b
12
0a
e2
fa
18
eb
11
07
1a
f7
e2
f0
2f
f2
0f
44
eb
23
ea
16
e8
09
0e
f8
17
fd
d0
f5
04
1c
1a
ee
f4
07
13
f6
ff
18
01
ec
19
0d
f1
f8
e7
f4
04
0b
0d
fc
02
e9
29
ef
1c
f8
fd
fc
12
13
f8
eb
fb
02
0d
ec
f7
e4
0b
fc
eb
f3
03
05
f2
0f
26
f6
18
02
0b
04
fb
1c
0f
ee
f9
f5
01
fc
e1
fb
0b
15
f6
f6
f6
0b
1e
12
1a
06
14
f0
13
de
f4
fe
11
f3
fd
dd
18
03
f4
1e
e6
07
fb
0f
f8
f2
eb
0a
f6
ea
17
f7
00
f9
f5
22
17
08
03
07
21
fe
08
f9
e6
ef
11
01
06
e9
13
02
ef
07
ef
20
0b
fe
bf
19
e6
10
0f
25
12
04
0d
fa
01
20
ea
f4
02
f6
f9
07
1e
18
f9
f9
15
ee
f2
0a
e1
08
11
fd
15
f6
fa
e8
ed
f2
08
01
12
0d
f6
0d
05
07
10
11
01
04
fd
ef
19
f0
0e
30
03
10
f6
12
01
13
14
41
ee
e9
c3
ef
fa
02
02
10
23
ee
fd
f5
11
15
f6
f0
02
10
09
10
11
0f
f5
f3
fd
e3
f4
26
f1
fa
f1
1d
e9
0c
02
d6
06
f9
27
f7
0a
12
01
3f
17
25
fb
0a
e7
fc
12
12
fc
01
e7
03
03
ee
09
ff
fe
27
03
29
e7
de
03
f9
f6
04
e4
09
01
c5
fd
ee
0a
0a
ec
02
fb
01
f7
ff
14
29
fc
f5
1a
d6
00
14
e7
ff
06
14
fd
0d
fa
f5
01
dc
10
02
0a
ef
07
18
1e
19
f9
08
ea
10
02
03
f2
f3
f9
e6
08
ff
f7
eb
fd
ef
ed
13
fc
f9
11
ee
1d
d9
e9
05
06
06
e7
e6
24
f5
0f
00
ef
0d
04
f1
e4
ec
04
e7
eb
07
f0
e9
ea
f6
f5
fd
01
f8
df
ed
14
f8
08
fb
df
0e
f2
06
25
f8
30
f6
07
f9
06
22
ec
02
ea
eb
0c
0f
e5
dd
0a
19
03
1e
15
fc
24
1a
f9
13
f2
1d
fd
11
f9
00
0f
06
ee
f6
22
02
0f
fa
f9
1b
ff
01
15
f8
03
0b
f9
16
17
ef
18
07
10
f2
12
f8
12
12
0c
f9
0b
f7
ff
16
0c
04
13
0c
f6
08
f5
f1
fd
26
fe
0e
0b
16
f7
17
00
e7
e9
e7
0f
f4
0a
e5
08
0c
0e
eb
03
f9
fd
17
ed
08
05
fe
0b
f7
f5
0a
0d
16
e2
fd
dc
14
ea
ff
f3
fe
d6
f3
09
11
f9
e4
05
ea
0d
09
f1
19
23
1a
19
0d
19
f9
f4
12
f5
02
e3
c2
f5
d2
07
f3
14
f2
eb
08
fc
00
ff
fa
0d
0f
fc
0e
16
0d
00
06
ed
27
06
ed
13
02
12
eb
fe
05
2a
0c
0b
02
eb
0b
f6
f1
fd
f2
01
04
13
11
ea
07
0f
08
1c
14
f0
f4
f7
f7
16
0c
fb
20
03
ff
01
fd
1a
15
04
08
17
01
0f
0a
0e
da
f4
06
08
05
f9
e0
fb
f7
02
00
fa
f4
08
19
f7
19
11
15
0c
0f
ef
0c
fd
0f
e6
de
ec
f9
f4
0f
00
fb
f6
dd
f4
0c
0f
f8
1e
eb
0c
11
e8
16
23
04
07
0f
16
e8
02
0c
e8
0e
e3
d6
f0
e9
f8
ff
f2
fd
07
1c
fa
dc
09
e7
f0
f9
07
09
0c
e3
18
0b
ff
18
07
f2
e3
0d
06
17
07
26
0b
0d
05
da
fe
0c
d7
de
f9
02
0e
f9
e6
f0
1b
01
22
e3
11
f6
f4
2b
19
1a
fb
e7
ef
fa
f7
12
06
07
ed
da
18
e7
f4
e6
16
f0
f2
22
0f
0a
09
14
f3
fa
13
e9
fa
19
0c
00
f1
d8
ec
ff
ff
18
ff
f3
ea
06
fc
f3
0e
12
07
f6
0a
04
0e
dd
07
f0
16
0e
e3
03
10
1d
10
fb
f7
dc
01
07
15
05
17
06
e9
ef
f3
06
05
03
fd
17
02
18
eb
e8
f1
fc
ee
f8
f5
f7
17
0f
17
0c
f9
03
08
f1
1b
10
11
fa
14
0b
12
ec
fd
f3
fb
08
fb
0a
04
ea
16
10
02
ff
fd
01
f9
17
08
fc
0e
1c
0e
0e
ee
f9
ec
0c
14
0a
08
f2
fb
0b
ed
08
f6
ff
f6
0a
01
f6
fa
fc
20
f3
10
f1
f9
fc
0d
05
11
fa
16
00
18
ec
1b
0e
03
04
05
0f
01
00
fd
04
1d
fa
f0
f6
f4
0a
07
0b
0e
13
f2
f9
13
ef
ee
0b
0c
f8
13
01
fc
f8
14
ea
01
15
1a
fd
12
ec
0f
f7
f0
f0
09
fc
08
08
ef
f5
1e
07
10
06
ea
12
10
01
12
17
17
0a
0a
00
00
17
f7
f5
fa
0d
ee
fc
f4
11
25
f1
eb
f6
f1
f4
05
13
ef
03
00
13
01
01
df
07
ee
1c
13
0b
16
0c
10
f1
ed
0f
12
0c
f7
f3
03
f2
fd
f2
f2
10
f1
14
0d
f4
fd
c0
1c
0e
0f
0b
fc
0a
09
f9
f0
13
03
fa
18
fa
0e
fe
1c
f8
13
fa
f2
ed
ee
12
f8
15
09
f3
1a
f0
16
fb
1e
11
fd
0d
f1
09
f2
05
11
fc
11
ff
1c
06
0e
f5
08
f7
0e
1b
06
f4
19
27
e1
16
07
f3
fb
03
02
e1
10
fa
ff
f7
19
fe
02
fd
f9
fd
f3
f8
00
f1
0e
04
06
14
10
13
02
08
0f
01
18
f7
02
f2
e8
e8
f2
08
f2
fc
ee
f2
10
fc
15
e6
12
ff
14
ef
17
ed
f2
15
16
15
f6
11
10
f6
05
f5
03
0e
16
0a
f5
0e
f2
21
f4
18
fd
fe
e9
fb
ed
00
f7
21
15
03
07
f9
18
03
1a
e4
f5
fb
14
07
0e
fe
12
17
10
04
04
fb
15
f7
fe
16
13
0e
ee
eb
0c
09
0f
02
f8
e1
f6
e5
f1
ea
11
f1
e8
e6
14
0f
13
03
0f
f7
fc
02
e2
fb
00
1a
f6
e8
f2
10
0c
e0
e8
0a
1f
d7
fe
ee
24
11
eb
ee
f9
fa
f5
18
0c
f9
11
f4
ef
df
f9
e3
de
f1
e6
06
f2
ea
f1
ee
0e
df
05
df
0a
f9
f8
1c
13
ff
0e
12
0f
f7
14
07
e2
14
d0
0b
ff
ef
f8
fc
fc
f9
02
e5
1a
15
09
fb
18
09
07
f5
0c
1c
15
0a
f7
02
0e
1d
f6
1e
0c
04
f6
f1
03
f6
f9
1a
05
05
ff
f6
1e
f7
f6
f3
03
12
e6
0a
ff
01
0f
07
0b
ef
18
13
ff
03
fd
fe
fa
05
0e
e2
14
f2
0d
0a
04
f5
e4
fc
15
ea
1a
00
e4
06
25
e3
fe
ef
02
dc
e7
08
19
ea
fd
ed
0b
11
20
09
fa
f1
07
f0
fb
e4
d9
d8
03
05
ed
17
16
e6
e6
f3
20
f4
1f
ff
06
f3
17
00
06
0a
27
14
1c
03
15
12
f9
f1
db
12
0b
f8
12
0b
14
0a
fe
ed
06
e8
05
04
1f
f0
1a
0d
ef
01
f9
00
10
f0
fb
fd
04
08
f8
09
e4
f8
0e
e5
f7
ee
e8
09
df
1d
1a
0e
0b
f3
10
f9
ec
06
1f
0e
06
fc
fd
08
08
ed
06
f6
fb
fd
13
05
22
12
08
f1
09
fb
10
ff
01
04
00
ff
02
fb
e7
12
02
09
06
f8
0b
fb
07
0d
08
1f
ea
e8
ef
1d
06
fe
f1
05
0d
f8
1b
02
e1
e8
fb
1c
09
fe
f4
e8
01
fc
1d
04
26
12
10
15
f3
fc
06
f9
11
04
1b
11
f9
fd
f0
f9
07
1c
0b
05
02
f6
04
f2
19
1a
0d
01
17
fa
ec
11
0e
f3
08
14
0a
ef
f0
07
15
fc
20
04
ff
de
f3
0e
fc
13
f2
20
15
ee
23
fe
06
f8
fc
fa
1a
1d
e8
f9
01
15
ec
12
14
fa
03
fd
e9
ec
03
06
ef
09
12
e7
11
00
fb
0f
09
0e
11
fb
eb
29
f5
17
f2
03
e9
ff
19
f4
e6
1b
fd
02
0c
27
10
02
0e
e9
08
e1
06
f7
12
f5
1a
03
f2
f6
1f
04
09
fc
ee
f6
1b
08
f8
0d
fb
13
13
07
eb
ed
f1
f9
01
19
fa
f3
01
04
19
f2
02
1f
01
10
f5
1a
07
18
e1
f5
fc
f5
04
f8
e3
f0
fd
0a
00
0f
20
16
f6
1c
07
0b
0a
0b
e3
15
14
fd
ef
1f
fe
f4
ee
02
f3
e8
10
07
f4
ed
eb
f4
e8
f6
10
01
0e
e8
f1
ff
0c
00
f6
06
f0
09
10
eb
fc
ef
04
25
03
03
f6
11
f7
10
14
df
f4
16
03
0a
fb
0b
02
0a
f7
1f
08
10
f4
fa
f8
e7
f7
ff
03
f3
f7
fd
05
fa
01
ff
f8
f5
fd
ee
08
e5
06
e9
f6
10
01
08
0c
16
10
ec
09
ea
f9
13
06
ea
06
0d
0a
f3
f2
01
08
e0
04
fd
f7
04
f3
1a
07
27
fe
f9
fc
05
0c
00
f4
11
13
f2
1c
f6
ee
07
e5
ec
ee
13
fe
0f
0e
01
fa
11
16
fd
eb
f8
ca
f4
0d
14
08
f7
ec
f7
f5
ff
05
ed
0d
f9
f6
2e
1e
fa
10
fd
f1
00
17
f7
00
18
fd
f0
f8
fe
07
02
0b
e7
02
f9
fd
03
0d
f3
1c
0a
14
e6
05
03
fd
06
16
ec
f7
ed
09
00
1c
fb
fc
fb
21
f1
14
f1
e7
f1
0e
08
12
ec
11
f7
0d
05
0f
0a
f2
f3
ef
f8
02
ea
09
fd
04
f0
0a
ef
0f
26
f8
05
fb
17
f6
08
ee
09
1d
f4
f3
ff
ff
19
e4
17
e5
1f
08
12
03
0a
10
ee
f6
0a
0b
ed
01
f4
07
e4
04
03
0f
eb
02
09
12
02
14
1e
0c
04
0c
09
0f
18
f2
f5
05
f8
ee
10
0f
e6
f2
e5
fd
ef
0f
03
f3
eb
13
02
04
ff
07
1f
0f
05
e9
01
fc
06
06
fc
e3
04
f6
07
f3
fd
ee
09
16
fb
ff
fa
1c
e8
15
ed
07
ff
e9
0a
08
0b
f3
1f
16
01
0b
03
02
e6
f4
fc
f8
fc
0d
07
12
13
ff
04
09
f7
fe
e8
07
03
fe
ec
0f
f9
09
f4
0a
dc
18
05
f4
f6
f5
f0
ed
0e
1f
09
e2
12
08
ee
15
0e
e3
0f
06
0f
0e
1d
f2
f3
1c
ea
18
0d
08
07
0b
08
25
ed
fd
ec
f9
07
10
f3
0e
16
0a
f3
04
f1
1b
eb
17
12
1d
f0
16
e8
08
fb
2a
0b
24
05
ff
0d
09
1b
03
07
19
1c
fe
bb
fe
f7
f3
1a
eb
02
1b
13
00
f7
fa
24
f5
f2
0a
07
14
e6
11
de
f7
ec
f8
e2
13
13
e6
21
06
e5
0e
f8
f4
09
e8
f7
1b
05
fe
08
ed
10
ee
de
fc
ff
08
fa
e3
00
f8
fc
fa
fd
13
16
21
dd
f5
1a
07
fe
04
01
f8
fd
0d
e6
ea
f6
11
08
f2
eb
f1
fc
01
07
fa
01
10
ec
0d
0e
01
0f
ed
fd
22
ea
06
f9
ee
d9
fe
06
01
0a
fd
f1
04
ed
14
e7
0b
f1
0b
f1
fb
fe
1c
04
16
f0
18
fe
0b
0b
ed
14
00
d7
ff
e0
01
1b
f5
eb
0c
fb
fd
1a
d4
e8
0e
03
08
0f
05
09
f1
fd
f1
0b
14
f6
1a
d8
f7
eb
ed
f8
ef
02
ea
20
13
ec
16
0d
fa
05
08
f0
18
f3
fd
f2
e8
03
0b
0b
eb
e8
e7
07
fc
01
07
00
ff
fe
07
12
0b
ec
05
02
ea
15
ff
ee
0d
d7
13
02
0b
0b
22
00
01
0a
01
ff
e3
0e
2a
e9
0d
e8
e5
ef
1a
0a
ee
e4
0c
e2
fc
f0
04
e4
05
f3
fd
06
ef
f5
f2
fc
22
fe
07
13
e7
12
0b
03
00
ec
1d
00
14
e6
01
16
18
06
07
13
14
0b
ec
eb
25
03
00
c1
fd
fe
eb
12
17
07
17
f0
00
04
fc
12
22
e9
eb
04
f1
11
11
0c
03
e4
11
f4
09
f5
ef
e7
de
f1
0d
fe
ee
eb
08
fa
0f
f1
0f
03
14
f5
1a
ee
0d
0d
17
16
11
f4
04
0a
fe
fa
f2
06
01
22
01
04
21
16
f0
08
16
01
10
0c
0b
f0
fe
0f
19
f6
11
ee
12
0c
f4
09
f2
fa
fa
ef
fd
15
07
0f
08
d7
fa
06
0c
e7
1a
fe
03
05
eb
17
f5
d7
29
06
f7
ea
f3
f3
1a
1c
20
f3
11
e9
0b
17
df
f4
eb
d9
0e
f1
ec
02
04
eb
f2
ff
01
fe
0b
02
12
e2
f9
f0
f9
f1
07
0e
23
f9
fa
f3
e4
17
13
0b
fc
f8
fb
ef
f9
eb
05
db
15
f4
f2
f6
07
e4
de
06
00
ee
07
e6
03
16
06
0c
00
08
14
05
10
ec
18
f9
13
1c
09
19
f3
0a
0d
ee
1c
05
e9
f7
12
d7
fc
e5
05
0a
fb
10
f8
de
ea
ec
17
fe
f2
dd
f6
16
ef
f9
fb
0f
1f
0c
19
e5
fa
f9
f7
10
02
0c
f9
e0
e9
f3
fd
fa
08
b8
13
03
f3
0f
ff
fe
10
f0
06
ec
10
06
d7
04
c1
f6
26
da
f3
f3
0c
fd
ef
1f
01
11
eb
0b
0d
06
ec
0d
fd
09
11
f8
fc
f2
19
e9
01
f2
e6
eb
13
f1
03
0c
e7
1e
10
f9
fc
ea
04
04
16
f7
f8
fc
fc
09
f2
06
fe
00
0a
ed
0a
03
08
e7
f9
01
ec
04
0c
10
fe
fe
05
15
fb
01
fd
20
f3
01
f7
e3
0a
10
09
00
eb
0a
0e
da
16
f0
06
f5
06
ff
10
14
ef
04
15
04
09
09
e0
07
f2
fb
ec
02
f6
06
e4
f9
fc
15
04
f7
1a
fe
0e
e8
e8
f4
ff
20
0b
09
f3
15
fa
f0
ec
f3
dc
c5
f8
d5
fe
f1
f1
0c
f0
dc
e1
18
09
0f
15
02
04
13
f9
fc
21
12
fe
fa
12
0f
fc
14
e5
0b
0e
f0
02
e8
ee
0e
1c
f8
05
ea
fb
0d
c7
12
03
f6
fc
09
e8
11
ec
fd
12
ec
0b
f0
06
13
fc
10
07
05
e6
05
0a
bb
13
f8
08
f4
ed
17
08
f2
fc
ff
10
fa
fe
0f
09
f9
01
0a
ff
f3
ef
08
fe
f6
16
04
fc
e8
f7
06
06
18
ea
12
16
f2
02
01
0c
fa
f9
09
f6
fa
ea
ec
fc
16
13
12
e8
01
fd
0c
15
13
fd
f6
08
f5
f6
00
f6
0b
07
f2
e9
04
08
f9
04
16
f8
0c
dd
04
04
00
0d
06
1a
fa
1b
ec
fd
06
f4
08
07
11
ff
13
1f
ff
11
0e
f5
e4
02
0b
0b
f6
0e
0b
08
07
0c
08
13
f1
18
f4
0f
0c
1b
1d
19
06
eb
03
fa
05
fc
e8
21
f5
fc
0d
08
fe
0c
02
e8
ee
16
2c
03
1b
0c
0f
09
01
f7
ed
02
eb
fe
f9
e0
e5
05
07
ff
dc
07
ec
10
f9
f6
f2
f1
f6
05
01
12
f6
18
fe
16
fa
11
05
f8
f1
ef
f4
0e
12
13
f8
04
e2
06
10
03
f4
fe
fa
0e
e9
1a
00
e6
0f
08
04
f6
16
ff
03
f8
e7
06
f8
f3
e4
10
0e
11
f4
08
f0
1b
00
03
1e
f4
04
16
f9
f1
0c
fb
fa
f4
04
e6
1a
fc
f8
08
0f
ec
e6
0e
08
08
f7
12
09
11
ec
00
19
27
01
1c
02
ff
02
ec
fb
e3
eb
fc
e4
07
f3
f8
ed
fc
e6
1a
af
19
ff
f9
09
09
fb
f2
0a
f2
fe
0a
0c
22
ee
01
db
09
10
14
0b
e3
f8
0e
f8
f8
ff
ed
ec
e9
ee
0b
01
19
ed
03
e5
07
03
0c
f3
f2
f6
1a
00
1f
12
05
09
00
fb
2e
1e
f1
03
d7
02
3a
e7
ed
f1
14
eb
ee
1b
12
f8
03
16
05
12
08
02
14
e1
fe
f0
e7
1a
fa
ef
0d
f3
12
11
1d
1d
19
08
1b
ea
ef
e8
fc
20
09
0e
2c
23
fc
e8
e1
f4
1a
f9
0d
08
12
ee
f5
e9
f2
16
11
0e
0f
ee
ff
ef
ec
36
09
fa
f5
0c
02
fd
26
c3
0b
e3
08
1d
20
f7
22
f7
e7
f3
11
13
fe
f9
f6
ff
1e
15
08
e2
fa
0b
2f
f8
ee
00
01
03
f9
22
10
e9
15
20
19
ff
09
12
18
0a
15
fc
02
e5
00
f5
f6
ff
03
16
11
0e
1b
18
ef
f4
0b
f8
04
04
fc
e9
ed
dc
09
fe
f3
14
fa
01
07
08
e8
05
0a
02
16
15
00
08
15
07
10
f6
fc
0c
0a
f7
12
f0
f5
e6
11
04
f5
f4
03
f7
ff
ee
06
05
00
1c
0b
18
05
f7
10
eb
09
0e
17
08
f2
00
ef
09
fe
0f
e7
ef
00
f2
12
03
16
10
f9
10
01
f9
0f
ec
07
06
13
06
06
f2
e5
ff
f6
1a
15
fb
05
e6
f7
12
16
0e
00
0e
0a
0b
0e
f0
1a
d8
fa
fb
f6
fa
fc
fa
fa
0d
f3
f9
ec
f7
ec
0e
f4
15
03
ff
eb
0a
f6
f2
ee
1f
f9
ff
f3
f2
e0
e1
1f
de
1a
08
f5
0c
22
08
1b
15
f9
e7
0b
ed
18
e6
fd
0a
15
18
f5
00
f9
0d
14
f3
06
e8
f8
f1
ff
03
15
f6
13
f0
13
f5
e6
17
0e
fe
17
f1
0c
fb
15
fc
18
02
0d
0c
10
18
f7
09
0c
f1
f2
f9
07
20
f7
fa
15
21
04
0c
05
13
08
fe
11
0f
0b
11
14
f7
09
04
eb
03
0d
10
ef
ec
07
06
02
04
e3
fd
f3
f4
fa
eb
08
02
f8
00
08
ff
fb
f2
0b
1a
ef
09
14
ed
0b
05
00
02
05
fb
06
09
fa
f1
04
fe
ff
16
00
f4
e5
04
0e
11
05
10
ee
08
fd
18
f9
02
f1
03
0d
13
0b
f2
fb
fd
02
05
f6
f2
fd
f7
11
f8
e3
04
0e
fd
f7
19
11
e9
1b
ed
1d
0a
fd
fb
02
1c
00
ee
08
e6
ec
fb
ee
ef
16
f4
0a
08
06
02
1a
ea
0d
10
04
19
09
ed
10
10
18
e9
f4
1f
f8
12
22
0b
05
0b
fb
ee
fc
01
fb
f5
13
14
18
00
fe
11
08
04
ee
01
ff
f6
00
fb
03
0e
0c
1e
13
f6
ef
fc
fc
f1
09
04
fb
06
f6
ea
e0
01
03
03
0b
f7
02
08
01
03
0f
13
16
fd
03
eb
f9
fb
ef
ef
d6
11
1c
03
1a
15
ec
fd
f9
f2
0a
f5
fd
fc
15
09
11
f4
fe
15
00
f4
fc
f4
05
dc
f3
ee
13
f0
0e
f0
04
fa
12
f7
06
fb
0c
fb
f7
03
fb
fa
07
0f
0f
04
00
17
f6
f6
07
05
01
f0
e9
fd
0a
f2
11
f7
f9
09
fa
ee
17
04
fb
e3
e4
0f
e7
fc
19
ee
f7
e7
02
00
1b
e5
03
dc
1b
0f
01
f6
fd
fc
f9
f0
fe
ff
ef
0b
f0
f1
13
ff
15
ec
fe
11
12
f6
0d
ea
1c
f8
0e
f6
00
02
f6
04
f9
fb
f1
16
04
eb
23
ed
fd
03
fa
10
e8
15
0c
04
01
e8
fb
1f
0f
0d
11
00
f0
f0
fb
f2
f4
e3
f1
fd
f2
f4
fb
0c
12
fb
24
07
f8
ed
fc
0e
20
12
fd
e9
ee
16
f5
fa
0c
ea
05
f6
0a
0d
0a
f0
fb
f9
0a
f8
f4
0a
f9
fa
02
1a
09
01
1a
0c
18
14
0c
fe
18
ff
08
16
f2
fc
ff
07
f8
f0
f9
fa
17
ef
10
08
0d
fe
0a
f5
f5
12
00
f2
0a
fb
08
e8
01
06
17
0d
06
09
16
1b
0f
f7
16
ec
06
0a
ec
0f
15
fe
ee
f6
17
eb
10
19
eb
13
f4
f6
f9
00
03
05
e6
04
07
fb
0a
03
00
1d
0a
11
01
00
f7
1c
fa
f3
ff
0a
e9
05
03
fe
00
15
fb
0c
fe
11
f1
f2
02
12
f0
09
0a
11
06
00
16
fd
13
f3
fd
00
01
12
f0
eb
0a
f1
0c
fd
f2
11
0e
10
f0
0b
06
fe
ef
e2
0a
03
f9
e6
f7
ff
00
e3
fa
f2
ed
07
fc
eb
1c
00
fb
0a
ff
fd
17
fe
f1
05
12
f4
0a
00
e1
f1
0e
0b
11
11
0d
f8
14
01
13
e8
12
f1
ec
f7
15
01
1f
f4
19
11
13
fa
23
19
0c
25
f2
f6
00
02
ea
15
04
12
f3
0f
ee
0b
11
e4
01
f4
07
1a
0d
ec
f5
ea
0c
1a
f2
f1
e8
0d
0b
1a
18
1b
ef
00
13
ca
02
18
ea
07
fc
03
e9
00
f4
fc
f4
07
28
ef
ff
08
0d
27
1e
1f
14
06
fb
14
f0
0d
f8
0b
f0
f1
08
f0
fa
0a
ff
13
11
9e
2a
0c
27
00
00
11
11
09
f1
ff
06
04
f6
0c
11
26
14
fe
12
f3
08
12
ed
f0
f0
fd
f3
06
16
fc
05
ff
2d
fe
1e
15
fa
04
11
03
01
0c
eb
e8
19
eb
0d
0b
01
fb
ff
12
33
fc
24
24
f6
2d
08
1b
ff
fc
02
f2
0f
0e
ea
0e
f6
f8
1a
f2
01
ff
fd
0f
13
fb
fd
0c
21
11
fa
f4
0a
e6
f5
ec
0d
21
06
ef
16
0b
fd
0e
ec
0f
1c
11
00
f2
07
11
e9
17
ec
fd
0a
f9
ff
00
0f
0d
fd
fc
12
0c
00
15
eb
08
ed
1a
05
0c
00
e9
f1
f5
f4
12
f8
10
fe
0d
f9
fb
f6
12
09
1b
f0
f2
19
e6
fc
f9
fd
f7
12
fa
1d
13
ee
f9
d8
04
1d
0a
e3
02
f1
09
0c
0a
1b
f4
10
0d
0e
12
0d
05
f9
f2
07
0d
08
e5
fc
09
f2
ef
16
e2
12
f8
01
e8
06
03
f8
f9
cc
0d
fe
ed
0c
15
11
0b
ed
ea
e3
10
ff
04
f3
14
05
fe
21
17
f5
0e
0e
00
e3
11
f0
1e
08
0b
08
12
01
e8
fd
13
0a
f7
16
fb
f7
21
0d
f5
f4
f9
13
06
08
e1
03
0b
0c
28
07
21
ef
13
ed
01
f6
2f
08
f0
d0
f5
0f
e9
ec
0d
11
ec
10
f6
f3
2f
09
f8
07
f7
f7
1f
ff
02
f8
fa
22
0a
f8
14
f0
e0
fe
2c
f1
0a
0a
d0
0b
f0
07
e9
14
f3
06
28
11
22
11
06
f8
fc
1c
03
06
0f
fd
f0
07
0e
fe
ed
fc
fe
f2
0b
0c
eb
0f
f4
e9
f5
f4
02
0b
c9
1c
00
f3
1f
f2
10
f6
f4
ef
12
03
22
f2
f1
fa
c8
e2
25
e3
f7
06
01
f8
ef
0e
e6
15
e0
2e
f4
fa
e4
fb
0e
28
1d
f2
fd
04
04
fe
ed
e6
f0
05
d6
fb
f0
e8
05
12
fa
02
eb
0c
0b
ea
f9
14
eb
ec
03
ea
ef
f7
0f
17
f8
0c
f8
ff
17
01
f8
fc
ec
09
ea
f1
fc
f3
e4
e9
02
fe
fc
f6
ff
e1
03
17
dc
fd
e2
e6
04
0f
f9
11
1b
11
fb
f2
e2
fe
0c
09
13
e7
03
fb
eb
12
df
12
19
e8
1a
07
f2
21
1f
ee
f5
19
16
f8
f8
08
0c
ee
13
0b
1c
19
f2
13
02
14
f6
0d
1d
0f
0c
f0
fd
09
09
1d
ec
04
14
0f
04
f2
01
10
1b
17
1c
ec
e4
0d
01
f9
f2
1a
f2
0d
fc
05
10
ef
1e
02
16
e5
f8
06
20
09
ea
08
00
17
f4
f4
f1
0d
11
0e
f4
11
e6
f6
f4
09
16
1b
09
07
0c
12
03
06
fc
01
e8
ee
06
ec
fc
fd
18
df
f1
0a
05
13
e8
2b
e5
05
fe
ee
0c
2c
0b
14
10
ff
fe
11
08
d7
14
01
dd
fc
de
03
02
fa
e2
f7
07
23
13
e9
17
11
01
08
f2
f3
ec
fc
02
e7
27
07
f0
1d
ee
0d
fc
0f
f2
1c
ed
15
fc
e8
f4
f1
1d
01
fd
04
f7
fa
f7
e6
10
f3
16
01
13
05
03
df
fe
ef
1f
01
17
fc
02
19
f1
0c
29
01
f4
11
0a
e6
18
ea
da
0c
0b
03
19
f2
fb
ed
1f
f6
d4
fc
0e
0e
07
0f
24
f2
0c
f0
04
fb
0c
11
16
05
d6
f2
10
fa
ec
0d
ec
fc
ea
04
10
04
ea
18
fb
f1
03
02
fa
05
0e
f4
fd
0a
06
ee
14
f8
fc
f5
ed
e3
f8
fa
e3
ef
18
0c
10
f1
f0
f7
05
ed
ef
f0
05
12
d0
0a
00
f4
21
ea
05
f7
ff
f4
0e
27
2a
fa
07
17
ce
01
24
dc
07
e4
10
0e
f3
ec
e7
ff
fe
0c
02
13
e5
0e
1e
28
22
f8
fe
e9
0a
fd
eb
e7
f5
fa
d8
f3
f1
f1
07
14
10
10
1a
f7
03
12
1c
0e
06
15
09
f4
11
f7
03
e7
e1
08
01
22
f2
0e
f9
dc
f6
fe
09
f8
0e
0d
12
1f
ec
fb
f0
07
0f
0c
10
eb
13
ff
14
18
f3
f5
fd
10
0e
ee
01
f8
09
e4
08
05
f8
03
f6
f8
f1
10
f4
f8
f1
0b
00
00
13
f6
f0
04
f3
0f
ff
18
0f
f4
0f
fd
f8
06
09
f2
20
fb
ec
fb
08
04
fe
e4
08
f3
fc
11
11
10
04
eb
05
fe
1a
04
e6
03
09
06
0d
fc
e3
15
ec
fa
05
ed
fd
14
fd
06
11
11
e6
00
e6
fa
0e
15
fc
00
ed
fa
05
07
16
f7
0e
15
ff
0c
fb
fc
f0
0f
e8
f7
15
07
f6
f8
0d
07
14
10
e9
ed
eb
01
fa
0b
10
f9
f1
f6
13
fb
06
04
00
0c
16
fd
0b
01
07
0a
ec
0c
fe
fd
14
09
05
15
08
ff
f4
08
f1
0f
ff
13
01
0d
20
0b
04
0a
16
f5
0f
06
0a
f2
0b
01
08
f0
11
07
fe
0f
17
07
04
f9
f8
09
02
f7
ff
03
0c
11
f9
ee
04
13
1d
03
f9
ef
fd
07
07
03
11
ee
f6
ee
14
eb
04
ef
f5
02
01
19
e8
0a
11
0c
e9
f8
14
eb
fb
ea
ae
1e
0f
10
15
03
06
0a
1b
0e
ff
f0
eb
13
fc
0c
11
02
10
f9
fb
0a
17
f8
01
07
f6
1d
fd
01
04
16
07
0f
f5
ff
1b
fc
03
17
15
01
ee
fe
ff
19
f8
f8
0f
09
f8
04
fa
1f
ee
16
19
e1
23
08
f4
fd
f8
1d
d5
06
eb
05
fe
fe
f2
13
00
08
13
f9
09
f5
fa
09
fe
11
0b
04
f0
f7
0e
0e
f4
f9
0e
0f
ed
e7
e8
ef
07
f7
19
f0
e8
06
fc
07
ff
fe
06
19
f0
f6
ed
0e
f3
0f
f6
f6
0e
13
02
13
f9
ef
e3
00
f3
04
f9
fb
f4
fa
1d
01
0e
e3
fd
0a
f2
f2
1c
1d
02
ed
02
19
f6
14
0a
ea
00
0e
0f
12
17
0b
0c
0c
fa
16
11
02
fd
f8
f5
fe
1c
07
f2
11
fe
10
08
ef
da
0c
f8
f2
02
14
e7
03
f8
fa
06
15
11
f0
14
0d
19
f9
05
0e
24
f0
05
e6
1a
25
02
0d
15
fd
fe
08
06
10
18
e0
06
14
f9
05
24
0e
01
1a
ff
12
e8
dd
02
ed
fa
f3
f8
fc
f2
03
01
14
ea
1c
eb
0e
11
f8
0f
21
0a
f6
f3
fc
14
16
08
da
2d
d2
07
06
df
e7
f2
ef
0a
13
d9
1a
06
0d
1e
0d
16
f2
1b
14
f0
0d
f2
e3
f4
06
fb
fc
f0
f4
f2
12
fd
f7
03
e6
19
f9
09
0c
07
07
ea
0a
12
ff
fa
ee
0a
13
f4
03
00
0f
10
14
f5
f4
fe
10
eb
fc
0f
1b
08
fc
0c
0e
0b
06
0e
e7
ec
2a
ec
12
e8
f7
04
0d
f0
08
fb
f2
f2
0d
11
11
06
f0
00
0d
f3
14
f9
e3
fb
23
ed
01
d2
f2
f0
ff
13
fe
17
ee
00
ea
f9
f9
e6
21
e2
fd
15
05
0a
fd
ee
fe
fd
08
ed
12
1d
e6
17
e1
1b
03
ee
ff
f4
1e
e4
18
df
f7
0c
f9
14
13
03
09
18
f5
f3
ff
fe
08
08
0a
f4
fa
f2
17
06
e1
00
1f
05
08
0d
0d
ea
fb
08
f8
0a
03
10
0b
f6
f6
fa
21
ff
0d
10
16
0c
08
e8
f4
fe
f8
22
06
01
0b
f1
0d
fd
f8
e7
0f
01
12
e7
04
ed
f6
10
f4
07
07
05
15
17
12
09
03
f0
f3
f7
ee
06
0a
15
f5
eb
ee
02
21
e5
f2
e7
03
f4
f2
15
f0
fb
ee
f8
fb
0e
f1
ec
25
0f
f7
fd
f0
01
18
01
10
10
18
11
17
f2
04
09
e0
00
e8
04
fc
0c
10
f8
17
24
f2
0d
17
04
11
02
f7
e7
e9
13
fb
07
df
09
01
15
1a
ec
fc
ec
e3
0d
ee
1b
f6
08
17
14
00
06
10
ed
f5
f3
0c
0c
f3
0d
f7
20
f1
0d
ff
f5
12
fa
ee
f8
f5
0e
fc
14
19
fa
03
16
df
09
14
1b
fe
f0
f9
17
0a
0b
07
0b
ef
fa
17
17
ea
10
f8
fe
dd
11
0f
14
0a
04
0f
f5
f6
fc
03
13
09
f8
fd
09
10
0b
06
17
ef
f7
1d
1e
f8
0b
f4
fd
0e
fa
fd
fe
06
f9
f1
05
fe
07
f5
f1
12
06
19
10
f9
08
fe
fd
11
fc
ee
f8
02
f3
08
00
02
0a
f3
03
1c
ef
1e
f6
e2
13
04
0e
06
20
05
07
fd
21
09
01
f9
f6
07
fc
f6
fa
09
f4
0d
04
f2
0a
0e
08
1c
f6
0e
f0
f3
01
12
1f
f5
ef
05
09
e8
de
0a
0e
f4
13
f8
06
da
f9
07
12
07
d7
0c
07
15
11
13
0b
fa
0d
1c
1e
1b
0c
05
eb
00
03
0e
24
fb
05
07
f1
11
10
00
f1
f6
00
03
07
09
04
fd
e9
f1
0c
f6
f5
fe
0d
ff
f9
0e
fa
08
04
04
f1
fa
16
f8
f9
0e
f8
f9
e9
fb
ec
fb
fc
00
f7
0f
27
e6
f0
f6
ea
fa
12
f1
05
23
fa
f9
0a
01
0a
ed
0b
ed
11
fe
16
19
25
fe
0d
15
de
fd
0f
cf
12
ed
05
e9
00
06
fa
f7
fb
26
f5
1d
f1
02
2b
1c
0f
f3
14
f5
00
09
0b
f4
f0
f7
06
f7
e5
ee
0b
0e
e6
17
db
07
12
ff
ff
28
08
f1
f0
f6
eb
ea
f1
17
e6
0f
d7
f4
05
0b
dc
ec
02
20
f4
f1
0d
f6
ec
10
07
eb
12
01
15
f3
fe
1c
07
05
f7
fc
fd
f3
0a
0b
fd
27
11
ed
fb
fc
ff
17
fe
0b
eb
05
00
02
05
0e
e1
05
fa
04
06
e3
f9
f2
02
0b
ff
07
08
ee
f4
02
10
04
e7
0c
f7
fb
f9
e9
fa
0d
f0
06
13
11
f4
f9
0e
1d
e5
f8
07
0e
18
f1
03
ef
0e
f0
18
fb
d9
eb
e5
06
fe
08
ea
10
ef
1c
e8
0a
13
00
f8
f1
fa
0b
f1
11
08
ed
1e
dd
f6
ef
08
06
0e
02
0f
13
f4
f8
0a
f4
f8
ff
fa
f7
f9
eb
0b
f5
f9
e9
16
0f
fe
f4
0d
f5
e7
e8
f0
17
0d
f4
07
ff
f4
f3
fc
f3
e8
00
f4
e7
03
13
07
f8
f9
05
ea
11
f3
f0
06
fb
fe
ef
da
0e
f0
11
ea
f0
04
22
fe
1a
12
ef
00
f0
02
1c
ff
e8
e8
0c
ee
1b
09
f9
ff
18
fa
1b
00
eb
ef
ff
19
09
fb
04
19
fd
01
15
15
1d
04
0f
15
09
fa
1a
02
1a
23
10
f7
27
f5
0e
07
f7
27
f2
13
1a
1a
0f
c9
fc
e2
00
20
f4
00
0d
07
17
e9
e5
22
fc
ff
15
08
18
0f
06
f4
09
fa
06
de
12
13
f1
ff
fc
09
0e
0e
00
fa
f2
10
24
f9
eb
0d
f6
1a
08
e2
f2
00
f5
e8
e7
09
fd
06
f3
00
1b
ee
1d
be
04
fc
f3
14
fe
05
26
08
fc
eb
fd
fa
16
0d
09
05
12
f0
06
0c
f3
eb
06
ef
0d
0e
fc
f5
ff
13
0c
f9
0d
fd
e0
eb
13
14
00
05
0b
10
01
fc
f3
f5
09
fc
0d
12
10
0f
06
f5
1f
0f
0e
f6
0f
fc
05
13
f8
d2
09
d2
0a
1e
15
ee
f6
fb
06
02
d7
06
e8
0d
0a
e9
f3
16
08
ea
f6
0f
0a
08
1b
f9
09
e4
ef
f8
14
ee
f4
02
1a
ee
00
09
04
00
ee
11
17
f3
06
0b
e7
16
f0
ec
f8
f8
f4
0b
07
fe
fe
03
fd
0b
f3
03
fd
e3
00
15
ec
14
ec
dc
fd
e5
00
04
f1
15
0c
fa
f2
ef
e9
fe
fa
ef
27
e8
f8
ef
f9
f6
0e
04
04
03
0f
db
03
03
f3
e5
00
f8
f0
f6
f2
11
fc
f9
16
f3
17
07
04
07
f5
06
23
16
29
0b
18
ea
22
1a
07
18
f6
1c
e8
ed
f5
f4
1a
f0
05
ad
0f
f5
07
02
28
e5
0e
ee
00
0d
f9
0f
1e
e7
f0
07
f4
f5
fc
f2
fa
e5
11
f9
03
e0
f3
e0
ec
02
fa
03
eb
ef
18
e4
20
08
10
f6
f3
10
f1
f2
01
13
1f
10
17
02
1d
12
07
11
fc
fb
0b
15
05
0a
1b
16
10
08
07
e6
14
06
08
e4
10
f6
01
f0
ee
f5
15
f6
eb
1e
fd
f7
f6
00
04
06
07
0a
e2
d7
e7
18
fa
12
f1
0a
fa
f1
04
07
f0
e4
04
e2
f7
fe
09
15
0c
0d
05
11
0e
f7
ef
08
e6
05
e6
d7
ed
ef
df
f1
03
e4
fd
f3
f3
05
ec
05
18
04
f0
ec
f4
ed
09
0e
1b
f4
09
01
08
f6
08
e2
fd
0c
19
0e
0b
06
f2
fb
fe
f9
02
ff
db
ea
e8
0c
00
f4
1d
05
fe
ff
00
12
f7
18
11
fa
ed
ed
07
10
10
fa
07
08
f9
f3
01
e5
1f
e9
f6
e8
08
db
fe
f8
fd
ee
df
00
0e
d9
fd
09
1e
fd
02
f3
f5
19
02
ee
f3
1c
24
fa
03
ef
ea
f4
db
ec
e0
fd
10
fe
e9
d7
18
06
1a
cc
06
09
10
0f
fd
11
f5
ea
ee
ea
13
09
cf
19
cb
fa
1f
d2
0a
e1
00
e7
07
0b
ed
0d
fb
e9
0d
f1
f3
12
06
17
08
16
eb
e0
1a
e9
f6
fc
eb
07
15
07
e8
fc
0b
16
1f
f4
0e
07
fd
fb
0f
ef
ec
1d
ea
e9
e9
18
0a
f6
fd
eb
f5
14
e7
f6
15
eb
f0
0d
02
f8
18
f5
0d
f7
ec
16
f0
1b
ef
04
fd
fa
10
f4
f7
f7
0a
0a
1b
f4
1a
f3
f7
08
f4
f6
f6
0f
10
02
ff
17
0d
03
f7
ef
fd
ff
04
fa
05
07
fb
ef
0e
0e
e9
eb
27
0c
f4
f5
0c
ee
18
1e
fb
06
10
13
0e
f5
f7
f5
e3
d7
dc
e2
e4
0d
f6
fe
f4
ce
e1
13
fe
f1
11
f8
04
02
09
03
fa
ed
01
0a
12
ea
fe
f7
0c
f6
f3
00
f3
13
f8
06
09
f9
0b
0e
17
04
d3
12
eb
fb
10
f5
f6
04
0e
ff
ed
03
06
e9
f8
f6
ff
f0
f3
f5
09
fc
12
c7
1c
e6
10
f0
f1
05
f2
10
18
02
0c
20
13
06
ff
0c
03
16
fe
f4
f0
03
f0
0f
0b
16
eb
fa
f2
15
1a
06
0d
11
07
09
0f
13
0c
e6
12
fa
0e
0b
e5
fa
00
fd
f1
fa
e6
e2
0a
fc
02
eb
05
f4
f8
e7
0c
f0
ec
1b
e2
09
09
0a
00
02
fe
fa
0e
00
04
0c
0a
fd
ef
19
1f
ef
f6
f3
f2
fe
0f
fe
ea
06
09
01
1e
01
04
fa
08
03
ef
1b
f3
0f
fb
18
f9
0d
fa
ee
08
ee
11
f6
08
0a
0e
0a
11
04
fa
fd
ee
00
10
06
fb
0e
02
13
0d
05
f9
1c
e8
f1
12
25
fd
03
f1
ee
09
0c
0b
15
12
17
f9
fb
df
e2
01
05
1a
dd
f3
f3
f3
00
fa
f2
e4
f3
f4
02
06
04
1c
06
0a
ff
19
03
f3
03
06
12
13
07
16
d6
f7
f2
eb
fa
14
f9
f1
18
19
e1
0e
0f
ec
06
07
15
e8
1a
06
12
fe
e4
0c
0d
09
05
fb
11
0b
e7
06
e8
06
10
f8
fd
12
f8
08
f6
f9
0c
14
f0
ef
0d
e8
06
f0
fd
05
01
dc
ef
fd
05
fe
f1
21
ec
02
f2
f0
1f
0d
1b
16
f0
04
01
ea
f9
e6
15
e3
fb
02
f1
fd
e6
f6
df
10
b8
03
f7
f8
00
2d
e2
13
02
00
ec
00
f8
1e
e4
12
ed
10
06
11
f3
f7
0f
34
f9
16
ec
ed
dd
ce
09
09
ea
0b
fb
fe
e0
08
01
07
f8
13
18
fa
14
02
f4
f9
03
07
19
2b
f9
fc
04
cc
ef
28
e9
f3
f7
fb
01
ff
15
09
e2
e4
24
eb
10
22
02
f4
f6
0a
07
f8
2b
ee
03
03
ef
24
04
fb
0d
0b
ec
0a
e2
f6
f5
ec
1d
08
f7
11
08
09
00
da
13
ff
fd
0f
f9
fb
01
01
e5
fe
12
1a
25
0c
e6
f9
13
f9
1b
f2
ee
01
0c
e3
f1
26
c6
13
04
f2
00
2b
0a
14
12
f7
15
f4
ec
10
e9
f6
eb
07
0f
0d
e0
0a
0c
1a
e9
ff
ef
f6
0c
ed
1a
1d
f0
08
0f
00
f8
04
1c
19
f3
1b
13
02
ed
02
04
03
1a
10
23
01
17
08
18
e6
f9
fa
e7
13
07
ef
02
f0
fe
f4
0f
04
00
f4
00
0c
f8
e6
0e
03
14
1b
01
fa
f9
fc
e8
00
ee
0a
f5
24
ea
00
06
fa
ed
1e
03
04
06
0f
fb
1b
18
f8
06
12
17
03
16
17
06
05
01
1b
08
f1
03
00
0a
f8
ec
1a
11
e7
12
06
10
06
10
f7
29
0a
08
15
07
11
17
f5
18
15
10
f6
13
dc
07
09
01
12
08
f5
f7
e5
16
10
0d
ee
09
17
0d
1f
12
08
f4
fb
f9
f5
04
02
01
0b
13
07
09
f3
ed
0d
15
f6
f5
16
ff
fc
0d
0e
ec
fb
17
ec
07
e4
17
07
e5
18
df
06
fd
f5
01
20
13
1b
15
f7
06
0b
12
12
fd
eb
00
f3
f5
0c
f8
e7
f6
1c
05
05
dd
e2
fc
17
11
0e
fa
09
08
17
07
ef
ff
1a
0e
f9
f1
0d
fd
0a
f0
ec
12
14
22
fc
ff
1b
ea
00
e2
e1
ff
06
13
07
17
ea
1c
0f
05
18
07
ff
f5
0e
fb
19
ef
0d
14
f9
e3
0e
17
f8
17
fa
fa
0f
10
0e
f8
f6
19
05
11
08
0a
14
06
09
0d
15
00
ec
15
f0
0d
0b
f3
0c
e9
15
06
02
eb
f8
0b
f9
f3
fc
e4
ed
f5
ed
16
05
f1
eb
fc
15
fb
f3
0c
0e
f9
11
01
0c
fa
fe
fa
1e
15
f0
0c
07
04
11
13
0c
e8
10
f6
1c
19
e8
ec
06
fe
0e
08
f8
ed
f8
ed
0f
0a
f9
11
11
1b
f2
02
13
01
fa
ea
ea
01
0f
19
08
0e
15
0c
f5
04
ef
fb
fd
19
f5
f2
0b
01
f7
ec
f3
fd
11
17
13
0b
06
f4
f5
f0
f6
f2
ef
05
0a
ed
02
ed
f0
04
25
eb
ef
01
f4
f9
07
08
fc
09
20
05
21
07
eb
10
ff
13
f7
10
15
f9
07
e8
e1
0f
1c
0b
fd
ec
1a
e7
03
ec
fd
06
0c
1c
06
08
02
09
fc
f7
d6
0e
12
f6
01
0a
ee
f9
0c
ec
f4
15
00
f8
ff
13
0b
06
f0
11
0b
10
11
06
09
00
12
02
0e
fe
11
ea
16
0f
11
10
09
fe
0f
ef
16
02
ed
0a
fe
0d
fe
09
16
f5
f8
fb
f6
f6
f4
f9
0a
11
0d
eb
fe
03
0e
f5
fe
ee
02
0c
f2
f1
ec
0b
f3
ec
02
e8
fa
f5
f9
f4
16
f0
dc
e1
03
05
0f
0d
ea
f4
ed
fd
ed
fe
0d
05
ee
f2
fc
fc
21
f2
e8
f8
f4
14
17
f6
09
0b
f2
f5
0a
05
eb
f5
13
0a
e4
09
f0
f4
06
f3
0b
ec
03
0a
f0
0c
1c
11
12
09
05
21
f9
02
eb
10
13
0e
20
f9
fa
de
0d
f8
fd
08
fb
07
ff
f4
19
ef
0e
ff
f5
05
1c
0c
fb
f1
f9
f6
f3
01
e9
07
ff
f4
15
05
0b
ff
f9
f4
17
11
f8
0c
02
fa
10
f3
06
09
17
10
06
fe
01
fa
fa
1e
0c
08
01
f8
12
07
e5
ec
f9
0e
0c
f6
f7
02
03
ff
0c
0a
0a
03
f6
f3
11
fe
fe
f0
26
f4
1a
02
fe
01
03
0d
18
07
f1
e5
f4
02
e0
01
1c
03
01
f7
00
e1
0d
03
01
08
03
12
e8
11
f6
10
ec
10
01
0a
0a
0b
0a
fa
09
fe
0c
0e
0d
f1
16
f2
14
08
e5
00
16
10
19
17
0e
f8
0e
ec
ff
f4
ee
06
10
f6
eb
10
03
02
fd
11
00
fd
08
05
ec
02
0b
fc
0b
f7
eb
08
01
0a
1d
ef
00
15
ed
f8
13
fa
f4
fd
14
02
10
f2
15
fe
f9
f4
ef
0a
f7
10
18
fb
ef
00
fb
f0
fa
fa
e8
0c
13
ff
0a
e5
f9
da
02
fb
f5
1b
ff
f3
f8
f8
04
e9
0f
e6
f5
fc
0c
19
19
0c
24
10
fd
ef
09
f2
f3
18
eb
eb
f7
ef
06
01
1a
0c
f3
1f
fa
f9
f1
f5
08
f2
fc
0f
0f
ca
f2
05
f7
25
f1
11
00
07
05
0d
0b
1a
f8
f0
13
d7
e2
1a
d7
f1
00
18
eb
12
fd
f7
0a
e5
18
0b
ff
0a
07
1e
09
12
f4
0d
f0
f8
f2
fe
05
fa
ed
d0
ed
eb
ee
ec
03
02
f4
bf
22
18
0c
09
04
24
fc
fb
ea
f9
f9
03
04
e8
f7
23
0c
e3
f7
e9
f3
08
f7
17
f3
0e
12
1b
fa
0e
07
fc
11
f1
07
13
0d
ff
0b
1e
19
00
e3
ec
0c
ed
13
fb
f3
e6
0c
fc
19
fd
0a
1c
f5
18
02
0a
fe
f1
fa
ed
f2
07
da
04
e9
15
16
05
13
0b
0e
ed
e6
fd
17
f0
04
f9
08
ee
05
ed
fa
05
0b
f8
1c
f6
0f
f9
1b
12
f3
ff
0c
00
f3
f0
11
fc
ec
05
06
f4
f3
09
f4
09
15
ff
10
04
25
ff
1b
fd
ed
1f
ef
03
f8
0c
0c
06
f0
f8
00
0e
f7
f4
15
0b
0d
fd
1b
fa
02
07
18
e9
05
08
0d
08
0f
fe
00
fc
0a
f8
f9
fa
da
f7
04
10
e7
f1
e5
0a
07
fb
f1
fd
11
f0
01
1d
16
fe
11
10
0b
0d
07
fe
de
f4
05
f8
00
02
ff
f3
06
ef
e0
00
08
f8
e2
00
e7
e9
10
09
18
f9
09
03
f4
23
01
f9
04
1c
04
06
21
14
02
fe
1f
eb
fe
12
ff
01
fe
fc
fe
fd
ec
f4
f0
f8
0a
08
14
14
03
2c
05
1c
07
16
fe
f9
f8
de
14
13
12
22
ed
09
e8
08
e7
0a
fb
49
fa
10
ee
ed
14
f7
07
02
03
f4
0a
0f
02
0c
eb
ef
eb
1e
f9
1d
13
13
f8
0b
20
e2
ff
0a
01
f8
dd
0e
df
f6
fd
da
f9
0c
17
dc
fd
10
1c
2b
22
1f
f9
13
07
16
f3
f1
ea
16
ef
00
01
ed
f2
00
09
26
19
1e
08
04
f7
ec
09
0a
01
08
24
c2
0c
0f
f6
1f
f9
0b
dc
15
0a
fb
0c
1a
0f
06
12
c4
02
10
ec
f3
e7
1b
f0
e9
fb
f7
06
fd
18
e0
f5
08
f4
1f
0e
26
f9
ed
e4
00
01
fc
00
0a
e8
e3
f7
ef
e9
f1
f3
f4
ed
09
12
09
0f
f3
2a
f1
04
e5
ea
ec
ed
f3
1f
00
03
f8
01
07
0c
eb
de
00
0f
ec
0e
ec
dc
ef
0c
f1
f3
f5
ed
fd
f8
f8
16
f2
12
de
05
f8
f1
19
1c
0f
09
07
f3
02
22
17
f1
00
ef
10
f9
ec
0d
ff
25
19
ff
01
22
f9
04
0c
fc
16
13
01
00
17
fa
f7
16
1e
ed
17
10
06
f0
ea
19
11
f8
05
f7
ec
13
18
19
f2
1e
f7
f3
0a
19
0b
f8
f1
fc
12
0f
fd
f7
04
f9
fb
18
19
fd
ed
0d
e9
f5
fc
14
02
0b
fb
02
0e
05
20
03
13
12
ea
fd
02
01
eb
ee
1a
12
ee
ff
ed
f5
fb
e7
0f
f8
ff
17
0f
04
16
1c
f9
0b
f0
f4
13
02
12
f9
fd
d9
f3
ec
f4
12
00
25
e9
10
0a
03
14
24
fc
11
09
16
01
05
02
d0
02
e6
e5
06
e1
03
e4
15
00
fc
0d
20
fa
e8
13
06
f5
fe
19
0c
ed
02
01
03
1f
08
ee
1a
f4
09
00
0f
0f
16
f8
19
04
f8
0d
06
fa
09
0a
1e
09
07
f6
e8
f8
07
18
fe
03
fc
fd
df
03
0a
12
05
1a
e8
d7
f8
0b
00
0a
14
e8
fb
28
f3
14
0e
08
f8
e7
ff
0f
05
04
f9
0c
f1
e3
f1
e7
03
09
ea
15
0c
1a
00
fc
f3
23
0a
18
e3
e6
00
15
13
fe
0e
f2
f5
fe
f0
fb
0b
da
04
f1
0f
12
fb
03
16
07
05
04
ff
04
f6
1a
e6
06
de
fa
e6
dc
e4
e6
16
1a
fe
29
e8
ed
11
e1
f5
fe
e7
17
1e
e1
f5
0f
0d
15
f8
08
fc
15
e6
0c
09
25
09
fe
06
d5
06
26
c3
ea
ec
1c
12
f4
07
f7
f4
dc
20
ef
03
01
06
20
26
2a
fa
f7
ed
f3
0d
f2
f8
0f
e5
c7
15
e8
ef
f0
08
0c
05
25
1c
1b
fb
11
fc
05
f3
0a
08
12
0a
ef
e4
e5
10
18
0f
17
04
e3
ee
02
03
19
0f
21
1f
03
17
ed
0c
e7
14
fb
14
1e
e7
04
0c
15
08
f6
f7
f7
ed
07
ec
13
f5
00
f6
fa
1d
f1
f5
f8
e8
10
f3
f9
02
e3
0b
ee
00
1e
01
16
1c
ef
fb
f6
fc
0e
f6
fb
02
0f
f2
ef
f4
23
fd
fd
ff
f1
fe
e6
0d
fc
fe
ee
f6
03
05
fc
00
01
03
19
ff
f6
fb
04
00
ef
f8
e2
06
f7
fc
0b
ed
f0
f3
ef
fd
04
08
f5
dd
08
08
1d
04
e7
11
0b
1a
e8
0d
f9
01
eb
13
14
12
eb
03
e9
18
03
f7
06
f7
05
19
ea
ed
02
1f
ff
f8
03
f4
f5
0f
0a
12
f6
f4
0c
0b
0c
12
0b
1e
00
06
0f
19
00
ff
12
0b
00
1a
1a
04
fc
fb
f1
fd
0a
f6
0f
12
f7
0d
e9
fe
00
03
f2
ec
ee
0b
06
15
07
0a
12
fc
ea
fd
00
ec
f1
f7
0c
f7
05
fb
12
1c
0c
07
11
ff
15
fe
ef
f6
09
17
15
07
0f
e8
fa
0b
fd
fd
16
12
f5
06
fc
11
07
06
15
0e
fe
1d
0c
14
06
fb
ea
fe
11
ea
06
fc
d9
03
10
17
f3
fe
02
f1
1b
12
1d
1b
ee
09
f9
0e
18
12
f1
12
07
0f
04
f0
f8
02
f4
05
1d
07
f6
f7
f0
ff
f2
1b
01
ef
fd
14
02
f9
f8
11
ed
11
f2
f3
13
12
02
09
fc
0f
06
1b
15
00
20
05
15
0c
e9
02
e1
fc
ff
ee
f4
17
fb
12
0f
0a
0e
0a
13
06
13
f1
fd
03
fd
f6
f9
08
fa
15
01
fe
ef
e7
15
f4
13
f7
ff
f8
13
ff
0a
f4
09
04
0d
08
0c
13
f8
13
01
f5
0a
18
0c
0a
0c
f4
ff
f2
06
05
f7
ed
08
0b
08
f2
f4
ef
06
17
0c
e4
06
17
f2
05
03
09
17
ff
f1
0b
09
fb
04
0b
f8
00
11
fa
09
e8
04
0f
e8
12
00
04
ff
0a
0a
f9
13
05
02
fa
09
fc
f9
0a
d8
e6
05
f9
0c
06
ec
f9
0d
21
f8
f9
10
eb
fc
0a
14
f9
f3
e8
03
13
df
f8
fc
0a
e2
0d
1b
ff
eb
11
0a
0b
0b
fa
fa
0e
0c
12
1f
10
0c
29
01
fb
ec
04
e5
f8
04
f2
f4
e7
f6
ff
e5
18
ed
03
f7
00
fe
11
16
14
13
08
16
0e
08
06
e9
d9
17
fc
fa
fe
fa
f2
e0
fa
11
fe
ed
07
16
1c
00
17
17
fc
0b
fb
0e
fb
f0
fb
e7
fa
13
07
eb
0e
02
01
0d
15
15
02
f9
13
00
00
09
1c
e9
15
ee
fd
0e
fd
ef
0c
06
1b
0e
fe
0d
1f
1c
07
fa
f8
fb
e4
15
ff
09
0d
ff
ee
f0
01
10
d9
f9
0f
ee
15
de
eb
0b
1f
f8
08
fb
09
d4
f7
0c
16
0a
eb
dc
f8
ec
05
02
e5
08
13
00
13
cd
d8
ec
eb
07
ed
0e
01
f4
06
f8
0e
02
0f
e0
fa
0c
02
02
0e
f6
15
06
08
14
06
1d
e0
fe
da
24
01
ee
04
ea
1c
df
0c
ec
f6
00
07
1f
09
ed
09
f2
eb
05
fe
0c
ff
02
ff
e7
19
0f
13
ed
f7
f4
14
f0
12
ed
ed
e9
14
10
06
f5
fe
19
05
ff
ed
0f
01
11
03
ed
05
f6
f7
f9
05
ff
f7
16
09
0e
25
06
03
ef
f9
f4
05
11
06
e7
11
f2
07
0b
ef
fc
0d
f2
12
00
f6
f2
0c
07
1b
04
f9
0e
0e
0d
f9
0c
e8
0e
1f
02
13
0b
f7
04
16
fc
0e
fb
eb
eb
1a
0a
17
f8
02
f7
f9
0f
03
f5
0c
f9
14
fe
01
f3
fa
00
01
04
f4
f8
ed
11
09
1a
f8
fd
fe
1f
f4
14
f9
0e
ec
1c
1a
08
07
01
16
03
de
f5
fc
1e
10
f7
04
f1
08
16
f6
f4
ff
16
13
f4
08
f5
02
01
f8
0a
ff
17
0a
ff
07
fb
00
0d
f1
05
0f
08
f4
16
07
11
e5
11
04
f5
03
0a
ff
06
fa
04
07
fb
f2
0c
03
08
f3
05
f9
f8
11
f1
05
16
02
f2
e2
0c
ed
07
0d
0a
f9
00
00
04
19
ee
05
17
10
04
30
fd
1a
02
f0
19
07
11
fa
f1
f9
fe
fc
19
f1
f7
fa
09
ee
fa
03
f1
fe
10
fd
f0
12
19
02
1b
f1
23
e6
08
0b
0f
fd
17
fc
f6
fb
f9
e2
12
17
f9
02
ec
de
0e
0a
f9
ef
01
fc
04
00
0c
f7
1e
fe
fc
0c
13
0f
ff
0c
09
0b
e9
f1
07
f0
09
f8
f3
11
dd
f2
ff
01
1a
de
f1
ea
fa
13
04
13
11
fc
fe
eb
fa
dd
10
fa
03
f6
e5
f6
ff
0b
0b
f5
fa
f2
12
ff
18
f6
ee
08
fc
ef
07
07
16
02
ea
fe
ef
20
f8
04
11
03
ee
f6
12
02
0b
e9
0f
ea
ef
ed
01
04
00
08
0e
04
fe
07
12
f2
f9
ed
10
e7
00
f8
00
fd
f4
02
0a
ef
fb
0c
fe
0a
13
fc
04
09
00
fb
04
10
1f
13
ec
06
e6
04
06
ed
fa
00
ff
f2
15
04
2e
00
17
f3
f6
eb
24
d3
f3
fc
1d
02
ef
13
fc
f4
01
0f
f8
0f
fa
f6
2c
0f
00
f9
f1
01
1d
ff
fd
e7
16
f4
d8
11
ea
05
fd
e9
d1
0c
da
13
13
09
f9
16
ed
17
0b
fc
02
f9
0c
13
fc
10
e1
fd
02
0e
02
f1
01
13
f9
00
04
ea
09
28
04
ff
0b
08
f4
fc
08
20
0d
fa
ed
fe
fc
12
07
fc
fd
03
f2
14
f1
15
0d
01
03
01
0b
e8
0b
05
f5
ff
03
f3
fc
0b
16
ed
1a
eb
1c
1e
f8
e8
15
0d
02
05
f6
15
04
0a
e2
ff
fb
0f
f6
1e
03
04
f0
fa
e5
16
fd
0e
e3
14
16
13
1a
eb
08
07
12
07
f5
01
da
f8
02
eb
13
fb
09
ef
0e
14
0a
0a
f4
03
0c
eb
04
e7
0b
f8
fc
ed
1f
f6
ee
ff
fe
fd
f3
f0
12
01
f2
f9
03
fc
ef
1e
ea
03
e8
09
f4
00
03
f7
f9
13
02
10
f8
ec
ff
e9
f5
00
02
f9
e5
0a
08
ec
00
05
ee
ea
06
f9
e9
f2
ff
f0
06
f3
ef
1b
db
00
02
06
08
f2
d9
0c
fb
0a
11
f0
15
16
f7
1f
19
f5
f6
09
0c
20
1d
08
00
22
f6
22
f7
f2
f5
1b
01
1c
0c
f0
e5
e3
1b
1e
f2
06
14
09
07
09
03
0e
10
23
12
f5
ff
10
f9
27
14
20
06
04
19
00
18
fe
31
fd
0e
03
1f
10
e2
18
d6
04
04
f5
08
17
05
19
ed
ff
02
0d
eb
14
fd
07
f3
0b
06
0f
e8
0f
fd
f4
f7
f4
01
03
0b
f8
0a
fb
f0
e2
15
18
1c
f3
f0
f8
0d
fa
f8
fd
ec
06
eb
f8
11
f8
18
10
e7
10
fb
23
c3
ed
01
03
11
12
06
04
03
13
0c
00
0d
0b
07
09
ed
12
ff
ed
0c
17
f8
ff
f1
10
1a
0c
eb
f0
fb
0d
06
0f
e8
e9
05
05
1e
02
f1
05
fa
06
e9
fb
0b
12
ea
f2
f4
0c
ee
01
10
1d
f7
ff
18
f2
14
f5
f1
e4
fe
ee
ef
fd
0c
ff
f9
f4
e5
0f
23
ea
f6
03
10
09
e8
f8
18
00
15
f6
f8
13
ed
16
df
f7
ef
f0
f6
11
f4
08
01
18
05
f3
f0
03
05
03
fc
f2
10
ec
f8
0b
f6
f7
f4
fa
fb
f5
f6
e3
f1
03
0f
11
eb
fa
0a
0f
eb
04
13
01
fe
e5
fa
18
eb
f0
11
fd
f2
25
f4
fd
ec
0d
ff
f5
ee
0d
04
0c
df
02
1b
21
ed
f7
01
0e
f1
ff
fc
f2
fd
ee
f1
0f
0e
f5
0f
f1
e7
14
e5
1a
13
f9
07
16
fc
fa
ef
0d
f6
fd
f5
03
1c
0d
04
ed
13
02
f3
15
eb
03
ea
f7
b3
09
ec
ea
06
26
e4
17
0b
03
0e
f1
ff
1f
f7
0c
0c
fe
10
1b
f1
e9
0b
23
fe
08
f0
ed
e5
ec
ed
0e
f6
fa
03
f0
01
0b
ef
11
01
fb
fe
17
0a
15
00
19
07
ff
fb
1c
01
f0
1e
f1
09
fe
f2
14
ff
f7
05
07
06
f1
f6
0c
01
01
f9
f7
08
14
f8
f7
f1
08
1d
0c
15
fb
19
18
02
02
0e
15
0d
ea
e5
f3
04
0c
04
f9
f9
ff
f0
ed
f6
ee
fc
0e
fb
0b
00
01
05
19
1d
0e
13
ee
fc
ec
11
dd
11
01
f5
00
cf
08
fe
fc
ef
ff
df
11
04
02
fa
23
e8
ef
e9
e7
04
eb
0c
0e
ff
12
f9
e4
0e
17
e5
e9
ed
fb
ef
f5
f6
09
02
fd
ee
ec
ee
ff
f0
f0
f8
f8
fd
24
dc
f7
11
12
04
04
fd
0f
00
f3
ff
0d
0a
0e
f7
00
fa
fa
01
0f
02
18
0b
fa
d1
ff
ec
f2
fc
0b
e8
ec
0b
f4
c4
fe
0d
06
06
ed
df
f6
19
eb
e0
f7
fd
23
f6
19
df
dd
f6
fb
f2
fc
09
eb
00
e8
e5
fd
fa
fc
ba
0e
fe
fb
ec
10
f3
10
f3
f3
10
01
06
d7
02
e4
ed
21
d0
f1
e5
e9
ee
e4
09
10
10
e7
f8
f0
0a
f0
e9
fe
13
14
08
ea
06
17
f8
fa
fa
f4
f8
04
07
f9
02
e8
11
03
e5
f4
ff
ef
0e
fd
e9
fe
fa
fe
01
fe
03
04
0b
f3
06
0a
ef
0b
eb
f3
eb
fd
ed
09
04
0f
01
f8
07
07
f4
01
10
05
f0
0d
e2
0e
1a
14
f1
f2
10
05
e8
20
fd
f3
ee
fe
12
f9
16
0f
f7
fe
07
17
ff
f5
ec
f3
20
0d
f7
f6
e5
06
04
fe
f5
f0
f0
17
0a
f9
08
09
fd
1b
fd
fa
fc
f2
17
0d
03
f6
00
e0
c0
fd
f7
fb
f0
09
16
10
be
fc
fc
13
f1
00
f1
eb
f7
fd
11
24
f3
0e
ed
02
e6
1e
f6
04
ff
fa
f5
fb
fa
f5
13
17
f8
09
fb
07
e8
f3
11
08
01
06
0a
ee
1a
ef
e9
ef
fc
09
0f
0c
02
f3
14
17
f7
f1
f6
12
e5
19
ee
ee
f6
f4
11
e9
fa
f9
0f
1c
1f
02
eb
0d
0b
09
0f
09
f3
f9
1c
fe
06
08
11
0f
05
f0
07
fa
13
03
0e
18
08
1d
04
0a
ed
00
00
f0
03
08
fe
03
fa
13
f7
02
f4
ec
04
0e
0b
03
eb
f4
f0
f8
f0
eb
20
fc
12
07
07
0c
13
18
10
08
fb
04
05
07
0e
0b
02
09
09
0e
f1
f2
09
ef
0a
11
08
04
04
0e
00
15
0a
0e
f2
f6
09
dc
fb
fd
1b
f8
fc
00
00
08
03
18
09
19
e9
fa
00
f7
15
0d
0e
0e
fb
f7
01
1c
15
02
11
ed
12
e4
08
fd
05
fa
29
19
14
f1
13
f2
13
f0
ec
fc
04
f7
ec
e3
f8
11
13
fe
dd
14
01
00
f9
01
13
e3
08
0c
0b
f5
f9
04
01
fa
04
02
05
0c
05
10
16
01
e9
f0
f4
f1
f2
f8
ef
10
10
e6
f3
f5
f1
13
f9
f7
0c
fb
17
f8
16
0a
03
04
ee
00
06
10
ed
f9
f7
ec
ed
0a
01
fe
fa
f6
05
f7
09
f4
f0
07
1a
f6
ed
ed
eb
fd
0b
05
01
05
fb
f9
e7
08
f9
0c
ff
19
ed
1a
fd
ee
12
1c
08
01
00
f5
fb
f7
1f
eb
f1
f7
df
f8
ef
f1
f8
18
e8
09
bb
00
e4
f8
0e
24
06
15
fd
fd
00
e8
03
1f
0c
01
d8
02
fb
20
fd
e5
ee
33
fb
f8
e6
df
f2
d9
01
f7
f5
0a
05
fa
ea
0b
ff
00
d5
0d
13
14
f4
0f
0d
11
f8
10
ff
22
1f
f9
0d
ef
fe
0f
fc
e9
ec
f2
ee
17
ef
21
f7
f9
1a
04
f2
29
fe
f2
f2
fc
01
e5
21
d9
df
1c
f1
15
fd
18
03
1d
f7
05
fb
fd
0d
01
1b
06
f3
2e
15
17
02
ee
00
fa
07
1a
17
0a
f6
f2
ec
06
23
0f
06
05
07
1a
11
f2
1f
e9
fe
1a
11
fc
dd
26
c6
1c
f5
07
16
1f
f4
28
f7
e1
0c
ee
fd
06
f4
e9
ef
0e
04
ff
00
eb
fb
2c
f5
ee
f4
f1
f1
df
0b
01
08
21
0e
0a
e7
01
04
f4
06
02
17
00
03
fd
01
f6
03
07
00
1d
f7
07
06
f4
ef
06
e3
0a
0e
f4
0d
12
eb
0d
13
fe
f9
fd
0d
01
04
f2
ff
18
10
12
11
00
f7
f6
eb
f9
05
02
f6
03
0f
04
03
fe
0c
12
0d
1d
06
f0
f8
04
15
f6
06
fa
f3
01
07
13
ea
fd
fc
17
09
10
0c
14
ff
08
ed
04
11
f6
f3
f7
f5
0f
0c
ee
17
ff
00
f5
fa
f3
14
fd
06
0e
02
05
f1
ef
f7
eb
08
fe
07
15
00
fb
0a
0f
06
f7
13
14
02
04
ea
f4
dc
13
01
f6
16
04
0c
fb
f7
ef
fd
0c
04
fe
ed
08
f1
15
ee
fb
0e
06
f6
f8
06
f1
f5
09
f5
fe
e8
01
db
1e
fc
f6
16
05
12
fd
14
0e
e0
ec
ee
18
06
e6
f0
f4
07
0f
e9
01
09
09
0b
f3
de
06
f0
fd
22
0d
fc
0e
13
05
ec
10
f4
21
f4
0f
f3
fe
f8
f1
ea
0b
f5
f8
fc
0b
03
05
01
06
e6
e7
e7
0a
fe
04
06
05
20
fe
09
1a
f5
0f
13
f9
02
fd
f5
20
14
01
e7
0a
10
f5
18
01
ed
09
12
f0
ff
e7
fc
f5
fe
0c
ef
10
ef
fd
f3
18
10
fa
08
06
01
0f
f9
0b
ec
fb
10
0a
06
fd
f4
07
09
13
fd
03
0c
f4
09
eb
fb
ec
06
04
1b
13
ff
e6
01
ff
15
16
fa
fc
0d
20
fa
ee
ea
f9
f6
0d
f9
10
fc
fa
00
14
fe
ef
04
f6
fa
14
f3
18
fb
0e
07
fb
09
ff
fa
0c
02
0e
e6
12
fe
fe
f1
ed
00
0f
fd
f1
06
f7
eb
f3
ee
02
14
fd
f2
03
fd
03
06
05
02
ee
03
1f
1c
0c
ff
01
f3
0f
03
f9
fd
fd
01
ff
ea
0a
fc
ec
ef
05
06
f8
ff
13
ed
07
1b
16
f7
07
03
09
fe
04
0f
f2
fd
fc
13
ff
15
04
e7
f2
fa
21
fc
0e
f6
01
02
f9
ee
0a
12
f6
fb
fb
ea
04
0a
05
0c
e5
16
14
ff
09
f1
f0
e7
08
fd
08
12
03
06
15
07
f2
f0
fa
05
0c
eb
0c
ef
e7
e9
06
f2
1c
04
f8
00
fe
16
f8
f3
18
f1
13
f8
09
f2
02
03
11
14
10
13
fc
14
e9
0f
0e
e4
f0
f7
e6
22
09
ee
1a
05
0e
08
ff
01
19
f0
f9
f7
fc
f9
11
e9
1a
f9
f8
df
f7
07
19
fc
ed
f3
07
00
ef
00
0b
e6
f9
f1
f2
04
f2
05
ec
f8
19
fa
0b
ec
ea
f2
08
f5
f0
0f
06
f1
19
06
1e
f6
f3
1b
13
0f
e1
12
0f
ec
08
17
01
f8
fa
06
fe
0d
0c
f6
09
0a
04
0e
ff
f9
03
f5
05
11
26
09
f5
e8
0d
08
f1
f3
05
21
11
17
31
ef
f5
09
0d
13
0d
11
fc
04
0e
00
f8
11
0c
fc
01
0a
0e
fc
19
f7
15
06
0e
05
f7
0a
08
06
12
0d
f9
f7
08
1d
18
f4
fe
1f
00
12
15
ef
10
f5
10
10
e2
e9
f5
16
0a
fa
1a
06
14
f9
13
01
fe
ea
f2
f9
13
fe
0f
f3
20
f4
1b
1b
fa
13
0f
10
13
12
f6
fc
0b
fc
e5
1c
ff
1a
f6
15
0b
02
13
04
f1
15
10
f8
0a
09
02
03
e5
09
04
0d
0c
08
00
10
1f
ed
15
eb
0c
15
f7
02
0f
07
f9
18
ee
17
0a
09
fc
1d
17
f8
ed
fe
01
eb
f9
f7
0c
fc
eb
eb
0a
17
0d
f8
fa
05
0d
fb
01
08
ec
03
eb
fa
04
f7
06
00
f8
f7
f5
00
fc
fb
14
d7
f4
0d
ee
fe
0c
ef
f5
fb
ea
fb
f1
0a
fc
0f
ee
0c
13
fa
10
f9
00
1c
09
0a
1d
e7
f3
d9
11
1c
0a
f2
f2
0f
fa
00
12
e6
14
05
f0
ff
f9
f4
1a
f1
08
16
15
ff
22
14
e8
08
e7
07
ef
fb
0b
11
16
13
0d
1a
f2
07
13
00
ff
e9
f5
04
07
dc
19
ff
f7
0c
10
10
fc
06
fe
1b
f8
16
fa
fe
03
ca
e9
1a
ec
fb
e4
0b
eb
0a
fb
f1
f6
fb
2b
ef
f7
ee
1b
06
29
1d
01
01
06
1a
07
ff
f9
0b
05
d4
fe
db
08
e9
03
0f
fb
b6
14
03
fd
10
f9
23
08
ea
f8
11
fb
fc
e9
f6
f5
14
12
ec
f3
ec
fe
06
fc
1a
12
1d
f3
0d
15
ee
01
fd
0c
18
16
21
e8
09
ed
fc
0f
ff
0e
06
1d
e9
13
fb
f9
f9
e4
07
12
f2
05
1a
f7
1c
01
08
09
ea
e8
ed
17
0a
eb
1a
04
17
ff
05
03
14
13
07
01
fe
f0
09
1f
f4
f4
de
07
f7
13
09
0a
12
15
f7
0a
f9
fa
fb
14
f3
1d
fc
0f
f8
e8
0d
0d
06
f0
0a
ec
f1
f5
15
17
eb
ea
f4
25
0d
fc
fd
e8
f7
00
06
ea
0e
10
fb
ef
f3
fa
f9
11
f1
ff
21
f3
17
1d
09
19
13
11
e4
18
eb
15
03
f2
05
f6
06
09
02
f1
02
f8
14
05
18
eb
10
eb
15
03
01
14
0f
f7
12
fe
13
fe
06
fa
fd
19
12
10
f8
ef
f5
04
ea
f2
e1
00
f6
ff
ff
f0
1d
15
01
f3
17
eb
ff
14
00
0d
e7
0a
f0
ec
26
ed
ff
ec
1a
02
12
18
11
19
0f
fd
e3
f0
f7
fb
fd
04
17
f8
05
ed
09
ef
f3
24
0a
1a
0a
f0
03
f6
1e
03
01
f4
f3
fe
f6
03
09
fb
2a
07
fb
fa
1a
fc
18
00
34
15
07
de
e6
0b
e5
f3
14
fc
08
10
e9
fd
2b
0f
e3
07
0f
12
17
0a
0b
fa
0e
17
f2
dd
23
e3
ff
ed
15
e2
0a
ed
d7
08
ea
0c
e9
f9
ed
f8
39
2e
13
0c
f4
ea
1e
f1
f1
ec
17
dc
fc
13
f5
0d
e9
02
10
f9
17
f1
f0
f4
09
ef
0f
05
02
06
bb
14
eb
02
0c
0e
1c
07
f2
f4
1c
11
2c
f1
0b
ee
c8
ef
25
c5
ec
01
11
fc
eb
00
00
f5
ec
07
03
1d
02
f4
1e
20
1f
03
ff
fc
fb
f3
fa
db
ed
ea
c5
ea
db
e0
f7
e7
ee
ed
02
f4
f8
17
f4
18
e1
ed
e8
e6
e7
08
fa
29
e6
ed
ec
e0
0e
06
e8
ed
04
1c
e0
f3
02
db
06
f9
03
04
f8
eb
05
e7
08
fe
da
24
01
04
f9
f7
18
08
08
18
00
ed
fb
06
11
e7
1c
e2
10
ec
0e
09
f3
06

// conv1d_2/bias  shape=(64)  count=64  scale=6.1883085121e-04
12
c2
7c
d5
1e
da
94
ab
0e
b4
1b
43
4b
3e
f7
d2
a2
3c
1d
df
bf
b4
f5
2c
26
ba
f1
d3
7f
5b
18
b2
ad
ee
e9
4c
d1
c3
2b
f2
cc
01
14
c7
d0
da
1b
0d
36
ce
b3
e5
d7
eb
d8
03
cf
22
60
fc
3a
96
e1
d1

// lstm/kernel  shape=(64x512)  count=32768  scale=5.7492242085e-03
e8
f4
02
f7
12
f2
e2
fd
17
0c
10
ed
e3
f8
1d
f9
fd
04
0d
04
fd
09
fc
14
02
e2
f9
14
00
fe
e9
0b
fc
22
df
0e
ff
f4
fa
e6
fb
08
07
02
f8
f0
00
f2
0b
05
f2
09
f2
ed
f3
f9
0e
0f
06
f9
f8
ef
f6
ee
fe
ea
f1
11
15
0d
eb
ef
f6
09
05
02
f4
02
15
ff
0b
06
fc
d7
0d
fe
02
f0
16
15
ff
fa
0f
16
fd
e7
1f
e8
0f
11
0e
ff
ea
07
18
1a
1d
0d
08
fc
1c
05
0b
06
01
f7
e5
04
0a
15
16
f8
10
f8
f5
0a
14
17
e2
fb
fb
00
04
ef
02
f3
02
07
0b
f1
df
11
ff
09
10
10
ef
fd
ff
fc
e4
09
06
e8
02
04
00
ed
fc
fc
fd
0e
e8
f1
13
10
04
08
10
1e
1c
fd
e6
fe
08
02
00
03
e8
08
f9
fe
e7
0b
11
0b
f8
01
ee
f2
ea
fb
17
eb
00
1a
15
f9
ea
ec
f2
f8
f4
07
06
13
10
fd
f9
17
f8
f4
f8
14
f8
f3
0f
08
f3
fe
0a
01
fb
f8
0e
ee
0d
04
fe
09
f6
0f
18
13
1c
fd
18
10
fa
02
14
0f
02
e8
f3
f7
0e
17
10
08
e8
01
e2
0e
0d
04
fd
f0
ee
07
07
01
ff
04
ec
0c
18
0f
f7
16
05
00
13
00
01
fc
f9
e9
0b
f9
e7
f6
07
0b
f0
fb
f5
ff
03
e4
0f
ec
f3
08
01
02
12
17
e3
0b
0d
02
0e
14
14
19
09
fd
15
ed
01
e3
03
ee
07
ff
fc
e9
0a
f6
09
11
08
01
03
04
ff
ec
ee
05
fa
fa
08
e4
10
ec
ed
ec
fe
f8
04
0b
0d
f9
ed
f3
fe
14
05
f0
03
0e
da
f4
0e
19
05
f9
03
03
fd
0b
f6
00
fa
0b
1d
0f
12
f2
fd
0f
fb
f0
06
14
f0
fa
00
03
f7
ff
02
f2
fc
03
0c
05
01
f9
13
e3
06
0b
f3
f4
f7
ea
1f
1e
00
10
05
0c
e7
14
f7
fd
ff
de
08
f6
20
1c
f4
ff
04
f6
ec
ee
0d
e3
ee
00
ff
1c
14
0c
ec
e0
00
fb
17
eb
0e
ee
03
00
e1
02
fa
fb
fd
00
e4
f9
f4
17
0c
f4
ef
06
fd
10
ec
02
e1
f6
02
11
fe
fd
03
06
16
f4
f4
fa
f9
11
19
fe
0d
0d
ea
f2
ff
ed
05
ea
f5
0a
1c
02
fc
0d
f9
ef
02
f4
ff
01
11
0a
16
17
03
20
06
10
0c
02
ee
0e
16
07
17
0c
fc
1f
06
fb
12
0d
11
0f
ed
07
10
f1
25
08
fe
0f
18
06
dd
0e
f8
ef
ff
e7
09
fc
13
fb
15
02
f4
fc
0e
0a
eb
f3
04
fb
01
0a
06
f6
0d
f9
ff
07
ff
ff
1f
ff
00
0a
fd
e9
f2
f2
1d
1a
02
16
fe
1c
fb
0e
0a
e5
ee
05
e7
ea
ff
15
f1
1c
f4
ff
1c
18
f7
f8
0a
0e
f3
07
08
0c
1c
fe
09
fa
ff
12
f5
ea
f1
03
05
09
0c
fd
04
02
f0
02
17
08
18
f1
e8
f7
02
12
18
ff
0b
f5
fc
22
f3
05
fe
0c
fa
f5
f5
f9
07
fe
03
0d
0d
ec
17
02
1f
19
0b
17
16
e8
26
f6
11
00
f7
03
16
13
06
04
05
f6
1a
f7
0f
0c
14
29
01
02
04
10
f1
fd
09
21
ff
0a
1e
1d
0d
0d
06
25
1f
f7
13
12
1d
16
06
0c
00
08
33
2d
03
10
01
0c
ee
fc
ef
e6
10
1b
11
ec
eb
0c
ef
01
1b
f8
f8
04
12
e7
ea
14
04
f1
fe
04
16
0a
1a
02
08
fc
08
f1
eb
e9
1e
0e
17
07
fe
17
f9
f6
ff
fe
19
ed
09
f3
10
fe
fe
16
0a
03
03
09
0f
25
00
14
17
ef
11
10
ec
22
fc
12
17
f6
f9
01
13
01
f9
fb
03
02
0c
ee
0a
f7
0a
0c
07
f7
0a
03
02
03
0a
ee
17
04
ff
09
01
0a
05
05
fe
fd
fd
fb
0d
f6
fe
f6
f4
f8
ee
e7
fe
1c
ef
01
fc
0b
06
f9
14
fa
e8
04
ed
fb
0f
0c
12
01
02
04
f5
fa
00
05
18
0c
04
f8
07
e8
0e
e8
1a
01
f3
06
0a
f9
ef
f3
fe
01
16
03
fc
e9
0d
ff
f5
fe
01
1a
fb
04
0e
03
09
09
06
0f
fd
fd
fd
f1
18
01
f6
09
ef
03
f9
1c
09
fe
08
1b
16
1a
0b
fe
0d
02
e9
18
1c
01
0c
20
0a
0b
fb
0c
09
e1
07
03
03
03
0e
00
09
fc
f6
07
06
11
11
0a
fc
fb
07
12
fc
06
f7
f7
fc
fc
10
09
12
fa
14
ea
0c
ec
19
f7
17
fc
ef
08
03
09
ff
ff
12
13
0d
1e
0a
0a
eb
0f
ff
05
f4
08
f4
f4
12
01
eb
ec
f2
1e
0b
1c
0f
06
fd
05
eb
0f
fa
f8
08
15
08
14
06
15
1a
f9
06
fe
e9
11
0d
f4
13
e7
f8
01
fe
f0
f9
f4
12
fb
0e
fb
15
f5
09
f5
03
fa
0d
26
13
13
00
0f
0c
fe
14
ee
ef
23
12
07
06
f9
f4
09
27
0f
f0
c9
d2
24
07
dd
09
de
12
0b
12
d3
f4
07
52
0b
08
0c
ac
fc
ec
e7
e3
f4
fc
34
10
44
27
28
03
15
09
07
11
d4
16
fa
dc
14
1d
f7
01
09
f4
35
16
2f
ea
16
fa
f2
07
0c
0d
43
fb
2c
f8
aa
b9
f2
d5
f6
4f
e9
12
c8
1a
07
02
fa
18
d8
dc
fa
00
09
fe
28
f6
d8
ec
e7
12
31
20
e6
2e
fe
0a
0b
e6
f2
dd
2f
eb
fd
fe
09
e3
db
f5
12
13
fb
1e
ec
ed
17
22
23
01
25
f9
fc
16
49
0f
c9
09
0e
3b
36
e1
f5
32
18
07
cc
d2
17
04
c0
15
eb
f2
eb
1c
d7
03
fd
2e
0d
02
04
c7
1d
bb
09
08
fc
ff
3b
ec
39
14
39
da
12
06
e4
f8
ca
21
1c
d6
1f
0f
df
ec
f9
04
57
1a
18
df
0c
f5
fd
0c
ea
13
35
ff
58
f7
cc
d5
fc
e4
eb
47
b3
13
e9
fb
fd
ee
08
44
ba
e0
07
0f
02
1a
19
e9
d8
d9
d6
04
23
0e
e9
33
ea
f6
12
dc
01
f3
37
fd
1f
18
10
fc
dc
00
08
e4
10
39
f1
e6
0b
24
11
00
25
19
19
0d
3a
0d
c4
ff
0a
35
0c
f0
00
e5
06
f1
46
e2
e7
d7
73
f7
fd
f6
0d
e8
41
12
4f
ff
1e
e1
09
e4
0d
3a
03
03
ff
06
e2
f7
dc
31
f6
3e
d2
1e
fd
10
de
0d
f1
c7
e5
27
ca
f6
11
ee
25
0c
21
f0
12
ed
eb
03
11
0d
09
02
60
0f
08
4d
29
ff
fd
e6
ae
16
e1
01
18
f3
0d
d9
91
bf
bf
f7
fb
fb
1c
ee
cd
31
19
0a
d7
1d
49
26
f4
1b
10
e0
fa
3f
21
16
fc
ec
0e
c9
dd
fc
fa
fc
fb
fc
ea
ef
f0
ee
10
f6
d3
0f
02
ea
d5
f4
4c
14
00
ef
fa
dc
24
1c
0d
23
e8
b1
22
1f
d7
4c
db
07
12
22
f0
17
14
63
ee
e4
36
cb
0a
f8
26
f9
d2
22
de
26
33
fa
14
09
eb
35
f5
d6
ef
23
31
ec
3f
ee
ee
23
d3
ed
29
01
1e
f4
ef
14
d8
3e
db
f3
0d
de
30
01
ce
cf
f1
da
1a
29
dc
dc
16
1f
c4
38
27
0f
dc
fd
04
23
18
15
ed
1b
f3
f1
e4
21
30
04
e9
37
19
ee
29
ea
2d
07
fe
23
1f
34
03
09
f2
e1
2e
53
1b
24
f3
de
0b
ec
fe
0a
25
f9
1f
b7
41
0d
ec
23
26
32
20
19
09
f0
fd
f3
f5
16
ff
1f
0d
09
12
ee
05
02
11
fd
e9
04
0c
18
00
18
f3
1e
28
ee
10
04
10
08
0a
03
ee
03
01
03
04
03
16
f9
f9
0a
fc
08
13
02
f4
f1
fc
04
f4
f0
1c
f3
17
0d
1d
f4
f7
f7
e2
01
01
ef
0d
f9
f4
fa
11
0d
13
f6
15
08
f0
f6
f9
08
eb
f2
fe
11
0a
18
f6
0d
19
04
fc
f4
0e
12
03
10
04
0e
14
f8
16
f1
ec
f2
fb
f3
13
f7
11
05
0c
11
e9
0c
0f
fe
1f
f4
03
08
01
0b
0f
fb
15
11
0f
ff
ee
1c
00
18
ff
f5
05
f7
f0
1b
00
0c
07
08
16
fc
fc
05
ea
0f
03
0e
f5
18
00
05
0e
07
fc
04
05
fe
0d
0a
03
18
ff
12
02
18
0f
15
12
06
ff
03
05
05
0b
01
06
1a
f9
06
1b
02
13
0d
0b
f9
e9
ff
f0
f7
05
00
ff
f9
f2
f3
1f
13
03
0b
0f
21
00
fe
ff
ef
f8
15
fc
0b
06
08
fc
0f
1d
ef
f7
fc
f7
f7
20
04
0e
19
fe
16
21
f9
fb
09
0c
f9
0d
01
1a
02
0a
0a
01
0f
09
19
16
f6
0c
25
fc
08
f8
f6
18
f7
f7
14
00
ed
fc
0f
d4
ee
f4
1d
0b
12
e4
f5
f5
09
07
f9
07
fd
ef
0e
0c
13
fb
24
08
fe
f1
f5
0b
05
1e
10
fb
ff
08
eb
07
03
07
07
fa
00
ed
0b
16
04
0c
f6
f1
13
03
00
f9
fa
e0
0c
fa
0d
07
fd
fb
f2
fa
ed
fb
f2
03
0c
f6
f4
0e
fc
f5
fb
fb
1a
f8
fa
fc
fd
ff
f1
f6
0a
ef
0d
14
fa
d7
0c
f3
f4
ee
04
0e
04
0b
0b
0c
e0
02
0d
fd
f6
f8
f7
fc
06
f7
ff
00
11
04
f8
00
03
02
f0
fa
f1
f5
fb
08
f7
0f
03
1c
16
eb
08
fa
07
0d
e4
0b
fc
05
14
04
01
1f
05
02
01
0d
ec
f0
fb
fb
14
f2
f8
00
10
09
00
0c
ee
04
ee
f8
f6
03
07
f9
01
03
1a
0a
fd
06
10
15
05
09
ff
fe
fa
0b
fd
05
fc
01
07
0d
e2
0b
f7
f9
06
f8
fd
f9
14
0a
e8
00
10
10
07
17
0e
12
00
0d
f0
12
0a
e6
fe
ee
ff
05
10
f1
f7
f4
e9
ef
f9
07
ff
01
1a
08
f7
ef
03
ff
f7
02
fe
04
fb
0f
0f
01
ef
f9
05
0b
16
03
fc
14
fc
00
08
f8
0d
0b
04
17
f7
07
0e
fc
07
05
ee
0e
ff
15
04
04
11
01
11
00
07
0a
e3
02
01
06
01
f8
0f
fa
ff
0b
0c
18
0a
0e
0e
1d
f7
ec
0b
07
06
f6
fc
04
1e
01
f3
fc
ed
f5
1f
17
0d
0e
f6
0d
ec
ea
f0
1d
fd
fc
f1
1e
f4
0f
03
ee
06
11
f8
e7
08
07
f1
0c
ff
07
f5
0a
02
f9
f9
00
eb
00
f7
02
07
16
fb
f7
02
03
0e
f7
09
f0
01
fd
02
0e
f3
0d
fd
e4
07
ff
00
07
02
f7
07
0d
f7
0c
0b
f3
06
0f
10
1a
f2
eb
f6
fd
04
0c
05
ef
04
09
12
fe
1a
01
f9
10
0b
03
11
fc
10
00
fe
19
ec
f6
f7
fb
08
02
ec
07
03
f4
0b
ff
01
06
f1
0e
14
04
01
fe
1a
06
fc
12
17
f9
1d
01
f5
f6
f5
0f
04
02
fc
fe
0b
01
05
f1
fd
00
f6
fe
f3
17
f1
f8
fe
ed
03
f9
07
f6
f6
fc
fd
f9
fb
fe
08
08
1c
e6
00
10
e9
ec
04
fc
0b
16
02
03
ef
11
14
02
f3
02
f9
0e
1e
16
00
02
05
04
0a
f5
ff
f8
f2
0c
f5
15
0a
10
f0
eb
eb
08
05
0e
07
f8
18
1c
03
f7
f6
0c
05
0d
f5
05
16
f0
03
e2
ff
fe
00
02
f7
0d
fe
02
0e
fb
ff
fd
0c
08
04
02
1a
01
16
09
f7
e8
fd
f7
eb
01
ff
fa
f3
f9
09
0a
fe
f3
f9
0d
14
02
00
0f
e8
04
06
ed
00
f4
11
fd
0e
0c
08
0e
16
0a
fa
12
f5
05
0b
ee
06
12
0d
03
0a
0b
07
04
0e
ea
ea
fa
08
13
10
12
fd
00
f6
f3
0a
14
e8
e4
14
f1
f9
0a
ef
ed
f5
04
02
f7
03
02
f8
f6
01
09
04
ff
14
0b
f4
14
07
f5
0c
fe
1c
e9
f9
f6
02
ff
0d
10
01
f8
02
10
fb
04
06
f8
09
0d
ed
0d
fe
0b
fe
f0
04
03
e8
0c
0f
01
e4
f0
08
ff
fb
ef
06
fb
f3
fa
02
fb
f9
ff
f9
f5
fc
f9
f9
fb
fa
00
0b
03
ef
eb
fd
fc
09
08
07
08
00
ff
0b
f5
e3
fa
fc
fb
eb
f3
ef
03
fd
ee
f2
f6
08
02
01
f0
ff
11
0b
04
03
0f
09
03
f1
f5
e5
f7
fd
f2
f1
04
f3
0f
05
04
ef
f5
fe
01
05
f4
0a
f6
f6
06
02
f5
f6
ed
f6
f0
08
0c
0c
04
f4
ec
f0
00
eb
ed
f2
17
e7
0d
08
07
f7
fb
00
f1
19
f5
f8
02
f6
06
35
fc
10
e8
ef
14
1c
e8
f0
d7
fd
f8
f2
fa
08
f3
02
ef
ff
eb
fb
f5
ed
f7
f0
f9
fe
ea
fb
07
fb
06
16
f7
f8
10
18
e8
07
0d
fe
06
1b
f3
f2
f4
00
fa
ec
04
d6
22
07
0e
f0
f5
f9
10
ff
d0
00
0d
e1
e7
ee
ef
11
14
17
ee
f9
00
ff
f0
02
e3
ee
05
00
f9
ea
11
fb
f5
ef
e1
f4
0a
f6
cb
00
07
1e
1a
25
f9
0c
0b
0b
f5
f1
17
e6
0c
ff
fa
01
11
f0
ef
e4
ff
18
38
ff
0a
0c
0d
06
fb
f9
f2
ee
03
fb
03
00
f4
29
12
0f
0a
06
fc
0b
08
00
f8
fd
08
03
0c
fc
08
0c
f5
0f
0d
ff
03
ff
11
fc
fd
f0
10
fd
07
ee
02
1a
f8
fc
11
07
f6
fd
17
f7
f6
13
0e
04
e9
13
f4
f1
ee
e2
34
03
0a
fb
f3
07
2d
f5
cc
0c
f9
ff
f6
ec
ff
01
0b
17
04
01
0c
0c
df
fa
da
d6
f2
08
12
0b
ea
22
e2
ed
f8
08
ff
07
cf
1a
02
1c
19
0a
e8
13
2d
04
f7
03
fd
f3
14
03
ff
15
fd
f4
ee
00
f7
0a
2b
03
12
f2
08
03
04
06
e2
ec
13
1d
00
02
03
fc
07
fe
fb
fa
08
f0
0d
0d
12
f8
fb
f2
fd
f0
f6
e7
0c
fa
01
10
1f
fb
ee
f4
0f
fd
fa
0a
f1
1b
f4
0c
e9
1c
f3
15
fc
fc
0e
fa
f7
25
12
0c
ff
fe
11
ef
f4
ff
ed
f7
ef
0e
12
fb
01
f6
1a
fd
f7
1c
03
f6
0c
e5
f9
1b
09
f9
03
0f
05
f3
dc
e6
de
0e
ee
11
fb
f3
e9
1e
fd
fe
ff
f6
32
fd
0f
fc
f2
00
12
e8
19
f6
f6
eb
0b
f2
ff
f8
01
f2
f8
fc
f4
0d
f8
f6
0f
fd
10
07
0b
f7
ea
06
f4
03
02
f4
ff
0b
f0
08
18
f7
f2
e2
ed
23
e1
08
03
ff
04
ef
09
18
d4
fe
c1
fa
0e
12
fc
fe
09
ee
f2
05
f6
ee
01
0e
0f
29
db
20
03
f6
ec
02
05
f0
03
f1
e1
0a
fc
0c
f8
fb
f6
f5
00
fc
00
fb
fc
f1
07
e5
d3
15
10
e4
f2
e3
03
17
ec
15
f1
eb
e0
ff
0c
f9
ce
d1
e6
21
f4
fb
f9
1e
e9
e7
f2
eb
1f
f7
ba
13
0b
e6
16
fd
15
1b
fe
0c
f3
f1
f7
ec
f6
0c
0f
03
fa
e5
f8
0f
0c
14
25
f2
13
05
ee
f2
18
f6
da
05
08
10
f9
03
04
11
0d
04
f8
0e
ff
f9
11
11
05
f9
10
ff
f3
0d
fa
09
00
0f
10
04
11
13
ff
f0
0b
f6
11
02
f9
13
fa
f1
0b
05
f9
1a
14
f3
10
11
f3
05
03
0b
09
0f
f7
ea
06
fc
07
fb
f8
f6
17
13
f8
ee
f5
f5
0b
ff
08
fd
0c
05
19
08
10
02
05
0e
fc
f9
0b
fe
f7
09
0f
0d
0d
10
0a
0f
16
18
f6
f2
f8
f9
0a
0b
fe
13
09
06
19
18
f0
02
0a
f1
fd
19
f8
0f
00
fa
e9
0e
15
fd
14
0d
fe
0d
f7
09
15
fb
08
f1
02
07
08
15
03
02
12
03
f7
11
0e
f8
fe
06
04
e9
fc
fd
09
02
f9
fb
ff
f6
fc
fd
18
f4
0b
05
0c
fd
fc
f0
02
fd
f9
02
fd
0a
18
0a
15
16
11
fb
fa
fa
16
0d
fb
fd
f5
fd
03
01
18
05
18
f9
0a
02
0c
02
f3
0d
05
fe
0a
f7
00
fa
06
05
0f
ea
f9
23
f5
fc
fc
f5
fc
17
1a
06
09
04
10
f8
0c
1a
0b
07
08
12
fe
f5
08
f1
f1
f7
14
fa
fc
00
fa
ee
fd
18
09
f9
14
f4
07
f5
0e
0d
11
f5
0e
04
09
08
fa
05
05
04
09
fb
f9
f7
fe
04
e8
0b
0d
fd
06
19
fb
08
f6
f0
12
07
f4
0f
f8
f5
10
fe
03
f8
0e
eb
0a
03
06
f7
0d
09
fd
17
e9
0f
01
f8
08
fc
02
10
06
00
0a
fb
08
06
0d
ff
04
11
f4
02
f2
02
01
1a
0e
fb
02
ee
01
0b
fc
fc
00
13
16
0a
0a
12
fb
0f
09
0f
04
0d
0d
08
10
f5
fb
f2
0a
12
0d
f8
f5
ff
ff
f2
0e
0d
fb
02
0c
04
f7
f9
1b
ff
f8
12
fe
f3
f7
03
0a
f5
01
13
04
0a
fb
00
0c
eb
0e
f6
fa
0e
03
f8
12
ef
f4
08
f7
f5
f9
03
13
f6
08
0b
0c
07
05
ec
12
04
04
16
09
ee
04
0b
fe
ff
fb
10
0c
07
fd
15
f9
f2
ff
05
01
fd
f2
0c
13
07
f6
12
ff
ee
13
09
18
00
01
0e
ff
02
f5
05
f7
14
ff
03
f8
f8
1b
04
f1
ef
10
01
fc
17
f5
fd
0a
f6
12
fa
0b
fb
fa
14
03
ed
fb
ef
fc
ef
0e
09
0f
16
12
0e
11
f1
ed
e4
fb
fd
f7
fb
08
fa
fb
04
e9
f4
f2
f4
ea
ff
f6
15
0b
f7
fb
06
09
fb
fd
08
1d
fb
f6
09
16
03
08
07
06
1a
f8
05
0f
16
01
11
0d
ed
f5
fc
04
10
0c
13
10
f7
f9
07
19
ef
f8
00
07
05
01
14
fb
f7
0c
f5
13
14
1e
fd
0a
1a
13
07
fc
f0
03
02
0e
fe
15
fb
fb
fe
05
ef
04
ec
fd
fa
eb
1c
0c
f1
22
f8
15
04
fd
f8
fe
07
f6
02
0b
f0
04
00
f6
12
0a
0f
05
03
eb
f6
f0
f6
ed
ff
0e
06
07
21
f5
08
08
ff
e1
f0
11
ff
01
10
f6
00
fa
02
f3
23
1d
1a
ff
eb
ef
1d
0a
05
00
ff
f0
23
18
00
0f
08
0d
03
ff
eb
1a
ff
17
f0
0e
ff
f9
17
12
15
19
ea
03
ff
16
1b
fe
0c
0d
ec
06
fa
1a
f1
f6
fb
07
17
fe
0d
02
14
2e
07
0a
18
16
ff
00
13
06
1a
13
22
fe
07
10
07
18
fc
15
14
fd
02
00
0d
0e
14
02
23
0a
04
0a
fa
14
11
08
f8
1c
fa
f8
06
0b
f7
f9
08
01
1f
29
e4
04
19
ee
00
ef
00
e6
04
13
19
ff
0d
00
10
09
e1
fa
de
06
fb
09
00
fb
f7
0d
02
02
0d
0f
1a
fc
02
09
09
10
fd
0c
09
f4
08
15
ff
15
0e
17
1f
18
0c
01
e2
0f
fc
20
04
e3
e8
0f
09
08
f4
11
ed
16
05
1f
f7
00
11
ff
ec
18
f2
0c
06
19
11
ff
13
fc
f9
0e
fe
fc
07
eb
f3
15
f7
ee
11
fe
04
02
02
04
02
fa
00
fc
fa
fb
fa
15
11
06
fa
03
f4
24
01
ef
fe
1e
f8
00
10
0f
f0
ff
0b
e2
fc
0b
0a
01
15
ff
06
07
1f
12
05
fc
f9
ee
16
03
f4
fa
1b
f5
f8
0a
f8
fc
ec
16
f3
1a
f4
f7
0a
0e
eb
07
21
f4
16
09
f6
04
16
0b
e1
f8
f9
f9
1c
1a
0d
0c
e2
fa
16
f0
0e
10
15
0d
f2
14
0e
fd
10
16
01
f7
ee
1b
0f
fd
18
09
e9
04
f8
f5
1f
f4
ec
01
02
f7
10
ee
10
0c
f8
1b
1b
f3
ff
ff
f7
f4
13
00
0b
09
08
f1
f5
fe
f4
f1
f7
14
07
12
00
0a
14
05
ff
ff
29
0d
f6
11
fe
0b
fe
f8
fb
04
fe
fb
01
0d
ea
ec
0f
f8
15
16
05
03
0c
f0
e2
fd
04
e9
16
0d
18
18
17
fc
ea
e5
03
fe
f9
1e
05
f9
01
fe
ee
f8
f7
ff
15
05
00
fa
f9
f7
fc
ff
fd
ec
12
07
19
0a
0c
2a
fc
08
03
f6
f1
0f
f5
06
09
07
06
f6
f3
fe
fd
fd
f1
f1
1c
09
09
15
f9
18
f8
fb
f3
06
01
fd
ef
f3
13
fb
0c
f9
fe
fd
01
00
f8
0e
ee
f6
fe
f5
f8
0a
ed
fa
1b
fa
fe
06
0e
02
03
13
1c
05
01
03
fa
f2
00
01
15
05
ec
fe
05
ef
01
ff
ec
02
16
e9
f7
f6
e2
06
06
0c
0c
1a
13
e8
f5
fe
f7
f6
f3
07
ea
fd
f8
0e
06
0f
0d
f5
ff
f3
fa
08
12
ff
f9
f7
eb
14
f3
02
04
08
f7
02
fe
fc
fe
fb
fb
01
04
12
0e
03
f9
0b
12
0a
00
0e
11
f6
00
0d
03
0b
1b
09
02
08
17
ff
18
06
f8
ef
f7
02
f7
0c
0a
f3
f1
0e
00
0e
fe
10
fa
f2
1a
19
02
10
f5
02
09
ec
fe
0e
f9
14
14
0f
05
02
04
fc
f9
fa
ff
16
07
11
f2
07
f1
0c
07
fe
0b
05
0e
15
f3
f5
0f
f6
00
15
14
ed
ef
ff
fd
10
06
fe
15
0c
0f
07
0d
fc
05
e8
13
11
0a
03
0f
0c
00
19
08
07
02
fa
0f
17
16
11
fc
16
ed
11
f8
0a
fe
0b
fd
14
08
11
f9
14
06
ea
fb
f5
10
16
06
0f
0c
07
17
09
09
f8
fc
0e
0f
f6
fc
f2
12
f2
12
03
1f
f1
f5
eb
f5
f3
0e
11
01
02
11
fb
06
f1
06
00
19
09
fe
f4
03
09
f9
0e
ff
04
08
f5
03
0b
f0
f5
ef
fd
f6
f7
f8
fd
f5
1b
f3
e9
ea
0d
12
ec
fe
fd
ed
f8
0d
ec
09
fc
e8
ed
fc
01
ee
01
19
06
0c
10
04
f8
f6
f8
0b
fb
f9
08
01
09
ed
f8
10
fe
fd
22
04
f6
12
02
ef
fd
03
f2
f3
eb
13
01
00
fb
00
f0
00
ef
0e
0f
0a
04
f3
04
0d
fc
08
02
12
e6
03
f2
f7
f8
12
ec
f8
05
e9
06
f6
f9
f9
ec
f7
16
02
02
17
fc
04
f8
fe
11
fb
05
01
ef
f1
fb
fd
09
08
02
fc
f6
02
0b
07
0a
08
f4
09
f0
04
f0
01
f5
02
fd
ff
fc
f8
12
07
0d
0a
0a
04
0d
fa
0f
f7
03
04
13
fd
01
e6
f7
e7
eb
fb
f9
ff
04
fe
ef
fa
0d
09
1b
07
06
f4
0d
07
fa
ee
07
ef
00
00
f6
f8
03
01
f9
0e
08
f2
07
08
09
04
f9
fb
fd
11
09
e8
ff
fb
f9
02
0a
00
0c
01
ff
03
09
04
03
0d
f6
0f
00
f4
ef
f5
f7
ff
e8
f5
f0
06
f5
ff
f5
14
0d
05
f6
f7
fa
1b
09
03
fc
16
00
02
14
e5
f8
00
01
fc
03
03
f9
05
f6
06
1e
14
fe
0f
14
07
fc
14
fd
f7
0c
f7
15
13
12
f2
ff
00
09
fc
06
10
11
ec
f2
fe
e8
ef
0c
fb
01
f8
19
06
0f
09
fb
f7
fc
14
fe
0d
15
f4
1c
0c
0d
06
01
16
f6
05
0f
fb
05
02
06
f7
0f
13
14
04
17
f9
f1
03
eb
0c
00
10
0c
11
f7
0a
fd
06
01
09
0d
0f
0a
00
00
0a
fa
14
00
12
15
fc
09
07
0c
10
f8
09
05
08
1a
1a
fa
04
fb
17
01
0a
05
fa
12
02
0b
10
ec
02
17
f2
0f
f7
f6
f8
09
fc
f7
f5
ee
14
0b
13
16
fd
0b
04
04
ef
ec
12
fe
0d
08
10
0d
06
0b
06
0c
0b
f0
1e
10
1a
03
03
f0
06
03
12
06
10
0f
00
02
07
06
14
0b
09
01
fd
ed
ff
00
f9
07
06
00
f4
05
0e
04
ef
ef
f8
f0
f9
00
f9
00
14
0e
01
03
01
06
02
f6
00
06
1e
05
0d
ff
f2
ff
10
04
13
f7
fe
04
04
f6
08
f4
fe
ed
f1
ed
0f
f9
fb
03
03
02
1c
0c
fa
04
10
01
10
f5
f2
0e
0e
f2
f6
0a
1e
fb
18
01
fa
02
f3
f6
08
00
0a
f2
f7
13
18
ef
1a
e7
f4
fe
ee
11
04
05
07
07
f2
fb
eb
ec
0a
09
ec
0c
02
00
08
0a
e2
18
fa
eb
03
02
01
f7
10
fa
02
ea
07
01
00
f7
e8
fe
f6
00
ed
ef
14
18
f0
07
e9
0c
fd
04
03
f9
00
0c
12
15
09
f9
0e
fe
00
0f
ee
e8
03
ec
00
f5
07
14
05
f8
11
0d
f1
07
03
0f
ff
00
fb
f8
0a
f8
fa
06
05
fc
0d
17
fd
e5
10
0f
07
17
13
01
f8
f6
f8
09
13
ff
fb
01
fd
f8
ec
0f
10
01
06
fc
fb
00
fd
0e
fb
10
eb
ee
ea
06
ff
fb
12
f2
fd
e7
0c
f7
ee
ed
09
e3
08
ed
12
10
0e
f6
05
f0
f6
f6
08
07
fa
11
0f
fd
f6
fa
fd
13
13
00
f2
0d
fe
14
f1
fe
06
0d
f8
13
0d
eb
02
f9
04
16
0c
08
ff
16
0d
fa
f8
06
f9
04
f1
ff
02
01
fe
07
15
17
06
fc
f8
f4
f0
14
09
ea
03
e9
fa
f5
f7
f7
fd
05
f9
f8
fe
f8
07
ff
0d
fd
00
fa
07
17
06
06
00
f9
0b
eb
05
0f
fe
05
08
f5
f7
0f
00
ff
16
13
eb
0b
12
01
13
06
ed
0d
fa
12
10
ee
fd
f3
04
f1
f2
f6
13
e9
f5
03
07
05
fa
02
0e
14
f2
fb
0a
16
08
06
0f
06
03
02
09
0d
07
04
ee
f3
ed
fc
f7
07
07
0a
19
15
09
f9
09
f2
00
ef
f2
f9
fb
ff
0f
1b
07
f0
06
15
f1
f0
fa
0c
14
03
13
09
0c
f0
02
fe
fd
f0
20
04
05
fa
03
f5
03
eb
f2
f1
e9
01
0a
0b
e6
f2
fa
0f
fb
16
0b
18
0d
f1
07
01
f8
03
03
f2
0f
16
0b
f3
0b
fe
00
fc
10
02
fa
00
fc
1c
01
09
f5
eb
14
01
1b
ec
04
19
0b
0d
13
fb
f2
0e
fa
f8
f1
f8
f3
11
13
f8
13
fc
f6
15
1b
11
09
f6
0d
14
06
0e
0b
14
0c
ff
fc
f7
15
f8
f2
04
ef
f7
07
fa
04
f8
05
f0
fe
00
ff
f1
fe
03
04
05
05
08
03
0e
0a
18
f0
fd
05
12
ef
fa
ef
00
fc
f9
16
f0
05
03
11
00
12
f2
07
ef
20
fa
1d
03
0f
03
f8
f5
f3
0c
f6
fb
f8
06
15
0f
24
0d
0d
fe
0a
0c
1b
12
eb
ed
02
15
06
02
fe
fc
f9
08
14
02
0c
ff
05
0b
08
fc
fa
09
05
02
1a
ff
11
0c
06
08
14
f5
f7
10
02
fa
12
eb
ee
0d
fc
14
de
0a
13
06
03
f4
02
f5
ee
f5
09
04
01
01
fd
ee
f7
09
f8
fc
f9
05
f8
09
f2
06
f2
e4
0a
f0
0a
0a
ed
fe
10
fc
10
f6
fc
14
08
f9
ff
0b
f9
f9
0e
ee
08
06
01
f8
f6
ed
02
fb
fa
fa
11
ff
f8
ec
11
10
0e
f5
0c
ec
f6
01
09
19
fc
00
0a
f9
f9
f2
f2
fd
0f
04
0c
09
f9
f8
f6
f9
13
06
fa
14
f6
03
11
09
10
f6
fd
e8
ff
fe
03
12
0d
10
f6
e7
00
09
01
f7
fb
f8
0d
ff
05
eb
ff
0a
04
f5
f3
05
f0
ed
f4
f8
04
f6
fa
fc
0f
05
ed
eb
0d
ed
f9
eb
ee
1b
15
0d
fd
ee
00
fc
15
0d
13
f7
04
0c
0a
fb
09
00
ed
ec
06
01
ed
0b
0b
04
f5
08
fa
0f
ee
fb
ee
02
0c
06
f1
f8
13
f7
06
ee
10
00
02
02
0f
15
14
10
fc
ef
08
0b
0b
ee
f7
0f
fc
01
fc
10
ff
f6
16
05
18
01
04
10
00
f7
f6
00
f5
07
f1
f3
f2
f4
19
fc
f8
18
00
18
14
11
e5
f8
07
04
0d
f3
f3
07
fa
0e
19
f9
e9
0a
f8
e9
00
f8
00
11
fe
fe
f7
02
ec
f9
ff
0c
09
10
f7
f9
04
fa
ee
f8
07
f8
13
f7
fd
ff
00
f1
0b
08
19
0f
f9
03
f3
f1
ef
f9
fc
ed
11
eb
fd
14
f6
07
03
f7
f2
14
ec
f7
09
0f
ea
f4
fe
0a
f6
ff
00
03
10
f1
f8
0a
fd
f5
0c
0d
09
ea
12
fb
00
f6
f3
fe
16
f1
f2
09
08
07
09
fb
ee
07
05
0e
16
fa
02
13
1b
e6
eb
ff
f8
00
fc
fe
fe
08
00
01
05
f5
03
fc
fb
04
fb
fb
f9
1a
04
0c
0e
f7
18
14
fe
ff
e9
fd
ff
0f
1c
01
f9
14
17
01
ea
03
e6
ff
f9
09
14
16
08
12
07
07
04
10
0b
16
0e
0a
04
06
06
eb
0b
f3
12
ff
03
ff
07
00
05
f8
ee
09
08
09
f7
0e
f4
1c
0c
f5
11
f8
fc
14
05
f1
0a
fe
f9
0a
f8
17
05
fb
0f
0a
02
0b
04
07
06
f1
0c
04
10
0f
ed
09
0c
15
fe
fd
fd
05
01
07
0b
ff
e7
02
03
ff
02
16
04
fb
03
06
ee
08
18
0b
fa
fb
0c
1a
17
fa
e6
1a
fb
06
13
0b
ff
f5
ed
fd
13
06
f5
f4
ff
0f
03
0c
fe
09
ff
f6
00
06
fc
16
f7
01
04
00
05
12
0c
1a
ef
ef
e0
f9
11
fd
17
07
e3
01
17
10
1b
0d
f0
0b
10
07
fa
05
08
f8
f5
f8
ef
fe
03
eb
12
ff
19
09
f7
f9
06
05
0d
f6
0b
12
01
e5
fe
f4
05
f5
ef
f3
fd
fa
f1
05
e8
07
f3
fd
e7
05
1f
f9
fc
f7
16
fe
14
fc
02
f3
e5
ec
16
19
ec
16
f1
01
f8
fb
f7
e9
0d
19
1c
0c
0a
e5
f6
fd
f4
fb
0f
15
e9
05
05
fd
f7
fe
ee
ee
ed
03
f8
0c
08
0b
19
09
0b
04
0e
fe
e2
00
f6
ee
f2
fe
0b
fe
ed
16
02
f6
01
0a
05
f7
12
f7
0e
06
f3
f4
e6
07
10
02
00
e2
ef
15
03
01
0a
e5
15
00
f7
fa
07
fc
18
f6
fa
eb
f5
0c
eb
fc
e9
18
f2
06
09
f7
02
04
fd
fc
fc
f9
e7
f1
0c
fc
f7
1a
10
fa
11
0a
0a
02
14
0a
fa
01
19
0d
0a
19
09
fc
f6
f9
07
0d
fc
0a
f9
06
0a
f6
f2
f6
11
0a
07
0f
06
0c
0f
14
fd
02
09
13
0e
0f
09
0e
1a
11
02
f0
0c
12
18
f1
06
0c
08
09
17
fd
f1
0a
f9
09
fc
fa
e4
03
07
05
f4
02
fb
0e
0a
e7
0a
09
07
06
0c
37
0a
e5
17
f7
13
ff
fe
15
13
07
f4
0b
f7
0d
27
14
fb
04
f8
f3
ea
ea
e5
1d
0f
15
f9
04
0a
00
ff
0c
f7
ff
fe
01
05
0c
e7
12
16
fb
10
14
04
df
01
06
f2
f5
ef
02
09
2f
04
fc
f5
1b
0b
ed
f7
f0
ea
f8
06
18
12
f9
ed
fe
07
f3
f3
f1
f7
12
fc
0d
ff
06
fa
ff
ec
fd
19
1b
03
09
0b
10
0b
f5
03
05
17
00
ff
f2
1e
f6
0e
17
0f
17
08
09
0b
ed
03
0f
fb
03
e3
04
f6
ee
ff
0b
fc
06
21
ef
02
24
f3
13
0f
2d
ff
dc
0f
00
1e
0b
06
0a
16
07
f8
fc
f8
0b
0c
0c
13
01
ef
fb
f8
f4
f2
19
f0
07
ef
0e
fe
0c
08
0d
ec
12
1d
03
f7
08
f8
fd
18
0f
f9
1f
0f
f0
fb
0f
e6
f2
00
10
08
2c
08
13
04
16
f4
f3
0c
f0
06
fd
08
fe
13
01
ef
23
12
09
f7
01
0b
f4
04
04
0a
07
0a
fb
fa
f6
20
20
e9
0e
14
02
0c
07
e6
01
1a
fb
f6
eb
05
f1
0a
e3
1a
02
19
fc
f8
00
01
ea
01
f6
fa
0c
f6
14
06
03
18
eb
0d
f0
07
ed
0b
09
06
f0
fc
10
e7
05
04
05
12
01
e6
0a
0f
f5
10
02
e0
09
13
e8
ee
ef
fd
f7
13
ff
f5
07
f9
fb
fa
0a
ec
0e
0e
ef
05
f5
0a
10
09
09
f6
0e
ec
e4
f3
00
f8
0a
fa
fa
ee
0f
fc
eb
f7
f7
fa
00
10
0b
04
05
0b
05
ea
00
0d
05
fa
fd
02
13
f0
09
fd
07
14
f6
16
fe
e1
ff
fd
0f
07
e6
12
06
f2
15
14
f8
f3
f7
fc
fb
ff
f0
1b
f0
fe
08
fe
0e
fe
fa
0d
df
f9
f2
f8
01
f6
04
e7
e4
01
f6
0e
e3
06
e9
fb
f7
f1
fd
f0
f7
0e
f6
f2
f8
05
05
f5
f9
07
ef
ee
07
0c
07
ff
09
01
0a
05
f3
0c
f6
d1
f7
07
0e
fe
f0
f4
e7
0e
f5
0d
ef
01
03
e2
12
08
f0
0f
13
eb
fe
fd
07
03
10
f1
ff
fe
ed
f6
26
f7
fb
18
17
ff
f1
fa
10
06
0b
fd
f7
05
f5
f5
f0
e7
06
e4
00
0a
f8
f0
fe
04
f4
03
0f
03
f9
f8
18
fa
03
10
fa
ef
fa
fc
19
01
f7
ec
06
f4
f2
01
f7
0f
fb
08
f5
11
ff
02
10
ee
13
f8
05
0d
fa
0e
ef
f7
f8
08
02
06
06
fc
fe
f8
05
f0
f5
12
12
f3
f9
fe
11
1b
0b
f8
fd
f1
f6
18
04
0d
13
ef
07
f9
ee
f2
fe
07
f8
07
09
01
fd
0b
fc
f3
f2
f6
01
01
14
f2
17
00
ef
02
0b
0c
ff
03
fa
05
f4
11
00
f7
f4
fa
ed
05
fd
06
f0
f5
f9
0d
14
11
fc
f2
03
0a
14
f5
f8
03
f3
f1
07
15
0d
16
0c
01
f5
09
f5
11
0b
e9
f0
0a
03
0c
f1
11
f1
01
0d
fd
0d
13
09
fb
20
0c
06
16
ed
16
07
1d
15
01
07
02
0f
ff
f8
0b
0a
0a
ff
08
17
05
12
ee
1a
01
03
f1
fe
10
07
0b
02
0d
1e
21
00
f9
0d
16
ea
11
16
1e
05
f4
00
f5
f6
f6
fc
ef
02
f4
17
0a
13
fc
06
0b
f6
04
04
f2
19
ef
ff
07
03
00
fd
0f
ff
fe
0c
f6
0b
15
04
f7
16
f3
04
06
f9
01
f8
01
0b
09
00
0d
fe
08
fb
f3
0b
08
05
06
f1
06
f2
fb
13
0d
f9
ed
f1
f0
04
06
fe
fb
07
10
1f
06
fa
fd
fc
08
0d
08
0b
0a
02
03
00
14
04
05
f1
f5
ff
01
01
09
22
0a
ff
10
fe
05
fe
0a
ea
14
e6
fe
ee
f5
14
e5
fe
03
fb
f2
07
f9
ee
00
04
f7
03
0f
06
07
11
ec
09
f2
f6
f8
0c
11
02
fa
f7
09
f5
03
ec
16
fc
ea
10
0c
fa
f1
12
ff
04
07
f9
0d
fd
f9
ec
10
f8
ed
f0
07
03
fc
fd
0c
f5
f0
0b
09
f9
17
f6
07
0a
14
f1
08
ea
fb
ef
0a
fe
0c
fd
08
e7
08
fd
ee
ee
06
0b
fb
f9
00
04
ff
f3
00
f1
05
18
f3
04
f5
0b
f9
0e
f8
f4
14
ec
03
03
e7
04
15
f7
0c
fa
04
17
f1
f8
10
fc
0a
09
02
04
fd
ef
08
fc
f8
01
02
13
f7
f8
0d
00
00
f0
fe
f3
14
fa
10
f8
f7
fd
f3
12
f6
02
04
f9
04
06
f7
08
f9
00
0b
fd
e9
08
fa
00
fe
f9
ee
0e
02
f9
e6
07
f0
15
f1
0d
f9
00
f8
ff
10
15
09
e8
06
f1
f6
0e
11
11
07
10
01
f2
04
f9
f6
f6
f1
fb
fb
f4
01
0c
f0
04
03
f6
f9
f6
16
0f
f9
0d
15
eb
04
15
12
fc
fb
fa
fb
0c
10
f2
f8
03
fe
f9
ff
03
00
f6
06
04
0b
ef
13
fa
0f
09
08
06
0b
f1
ed
ea
ef
ee
ea
ff
f2
07
f3
03
04
fa
f3
02
fe
f6
05
13
05
0c
f7
f7
09
f9
f9
02
02
f0
f9
03
f5
fb
fb
f0
f6
04
ef
0e
02
10
f4
fd
fe
fc
12
fe
f0
06
0a
ee
02
05
f0
09
13
01
02
fe
f2
fe
0b
fc
f2
f1
0d
05
0d
11
08
06
14
11
f4
0a
06
ed
f7
fd
fb
ff
fe
f0
05
0b
11
f6
04
0e
07
02
f7
f7
09
fa
ea
03
ec
03
0d
fc
07
f1
06
fe
fa
0a
f1
fb
0c
0a
0c
fd
0f
f7
04
0c
07
01
f3
f1
06
01
fd
0a
fa
14
09
03
f8
06
ec
f0
f5
ef
06
07
f2
ef
12
f8
fd
f2
f8
f7
03
10
01
04
03
f5
06
09
13
09
f6
f1
f8
12
0e
03
07
01
f2
08
ed
04
09
f8
11
02
f7
f9
f9
fa
0d
f4
fe
10
08
07
0b
f6
f9
0b
09
02
f1
f5
11
f0
00
ef
ed
fd
08
14
13
f9
07
0f
f2
0e
f3
03
15
0b
0e
02
fb
03
09
ff
17
e8
f5
fd
ef
02
08
f6
fd
f3
0a
09
02
fd
08
00
fc
09
0f
01
06
17
f2
f7
fd
13
07
fa
f1
fc
0e
0d
00
f5
0d
02
f7
08
07
05
f3
fd
f6
04
0f
0e
0d
00
07
0e
05
0b
0c
0c
f4
fb
fc
0a
f8
01
0d
fc
fa
f2
f6
ff
0c
00
eb
eb
0a
f9
06
f1
f9
08
11
ff
0e
12
10
fc
0d
02
ff
04
fc
fe
04
f9
02
ff
f5
06
f8
08
00
fe
ff
f9
f3
ef
0e
f4
0c
fc
11
01
06
f3
09
02
f8
01
08
fa
f4
05
fb
fd
0a
08
10
f4
fd
13
ef
fc
ed
11
07
f3
08
fb
fe
fc
04
00
f5
10
f6
f9
f6
04
ec
0b
f8
09
01
fe
02
0c
0a
02
f9
f0
ed
f9
0b
12
03
0b
f4
08
fd
13
09
f6
01
f3
00
00
f5
04
02
f4
06
fa
04
fc
0b
f6
0d
f9
08
10
06
10
f2
fe
09
08
f0
0f
04
03
07
04
05
fd
f8
09
e3
0c
f4
0d
0c
ff
ff
fa
02
ff
f2
f8
0c
0f
07
f9
fc
03
0c
00
15
04
0c
e5
09
fc
04
f6
05
fc
0b
fd
00
f9
f9
ea
f7
fa
05
f5
10
07
05
ff
0a
05
04
f3
07
09
ff
04
fc
f9
fb
e7
08
f7
02
fc
f9
f5
0f
fe
f5
ff
f9
f1
00
11
06
0b
f3
f1
ed
0e
f2
f3
05
13
f7
12
01
09
fb
ff
09
fd
e3
f4
ff
0a
f8
e0
09
04
0f
10
0e
09
fe
ee
14
0d
0b
07
0f
fd
e8
18
0c
fb
fb
15
00
16
0c
10
07
f4
22
00
11
f7
11
11
0c
19
fa
10
ed
f7
19
fd
f8
10
01
21
ef
0e
f6
fa
0c
05
f2
37
ec
f7
05
0f
f2
fe
00
05
0b
19
0d
01
09
ee
f1
f9
e2
d7
0a
01
01
20
1b
f8
f0
fa
f8
eb
f7
17
14
0b
12
fa
14
eb
f3
ef
0d
0a
15
f8
ec
15
15
fa
f3
02
00
f2
13
f7
f9
03
12
0a
0c
02
04
05
10
f4
fc
0d
18
0e
f6
19
fe
f1
e3
f7
f5
07
1a
ed
fe
05
ef
1b
05
01
fa
e4
e7
fb
0f
17
ed
0e
00
17
0f
0e
19
f9
11
07
16
fd
1b
14
15
0a
ff
fc
00
05
09
0b
ff
11
00
fa
07
0b
14
11
1d
fd
e9
06
03
12
ff
0b
f7
41
ef
f8
01
08
ef
00
11
08
fe
2d
fa
0c
1e
ff
f3
fc
f3
f6
04
f7
18
fa
1d
0f
f4
f1
eb
03
e8
24
fb
f7
12
01
fc
0f
10
ea
17
14
25
eb
ff
f2
14
16
0b
0b
06
f9
1a
fb
0d
0d
fe
0b
00
17
fc
1c
e5
01
ff
24
10
fc
e1
1a
fb
0e
0a
29
eb
07
08
29
ec
07
fc
12
e7
17
f7
14
23
17
fe
09
0d
0b
0f
17
13
00
0a
e1
f3
fc
0f
f0
1c
14
ff
01
0b
f6
f5
07
04
0a
f0
0c
f6
f6
1b
06
f1
fa
f9
24
05
01
05
03
f3
e8
05
2a
0b
11
0e
e6
01
fb
11
f2
00
01
07
f4
23
ff
01
f6
fb
fc
ff
fa
08
15
0e
e8
f8
f8
f0
fc
01
23
f8
fb
f7
0e
01
0a
fc
1f
03
ec
f7
fd
f1
e5
1a
03
fb
05
ee
06
16
ff
fc
1a
e3
ea
09
f0
ed
05
0b
0f
f5
02
04
11
f8
11
12
1e
03
18
f5
1c
f9
ea
f3
0d
11
ff
10
ed
01
f3
11
0d
fb
ff
f1
0e
f8
14
11
06
20
d9
1d
03
0f
fb
0a
ff
0b
00
e1
0f
f9
f5
f9
0f
ee
00
f7
ed
07
fa
0e
f0
11
1d
f4
13
09
0b
f4
10
f6
11
fb
ee
00
fb
f7
e9
24
f8
22
1f
f7
0c
09
d8
e1
ed
f7
e4
20
1f
22
0b
09
fa
e5
e9
fd
09
e3
14
18
1f
f5
fc
07
21
0c
ec
27
01
1b
10
ea
13
f9
09
0b
e5
1a
1e
1d
fd
f0
26
fb
2f
1c
1a
f4
0f
17
1b
0e
00
11
02
16
fb
01
03
13
21
13
f5
03
ff
11
f9
01
1d
08
11
09
f2
0e
06
0c
ea
fa
0a
f4
f0
2c
16
02
1b
ff
26
2c
03
1e
0d
0a
0d
08
f8
09
0c
1a
06
1c
fd
00
18
1a
10
f3
ea
ee
01
00
01
f7
ed
04
00
ef
27
07
de
0f
fc
0b
ff
02
f0
1b
fe
03
f8
f3
ee
21
13
ff
21
fc
f8
08
32
fd
1b
2a
0f
02
f6
e7
0d
0f
e8
0c
fa
07
de
16
0e
05
1d
00
ec
10
14
fc
fa
05
03
02
f8
06
18
f7
08
eb
25
19
08
16
ed
04
20
01
fc
04
10
17
fd
02
f8
fc
2f
1e
ff
fa
06
09
e2
07
0c
14
22
ee
09
f5
14
19
ec
f7
fe
f9
fb
2c
fb
0f
17
fd
22
1a
fc
1a
08
18
06
fa
0d
03
12
1a
02
08
ec
1b
0f
0a
fe
0d
ef
01
f4
f3
07
05
0b
fd
f2
f8
1c
f8
0d
0f
f7
19
f6
11
f4
1c
04
00
05
ed
03
18
07
f7
10
00
05
22
13
fa
0b
23
f2
0c
eb
e1
1d
04
0e
04
fc
09
02
20
08
f7
13
e6
ee
0e
f5
04
03
15
f4
05
12
18
f8
15
0e
e6
21
1c
11
20
fe
03
28
fe
14
02
f6
f9
fe
13
f9
05
15
f2
fd
ed
27
f8
fc
ff
15
f1
21
f8
20
05
16
fa
0b
f5
ef
03
15
ee
02
f1
eb
db
f7
0e
0c
f4
f2
f3
06
13
0d
fc
f7
ff
f3
20
0a
f1
10
fe
17
1b
03
0a
f7
f1
ec
08
ff
1f
f3
fb
fe
01
00
f4
06
e9
00
0c
dd
ec
f3
fb
0a
19
03
fb
ed
de
ef
0a
02
f4
ee
0d
f6
0a
1b
eb
fc
f9
11
03
fe
13
f5
f6
f8
18
16
11
19
1a
f0
e9
de
f7
e8
fd
0e
17
ed
0c
03
f9
eb
f1
15
12
09
ff
f5
f4
0a
18
10
02
ec
00
17
0e
f2
f3
0e
1c
e6
0a
0f
fc
fb
ff
fe
03
06
06
fa
0d
01
13
f2
e6
0a
f9
f8
17
fc
f3
0c
ee
16
0a
05
08
f0
fd
dc
eb
e7
07
1e
20
00
00
e7
0a
04
17
0a
ff
ee
02
07
05
00
03
f1
ef
ea
fc
26
f4
f9
29
01
19
e7
f0
ec
18
ff
f5
fb
06
ff
07
0f
f7
1d
0d
de
03
2a
ed
2e
10
fb
ef
e4
f7
05
0f
fb
ed
df
0f
f8
12
f7
db
27
02
e3
09
e3
23
e3
03
f8
16
fc
0a
1b
07
22
f7
12
1b
04
1c
f4
ff
2e
fe
03
0c
ff
04
ec
0f
0f
f5
f2
08
06
13
fb
1a
0e
f0
01
f4
06
01
05
f1
0a
f2
f2
08
f5
16
16
eb
00
07
1b
f6
fd
10
0f
ed
04
fc
f9
01
f2
fd
04
f5
05
10
09
0a
02
f9
ed
ef
0d
07
12
ef
04
fe
06
0d
0c
0f
0e
01
09
fc
fd
f3
19
ee
0c
0e
05
f3
04
1c
ed
03
06
ff
f0
0b
08
ee
11
0d
fd
fc
fc
0c
f8
04
04
09
f6
16
fe
fc
fb
f1
e7
fe
00
f7
0f
0c
fe
09
02
04
0e
0d
00
f9
ff
ef
03
04
fd
fe
fd
10
13
f8
fc
07
ff
f4
04
16
ef
f0
0d
04
11
01
0d
07
f2
0e
09
ef
f9
ff
fd
04
0f
f2
fb
06
03
06
00
04
ff
e9
fb
0a
20
04
f7
07
f3
10
03
0b
11
18
07
f1
06
06
09
fa
fb
07
04
04
fe
09
f8
ef
03
f1
f9
f8
1a
f9
f6
f4
09
f2
f8
f9
f5
ee
05
0a
fb
0b
f9
0f
10
1e
06
f7
f7
02
f4
15
18
eb
0d
f2
10
fb
13
f9
08
fd
f2
05
14
10
fc
06
05
f9
0e
0d
00
0d
12
ee
fc
12
fc
13
ff
09
eb
ef
07
12
17
0d
ef
14
f8
03
0a
fd
10
05
01
f1
f4
07
0f
04
ed
f9
eb
13
04
fb
01
07
eb
f6
11
ed
01
16
0b
01
fe
f9
f2
17
0d
fd
f8
0d
01
fe
02
19
ff
ee
09
05
10
0b
02
f7
fb
f4
0f
11
f9
eb
11
00
00
0f
05
01
fe
f7
0d
01
fc
02
0a
07
f8
ff
10
f1
f3
08
fe
0e
19
0b
06
05
12
06
ef
fb
03
ef
0d
ff
f4
fe
f9
03
fb
f4
f0
ea
f9
19
f9
0e
06
05
0c
00
f4
f2
e9
03
fe
ff
00
fc
f1
05
f0
fe
ec
04
0e
0f
06
06
12
fd
fe
0e
0b
ea
05
04
06
ed
f0
f6
f6
f5
e7
f9
01
ee
06
fe
e8
f6
fa
ff
f7
08
03
e5
05
fa
fa
fe
0b
0a
00
0b
f2
00
02
fa
10
fc
0c
09
ef
11
f9
f5
f9
f0
0d
fd
fa
f5
0c
e6
ec
03
f6
0d
f8
f6
0a
08
fb
02
f3
ff
fe
ec
02
e6
f9
04
fd
fa
06
fc
fa
f5
f4
f1
0a
fc
05
f3
f1
ef
f1
01
07
f9
fc
f8
f4
0b
0e
ee
14
0f
11
11
fc
01
0a
09
f6
0b
fd
ed
07
f7
e7
f3
07
f9
fd
05
fe
0a
05
fa
f8
04
ff
fb
01
f8
ed
01
14
f2
0f
0a
fc
ed
09
01
fe
17
f7
f5
ee
e5
15
00
11
06
ef
09
05
0b
15
05
fa
f7
f6
03
17
ff
e8
1a
12
fb
1c
eb
f9
1d
f5
eb
0c
1b
00
f3
11
ff
05
d9
03
0a
06
11
ff
16
fa
10
fb
05
fc
06
0f
02
fd
e7
0d
07
07
03
0c
06
0b
f6
05
e6
f2
ea
eb
e9
00
ef
0d
fa
01
0b
07
fc
f9
fe
ff
e8
07
fb
e7
fa
07
fb
da
0a
09
01
f1
f6
05
f3
0b
e9
ff
f8
07
26
f7
1e
e2
05
ff
ea
f3
18
fb
13
f3
ff
0f
f4
ea
11
16
f5
fe
02
fa
0b
10
fd
11
fd
f3
ec
15
f6
fb
de
0d
00
20
f9
f5
16
09
07
07
13
04
f2
0c
f5
20
08
01
f8
1d
1e
10
ed
02
fa
09
f3
1b
12
16
fe
11
18
fe
f4
1b
11
f9
14
0f
0e
04
1a
f6
ea
02
12
fa
ee
f4
04
f5
16
07
07
15
0a
0c
10
0d
e5
f1
f4
fb
1a
ec
07
ff
0b
e4
10
01
02
07
15
06
f9
07
ff
ec
08
1f
18
f1
23
07
f7
0f
06
0a
f5
f4
f3
01
07
e7
01
eb
18
fa
13
f4
04
f4
0c
17
08
0f
08
13
fc
04
19
18
ef
f7
00
fa
0e
04
14
f4
ed
f0
0a
13
11
0d
fd
f4
f8
02
f7
f3
00
04
0b
03
04
f7
ff
05
f1
04
0d
e3
f0
06
ed
f4
f8
10
e5
0b
12
08
ed
15
12
fd
10
f3
02
f9
fa
0b
01
fc
19
03
ea
08
04
fb
19
fe
06
1f
09
f5
0c
f0
fb
09
01
0b
14
09
fb
01
f2
f4
02
f1
16
03
11
f9
fc
fc
ef
0c
00
e2
0c
e6
16
fe
f4
e1
04
f7
ef
01
fe
f5
0a
09
ff
ee
f5
03
ff
0e
f3
0d
f3
0e
ff
eb
03
fd
12
0b
f4
f1
fa
11
05
19
08
ed
f6
02
f7
08
0f
05
fa
08
fc
e6
05
f1
f8
f3
04
11
f2
02
ea
fa
06
f2
fb
05
f1
0c
e0
0e
13
14
0d
fb
ff
10
02
fd
01
f2
ff
e7
09
ee
08
02
0f
f4
0e
e2
e2
0d
1a
fa
01
03
fe
0f
f4
f7
ea
fe
02
e1
09
f3
fe
0a
f8
00
f5
04
0f
fb
ef
f6
f6
e0
06
09
0c
0d
f5
ed
e2
01
12
ff
f1
fd
fa
1a
0e
02
0e
f1
01
02
06
0c
13
f9
05
ec
0d
f6
08
0d
0e
f4
f9
e7
00
fc
0d
d3
e3
ef
06
06
f5
f7
1c
07
06
08
02
fc
07
27
