// har_2dcnn Model Weights Ś FPGA .mem export
// Total parameters: 4965

// kernel  shape=(3x3x1x16)  count=144
3e5ca99b
befc5dd2
bf28bad5
3ed215ca
3e82c141
bedfd92f
3e7830b0
be839884
3e82963f
3ef670ed
3e61d266
3e98af38
bdc00483
3e6e23e4
3eded5b5
bf035ac8
be21cf72
bce3d6e2
3e905f69
3ec370ea
3e9899a7
bd81f23d
be9fcbe3
3ec1648c
3e8ddd2b
bdc2b3c9
beb9de7f
3dad1ebc
3ec60c16
beb079f1
bd688247
3e656379
3ec97400
beef1b8a
be1b77a6
3e0840bf
3edb874a
be30d85f
3f062e66
3e8f9c7b
3e4a092d
3df62991
3ea9b440
3eb99c73
beec0830
3f080f12
bdfbc60f
3e8ce4a4
3ca54688
beb6f5c2
bf03233d
3ebab7b2
3ed53f6b
bf1aaf66
3e76a083
be2724b2
3e374e11
3e88e873
3eeb9a49
3ecaf232
be501039
3effba43
3efcb2f6
bf13f34c
be4f8b8f
3e5adf44
bd05711c
3ed21f9b
3e9e832a
be335053
bd09a117
3f03d9dd
3ef5703f
be012c6f
be79900b
3eb2dfd5
3edf94db
bec91507
3b10cb63
bd0691dd
3ec2da5a
befa94d2
3da8af43
bdcf3747
bbdb1327
bd9d68a1
bcd04558
3e1ca9fc
3f05def0
bc19262b
3ea4ed72
bcadd4d4
bec1857c
3e8919e3
bc6857ed
bd56f001
bd1f95f6
bf0a36a8
bf2eb230
3ee51c64
3e9184af
be904761
3ee28652
bdcfbf2b
3d64c8d1
3eb0fa67
3ed1a4c9
3eb528c5
3dc2f355
3ecfdf1d
3ee42e67
bf173bb6
bdeb03de
bc2a88f2
be3746de
3f10b10d
3d9a173b
3dd5ec26
3e61eb48
3eecb2d0
3efaf0f0
3da02499
bedc7737
3e5506d9
3e9ba6d1
be5d9e2d
be10df40
3d6ce33a
3eece322
bef15506
3ca55018
3d1148c0
be914e8f
3e9a71f9
beea9375
3eae6d05
3eba7f52
be1c8f7e
be41b593
bbf7ac27
bed2d38e
3e4bba0f
3d3b4aac
bdfbf28d

// bias  shape=(16)  count=16
3ec5bce7
bc9d9fa2
be788259
bc9c6213
bcc5a189
bda454d6
bc816b6c
bec2269d
3dd90247
3ef54c3c
bdc70486
3c51ed48
be02c488
be9561b6
bc4e6874
b96fdae8

// kernel  shape=(3x3x16x32)  count=4608
3e9b2ece
3ea29b8a
3e19fe9a
3c31326e
3cc2f396
3eb27704
3ea3a03d
be4bad38
3e2c26f2
3e649fc2
bd383fbc
3d71f239
3e559612
be18f35d
3e372b4e
3e2ca4f5
3dd5d577
bdfe326c
be641755
be821a3b
3e9a8ebe
3d8e326e
bd9d0bd5
bea6799d
3e23be2c
bd89ec17
be5cf069
bea05d1f
3e828f99
3dc12973
3e644a99
bc8dc411
bc478f81
3eacce00
bd8eb9e4
3e3f12e3
3d07c54c
3e719076
3d9674c2
3e0fd8cc
bd874d89
3c060277
3db0037c
bdb4fa1c
3ce7c969
3d588274
3df32824
3e5750c1
bde449fa
3daad574
3d9c00b3
3db33928
bd46ab95
3e8bec8f
3d87f9b6
3e69936a
3d1bf1c3
3d960eeb
3e7d378c
3ec4e8fe
3e2070fa
3bc75334
3e065d27
3e164543
bf2df980
bdef4d32
bddd2124
3eb17379
be55d518
bda0ab00
be979952
3e873a0e
3e98d6ae
bee47615
3df11c09
3e186feb
3c922a73
3e676ca2
be83f004
be04b590
be0ab77c
3db1f0f0
3dbfece2
bdf51a61
be2d7a73
3ed26944
bd5e7b92
be2d50b1
bec9af67
3e7a2078
3ee65bd7
3ec85775
be0018e5
3db4431d
3ddfef36
bdd3e7a5
be02a556
be1d0e90
3ded7ad4
bd9e0b25
3e4cfb86
3e2a31af
3d8cf280
3da32c45
bcd1f70f
3dec9032
bda9d358
3e73fe48
be997822
3ca0556a
be59f246
3c1694a9
3e87eba4
bccb87f3
3df6ce41
3e23de6b
3e9e57cb
bd7dde57
bd4bb285
3e6ec5e8
3e2331e0
be6ff6c6
bed1bf09
be36b601
bd4f45b4
3cc5e0f9
3d7fbb57
be2c82ae
be7ca301
bd7f40fe
3e276eb2
3d046f05
3e30bfe1
bcf27fa3
3d7176f8
3d763cea
bddaf80e
3d74244e
be2a6e16
3e509698
be70dc4c
bd49f68e
bead96c9
3d886261
3e99be4d
bd76c335
3d5c4390
3db934ab
3e913aa2
be9335a9
3e10cc69
3d6e5af1
3e9e9750
be1cf67f
bebc7084
bea32e10
be2d3f5c
bbf4de70
3ced2d49
be3d6db0
befdec00
bd93ff1f
bc3e23c3
3e8f93ac
bc793156
be04062c
bed1666c
3e31eb7a
3d68a179
be9c804e
3bdc6a80
3e2d8e10
bcda7489
3e5a2a86
beb87d3e
bde582a7
bd3a2668
3d938404
bd6ec9cd
bcea121d
bd970112
3e1987f4
bdcf91c1
3d80cd56
bdaf3d17
3e218d1f
3e9b895a
3eab1f15
bdbba9f4
3d3ee49c
bcf3abb3
3c923d94
be5f89c1
3e2baeab
3e81c6d5
bc31cfed
3e5ff619
3d2c60d6
be060307
3df050de
bdfd1b4f
3d67d9db
3d8ce6c7
3eaea083
bec6255f
3e4cfcf6
be3f062a
bd90821b
3ebf260a
bdeff211
3e20d287
bd63d1ab
3ee3d0d8
bc977fb1
3e09d056
be23cd17
3edb997e
bd90684e
bde60858
be7e636c
be92254f
3d10eb17
3d8f2e28
bdeac9ff
be6fe6e7
bdb7a063
3d309adf
3dec1fb5
bd381fa5
be0f3220
bdfb243c
3d49887c
3ea7cb07
be7f875a
3eb69fc4
bdea63eb
3e737d3f
bc8f3c05
be8c71af
bda5544d
bc6096c3
3e3b3ffd
3e14d8ef
3d937d4d
be339775
3ec120f2
3db1827a
bdb00ae2
bd8d58c7
3e9acfaf
3e8c6777
3e3fb20e
3dce65fc
3d6c2754
3cd75ff3
be849d4f
3d15b067
be5118be
3dee91c1
3e19f14f
3d6ac526
3e4dfbd7
3e4bf940
bc6021fe
3df2a32f
bd689bfb
bce6cb17
3e8c5e1d
390e28c6
3df293ec
bb0a9de0
3e3a0bc4
3c2f7e14
3d3ccf9f
bd0eb4f4
3d367179
3eb9faf2
3b8547ef
bc5581fc
bd19dd04
3d484d18
3e011d66
bd953485
bdac1ad2
bd098a32
bd46df24
3def5bb5
bd6842b1
3e34841b
3de1a07f
3e12819f
3ce53f90
3eab2770
3ed619bf
3ec6228a
bb7efc68
3e2010ac
3e184141
be7570ca
3ec9a630
bd250476
bd81ed63
3c9c3885
3e8ff193
3e010ea4
bea7875e
bc88822d
3c4cf839
3ef8fee9
be999103
bccff039
bd71eb78
3e9b2451
beb766cc
be8e7b2d
be3c5bf9
3db9decb
bc921a41
3e6b96df
3ceb7136
3cc5f3ec
3ec18ff8
3e61b8f2
bdbaa777
3ebbc1f1
3d133367
be82eb00
bd8635dc
bbd995d8
3e4a7973
bd84e501
3e6649c8
bdecfc1b
bdc25309
be6e3317
be3d7a2e
3e9ff882
bcf865e3
3b5fefea
be37c17b
3ee95767
3c541a15
3e1159c8
be148108
3ea69110
be527fdc
bf173f2f
bf12e7a3
3d812bbf
3e289dac
be4b2269
be3356c7
3c14d9bb
3db4105c
3e8d0343
3e045402
3e9dc198
3e556564
3df3cc3d
3db80ee0
bd988c75
3e117c99
be79d6b1
3ebe7f8a
bed21d9b
bb679f72
be9995ba
3cefc515
3e379617
be143f23
3e46ecc3
3d0390cd
3eb0884c
beb4855c
bcc847e1
3da00991
3e98eff7
beb122f9
be23f988
be87ee9a
bcc48228
3e13d083
3e5cd864
bcc78ce8
3db155b4
be04ae0b
3dd59019
3e03dfd3
3b0b3fb6
bdd94884
3d446c01
3e136df3
3da0c53e
3e846178
3e499833
bb992851
3e7e6bc6
be0c0675
3e0c0a16
be0954aa
bd87efe2
3dd63d95
bbf695bf
3e2a3b73
be2bfd11
3e7ac6f7
3df8a497
3e39e576
3c84798f
3e706fe8
3eaa429f
3e80c9a2
3e2dcf39
bb006428
bdc28f10
3d08e5c1
3da8e9ec
3e9e41b8
3ea30b2a
bd18202e
3e358dbe
bdade6e4
be54a2f9
bd89af10
bda07ce4
3ce59832
3e62a8da
3d8c3632
3de7ac94
bad19209
3d41bc39
be511148
3e65b6a0
3d719472
3e030140
bd579cd0
3e3f30d1
3e69fb99
3e41d0e9
be06f21c
3ea631ad
bead08c3
be61fc23
3d3895d8
bbbfb5a4
3e063c6e
be81848b
3d5b738d
3d76439b
3e9b16fd
3de458c2
bd90897c
3e3bf5b8
3db81042
3e1d1373
3d32fffa
bd93ced0
3e80f02d
be30eeba
3e73d392
bec67bcb
3d0779a8
be35645d
b899e10c
3e56afda
bb05e9d4
3bdf1d3e
be5320f1
3ed0e3e6
be6d28a4
3d86c8cb
be0dc422
3e8d5a8a
bdd9b3e4
bd5123cb
be185048
bce2e810
3c2007ea
3c3c7108
be4727c1
bee06d08
3c0c1497
be395556
3e39808c
be3c291c
be0a2356
be459e38
3e45c97c
3e82c0b5
bdc0be3f
3e615998
3e084b27
3e636257
3e8448a3
be6cd739
bc0bc94a
be1193d4
3c5602d9
bb7b8c49
be5390a3
be78f5fa
3e72b8df
bda7a01f
be47a569
bde1d129
3e57182a
3f03d455
3ea9ba58
bdffc000
3bddfd46
3e1dfd37
be8058c8
3e296611
bdbbc7a9
bd59442b
3d7ccc08
3d96b072
3e8a61c2
3e676ddb
be48197f
be3042fb
3e69f8c4
bd39308a
bd0238af
3e220177
bce9dd36
3e50fb12
3ec27731
3c6b8766
bdf76a70
bb86b312
3c937e33
3e2242b7
bc8003aa
bdc89ffd
3e3ed5dd
3d84149e
3d8e814e
3e34e684
3e374b82
3e3a4a92
3dd0140b
3e3d316e
3e2924cb
3e23dabf
3e2d1f4a
3d78fb92
bd71e26c
3e2f1f4f
3e36e3e8
bd4ee888
3d8a4764
bd0c2033
3e4fda67
3cd63fc4
bdccef15
3d64d208
bd881ffb
bdafa338
3dc0a958
3d8fdfb6
3decc125
bdb3f595
3e157ab1
3c0c6b86
3d5ced3a
3e04a576
3d9698ca
3e22c278
bdba5bd8
be4217aa
be8c4d02
3d7b701a
bdc558b6
bcb5b422
3cf931cc
bb3d0fd4
3e9c5bfb
3d079aee
3d99f9ae
3c8d3765
bd2a5879
be91d272
bdddfba8
bdb8f581
bd97e401
3e56d1e8
bd060750
3e14e45c
3ca6663b
bccac1de
bec82cbe
bbc112ee
3e31e5b6
bd2c17cb
3e588626
3e11236d
3e03eb53
3de300d1
3dce3df1
3d98735c
3d98219c
be429c8c
be91b68f
3dce586b
3e204cb9
bee01083
bcaf068f
be3981b4
bde6b350
3d9aa538
3e088f1c
3d8dcd2d
3e005f33
3dbfaed9
3e312b57
3e732187
bdd9ec91
3dcebfba
bcac23d7
3e63ed01
bcc92471
be2f8608
3e1afa24
3d858253
3b420a4f
bd12742e
bc0c32bc
bc81ea0d
3da90943
3d54a302
3dcec204
3d9de88c
3e83dc3b
3e596430
3d1c6aa1
3d5fb333
bdadc695
bd1cbccf
be508a04
be5ac299
3d66c176
3e394779
bb02dcda
3e27264c
bde35092
3e42c5fc
3e0a0229
3e816667
be1fcd93
3d9efe27
3dcd2fd6
bc813618
3e53e56f
be76d5b6
bd5a0e09
3dd39a77
3e120cfa
3e571b93
3def49c8
3d8346dc
3df071a5
3e1b4b31
bc62c389
3e3dfcd8
3e805b77
3e3c1c90
3e17842f
3da5959e
bd683ecb
3c982977
be532565
be199a51
3e790d34
3d3919be
3e3399a0
3dea1e74
3d01df2c
be4646a2
3c5ec0c6
3b8dafe4
bdb8aa8c
3d9e19e3
3c867421
bdeb6f59
ba376acb
bd2b26aa
be9f7598
bd11ddb4
3d552c5e
3de56d8b
3e2ebb80
3e8996d8
3dc7c95f
bcb7d7fc
3e607dd6
bd185ad8
3e86aaa7
bc81a4a2
3d180d9d
3d07b42a
3dde919e
be30c056
3dcf572b
be252996
beb7a09f
3e87f346
3c4bbe6d
3dd380ca
be3e4c9f
be7dd221
3e170162
3e437e5c
3ca4bc77
3dbf42a3
3e0f3a44
be336b25
3da215a0
bea585b0
be6cc866
3eaa237c
3dad8ea1
ba658511
bcb33c56
3e7a0a0a
bd9b1309
3dcbc4f8
3e4ac00c
3e83be7c
bc36f700
bd407764
bd15cf28
be148905
ba83bc1e
3bafac19
bd1fb6b7
bc8ede7a
be22fb72
bd4cc37f
3c89a910
3c8a7798
bdbebe09
be39fc16
bd3d5237
bd691ec7
beafeb12
3ea503dd
bd04810a
3e2be985
3d27c96a
3c96a7e5
bdc9f10c
be906a7b
3e5525a6
3e0511f3
3dfbd908
3d3e30de
3e10f7b2
3e4816e4
3e1c6658
be5ae715
3efcff94
bd9e62a0
bdca5008
3e5b7230
bdb2c8be
3c8bc6bf
bd012111
bdb62d73
bec21f16
be274be9
3e12dd23
be050238
3d4da6e1
3e40e09d
3e08f133
3eb2d2f6
be2d1377
3e5c8739
3dcb45c0
3e585888
3e21d728
3de7517a
3e0f6c42
bdf94e6c
3e29f856
3e02ce03
bda7c05a
bc844958
3e9909a7
3cf2951e
3da0f017
be2225fb
3ea7883e
3df9c15b
bd78ac5b
3e0a87de
bd2f5082
3dabdb5f
3d50cc96
3e47f0a6
bda7059e
bd868efa
3da8e756
3e014ee5
3e8cb225
3eb2a623
3d617215
3e5f49d0
3e03a630
be68af6a
3e89a83f
3e161fce
bd50fe66
3e4ab91f
3ec3afce
3da9d5b7
bdf3111e
bb959d33
be371117
3d18e943
bd6cd42a
be466797
bd9ad2ad
bd36b9a6
bdc00302
3b32d7de
bd649ea0
3e6a1f19
3dad64ce
3e358edf
3da10a6f
bc84b782
bef00ff2
3d947062
bd25412d
3c79daab
bd33470a
be4f81f3
3db86eb9
bdb5eed3
3d52ebf9
3d203014
bcff9d7d
3dbe7a0e
bd927e67
3d919fa1
bddb52d3
3df46839
3d997452
3e4f4851
3e7d971f
3e06eb48
3e3c3c5b
3d8b35cb
3e061be0
3e5f1c34
3ec5764b
3e7ba13f
3e9a5789
3e21b586
3cf8d998
be437d1a
bc0081cf
bdbbecb5
bded1e0a
3cf707d3
bbb4015d
3d089587
3e09cbcc
3d638a0b
bcca602b
3eaab1c8
be0c6bf8
3df0a6e7
3d858889
3ce8e80f
bcd4ef5c
bca26aae
bd8656ab
3de37ebe
3ddecc61
3dfc7994
3e26ec65
3b4cf7dd
3d5dc4f1
bd4efa0d
3de8223d
3e1fb55c
3e429897
3b8b991b
3c31d317
3d24cada
3b81311e
3a164807
bdf02809
3e401465
bec3eab4
bdf657a6
3cb7487b
bdd206f2
be0114ab
bdd37664
bdca2d84
3eaa1e03
bd2ebbef
3e341a81
bd999545
3e2ead91
3d09693b
3d35e228
bdd2821f
bca1500a
3deabcc5
3df9785d
3d4db540
bdfbe684
3e116f02
3e02639c
bde558a8
bb9870fd
3e5286bf
3eac684c
3d6986be
3e6d111a
bd0c61fb
3d54afd8
3e3998c0
3e1057b0
beb8e32a
3cb08dfc
bd45aba8
bbe10a91
be184d69
be8ed528
3cb7897c
bdb7142f
bddcb8bc
3e4b73a0
bdf13202
3e048486
bdc72b3f
3d27ceab
be4ab0e1
3dbd6d8f
3e3eea99
3ddadf7e
3e658048
3daec402
3df43297
3e3b3010
3e12886e
3d6d9cd4
3ec27cb2
3ebb9e0b
3e9e02db
bcf11f26
3d197d8f
beb84892
3d82ac01
3e0e7b51
bece1498
3db6e3cc
bc367fc9
3e0a2dff
bcbcb576
bd617ea6
3dc3259a
3e37baa9
3e5d8c5f
bd1c5c22
bccd21b8
3d59c0ec
bdd455ac
bdbf634a
3d057bea
3d453b44
3dcb2dd4
3dd724b7
3d079824
3e00be35
bd296c20
3d883d3b
3ce42e72
3e3ba616
3df7a9e0
bd8ebb70
bd6f4278
3ccbb71f
bd83b50f
bc83b06b
be527490
bd03829b
3e94df48
3e47f32c
bc8987d5
3e281456
be33b3d7
be597158
bbfd96b4
3ce31fc7
3e262ddd
3e428c28
3e0a51c2
3c82ae59
3c9eb029
bdec9492
beb15c49
3e3432a0
3bebdccf
bd4e72fa
3d26ee15
3e0def72
3e2ff510
3dd36816
3dce74ae
3d9df262
3e008410
bed1652c
befa15c4
3c407395
3d997aea
be215b7c
bd81655e
3e937916
3dd7b149
bd481632
bd793aed
bdae5fc8
3eafbc2b
3e2e1a02
be8cbb04
bdc5c086
3e0299a4
bdfd96da
3dbc4f7c
3e0cd933
bd19f609
3e573211
3e5b0961
bd2d41fc
38a9cef3
3b91dba9
bd6eb272
bde0e7d3
bd198613
3d797944
3da762dd
3de29434
bf39f7f0
be607c4e
3d2cf812
3db0e2c2
3d85db28
3dfd78d6
3e25ce14
3e01dc45
ba4a6075
3de9d38a
bc628f51
3dbe1ac3
3da69774
be4972fa
3d4cf59f
be818881
3e4c21e3
3dbc185d
be32fe16
3d7f885a
3e062c5a
3dd8c575
bdbfbd13
bd46da56
3d2fd413
bd2cfe4d
be729bac
be0da191
3e05d187
3e0694f3
3bf38678
bc9141e6
be9107f4
be71cff1
3e3f2d35
3e91dda5
3d89a403
be96f603
3db3cca2
3d2185c0
be915999
3d86254a
3d6d7ee6
3e28ba00
bdb8f284
be785e53
3df1fd82
bea0eda4
bcdb142b
3e2d8115
bd14d0d1
3d7d6f43
3d8ed36d
3c77f326
bea9b9c1
3df0b1c0
bcff9c9b
3d31671a
3de7af73
3d684ce8
3c9095ca
3ddec1fa
3e0b2198
bcfc397b
bf02d25b
be9751e2
bd7645f3
bd191496
bcbaff9e
be613cbe
3de3c0e9
3cfae706
be606ce4
3d21e1d2
3db1b85a
bd3f93bc
3d490917
3e5ed629
bcb554f2
be8be399
38f01555
3d6c6443
bd901358
3e100173
bd911e83
3e3c1172
3e3e9b0b
bd4a8aad
3e25d678
3dd6106f
bd46dbe3
3d23638c
3e54b821
3da6d6e5
bda2dfa3
be136e1c
beb49388
be75fcca
be60fbe9
3dd8c0eb
bdad90a1
3df1c79a
3d1c7e42
3d0d295d
be9b0b37
3e1eab0b
3df20726
bc86bb34
be007722
3e0832d3
3d4e9ece
bea82159
be29dd74
3e2013c4
3e2e2753
3d9dc4df
3e17dc66
3e09c188
3de41416
3dfa140b
3df90e85
bd0cd0d0
3d8053ac
3db45306
3e380fd9
3d43d409
bc3546c9
3dfb1dbc
bddfbbb1
be9442e2
be4c3fc5
3d90fb3f
3d1066b9
3e349daf
bc61cee5
3dfcf37f
bd828b1e
3de23917
3e1828a9
3d65633c
bd8d21ff
bda10e64
3d8fb9e9
3d9a65a2
3b2fa567
bd181af7
3e112489
bc19822e
3dedbf93
3df8ce5a
be1d365f
bd952841
3d220ad4
3db7713d
3d156608
bd57432c
3d656a68
3de1024e
bd9d5c04
3d8d946b
bf0876c7
be99dc5d
bca4d319
bceecc05
bc91ccca
bc6687cb
bdbd8b8d
bd850a99
bec3c613
3d432f44
3db4a702
3e207917
bacd5e34
be6e26d3
bd784024
bea9d0f3
3d913678
3ca82e6b
3e8b0adc
be334e47
bd9fd7d2
be53565b
be604681
3e86f4db
bdb832e8
3dd93190
bd8bbdbb
3e7e6e6d
3dd2f2de
3e1b6713
be8b84b6
3e0e6b91
bea6bcfd
be35a6d6
3d33db2c
be37beda
3dafc7b2
be55f0f3
bdd75aca
3e163080
bd863994
be41c34b
3b950307
bda96ff6
be1c93bb
3e1d5899
3e30676b
bdcc1c04
beb3764e
3ea74a65
bdcf97a3
3e469248
3dcc96b8
3e4f4010
3d22427c
be834bc7
3e2a6514
3db80068
3e673b2b
beb1d48a
3eac8081
3debfd9b
3e4b61c3
beb084f5
bebde6f6
3e72d741
3e2e9ec9
3e4bdc09
bdcb059f
3d1e8081
3e61fe52
bd0d69e0
3d07e2b9
bdc7bbda
3dae19c5
bddd12f4
3e0d6210
3e9f836a
bc0af425
be61616d
bea8066c
3e40f158
be0a483b
3e0ce57f
3dd1f0ec
3e9f7e0d
3e38c098
bcdea3d3
3e4cbd24
bdb1a430
3dc26402
bd8bff2d
3e8aee82
bd503c4e
3c9d3092
be2a2825
be9319d7
3dcdaae5
3e17020f
3e5933df
bd1f59e3
3ea2e44a
3e1250ed
3e81c81a
be69f4c8
bdc654f1
3db52d5b
bdb90a41
3e988b67
3dfbe5d1
3d565b83
bd03bb93
3e18987e
bd295932
3dd2ff83
3e6c249c
3c9e2b53
3e90ce75
3e8697f8
3d4b0f3b
be52e189
bd97623e
be4fe4b4
3dc43ae7
bd97617d
be791e3b
bde5cb9a
3dc25125
bf116c63
bdbf453e
3d07f014
3e3b5239
3ddb88e4
3e189275
3dd9a097
3d9fe1c0
be792093
3d2d2c1f
bcb89784
3d31e96b
be31172e
be8797fa
3c8c8567
be2a89b9
bd9c5b6c
3dad8db8
3cbf9f69
bd56e541
bdbe027e
3db79925
be280eea
3c5891a9
3e030200
bc41a56d
be1642a0
bda1b173
be1c6924
3e402669
be1858ce
3dcac2dd
bebcb474
3d63f03b
3dd16a1a
bd046e04
bc5a2afd
bd22a687
3e1bb952
3dc12cea
be29c26c
3dfc8bb4
3e2ac758
3dc62ed2
3e24ae57
3d8b46b2
bd91281a
bea14d7c
bda12c0b
3e26e362
3e185901
3d7d42e2
bdaec5d2
3e0b395c
3de900da
3e213898
bd659828
3e1fea2a
3d8bc468
3d1da00f
3e42d908
3e052e52
bb74e514
3deb1084
be227035
beac6891
be664c25
bcfc4366
3d06d607
3de06300
ba1073ba
3eab87b1
be3eaa49
be2a6b21
bd9ce797
be602de3
bd7ee5a3
be7cc7a8
bd52e020
bdaeece8
3dce90e1
3e585ece
bda4f659
3e8b4da3
bd06b5fb
3e526c89
bdfb6349
bea7f051
3e644cfb
bc6c8d3b
bc11141d
be3c4a99
3e09d093
3e4f933b
3e5c9f19
bd30fa65
be8dea43
3dc31653
3e75e3f7
3e791dea
bdea731b
be8b630c
3e272d92
3e5d9616
be400a3c
bd3f5eef
be1fc87a
be25ff72
be316c53
bedb7e9b
be5adf59
be8291eb
3c90870a
3df58b44
bc34e1c3
3dc623be
bdf00c20
3dd382bb
be6cc0d5
bc03ac19
3e278173
3e553656
3c3548d3
be0bdb49
be0de25b
3e02c1ef
3da5b485
3d9e7723
beb014bf
bd5ff14e
be266a63
3dd235e2
bd9492ef
be7b7dfc
3de5a9fc
3cc74601
bee5129a
3d895b49
be0dbcbc
3d9f9254
3dd45f82
3b781b75
3bd77e77
be9e9edd
3e597576
3de87349
3d42305a
bc8d13f4
3d1881eb
3d400fd8
bdfc5db1
3e18f73c
3e029f58
bcda5322
bd1e2fab
3de34a60
3db490db
3bf398a3
be722b28
3e3dddb9
be5ab593
bd831ebe
3e0a3728
3e1baaac
3de0e53f
bde83145
be1b615f
3d6fecf9
3dd301e1
3e600346
3d5753ee
3cd7a5dd
be255f71
beaa1823
bc029a3d
bec3c375
3d5d9244
bd4d5ed5
3e0d8af7
bd85d23b
3d36e6c8
3de57224
bea68edd
3e5d1f50
3d835d40
3e0ac264
3e10fb88
3d2748e5
3e47dae4
3e012be6
3e149a0c
3d6302d6
bf1f0a90
be1d127b
3d972746
3cecc2ee
3d9fb139
be847637
bc4fc524
3deaa904
3ec25877
bce44bd2
3db50ee9
3e1cd114
3e816aba
3e4e22fa
3b8fc707
3dfbe42b
3e329b7e
3bad00d7
bb8dcdc4
3e0d2f2c
be322695
3e8be605
3e0661fb
3e1d9f12
be1391c9
bdc45a71
be2a6524
3dfae208
3d2e0396
bde67814
be9838c6
ba9bae74
bd4acad8
bebd1018
be9567c9
3e7f72ad
3d609b2a
3e40c942
3dd83afc
3dc0093d
3e98cdca
bd02e1b2
3db990ce
3d0a70ac
3e395b82
3ddfdde9
3e03e3dd
bd9293cd
3d525540
3ca6527c
3e305281
3d8b7053
3d9ea694
3d325b71
3e6dc5be
bdead989
3e254883
bc866609
3dd11a59
bdfd439b
3e37287a
3d99bb50
3e44764e
3d7891ef
3d8c0a1d
3ebfa0b0
3e82070a
3da44a9d
3d195d49
3daecfe1
3d292ced
bf2383d2
3c7bde6d
be68ae32
3ed05371
bd7dd2b8
be003e62
bea0e5d0
3e999856
3e797a69
bed6fe06
3e6b6d3d
3e37f3a8
3e0d18cf
3ea92b76
be743007
bcaa178e
be317b8d
3ca92698
bd161afe
be39de68
be5f2231
3e8146e2
3e01cc45
be78041c
be6abf67
3e83311a
3ed9267f
3ea20666
bdf968e0
3dbe4870
bc5dc6da
3c2d1786
bdf521cc
bd8db445
3e986482
bcbf944a
3e805aa7
3de0a608
3d59f09a
bcb10b7f
bd49eaaa
3c988395
3d3a9d77
3e24a225
be6beea9
3d1dff34
be895e52
be0af0e3
3ea4b142
bd3ba265
bc90b446
3e048e1e
3e536c2b
be82b933
3bc85b53
3e4f27ab
3e919951
be361502
bec91c67
be9f4600
bcb5601b
3db1486f
bd14ac1a
bd98a135
be8028df
bdd88377
3eb0f181
bdbbeb66
3e30b018
3db2e970
3d0e61ce
3d6f91a0
bdfe6146
3d11e769
3bbfdc40
3e81f9f8
be420118
3e2bb8e5
bed817f6
bd265e79
3ec103d9
bd99e2d7
3d92161f
3e0e272d
3e8cb2b7
be9fd2f0
3dc2aade
3df2931d
3e68b86e
be0c186d
be41c9a7
be964a96
be97ddff
3e64e5f4
bda42bfb
bd98f88b
bedffd5e
bdb6ccd8
bda1ef4f
3e7e45e8
be0b6731
be09dd78
bee525ed
3e4e9ab5
3e192d18
beac3caf
3e49796a
3d8e3976
bdb8c020
3db14a7c
becf8891
bdd21aa7
be5e0d05
3dee8ef4
bd8abc28
bbd84b4f
bd496fb3
3e85b400
3dc6b188
3b95005e
be8763eb
3e32222d
3ebab00e
3e7fb8cb
be4fb6e0
3e182bd9
3d227d88
be0b65dd
bdb1d7fb
3eaead83
3e975f7c
3e0d925b
3e742485
3c6af70e
be17e131
3de3faee
bdf61536
3d88af19
3d0dfe10
3e60961f
befc656b
3e4f4062
be818efa
bda8cfb8
3ebecd6a
bdb9074a
3e43bcb5
be5f1ea3
3eccb9d0
be5dce79
3e23ab42
be2d9f37
3e82995b
be733950
bdfd9375
bdd4237d
bea397fe
3e20191d
bd97d3aa
bd5a0c9f
bdd90570
bde7f3f8
bc610176
3e4bba2c
bd8f59af
bdd05775
be5e511b
3e28a423
3e7476fd
be0481ca
3e5bb1a3
be05f4a7
3e81b780
3ddf72ba
be37ef6b
bde49ef1
be0e27f1
3e7de399
3be48525
bd2edd76
beab3046
3e9c856b
3e54ab05
bdaf4c36
be3ca648
3e933fe2
3e43ebeb
3e082bf1
3e258cb1
3b62c9f3
bdd18665
be5a6632
bd0e363e
be8d36d9
3e02b4e8
3dd00d9f
3e3553dd
3e04e87e
3e72490b
3dad5299
3e1f7011
bd58b65b
bd6b63ab
3e8f5157
bd63cc9f
3e18a2c8
3ce38b1a
3dd9c230
bc0228a9
be0f23f4
3d4d0069
bd85121e
3ea2713b
bc4dfe04
bc6922fc
3d5c97d8
3ca71a91
bd07ff5d
bd518aa9
bcf49190
3d40dbbe
3e09577c
3e27f16b
3de80de7
3ea1670c
3dc23d26
3e04f023
bda2a665
3e850549
3ed7b961
3ea0668d
bd25d8e4
3e20267e
3e87961f
be84ca8d
3e959f9b
3e00f87e
bd0587b4
3dc9bf2f
3e9715a7
3ea61741
be998c93
bdf3a611
be1ceab3
3eff1ff1
beba5555
be2cfd89
bd2c2a2b
3e826fde
beab2f35
bdabcf34
be788a2a
3e289f9a
3d9725be
3ec07452
bd748285
3cf022b6
3e7435cf
3eaedb87
3cdecf76
3e9113bf
bddfbd2c
be94ea93
3d800fba
be083a5b
3e23f3eb
3d5e4911
3e918d95
be0fb22d
3d8d016c
be404811
be130761
3eae9b16
bda1caba
bc40b30a
bd8e9be5
3e7e496c
3c891035
3d03d362
be3936d2
3ead2e51
be763d5b
bf00e76d
be8798c6
3df86e98
bd6b9aed
be5a62c8
be358399
3a04d334
bd964c78
3eb5e0d6
bd0e1552
3ecce697
3be26843
3e067295
3dfce105
bd9d1fc4
3d91f874
bcee4a3a
3e698885
bec07a39
3d566dd8
be91513c
3dbeaae1
3ec8f781
3d052a99
3e425d0e
be028224
3ebe4b91
bea3c651
3e16434c
be003b58
3ea75164
beb37975
be485cc6
be91fe33
be140dea
3e584e01
bc1a0e14
bdbfc285
3d5a00c1
be05e5b9
3df5799b
3d251410
bd27f7b7
3c96aeec
bdb7b630
3d8e3e91
bd2a0b19
3e192456
3db1d825
bddce5ff
3e00970d
be35eb74
3d8c1e64
bd93f827
3e0c6821
3d9c8f16
3ba69d33
3dc64e2d
3c2a59fc
3e24cd4a
3d97f96c
3e813ac2
3e403383
3e904698
3ea6434d
3ea1d2d2
3dcab3e1
bd67b3df
bcc7370e
3de93cf4
3e26a259
3ea45187
3e844887
bddaeb78
3e9b07af
be6aad6f
beca8492
3d5d4615
3d12dac5
3cc217a0
3dd8053c
3e27766e
3db8ff44
be2b686b
bdf02eaf
be13e4af
3e9c274f
3ce3bb11
3dec05d3
be540047
3d95c244
3df94beb
3d894b0b
bd839a54
3eb66cae
bd91eb75
3c88b6f2
bdf84c5f
bccac3c5
bdc80832
be5de823
3d837246
bd51a7d7
3e85a40a
3e25a761
bd6897ef
3eab1386
3e74de64
3e21c8d3
bce9ccf6
bdb7e06a
3d5c3596
bdd03a97
3e482eef
bea6913e
3e298731
bdf27ed9
3d4c5d79
3e4674b4
be0cb499
bd75860b
bd88c0f9
3ebf2076
bdab787a
3de120f5
be5aef09
3e789c2e
be5ac5b8
3e05c53b
3d2e377c
bdfbbb71
3d394016
3cd5d6c4
3b8d78a5
bede1011
bda039c2
bd5d6d0c
3e317031
bd806d72
bdce1f44
be8f032a
3e8f3ad4
3e8e2618
be259589
3c5cd4bb
3dcf2b5b
3b14e361
3e7b4770
be3ef2ef
3dc6ac73
be5e8fdb
bd9a8b34
3dfb6198
bc835384
be91bc01
3e3c737d
3c47aaf7
be02b64b
be13c089
3e1af0a8
3e9fd916
3ea7d894
3bae736b
3d14ac2f
3e24cebf
be242029
3e4aea6f
3d80a8ac
3c792aa0
bc480e96
3d80d1f6
3e91bc1a
3eadbdb8
be09009f
be2b492c
3e2e3ecc
3d91b657
3e02dcc7
3e9051ba
bd7ba0f2
3e6e490d
3e7f9d73
bc54c3e2
bcc6a053
be33a09e
3e160843
3e1962f6
3c9e61fd
3d0998c5
3ddb2ec8
3d4edc1a
3d824ac6
3d04a210
bba3b828
3d9ef70b
3dde0ef0
3e169b72
3dfb7e83
3ddbaf3d
3e11777d
3dee56d7
3d8118e3
3ccb85eb
3e4446b0
3dbe167a
3d70693d
3db85a3f
3c886d02
3de5a4d2
3d92b924
3c883f9f
3c82e777
3c38a09a
bc8d1ba5
3e17b9d3
bd5c1d86
bbcbcaa9
3e1ceb8c
3cd1edaa
bde95fba
3dfd7391
3da2c695
3e0021a0
3ce650be
bddd0e88
bec6da42
3e3c0663
3db277db
3c25989a
3d355ba7
be0cef63
3eb61e52
3e608a5c
3e3877c8
3d4213ef
bc1e484b
beed71b3
3dc37d19
bdcb80e5
bd5c633e
3dbc1e74
bc9adf5f
bc90c185
bd454d70
bdea3d46
bebed5de
3e35f546
3d4d1f43
3ccc7047
3e5ea1f2
3e682b98
3e2d3825
3e16e560
3e8b3b32
3d904726
3d85531c
be4f767c
be81a64f
bd00a2fe
bda3e443
be756224
bdf375b7
bdeff6d9
be7e8067
bd328f0d
bba089f0
bd149808
bcaa9bd5
3e495631
3da110f0
3e281603
bd29c31c
3dd8276c
be1ae2e3
3ddd0725
3da948a8
bde383cb
3dbeb1ed
bdad1831
3d912707
bd8d1597
3d29c82e
3dfa1bd8
3dd7c5ad
3e180835
3d8a9b46
3caca76b
3e7019bc
3e4e57ae
3e49a9b5
3db0346d
3c9e3c87
bd85a9e4
bd8c0126
bd38f1ad
bd0f9c57
3daaf40f
3d897489
3d9d2e37
bdb531d1
bcfea20b
3e076070
3e3ddf44
bd91ad83
3d723e13
3d62ce31
3dc8cc9c
3e5584e1
be8d3932
be20500b
3e3dd6d3
bc2b0e00
3e39c39d
3ddf3cae
3e341275
3de40130
3e2cc462
3c8bf132
3d628315
3ea8f5f2
3d47d30b
3bccf52d
bdc3f55a
3de6cbeb
bad2c213
be4890c1
be2eacab
3e8dc08e
3cb1e8a9
3e109acc
3ca570f7
3ced9447
be3c64c8
3d093dab
bd8c01f1
bde94395
3d77b98d
3db26cc4
3dc3f157
3bf715b5
bdfeedac
be71318d
3cbfde01
3d585645
bcebbe54
3e3b42c0
3e49c258
bd46be6b
3e2f47ee
3dfa088b
bd57f911
3e224378
3c8dc964
3c8abcf0
3ab4a312
bd052c7a
be35b8bc
bdfd6765
bcfe77d1
bf62b7ec
3e1bb144
bde201a4
3e1b1a04
be8c0b11
be23eb54
3cb14c2f
3e1e4ef7
3c998b05
3dd2316e
3e342494
be90e1aa
bda95e11
be93e657
be1f30d3
3ead4649
bc538074
3cfff0ed
3e2239ce
3e6cd716
bcc9c42e
3c70772e
3d82c6ee
3e25f884
3be520fe
be01a3b0
3d326673
be8be702
3cd82827
bc0f9ec5
be03ed30
3b5f7554
be5b142c
be77c00f
bc44d96f
bcc9110e
bea13c96
bdb9c008
3e4197bc
bb2586f0
be35c0b0
3e445cad
be3247ed
3e8b0d6a
be368840
3cdca7f4
bdd7b20c
be86acd4
3e336c76
3d9ef5a8
bd345a08
be6f8f04
3e3b7cf9
3ea2a559
3e317700
be346ade
3eecbfc0
bd5e9310
3cb61423
3dab6487
bcd72131
be0fbcd7
3d384d1b
bd80fe16
be9006d3
bcea53ca
3e6f84ac
be1b776c
3b1f188b
3e6a437f
3e17975d
3e5f9b8a
be057013
3e068526
be0533e9
3dcb0844
3e41482c
bdb53fdd
3e73f05c
be8b4d76
3e40d0e7
3cdca155
bc8e97c9
be23b581
3e808f83
bd83bb67
bd836fcf
bdbea7ca
3e9641ab
3d92d690
3dac49bf
3e04ed93
3e04f8fd
3e19b173
3dfba8b6
3e2877f5
bea6b6da
bd2f71ae
3e377031
3da40222
3e5bb0b5
3ec663ef
bdcc26b9
3e86b292
3d959211
be62b6a9
3d9a1397
3e3a2df2
3e180b67
3e884010
3e94afdc
3caab924
be15002a
bdd23824
bb2ef188
3e2c8498
be532202
bd2d59ce
3c4e62ea
bc51409e
bcd2ef66
bde28927
3d3e702d
3e7a778a
3e3a8e16
3e87c007
3c41d860
bcc08d8e
bf2156fa
3e2d67f8
3d1c143b
bd9ca133
3c830cbd
be29b79e
3d1a1301
be36bf28
bc65b8aa
3e3516cf
bdda489a
3d20536d
bc45491e
3dbdbe30
bd846a39
3d37ccb4
3e3f1e8c
3e566008
3d89c72d
3db4c83d
3e58670c
3e4613fa
3dcc6018
3e65947f
3ecb6242
3e17cc37
3e95dfd8
3d95f63c
bd729a3a
be7cf59a
3d8a19b5
bda3060f
be993af3
3cda7d17
3c5749f6
3daa4e52
3c904113
3d37c537
3ddff964
3e0f06e5
3d9b6a8d
3e006ea0
bc0b3e22
3d32cdfe
3e0e478a
bd1afb55
bd4f694b
3e22553d
3dd4554f
3d1ba567
3db7384f
3d530693
3c87b5d9
bc89874f
3e0cb0e7
3d954e85
3dcd92b2
3dcd8f52
be0f4797
3d56890c
3baa31c1
be0048f6
be1f114f
3da1604b
befecb69
bdf9f2e7
3dc1d2d7
39af2ed8
be0467ab
bd320c1a
bce1dfe1
3e6dee58
3d50e6a8
3e2bae55
be5c1fc1
3e4972be
3d6eb277
3ddbf49c
3b499f80
baa9bdb3
3caa7385
3dd7288f
3d0659f4
be350d3b
3dd25393
3d943c04
bde80c5d
3dab4f36
3e8aba10
3eb2a924
bd4840b4
3d0daa26
3d8ed63a
bdcf1a63
bcc8ceb3
3c2f53e0
beb10022
bc501cc8
3d58a8e9
bd4f86a7
beae7270
be983b81
3d83c34d
be084e94
bcac0029
3e69199c
bdafb19d
3e14897d
bd8aba03
bc06033f
be5ec937
3db1e701
3e77471c
3cad4bd8
3e09f538
bbcdcb70
3e68e2cc
3e83ecb2
3e9dc61f
3dba10c4
3ed106ab
3e54bf2d
3e3d87a1
3c1d804c
bda6f495
be2f7bf1
3d66b7d2
3d1509de
bf4ca3a9
3df0da7d
bd7dd99b
3e4d183e
3d0ffde1
3d49cd29
3c2bba20
3e6e57f5
3e0e0b3b
3d775198
bc25f75e
3d09c9a3
3dc39edd
bdfcd012
bd5e2604
3e0b90a6
bd707644
3db9d4e1
bd49ff9a
3d1e343c
3d249383
3de28b7e
3d6c269b
3e53245b
3c07fc63
3d911e9d
3d506a4d
3d577fd8
3e2166ef
bc7bf127
be0c2b91
bd433977
3e64694b
3d974164
bd0ff11f
3e6a0488
be01ea02
beaae40d
3dcd594a
3cc7148e
3deddbb4
3dcee230
3e480d75
3d6be2ae
bd615a9d
bcbf588b
be22efce
3e167c26
3de64b2f
3d90d941
3be90742
3dd48211
3dd22c6f
3cbe8b42
3e796b9a
3e699952
3e0d0376
bf0b5cd3
beac0b18
bd81e18a
3dd31f3f
be9d9b6a
bdc67d98
3e85762b
3e107abb
bca53e24
bdaf44e0
3d825216
3e889a54
3e9156fd
bd4bd373
bdba872b
3de8df75
be243baa
bb5dc1e3
3e83f525
bd0300a1
3e9fc82a
3dc8c1d9
bdb5fbd2
3c7a11ba
be0d46c4
ba953862
3cabb137
bbc80f21
bdd96f16
bd691896
bbf90e01
bf4c2dd6
bda8547c
bd9a1609
3e91c526
bdf6e999
3df67985
3e1ed907
3e3119cd
bd2e3a2f
3d943a5a
3c16ce24
bcc32d07
3e11fcf4
be2f66b5
3d0d73aa
be695fa8
3e58f0bb
3d80dd5b
bb78f7b9
bd9c64b0
3b876b23
3c43aa20
bda4d053
3d97d3ae
3d10751c
bd750ca1
be810533
3d38971b
bc1f9d29
bc5ba7a9
3e13f7ca
3da7d164
be772085
be44aecd
3da2fa8a
3e2683ff
bd093366
be2bb8b2
bd4a6091
3e33c24d
bea2026e
3e537c32
3d245778
3b5c2d46
be8a1c64
bec10a90
bd6c42d7
beae035b
3dde4277
3d945e00
3e22d34f
3e137659
bb39473f
3e19656c
bea300df
3e74449e
bc004812
3e4d41fc
3dff6ce3
3e5b1c63
3d81f7a9
3bcd75e2
3e0eea29
3df18c05
bf05442f
be72fd2f
bc616718
bd317b72
bc3a28e2
be8f387d
3d2b34e3
3db6b730
be5d10b6
3dc731f8
bcc0c4e4
3d50da5a
3df8fe65
3e396e07
bd9c88c8
bed7c10e
bcb15883
3cf14793
bd8c2f75
3e4fc9c5
3d93a573
3e142665
3e45b8a3
3cd66a4d
3d2683c9
bbb2e3e0
3e0e921a
be1bb28e
3dca6ae8
3dfe88ff
3c9bb7da
bd2ed83a
bec738e0
be19c58c
be83547b
3e3078b9
3d3ac3ce
3ddd064d
babe3257
3d9ed582
be8dce7e
3e1b5118
bd0039af
3dc14b8d
bc3389d1
3df5b00a
3c53748a
bed636db
be4b685e
3e6358ad
bdcc0d5a
bd18dc71
3d33504b
3de912ca
3b16578e
bd644399
3c485f18
3e228a8a
bd1f9970
bd004624
3c9bbc79
3db29f66
3d9a94e6
3cba286f
beb8093e
be7951ee
be6ef6c7
bcc88668
3dd95054
3cc6a47d
bc8893d0
bc3464b7
be845f58
3e377158
bd44025f
3c7b065c
be0efb2d
bd45c046
3db2e0f4
bd672330
3d50956e
3e311e92
3d936ccd
3cae5692
3e4204e1
bd14d9b9
bdf03b59
3e0e8b12
3d8ea85a
3cc9afaf
bd85fe45
bcc1c4e1
3da89518
3e10760c
3ce07013
3df03f86
beb6de2b
be95e19d
bdd746b1
bd1e5e3e
3cf6b42c
be01a79e
bd85851a
bd4ee7d4
becd16f7
3d8d3554
3bd76f75
3dc73a5b
bd07aa7c
be3e5d52
3dd89262
be263e96
3d1c37ed
3e10069c
3d546bd7
beb8b4cc
3d2bead2
be88a6e2
bddd4bd1
3e2cb757
bd74843f
3e429666
bdc65881
bd12bd0e
3e024a3e
3d36a1d4
bec4c1cd
3dc04c03
be9c8c5b
be8f5581
be08228d
bdaa9258
3cbd4e2b
bddad394
bdb86022
bc7d02da
3d464c51
bc14fd80
3db901ec
bdcf5031
be1e9659
3d2bbc41
3d9c7c46
be37db7c
be85eb3e
3eadfc85
bd97e21a
3e115d47
3dd7ad05
3e2b8ce7
3ac3a765
bdfd40eb
3e58f094
39fa32ab
3e938784
be80b8b4
3e826968
3e9a99dc
3ea36791
bea8199f
be8198e4
3e7b8d76
3e4a05f1
3e0b67f8
be0e5a9c
3be6e170
3dade163
3d9945f4
3e2ef838
bdb049ff
3e8a7f22
be4c0af7
3e825c1b
3e973a5d
3d8d7bf3
bec95e92
be8ea410
3e8e867d
bd8d776b
3e7d1ee7
3cc3107d
3e86ef36
3e5a449c
be0b031e
3d9a18fd
3c837019
3e283e4b
bea3fece
3e3cc069
bd38b1dd
3dd49a41
bea806e1
becd70e4
3de2e36d
3b62f538
3d681608
bd8e866d
3e9819e3
3e00fcac
3dbe792a
be81f122
bd678da7
3de022bd
bd4d9e4c
3e8b5b14
3e8744e0
bdce5286
be346358
3e304229
bcdc679d
3e2c0d57
3e81ddae
3c1ae60f
3e6bf74b
3e8726e2
bdbb204b
bdc005a9
be383eaf
be6c1607
bdf9253c
bddafbf4
be84c13a
3d4c2537
3dcb773e
bee6d17a
be70898f
bc0f1661
3e8a5c04
3dbcc69f
3ead3287
3d95a2e8
3dd7a86a
bec8607a
3cdcb351
3d7409be
3dbad35a
bde1f022
be1cea0e
be1eaa16
3c373de5
3d400608
3d32fb67
bd562975
3b8b310a
bc4cc56d
3da60202
be4f848d
3dfa7b43
3e078f1e
3e670a75
bdbfe3a6
bcd5bfa3
be175cb2
3e683895
be9841bb
3e411e6f
bf16c209
3dcfc92c
3d9cad3f
3db5bf29
3dd8eb98
be6e6845
3d9b25eb
3e124491
beb203ef
3e1396e3
3cad0848
3df384e6
bc8ee149
3e08ca4f
3d6885cd
bed7fcbf
bde2e859
3e01ca47
bbc360b6
3cf23f0a
3e058312
3dcab49d
3cc76c03
bdc119ac
3d49fd5d
3dfcab3d
3dca5020
bcccdcc6
3e58d3b5
3e1880a5
be321843
3dae83b8
be98ed16
be811b83
be5ba7c8
3c01ef6f
3dd298d4
3bc0d562
be1503df
3e430742
be6a4cac
be6a74e0
3db38143
be40957b
bd5e587b
be9c1032
3d6f107c
3d2905d8
3e0e4ed8
3def1029
bd8cbe20
3e4f754d
be2c5d22
3e15dbbf
bd36cd40
be24abc1
3e5d86ea
3db56f94
bd235b5e
bea19fa8
3e6c058f
3e83664e
3e88922e
3d1a9539
bd77e5d1
3debf452
3e414073
3e8f1049
3c1fe0fc
be64444f
3db4d2cd
3e22562f
be7979b6
39c17971
3d8db7d7
3c1aac74
becd6a00
bec719f8
bbfa0d1b
beb01fb6
bdec9c54
3e47c96e
be1547b6
bcc85bd1
bd816771
3d53b7ce
bea11203
3df596ce
3e5525fc
3e10616f
bcec313c
be69dfd3
3dac56f8
3e94ab31
bd85d82f
bc63b734
be7f5e90
bd846b6a
bb961ca1
bcb6828f
be083ebb
be823870
3e0aa80f
3e7e9f0f
bef6a451
3e2c13a0
bd4a4a25
3e12a089
3d7968d2
be1a4720
3e20d423
beb16e54
3dcad9c6
bcc5e093
3d40341d
be0b8cb0
be09834f
3dd24377
be10f44f
bcaa17df
3d82224d
3d7a95c1
be479c28
3dca2f1f
3cfb67be
3d5820a7
be9a9b90
3e305d11
beeb9f7d
bdc9455c
bd383e2d
bcaed5e3
3b49b0f0
3caa6b52
ba6a869f
3df61c48
3de42dfc
3e661803
3cb7b64f
3e3ddde9
be122ae7
bec0fac7
bd7a1688
be5dfad0
3c8e9524
3e0c1f9f
bc0266ad
bd099bea
bda1c970
bd1ae654
be8d7f92
3e39810d
bc4ec7f7
3d91eef8
3e1755c4
3e57a3b7
3e3563f1
3da372ac
ba2ee174
3e90fa50
bf0b0926
bdb5739a
bd26b4f1
3e042051
3e1381de
be60e270
3d5a021a
3e93a153
3eb14f01
3e0d9b6d
3e05aadf
3d894cae
3ead4d13
3e35d129
be1fe62a
3dd1d331
3e61e115
bc0b8561
3c9d03c4
3e825749
3d4de21d
3e90d7bf
3e44fd75
3e1b745b
bdcc30de
be0a0326
bddd7c50
3e5bb68e
3d0c2d9f
bd8acebd
be4e3340
3e0a3d61
3cbcc1e0
bea39fca
bebc0213
3e6186e5
ba8adc38
3ea1e001
bcce5ed7
3dbd2464
3ee5a21a
3d959566
3d8b9646
bd51f289
3da3f936
bbb7cb8a
3dc28f10
bc8aad1b
bdb30e08
3df79817
3db0d833
3e38eb19
3be6aafe
3c859ed7
3e78b5d4
bb0fba7e
3e08b9fc
3dca7412
3e476291
3d1634f5
3e535c01
bcd2bdb1
3e33ebe2
3cf18598
3e44e9d5
3ea4c524
3ed740ec
3e0934f7
bd26b3c9
3e7628f0
3e354171
bf11702f
bd8ab2cb
bd9518de
3e6606f9
bd69bc59
bda1cec6
be986786
3e9becec
3e5f6d81
beb67394
3e337d92
3e6e8084
3e51a918
3ea76303
bed85400
be153a5a
bd129318
bc489806
bc6c0e54
be2b8457
3dc84652
3edcde1b
3d604070
be2bf50a
be7a39e4
3e820eb1
3edd94cf
3eb1fa9e
be395f49
3e5ecb75
3d473424
be47c9fc
bd51ffeb
bd8928b9
3e45d5fe
bd74039b
3e920d24
3d9c9208
3e2226d0
3cb121e9
bcb85a12
3de29537
be2f1c04
3e1556cf
be140c08
3da3f8e1
be6d273c
3dd43204
3d9c5ac2
3dbbc7ff
3de9e663
3d7a2386
3e9963b0
be7d16a2
bd934d94
3da55f2f
3e6737e5
bdd945eb
beb444eb
bedf26b4
bd23a93b
3e064084
3cf2037d
bd077012
be493027
bd4a9f5d
3e23d2f0
bcdadac2
3e67bb7d
bd4f3c56
3da01ed5
3e0ecdfd
3c45be38
bd70c800
bd1c9cd6
3e152eed
beba21c2
3e3d6b2a
bed3a138
bdfde24f
3e10560f
3dc1b7f7
3e50a769
3ae0fbfa
3eea03e2
be882312
3e1dbd77
bbfb331a
3e7f93e0
bea55947
bea75c51
be9a29a1
be7d6a93
3e5cba7f
3db5620c
be194c76
bf044af0
3d14e9c8
3d3e9a18
3e6837cb
3d6ed16b
be1f4c73
bf034d19
3dc6aa30
3dce14a7
bea29c9e
3cad98f3
3e9097e8
bc891866
3e539ee9
be431767
3d888e98
3cb0890e
3cf1f71f
3d8db67f
3e0769b1
3e0242bc
3e15e41e
3e05961f
bccdb8c4
be4ebf27
3dc8b615
3e3efd9f
3e8ce090
be22c284
3e2bb08c
bd5ca3be
bdb2ec38
bdae2dfb
3e799ff9
3e3d5df5
bd39028a
3eb4e0f5
bd0377f3
be34ba35
3dae3b9f
3c1826be
3db44730
3c283d05
3ebbde92
beed95fe
3df29e93
beac9cba
be8a0f12
3eb7a7ca
bc6dd629
3e0ead5f
be86431d
3ef1e843
be263048
3c087399
be310d13
3e984d7c
bdc47a8b
bd8fe039
bdf58850
be2eca52
3e3f0d0e
bd801c96
bd3ddd71
bde3ed36
be7a37df
bdf6c318
3ddc0e89
be17d96c
be839ffb
bc2f14cc
3e0c0a40
3e945473
be80cd70
3eba5e43
be77966d
3de81a98
3d2ecac9
be66d8cd
bbf45e90
bd9dbf9e
3da54cbf
bcdc7a31
3df5e469
be13b3cc
3e94b0af
3dcd7b84
3e09c1ef
be5537c3
3eb3ce74
3e6b2c10
3e4f9029
3ce96f6e
3b09b552
3d2808bc
be91bbf1
bdb5da0e
be00bfa0
3d4946bb
3e02450c
3e2bd87b
3e7a6abf
3e12d3b8
3d69792a
3e288855
bdb4c4dc
bcce8248
3e0a5806
be0840d5
3cbb6329
bd3a70cc
3d8c5603
3de9b438
3d8e5570
bdd21bfb
bca4a12a
3e3ddcbe
3d933899
bbbe8459
bcc36260
3e00ef4c
bd9cdd86
bd8f353b
bd804348
bde6db6f
3e32ff61
3cfb418d
be000fd0
3e68383d
3e7a1fa4
3ddf6aa2
bcc7a2a4
3e89fb21
3ee0c3ef
3eaf5c5c
be1bc2b8
3d5319ee
3e9c5224
be97c5b3
3ed28b9c
bd3368e4
bd29e709
3e30489a
3ebdaca3
3e6768e1
be814c83
be4776c1
bdae4512
3ecf1dbf
beb652e9
bdd5d870
bd429fd9
3e86b4e0
be8637bf
be93ee6e
be2bb725
3e7d1576
3cc2640f
3ecf367a
bba8f22f
3d6e8df1
3ec300e8
3e864991
bdbdc14f
3e4dcf24
3d8b0481
bea4b0b7
3dc2bd62
be4e92bc
3e0f1142
bd9a2dd0
3e78212a
bdfa1b77
bdfce191
bd6d8ff6
bdcd4066
3e7bbc73
bd80ada2
3e5256e4
bd872953
3e9dad20
bd2f508c
3cce7f4a
be4754a2
3e8d193b
be90c118
bf221aca
bed33250
bc6d0bf3
3dc99b13
be3dc2ea
be44c514
be16661b
3db7b354
3e8fef2e
3cfc9f44
3e4de87a
3db4014b
3e19b5c3
3c918c61
3d571190
3de9f31c
be70674c
3e25c932
beb16d41
3e099cf1
becd3e1d
bc6c47da
3ea501f9
bd6d7140
3ca770a5
3d6488b1
3ea9c841
be8308ab
3daadf9b
bcddf874
3e993096
beaf90d3
beb3b07f
be580e1a
be0e35c7
3e47676b
3cfdf692
bd6481e4
3cca89f0
be362bb4
3e0fa772
3c2ead33
3dc49d3d
bc190001
bd2ebcfc
bda9d37d
3d56f699
3e8c029d
3e81b721
be09a406
3e8753d5
bb8495fb
3dcd00b5
be252fac
3e000ff8
3d4bef07
3ce7789f
3e9f524b
3cd04964
3e2127b4
3d93dff1
3e470608
3dbf8d13
3ebe252f
3eb4ce45
3e954755
3cf8b95b
3ca60714
be43383d
3cb3cebd
3d77236c
3eae9bde
3db4b7e5
be33fb74
3da31056
be882a2d
beb544b4
3d848ff7
bc9b25fb
3d63f09f
3db99d2f
bd34a84c
bd2ad3d9
bd8c99c5
bdc24896
be9b3808
3e4ba952
3d9ecd48
3ccac83c
bd46f4b0
3e13f950
3dc0786e
3daaff4e
bdc24d5a
3eb4ad28
bdd5a515
bd58d008
bd206f5b
bd5b26fe
bcc260d3
be935d76
bdb4e070
3dddbb0c
3e90503d
3e796369
bda6456a
3eb835f1
3d86ce26
3dbd534a
3df534fb
be200d49
3e67cd2d
be40c637
3e7ed248
beb1f0e2
3e3a1cc3
be4c4370
bdbd842c
3ec3f78a
3dafdc99
3da01d12
be2cfd6d
3ecf7b8b
be09fcee
bce55e82
bd48d61c
3e370db7
bd82145f
bdc4cbc8
bdd76517
bdf689e1
3e035d81
3ad9abb1
bdd9318c
bf08c9e6
bda550d7
be3f742b
3e190368
3beabdf3
bd836501
be1459bb
3e86322b
3e88e61f
be2067df
3d802c0e
3df875a3
3d2ae51f
3dc602ac
be840164
be07063e
be1fbcdd
bd67ef7b
bdce9b15
be5af9cc
bd9f043e
3e60e29d
3db89c7c
be1ffa7a
be907366
3e879ea2
3ef4117f
3e8383f4
bde14e33
3d3a3a63
3e1a7f0e
be28ad7e
3dc52a99
3d87d487
3dd083eb
bd62c52d
bb8a9855
3e29d538
3e53b1c0
be32c982
be659da5
3dc3b466
bdb6b183
bd1b7a56
3e215285
bc76528d
3e8ca868
3ec43fb4
3d8b7f37
be123e37
bd7dd40f
3e5369b1
3d724c74
3cf1e9fa
bca192a5
3d31a8a2
bcc971b4
3e0118d7
3e14e9be
3e125b4e
3e9398a0
bc5d03cf
3e9be319
3e032c37
3e2f43ac
3e0e5a2b
3d00315d
3de5c8ee
3e33edcb
bd1d846c
3dec9a7f
3d47ec40
3df600b7
3d8b10e6
3d116d4d
3dc51faf
3cc4d1c4
3d053537
bcc818eb
bb8c5a25
3e710d72
3df2f71f
3e182c6e
3d9fe418
3df12737
be0ca8f6
3d8fddae
3e8c2623
3e3ccd33
3d902fd2
bdba8ba4
be851a41
3ca591dc
bd9a747f
3c499960
3d609dbc
3cf0a116
3e92da7d
3e541bda
3d96c50e
3c93343d
be284bf4
bedc5521
bc0d3f99
3daf5311
be024846
3deaed01
3e00d631
bd2835c5
bd38c42a
bde6f740
be938b1c
3e4c6ea3
3e10697e
3d65ac8c
3e8ea5e4
3e484bdd
3cfb8d29
3d438017
3e893896
3cb08b72
3e48a6ad
be92cb3f
bea6c92d
bd0af611
3d962ac5
be81074d
3d7f6abb
bde4b35e
be248b8f
3cc7bbb0
3e06affa
bd4c654c
3dfb26f1
3d945c86
3d847ef8
3e9c1e55
bddc8bf6
3d99f1ee
be2b532e
3bd0b27e
3db7dff1
be57e781
3debc15e
be35644a
bb9ae8e6
bdced9d0
3cbfd130
3c8d7945
3e616e94
3e0d7a42
3ae85114
be532cfe
3ea3923c
3d767356
3df6873a
3e10c40c
bd8a86e2
3bdcfbc5
be4f34b5
be5b9fe6
bdcecb62
bd50ef90
3d28b0f6
3c0adf4f
be156a38
bcd9077d
3d352add
3e974808
be0d12f9
3e01cb58
bbe338c0
3de8e26c
3de8d191
be88aa5f
be039d97
bdd466b1
3e0a846c
bd0c5cfb
bb12918e
3e320469
3e19026a
3cee20b1
3cff3eca
bde7e673
3ea0d57d
3e1aa163
bd10b293
bdc2227a
3dbbc50a
bdf9cabb
be86b388
be3760dc
3e589aeb
3e019aac
3e3eaf4d
3e05aac1
3da9273c
bdb4cf20
3dbaa83b
bdcd1e06
be57d8fc
3e6585ed
bb96b7a7
bd841cbe
3cbe98d2
be273197
be4dc08f
3d10ed2f
3bd48db0
3e139ecb
3e87dd9d
3df80e48
3dbffdb3
3e0f7dd1
3d910114
bcf0ff47
3e2493b2
bd13b51f
bdbffc33
3d526c00
3e073b84
be97577b
3da68e97
be538f1c
bf07f690
3e65020e
bcf7e829
3e8631bb
be13669f
be22fe42
bc8648ea
3e760e0b
3d3093f2
3ddc7586
3dfb94ab
be8b03e2
3d426d49
bea5faf9
bde3eb18
3e4ceddc
bba4e6ec
3c6e21ca
bbc0b131
3e87b955
bd3cc888
3e682f14
3d81ef10
3ea0cc1a
3e4657da
bd2cba79
be1c94a5
bdefda8f
3df9ef1e
bbd0da0f
be509dd0
bd972311
bde4d457
be4d4054
bcd8ca8e
be61dddb
be4d3100
be1b7c8e
3e26ad1f
3db60143
be5a73bf
3e509ddf
be179c9b
3e2d49b7
be1cf551
3db71a58
bdfa361e
bdf0bf53
3e921cab
3df68ae4
bd92f977
be033e0b
3e9d40c9
3e0d8099
3c421363
be998b53
3e96843c
bd89239f
3d19e544
3de76789
bd9142e8
3bf5447f
3d1c2e55
bd7f8f01
beca9804
be8ebea1
3e38a941
be38f5ee
3e0e7bfd
3e756ef2
3e67b7d9
3ed3726c
be75ed68
3e6ecb38
be2d6a33
3e702048
3d0f0998
3d638962
3e350d90
be016c4d
3e4c55ab
3d1e246a
bd931ceb
be73cdb8
3e31a0f1
3d21a78d
3dee374d
be74b04a
3e4f89fa
3d0841f2
bd1f3b84
3d9ca3a8
3c970b59
3cb52838
3c53cba6
3e8b3b93
be6b40de
bd25af04
3e07ef46
3de0c88d
3ebd8b98
3e8ab7a6
be072e52
3e638317
3e3d1aa4
be5bfdfa
3d468f64
3e82bc08
bcf1d9f0
3e074e3c
3e9f06e7
3d4f3f25
be1e8e01
be52927c
3c7f7f24
3e707e79
be5ea118
be3319c2
be08830e
bcd8eb69
bd2173f2
bc2a969c
bc5fabc7
3dee7fc2
3ddfb9e8
3e9f3e50
bd523b49
3e15ce86
beef6d72
bc2eca91
bdd48d96
3e1f37b6
be0b4d2c
be4ae901
bc5e95ba
be14940e
3d3f9843
3e0f6827
bd893792
3def917e
be71b114
3d3afd8f
be51de3d
3d068af1
3e0ab2fc
bcb59811
3e830514
3e20f965
3e1e30a4
3d17fb1f
3e3b50c9
3c56d341
3e8e2a98
3e9760e1
3ea9ea7f
3d80d51f
3da5c238
be9af365
3cb34b17
be129964
bef42f2f
3d488f8f
3d94fbd3
3dd66d19
3db257fd
3de7c684
3d74e93a
3ea0d38e
bd48577a
3dc8e297
bdafd271
3dcb0973
3df78303
bdebebf0
bd097aad
3d61cf89
3e023442
bddf381f
3dc7463e
bbdf31b3
3d771987
3dd9a071
3d79cd13
bcc0faf9
3e854e3b
bb761697
be04d482
bca32104
3d3416ca
bdfbb170
bdbbdfe0
3dc868d6
bf04a676
bd4536c6
3cfd189e
bdbb1b0b
bd04c5aa
3ac869d6
3cadd3e7
3e26dbd8
3c9a199d
3e7ff7d6
be5d3d14
3e939fdc
bdd2151a
3d3b58d9
3cf98bb0
bdad1e35
3e64f0ae
3de00c71
3dc9d218
be2d9791
3db4a805
3e1ae210
3d20b46a
3da69ea4
3e8443f4
3e83ade0
bd4dd10a
3e03b30b
bdeb9a84
bdaead8a
3e286a73
bc8575e4
be9ac969
3ce42b4c
3c647279
bddb5dee
be8b8e10
be6886eb
be16c276
bbdb4a6e
bd2ea9d6
3e457eec
be39158d
3e5348c4
bea0aa44
3da94578
be8c783d
3ceb62c2
3e85b1f5
3d44210d
3e80a017
3d726268
3e5eca84
3e4b147c
3eb94519
3e535bbb
3e95cf9b
3eb02b25
3e9e312f
3e1a7f64
bc814d0f
bea59160
3cf6f764
3e30a97c
bf6e3190
3e375f6f
3c9f68b5
bb86e823
3c912728
be1a396e
bc42eab5
3e8cb016
3d85a33e
3bec1087
3db4389e
3cf9ef34
3d36efc3
be4ed22d
bddf2feb
3e78cdf5
3d577f36
3dd31e8a
3bc1e114
3ddee22e
bd943d6b
3d4eda91
3e13f53c
3d85e0f0
3d170aab
bd6a5d1e
3d511398
bd2af9bc
3e06d431
3ccad2bf
bd618a28
bb466cb3
3eb9c1d8
3e649e96
bd88b03a
3e06bd2d
bc71585a
bed4e9f5
3cfb150a
3dd31f80
ba1ad2d2
3e1e1059
3df5a6b8
3d4d978f
bdbe3c31
bdc4c60d
bed1498d
3e9027ea
3e0886d3
3e25be2b
3dba2b74
3eb29e60
3e31b0a4
bd1cba3a
3e89fce3
3d92f054
3ce360d8
bedf4f4d
bea71431
3db4103f
3df464e3
beae1605
bd4cba5e
3e29d2ec
bc7e4ad4
bddf52d4
3d986364
bdcfc2a0
3e95f4b1
3e265306
be384db8
be8935ca
3e750262
be2a01ac
bd951dd5
3e7bed27
be020b7e
3e270649
3e8fdb5c
bd55d1bd
bde592f5
3d35de49
3d934b90
3d903d05
bda1add0
be0d8893
bd8a9a61
3da5765a
bf3e8333
ba4f460b
bdf04d73
3e1fe702
3dc63bd7
3e42aeb5
3e3aa861
3e89e367
bc07d06e
3d981f3e
3c19ccd6
3d8f340c
3d878719
be875304
bd5911e8
bddff32c
3e0a9efd
bd52fea8
bcd9365f
bd9268a9
bd1e82d7
3e03956f
be8a430f
bd023c6c
3de5a847
bdc34382
be7e51a1
3da1739d
3dda540e
3e272c48
3e06fc98
3dacb689
beba21f4
bdc98f8e
3de73680
3e385d5f
bdd4cced
be947e00
bbe1f999
3d5cfbc7
be00e3b2
3ccae863
be163edb
bcabf935
be837d61
bef8c30f
bd0ba815
bebd18e0
bcbda556
3db49e1b
3e484d74
3daacf6a
3db771c6
3cd14aef
beebb6f0
3e5407c4
3e14052a
3d9271d7
3e1a1836
3e298f5d
3e4dbdbc
3d29cf86
3d9568ed
3dbe63a3
bea90edc
bdfda9ac
3de65dd6
3d97f9f9
3dbb0d39
be5eaddb
3e0ca88a
3e21b1bd
be6a3386
3d963538
3d8df518
bddbaf24
3e126d6d
3da31943
3e0c7c3c
be769710
bdbf5372
3e4f2054
be1d276d
3de9a31e
3c8d6c9d
3d999b70
3d4b34fb
3d16ab6b
3dc14bf3
3dc4f5c9
3e156a51
be9eadef
3e625bb6
3d764ddc
bd95bdda
bdf230b8
bece6bd6
be306602
beb697a3
3e31e1a7
bd9eae3b
3e356616
3b3de66e
bd442649
be80f6f0
bcdcbf83
3de9b6f6
3d2e813d
bdbace6b
3e16c957
3d84c0b9
bee6b572
be4e23e4
3d49de59
3b972eea
bd260ff0
3d4b5f8c
bd0e1926
3c3d69b5
3d5ab860
3e3b76b4
3e219b6a
3d1ca5f7
bd2e0935
3e4066b1
3d5769ff
3db3e383
bde4b170
be897bc4
be855e03
beb65fe2
3d2d51c4
bde7baaf
3de71c50
bcee4f2f
3d945a9c
be84c5d5
3e23d270
3d3d0fc1
3df9bc05
bd694495
be9a1eb5
3c94ca0e
3da78623
bc1ab856
3e58dda5
3e42851a
3c30a038
3d843b3f
3e2b209c
bdf8ef28
bb038f7f
3d2662de
3e25159f
3d23e395
3e557bb4
3d6d1d78
3e3912f6
3c48cfb7
3dffe4ab
becff09c
be97f225
bdb0e814
3cae7e31
bc29671d
be44a838
bdc44ebf
bdb9e4a1
bea4889c
3e6c3867
3d43d24c
3d3a6d54
be034e77
bdc1ef10
3da5216c
bdee214c
3d323730
bcfab38d
bcd92e69
beb89aad
3cfe5d95
be81fa38
be2914a3
3e12d34b
3be58389
3d8c7da3
be17befc
3defb283
bc086e77
3d9160ea
bed131fc
3e1ddda9
be92ac2a
beb8285a
bdf542e0
be336947
3bc81cd0
bdd14a9b
be13f704
3e091c21
bdc73e00
be12f820
3e11bad2
be659779
be3c751a
3e298829
3e28e014
bda2b53f
be82b63d
3e227b6d
be745d1a
3eb809d5
3d92b983
3e747fe3
3d80784f
be4cab51
3e367a7b
3e685323
3e5d90cd
beb2379b
3e8f678f
3e9d84aa
3ea2cbda
be32d9f3
be911857
3e73977d
3e3329a0
3e2296b0
bd9b94c8
3dc33ef5
3e530444
3d8842cd
3e3f5637
bdf208d0
3e96e861
be8db823
3e910845
3ea19280
bc879bc6
be46d4fa
be2e6c31
3e5a3710
bdc80fb1
3ead1c81
3e71486d
3e2b7d58
3ea6bed4
bc93f82a
bc65ee69
3d55209d
3df266d2
bebf2e52
3e2296c0
bd860db8
3e3af52e
be782ca0
bee43533
3db51481
3de12403
3e372359
bdd0c9cb
3e7fa941
3d96ab23
3e81992f
bea5ce25
bc1bfc6c
3cc1044c
bca22f9b
3ed07310
3e7cd4c1
bccba395
bdfd075f
3e509b74
be2d1963
3ca7f128
3db12f73
bd8c91fc
3e41eb57
3ea0da55
3d883758
bd3bddc7
be7670fd
be5c4c30
3d1abdbb
bd3d81b5
bcce7554
bdc71072
bdd35b51
bf1f03f9
bd8d05d3
bdd90df5
3e67f6f9
3d1c8fd1
3e5a5265
bda34bc9
3e029136
bec2f1ed
3e003494
3c1481c5
be092791
be50327b
be74ade4
be14f49b
be2439a2
3deb8eb0
3e47d81a
3c127ec1
bcbd8ea1
bcfd2e60
3dde569a
be56c3de
3dce1f51
3d23f3e6
3e4bfd4d
be1b54e9
be0a0cb8
be1896a8
3de94608
be2c2a7d
3e0ee9ec
bf10efe7
bc8e79a2
bcf2914d
3e27d4c9
3d829de3
bdf159c1
3db827ae
bd398870
be32ced8
bd863a1f
3da32a9f
bd0685fe
3e22bca4
3dcc5f5d
3db108a5
be6941de
be135ea2
3e18810d
bba247a0
3e1c1dd4
3db19727
3d35af68
3cba6650
3cf7712c
3df3911d
3d8b68e6
3d711b4c
bd001ded
3e0410ce
3c928de0
3d35f32a
3ce83dc3
be940b7e
bea8ac9e
bec4e660
3de48c3a
bd354f56
3d6edb78
3c5e42de
3e6391d9
be6009bd
be7e4b4d
3beb6a6f
be5d2a56
bc674996
bdb51a3b
be0127ab
bce3e84c
3d89c571
3e46362d
be159fa2
3eb69138
bdc6b5ce
3e6fb6a7
bdce44d0
bea3bd3b
3e88363d
3d0c40a4
bdd094c9
bea901be
3e63cb0e
3e9baca5
3de02ae5
bd747c16
be8492de
3e4f43b6
3e3b69fb
3e01df86
bde397d9
be5b6bbc
3e5979c2
3e2f86bf
bdd3c1f5
3da21ed4
3d43b3fd
3d1db7a2
bea756ed
beb4b06b
be3efb79
be16c6eb
3d3216b4
3dd784bf
bca24296
3d84e8a7
be7abd69
bca94fc9
bedaa8c4
3c956165
3e6d3cc7
3cde82a6
bd5ab296
bd25c570
3d1017b8
3dfc7830
bd309147
3d357cb2
bee29559
3d3fd656
bddff86e
3de55266
bdcd8847
be9435b0
3e1d34f3
3e32c0ec
bec54173
bcaea73f
3d9ff544
bd801250
bcb90d66
3cec55b8
3dc8f4bb
be9cd9de
3daa5b16
bc1b6442
ba023596
bd4a5312
3d2d2187
bcfdf611
bcea8a28
3cb00ed7
3da56a57
bd79e300
be1136e1
bdee8c41
3daf139d
bda70d61
be010893
bd04e27d
bf05ebcc
be823b8b
bd0abe3a
bb99e44d
3e1719d9
bdc2bb9b
bdacf1ec
3c3211ad
bbbf6b95
3e7205bd
be1a6d11
3e11023f
be83f4b3
be6d79d0
3dcec41e
beaf1e34
3e10cf03
3c9dee67
3e684517
bd90b415
bde7f054
3d5f21f1
bea74e51
3e8cf0dc
bd24701c
3e3a9d1f
3e1b44ce
3dd082d0
3d29d50f
3dbb0558
3e1d2f27
3e871e6c
beee1558
be1e0dcb
bd07c270
3d30c05b
3de6a72c
be4ac70e
3dda4500

// bias  shape=(32)  count=32
3e3323da
3dd5fcc9
bd6d6e3f
3d286f20
3caff0fe
3e6fb7c2
3e99e3d8
bda55d42
3dc54f75
3e4d332c
be5927f6
3e283d09
3e387c64
3c9007a0
3e47615f
3ea9b898
bd0d871f
be0b8368
be353989
be11e0be
3e227438
be1274ba
be5e026d
be59ea3e
3c425685
be61609b
bd06e469
bbb0511d
3e1d09a6
3d1e6368
3ea34628
3d132895

// kernel  shape=(32x5)  count=160
bed17cb3
3e13dd3e
3f0bb32b
3ecd5483
be26e45f
bd2d96fc
bf05df53
3f7d8994
bf4e605b
3ea7da59
3efa3196
bf0b1585
3eed23a3
bee96d08
3e3d1532
3e48a933
3ea32752
be9f05aa
3d3c2fe6
be98e2ee
3ea97987
bdb6539c
3ee483ee
beddd92f
be1e74b1
bd8c8fff
3e4cfdba
3deea930
be05c2f9
be8cd4ee
bf3ed0b6
3f2841f9
3e0df6c2
bf47a90e
bea47ba6
3ef7ff71
3eac44a3
bef32eb0
3df8e8db
bd987c91
bea715d7
3e5c1543
bf42f47d
3ef24ec8
bba27cf8
bf0afa56
bd298e02
3f0b79bd
be38ca52
bed109a6
3e6d91ee
be07c531
bf2f6f49
3ef5e1c4
bdef8709
3f002584
3e906764
3df2f15d
bf4626b3
bdd91b66
be9de23f
3e777fb6
bcd73691
3ed0d357
bedf4eb5
3ec6e7e9
3ec31887
bee308ac
be2ec130
3d21b545
bf20b6dc
3ebfcbbd
3e26259c
3efc4e52
bee9e477
bf42ea7a
3e90bc3d
bd6f67c3
bf09941f
be7ad02c
3ed12451
bf031334
3f1b4837
bedcbb1c
be39d1da
3e49df63
3d9f6509
3c846065
3eadf7df
be7598f5
3e98f018
bef4f183
beeb22a8
3d7cc15c
be75964f
be42e6cc
bf267f0b
bd1bca88
3f0bb5aa
3ea730d3
3e8c79c2
3cb21c4e
3e977ec2
bf6bc7b1
3dd4dd2d
3e7f682a
3ebeb47b
bf2e34ae
3f006b62
be084e55
3e911b66
bf097c4c
bec9ca90
3e9e6cbd
3d8359cf
be399460
bf155599
3c3f63c9
3eded6d9
3ea271ac
bdb74198
bf04db51
3e1a6fa4
bef87b79
befc737f
bf29379f
bf2947d2
bf33672e
3f11bc9b
bd2964b0
bebd232c
3f65a2cd
bfa497d1
3f34b7ec
3e4c1210
bd9d237d
3f5ea2cd
bf4902d2
3f0f3c98
3ea99697
be2503bf
3eb0d290
3ec4be78
3ed4a5e4
bedc4827
3e879714
3d95762c
bd870160
bea0f731
befd5f66
bf0b44a9
3f088015
3dc492ab
bf20f864
3dfa1067
bf0cc412
3cc2ceba
be5b856f
3ece1f00
3d6f76e4

// bias  shape=(5)  count=5
bde3439a
3e6382fc
3dd74fd3
bdd0370e
bda5e005
