// HAR Model  FP16 quantized weights

// conv1d/kernel  shape=(19x1x12)  count=228
9304
31b6
b270
aa5c
ae0a
a9b0
b1cf
a54e
2506
2a1a
2a38
b340
1e03
3272
2f1c
28c5
286c
b1e4
3569
1df2
aeba
31dc
ab5b
ae0a
2774
ae78
3106
281d
b1fb
2ccb
b0ec
3045
1c9c
24cd
2d1e
ac96
3610
320b
1d71
2fa6
b2db
2df1
af0d
357d
afdf
b820
adae
a3d0
365f
306c
ac87
33db
b637
ae40
b48c
3500
b344
b662
290f
a934
3478
31f8
a9a3
364e
b3a2
afd3
ad56
3234
acfc
b226
ad06
ac5d
3724
b9ac
b44d
367b
b808
ba26
b9e8
3682
36e2
3991
bceb
b5b5
b3c6
af55
385e
b306
3882
2e93
3c31
b5ad
bd3a
b57b
3038
3b37
a640
3640
2d2f
b38a
ad11
1ee1
af51
b462
af18
2d38
b124
261f
acd4
b0f5
9ece
aa5c
b049
3195
3073
1f5b
a7c4
2afb
274b
341b
aa3f
27eb
28b4
adf2
313d
2599
b110
afcd
af21
3248
afa9
3028
b2d9
aa94
2ee2
b070
ac75
a4bd
a366
ac1b
2c3c
3050
a97a
2a2e
2e5b
3462
b2af
3397
b1de
2e06
b479
33b5
ac76
b805
3203
b0ab
2d2f
332f
b14b
344d
b0c2
a933
ae35
340c
b08a
b3e8
2fee
234a
3635
3055
b19a
2e14
b0c7
ac69
b3e4
3581
b01e
b78c
95da
b0d7
294e
0bd5
b20a
336f
b567
afe9
a9e0
2df2
a4ba
b3f1
309a
b093
2d20
28fc
aeb4
34e4
b5e0
2d2c
ac8f
2cfc
b487
b662
a90a
ab89
2ffb
26a4
b335
2af5
b54d
2d29
b195
3414
284a
b30b
aa63
af87
34a2
304d
b634
353d
b0ec
1297
b48e
345b
2d22
b665
31fe
b233

// conv1d/bias  shape=(12)  count=12
363d
357b
2c9c
363a
3379
a888
31a0
35ce
2ec2
3514
3523
2c7a

// dense_output/kernel  shape=(12x5)  count=60
3c1f
b9d4
ba16
b98b
2ba3
39ed
bc60
b558
3c8a
b89f
bc18
39de
b75e
374c
b67f
39f4
b106
b85b
b9f2
b6d6
bb92
3516
ae49
35b6
b643
2ec3
b90d
b5aa
3c65
346b
ba3e
3839
b7c9
37ff
b8dd
382e
b60d
bbaa
b160
ba34
b4b3
bc98
3a97
b4fd
ba12
b029
396d
3b55
bd87
bacf
3a2d
bcef
b843
3c85
288b
b929
3635
bd65
3740
b807

// dense_output/bias  shape=(5)  count=5
32ce
2417
2f81
b56e
b2bb
