// HAR Model  FP16 quantized weights

// conv1d_1/kernel  shape=(19x1x12)  count=228
2194
ace1
b0cf
3375
b24c
ae34
1eee
3279
a955
b4ce
a666
af70
2c4e
3158
b34b
b076
ae78
2ccb
24f1
340b
adfe
28fa
2b04
2e89
a996
a269
29ca
2530
2b05
a6da
2baf
a450
2ec7
ada0
a929
aa6a
b607
b5c7
adf0
243c
ac72
3299
2fdc
b623
3250
21cc
2c27
34ca
b170
b743
2cca
ac73
b5c2
327d
2fd0
b579
3246
b314
a2ac
35c1
b40b
b32d
ac8b
aafe
b10e
28a2
3284
b2d5
3195
9612
2a06
31bc
3ad5
3a39
2942
3313
b8ab
2ec4
3216
ba7f
3410
b8fa
3652
3016
b58c
290b
bbbf
bc07
3bb1
b15e
af46
3459
b40e
39ce
33af
b62b
2e1e
acb9
31e1
b053
324e
2ca0
ade3
3284
b466
2117
305c
adcb
3096
ad2c
2b15
9a97
34da
ab1a
a58c
af9e
ae4c
2ea5
25d1
a77e
2e4d
2c55
ab49
b12c
2c6b
b121
abf9
ab2f
2a69
2f18
ac15
aca3
3009
2f73
3213
aa90
2af5
ad9e
b3a1
2f0a
a7a5
2c3d
aa3a
b20e
b2d2
b37a
ac93
a936
b4f6
3436
34e8
b54a
3014
ad85
26f4
2d37
b545
b577
b0a4
2ad9
ad65
3254
a382
b2f8
2c61
2fb8
265e
1dc8
acf9
b231
b330
aec6
af49
2c6d
3294
ad3d
2e7e
aa65
b164
356b
b501
b4b5
28e3
225e
af2f
2f24
33f1
b5b8
2a5d
b11b
abdd
2311
b32f
b2d3
a954
acdc
afc0
333e
22c1
b423
323f
af5c
aa87
32f4
adc7
b20d
a8aa
b0f6
b503
3373
2ac1
b491
a5c1
b394
ae67
2fbd
b32d
b6fd
b083
2c22
b659
331c
306b
b24d
2e09
b40a
ac1d
2d3c

// conv1d_1/bias  shape=(12)  count=12
34cd
3415
1fd9
34fc
346e
346c
3372
3458
3440
226d
abe8
34f2

// conv1d_2/kernel  shape=(1x12x8)  count=96
3127
bc40
3750
2e67
34dd
3495
3b83
b4a6
af15
bc3e
b822
3b1e
2d30
b1d9
39db
343b
b686
39bc
354d
b558
b77e
18a4
3b5c
b60c
328a
3b43
38fa
b192
3441
b189
3b05
39bc
364b
3629
b042
3c39
b500
b7fa
b7de
2877
35f7
34bf
36fa
b5c5
38f1
b378
2a37
3385
34b0
b173
399e
b85e
3ae1
29fd
b077
b294
b70b
3ad4
b67f
39cc
b4f5
b80a
32e7
b6c2
379a
b4fc
37de
35b2
3842
b75d
a722
37b8
b901
380d
b336
392e
30e5
b6a6
bc34
1cfb
aa15
ba5b
b482
b159
b814
372d
b1ba
34a0
1f80
a993
39b1
b1b7
3bcf
3155
30d6
3851

// conv1d_2/bias  shape=(8)  count=8
30f8
a9c4
3126
3319
3139
aa27
aa90
314b

// dense_output/kernel  shape=(8x5)  count=40
385a
b7c1
bb9d
aeb5
b38d
b6b6
bdd9
b76f
3cad
2f33
3a5f
b549
ba54
ba3e
b943
b9a5
3c4f
ac91
3590
b485
3462
b1bd
b91f
b671
b66a
3343
3549
2805
31f2
390c
b5a1
b4c3
3bae
b985
b71d
3932
a565
b715
b728
3524

// dense_output/bias  shape=(5)  count=5
2ef0
348c
ace6
b18f
b1c4
