// HAR Model  INT16 quantized weights (symmetric)

// dense_1/kernel  shape=(19x64)  count=1216  scale=2.3664328222e-05
04ee
07fb
f3dd
f882
0a23
1b1d
d63a
dd50
2ed1
0c32
e010
22a1
2fff
1f80
d4a0
f97d
e05a
158a
f08f
05fd
e3df
fe4a
1960
fcae
ea57
dfd0
13e2
02d8
f146
36f3
0531
01e7
ed53
0bf7
03c1
0759
0d93
0c07
210d
159d
0f63
08ff
1568
0ae3
012a
0e6b
e064
fb3f
12b9
f9b2
eae5
205a
0a17
fd45
f55b
d6a7
fd04
145c
178a
1164
0b99
dd6e
fa6f
fcf5
008d
fbe0
0608
0978
e60e
165a
db8a
fead
dcd8
0847
ed21
0be3
ddc0
1898
fb5b
0360
dad9
1f0c
f300
fb0b
0213
2232
f4ab
f282
0d5d
0f4c
f5c3
0888
f869
fd09
ebff
1146
0ea6
f9d0
ea3e
dee9
03cc
0fe6
1156
fefa
ff6b
1911
fb28
2033
0c6d
0f17
104b
163c
1757
0964
f6ea
eb94
190e
29c1
0b3e
e400
c607
de95
fbd0
018f
0945
ede6
022c
e4a2
15ac
d1b1
f3bd
f89a
0016
f880
eb36
f57d
0b92
ff03
fdae
122b
186a
c615
fabe
112b
0ea0
fb4f
23ac
1433
059f
0918
fb7f
1cd9
edce
ffb3
05fd
10a6
ec46
0cd2
f871
0c40
ea07
e850
1713
e039
0d9c
00a0
1761
1254
0905
1d4b
207d
280d
0d20
1751
f918
1e95
004d
03a3
14af
1015
ea88
f256
065f
e575
2c5c
1324
15d9
fabe
0058
1d29
07e6
1b44
ee69
ed4e
d438
0c47
03f9
f7a5
3e72
1bcf
f3dc
13c8
df6b
e539
e07b
e6ca
249a
40f6
2f12
f9c8
0813
14c3
0408
d651
1a90
de4e
494a
e26e
0bef
2b24
2d11
eccd
00a7
fcba
f845
270d
0f80
2af9
3a2a
de27
0c7a
feca
16a1
235c
e848
03a2
38b0
ff40
33e8
f7d0
4dfb
d6c7
17b3
0af2
e6df
0bd2
3e42
f074
13c1
0479
3953
09c7
32cb
2724
0eb6
1b9b
ef8d
232b
eb1c
eb2e
06ee
f359
1c2a
df61
e061
0483
eab5
2538
1a87
1f21
fa82
3e83
ed47
fad2
efec
05fd
fd90
e60b
1470
dd43
3729
d6fe
31b8
2374
0972
29d7
36bc
e2b1
f2ac
e53d
e6f6
1742
44c6
e2bc
1db3
3049
1766
064c
de16
1646
2776
00f1
26b7
f346
0b0a
e5fd
0bc7
fb2c
f44d
f0fb
01cb
f62e
e7f0
d877
0e09
e328
267d
ff95
17e5
3542
f16b
1f20
debe
1d27
0047
1edd
160e
f303
052f
2a5b
193e
fb2d
2c87
1842
2360
1d28
02b5
017e
190e
25bb
f997
2236
e04b
f1c3
1a4b
fbbb
dcfd
ffb9
f5fc
ffde
e4c3
de97
ee7c
f70b
11cc
e979
2dee
3818
1c73
f6a8
cf0f
1d51
e642
3471
05c7
0bd9
18cc
139d
3a8c
2248
eff5
3372
e16e
eac5
16d2
d582
fa1b
0f0b
2416
fc0f
1164
15dc
e5c3
fbfa
1ef9
a70d
5d45
39bd
f1e1
329a
2b95
c5b7
19b9
4025
f4f0
ae88
df30
4447
0283
4b40
23ae
ba5b
975e
315b
d6ef
27d5
2178
2e0c
39af
fee6
3222
a4c7
f67e
2ede
1dce
5a85
9625
0d45
1e48
3850
2358
e856
9b3a
169c
86d6
9ebd
4d22
b5df
4b0a
3153
edb2
2a47
3f48
57d5
47d1
377c
b567
1c3c
359a
3b6a
b0b5
8001
22ad
c3fc
0293
f90d
fb20
9e50
9bf7
fff4
00cf
a6c7
82b2
c17c
f889
687a
d56b
6b41
8fa1
1682
24bb
96d8
cd07
db90
0c19
0149
f30d
0299
721d
12e1
8263
cdf5
c3ec
555c
9855
24e2
e39d
8e79
f435
1bad
fa21
079a
e887
0110
e92a
66f7
e246
b56b
02cb
17f8
fefc
55c9
f531
0755
cc50
e3ed
af20
12de
0cd9
cdb4
2975
1543
06c2
e690
f49c
0377
e4ef
eade
c4a3
e2bf
5518
287d
fde4
e954
1d47
e0f9
0516
147d
1cbc
0667
df00
f1d6
0133
f5e2
c012
1045
1c00
d828
0adc
38cb
00ce
0a45
f193
079c
fd53
ca40
01ba
fd3b
0e6f
dcd7
13b5
0d3b
d995
1a3b
f91e
fe8a
e464
d797
29a8
fa81
0483
ddb9
f909
ee4a
fc55
4e4c
f7c2
061a
caeb
ff65
101d
00ae
fda3
fbb6
fc00
fa72
dc69
0095
f8eb
fa3a
ddb9
26ca
dd6a
ef9e
44d3
f281
04c2
03c4
00f2
f184
0387
e0d5
ffea
f7c5
2293
1b14
e6c8
f6bc
ef78
d6fc
1b7d
0899
27a7
009b
f6cd
fbd2
ee2c
fa06
f7bd
d6e7
d925
1bfd
e51a
21b3
1e2e
f182
e6f9
f043
0747
ee83
14a9
0ec2
1c51
0433
0395
0406
0dcc
0364
0cd3
0e81
e2df
ecb1
0a8b
185a
da4c
0512
1394
0bb6
ec88
f559
f909
dec6
11c5
0ca0
e1dc
ebef
d830
246f
1de6
13cf
16c3
1412
f9dd
1630
0028
0e1b
f799
1a8f
0124
1e99
f9c9
da6f
fffe
fdfd
014d
ee2f
f2d3
c8a4
2b75
e110
2171
fe2d
e8fd
1fd8
0825
22a0
ee64
dfd3
f9cf
1770
e0f6
19ab
fb1a
fb9c
14be
10a0
ea67
f3c2
d1e5
1217
03d9
f660
24ed
d169
0e15
1707
f7db
0e7f
f272
e45b
108b
014a
0f21
0f2c
0329
d53e
ecdb
1300
186e
0b58
1be5
fa2c
fc25
da81
fb32
e089
edca
e891
ffc9
180b
0db5
091a
19e0
ee3a
1aa0
1698
cb2f
df25
dd08
e51a
df38
0cbb
e059
f27e
0068
073f
25fb
fcef
d98b
ef24
1635
e99f
f5d8
d6bd
0d30
2496
ec53
ecce
03cf
0c73
198f
0a10
14e1
d6f6
0e61
e556
f0ee
e51d
ebd2
2d33
e1df
e6cd
ecaf
218e
d88b
cbb8
0854
0f10
e9c1
de11
05f3
0b38
d9bf
08dc
ec3c
d266
e6f5
f5ff
06f6
112a
f9af
e6e9
21c2
f870
2bc0
f5ab
14c6
e2fc
f817
f843
dce8
e01b
01ee
f73e
277f
0823
0d5a
215c
fea1
d8e5
280f
e7ab
255f
0682
d849
2b5e
3402
d72e
200b
18c7
1959
0eec
11b3
e41e
f6ab
053b
e3e6
f1d2
0a24
fb22
fc97
e13d
3bd2
dcd8
f8bf
e277
2370
f0f1
e918
2e16
11df
1021
2885
ff82
f52b
21a7
14a9
0b03
4077
d99c
feb6
2a8c
f143
0585
e2f1
0cb1
d793
276c
1ca7
fcef
dfe6
18d5
0e1a
29ef
0152
03a9
0d54
01d3
0723
f0d8
f971
176c
dedd
1e9e
ed2f
23b9
f5f0
06bd
0c2e
fdbd
eeff
0608
28f8
de1c
1dbc
08b0
11d9
1af5
1ace
dfcc
d6ca
14b1
ec0b
f445
fc8a
20aa
32db
ded5
0f31
ecdb
1102
dae9
e1df
ed42
f77a
fc1c
1357
2368
e7b5
1414
2521
e615
ed17
fe02
e486
2463
e54f
e9b3
2837
dd74
f5b1
09eb
3a22
ed6f
e869
eb7f
f2ec
2198
e21b
250a
1062
481c
efe2
e097
fe4f
e58a
efb3
d734
f3f0
19be
1bd5
ea6a
2c04
f47f
405c
1ebe
1694
fa55
1297
ec00
f377
332e
3a90
fd26
33da
e03e
2170
3462
d234
e236
20d9
e5da
18c7
cffc
053f
0659
d2ee
39bb
ff4b
d833
0cf4
ea72
11c7
1206
33b4
2c55
4059
01d9
227a
1f4e
006d
f713
e82d
1eb1
e6dc
ed1d
ff16
1431
0188
e74e
e360
e6d3
228b
123c
1460
e4f2
25ed
e1a3
fa5e
f5f9
e829
1aa2
dd32
0f0f
2528
150a
0380
d707
2130
19d1
0e1c
fe01
2a51
20cd
14c9
0c55
2583
0b56
e0ed
f845
0c45
f2d6
111c
dd7c
f3a8
1ca5
f220
e539
2fa7
dbb0
f5b9
ff77
e3ad
0835
09dd
138a
1265
04f0
2bfa
0702
2306
008b
f110
14fc
1924
084f
e831
2acf
20ba
24eb
f21e
00cd
eb00
d447
1796
1080
2ff0
18d4
e51e
2338
2cfd
1aa8
e5c6
4293
18c2
15c3
e6a5
1e96
0cbc
1404
fde4
33cc
0498
fe48
1c70
db06
e498
f72a
ebfb
2762
103b
f431
2522
ee8f
0f5d
1fdc
d271
dfe4
09ad
deba
33a8
db5d
f271
004a
e017
3450
274b
15ef
1338
d6a2
201d
eb7f
29a4
35dd
1898
1450
dd4d
e8c6
2250
e6cb
0573
e259
101a
0db0
f143
d261
eb4f
eb76
1877
00a8
0335
13d0
24c6
18fb
ec15
fd8a
1731
0676
e00c
dde7
3067
d4e1
0cf4
e29a
ee88
189b
fdeb
fb63
3c53
2668
ee20
f680
f0f8
0d76
e75d
f955
31e1
e0ed
16bc
0048
217d
ec84
2f94
f0b0
0cc6
0a28
0106
df59
2a95
e9ff
0182
e18a
09e2
0f1b
2754
0194
278b
0f31
4665
f57c
ea4c
e44c
354a
f664
fd25
220a
2801
0b60
eda2
d427
0ad4
03c6
17c2
29f1
e51f
fbea
2b9a
37e4
2854
1d4a
13bf
357d
032b
1df7
1853
fca2
3770
0338
1503
e09a
1f12
2a70
4016
ef1a
13f6
e337
273e
ded2
2f81
d2fa
ec7a
27ca
1618
1b1c
d2f8
f4af
1a06
fb3a
e659
0c35
41b7
0038
e17e
2599
0412
fd26
1033
d714
d9fa
1caf
3eaa
f638
00ca
2b6b
121b
0ca6

// dense_1/bias  shape=(64)  count=64  scale=7.7038307588e-06
e7a7
cb6c
db77
57b6
662a
37c0
5b6f
f2fc
daad
d35f
0455
2ae6
3bc4
6d66
4afc
7762
45c7
ef0f
cbbf
2e0c
039e
e9de
e6a8
ec9a
7499
db63
11d8
0f5e
6249
4327
470a
d548
e26d
e684
f3be
0eb8
2c4a
e6bd
475e
f24f
d4b6
3f3d
f9fb
e7c9
7fff
e376
4079
f372
6822
dc2d
f3df
7198
176f
d627
1d12
f661
e7ab
ba56
7aa8
dd97
5388
bf0b
f87a
fd74

// dense_2/kernel  shape=(64x32)  count=2048  scale=1.7301692922e-05
1303
f877
f0ec
c462
2d5e
cdef
15c6
12eb
f41d
414d
06c6
10c9
0616
2cc1
0ef6
fb36
c995
e65d
1934
ed64
30f8
2676
d5c9
aad5
11df
f002
53d0
dca2
1c31
1fa8
ce52
c7fb
4891
c2ea
2f7d
d3e6
13d0
06bf
ce4a
1324
2255
eddc
2f87
c485
d333
1ca9
d15a
0d84
3573
e34d
e93b
474d
f7cd
cda3
d3fe
d5e6
d3b5
323f
3021
f1da
d910
d73a
1c74
51cc
d729
cd18
030d
ec9b
cfb4
b765
f694
fdbc
dcda
073e
b95a
2f3f
3c9b
cde8
0037
d29d
0109
e3cc
f4bf
15c9
f39b
2938
10b3
f93c
ff31
c6b4
03a4
1c8f
f695
1af6
f348
c9e5
eaa5
06cd
fc9c
d715
da80
2cd5
3d5e
2d89
dc97
2278
01dd
1613
11bf
273b
131d
fc77
b9aa
18eb
0c13
bd7d
3da8
2ee9
c495
00a7
44e6
1312
1b6d
db63
d765
11e7
fb75
e29d
2a1a
1096
e84b
fdca
bd77
5771
1efb
ffc8
5163
42d0
e85c
14d0
e823
3306
58fc
20b3
3dac
0de0
7142
f436
0ead
114d
a78c
cb39
2365
084f
3314
ccc9
1756
bcb4
fec5
1188
f5ca
0ca8
fa89
18a7
da59
f9c7
0200
09c6
be88
2da5
fdcc
3567
e8f6
0e38
2020
17e5
eab1
e501
fc7f
f7b0
f6fe
cd04
e893
d6b7
c02a
be71
ef10
ef16
11ed
07b3
17e6
d105
0950
19c0
0585
f4e7
f512
f37d
1487
c7fe
14e0
f4ea
ffb2
203d
c538
2150
fe8a
1828
ef0c
e992
ce2d
1cc9
2956
03ab
edcf
e1ac
d110
0870
ae0e
1ef6
ed2b
f705
2392
1f30
249b
0701
57b5
0001
e93f
ebb5
c9b1
d72b
3801
bb45
eb16
f4d1
1b38
17ce
af61
e8c8
50a9
d972
cfb3
434f
fc8e
21dd
1cb6
fe97
f652
0dc3
8516
3bb8
fed7
002f
110d
053d
d917
bc98
020a
f673
030c
f1b5
db72
0f48
06a7
d80a
0db7
eb4b
2c6b
c25b
108b
dbe0
2009
cb93
256e
de96
cf46
3001
09fe
e856
fc5a
f663
042d
f63a
b808
282e
ff17
fcd4
ea73
c0d2
2be5
1e31
2baf
fa69
cb43
16e4
bf29
0f1a
f75c
ccf0
ec3a
c58d
b457
1351
d1c4
1a4c
c272
06a9
d1cc
ea5f
54c4
522f
d0f0
d32d
b719
19c6
e855
2660
f744
dba6
347b
f15b
eac1
26d5
087f
0333
2dfa
1b31
139a
1876
01a3
1bc7
e997
1ce5
3e4f
dd1b
0ce5
24cc
4d2b
d47a
e036
ec28
f05b
a1df
3a0c
3699
3ec1
2d7f
170d
18e5
bb72
281b
2ac1
1eb1
28d4
fcb4
0316
3a93
3704
d310
329b
f19f
1423
f6d1
b983
231e
ec48
4e96
6d1c
3527
e6e3
eccf
e166
d047
a15b
0f55
0873
3ea4
c2b9
e710
07fd
1004
2395
396a
1ef9
21cf
53ec
c172
210a
170f
d2ea
d543
1acb
f44f
199f
28c1
ac23
f9c5
c042
234b
291d
48ef
e9f7
e236
1a40
cd18
e837
f591
f8d7
1a11
92e1
c92e
cc06
ccc4
fb12
4747
0daf
4530
b1d7
df81
f52a
3326
ff44
20f9
ecf8
3432
dc6c
0d81
f105
4b39
4b31
4ec4
0326
44ac
1051
d3a6
4894
1717
b74e
adf4
0c03
2c8a
2826
e6cd
0fc5
e923
dfec
f055
1557
0c0c
106b
02be
f6ee
150d
0e1a
bc63
fca3
106b
f0b7
ea40
dfb3
139f
fc92
0699
d68c
ea50
fc11
f5c4
3dd0
c941
3090
158f
fb73
1108
b6d1
c252
d96a
d784
0781
24f2
cabd
67f8
f591
f7b7
fd00
38a0
4c92
e239
f249
356f
d348
4b58
cf7d
32ff
33d3
15ae
c45b
5a86
fb8d
1449
35cb
df5e
cbed
095a
dd74
1536
055f
dc40
df15
0790
1839
0eb0
0c26
0b8e
2fe3
0fca
d071
f56b
1a6f
c79a
ec8a
00b0
0f68
1f8f
e21e
08be
0ede
10c3
244c
2c0e
b67f
dd6e
eb76
f287
0174
e349
ffc1
042f
ef4d
382d
0be8
e6e2
d07a
1aa4
12e1
1130
4d43
30ff
bed8
058d
12a6
fe83
1516
dea9
2f59
b706
f93f
1a5e
b744
0e98
273c
e702
b66c
5ab8
102c
fab7
24c0
f5e6
effe
ffdb
b0fe
0c27
f723
0467
57ed
f967
3299
ed4e
13d2
c88c
ccb5
3e85
fa47
0dc5
222c
d5b0
174a
ce0c
1750
d5df
e9ac
303a
493f
022a
d3b0
0f2f
e174
dd4c
e17e
ba9d
dfed
2c82
01a4
1a52
c859
e1b3
1f94
28fa
fdd1
40a9
0f9f
da2d
ecdc
04fb
ff2b
0b4d
02d5
33ab
cf64
22ea
debd
1148
1fa6
1c1f
ff13
44bc
fd88
ef85
0d02
eeac
ee44
2113
2f6d
0fc2
0b6f
da98
fa1d
e881
1fcd
d92c
ec68
b3ba
51fc
0a4c
1197
e850
c555
1963
37e0
ad20
edf5
d9b0
04ed
f8e1
a098
2709
fd8c
2158
8001
61cc
cb5f
0adb
3610
5049
173c
fdbc
c0a3
f279
1632
f7df
62e3
1dde
dc02
dd78
fbc9
d8e5
0f11
dae2
ece3
303c
c509
1687
1c68
0902
4579
1b87
0dd5
d4b7
141e
d437
feb8
e4e5
cfb9
344b
35f5
11cf
f8e6
be66
e7c8
e269
0a69
2dee
2640
2793
d208
1bfa
b8e9
2304
2619
e1b1
2465
4548
f215
6007
1529
21b8
120b
31d8
552a
30b4
f8c1
071d
4dd9
b3ac
f29e
f9f3
bebe
c2ed
270f
2929
5762
25a8
f654
3b6b
b1a8
08fd
d3a3
ddcd
feda
edc7
3a41
d969
166f
fa61
ea3f
eda6
fd9b
dcf7
e2e3
0c73
fe02
ec3b
ec05
f05a
f780
cd3d
112e
15cc
cf2c
0a82
476a
d379
2483
d8f9
dfc8
333f
fd29
c0e3
ed65
0efa
b3db
0535
e1ad
4a40
12f8
b75f
ce6b
1220
d7fa
12a9
0552
5afc
2179
110a
e7eb
4de6
c3e2
ebfe
4d8c
d774
c4e1
daa5
e753
0409
d8b1
e655
d814
09c4
37db
c879
1407
d231
265c
3103
1569
f5e5
0b74
1c57
d94f
c460
25b6
d871
2e7b
fd76
c033
f62f
fafe
e165
cd82
39b9
c569
fb45
26d9
31c6
b493
1846
f99e
29c4
cabb
e328
210d
e0b7
d8cd
3b04
edb3
088b
3411
3128
2d33
1167
18ae
1422
10a7
356d
22a6
2a1c
3841
e2fa
d144
de74
4ba3
cbd8
3050
1c47
b090
cb17
4684
1a31
4d24
f7a6
ef03
3483
e631
0eb2
4e2b
d729
2674
fefd
c1eb
5c0d
0d90
f3e5
4dd2
18aa
6388
eed8
b447
35de
1af6
5c01
3ba8
4078
2f36
eaa9
ecd1
c0ed
ca26
d2f7
0c39
2bc7
0026
208a
3141
d2ca
29ac
249d
05bb
43d6
fdb5
ce85
cc36
0f36
1bda
03b4
d1b2
0514
1476
381d
c7b5
f134
fe12
d6a3
12a7
394d
bd46
34c3
fade
e512
cec0
ef76
efd5
37e3
ee07
f187
2477
d58d
e0bf
1f79
0eb2
25d9
ddaa
ebc5
137d
1138
0878
3b59
db0e
1a15
03f9
47f3
08ab
0465
128e
fe69
0aa5
2fb3
2cb0
a9c0
1188
128e
d21a
c261
2a50
0bfe
3945
f804
ea22
e07d
c5ae
2355
d635
0435
2507
296b
cdb5
0092
3dbe
eb7d
259c
24a6
d22e
1004
cacc
3556
0039
3202
176a
0c85
0355
df82
33f1
12ed
d2d7
db78
2d93
edc9
dd04
fcf7
f922
f893
17f3
0582
c0fe
ff18
0b39
1200
e8f6
ddd2
f38f
0550
d1c5
f56e
be0c
09aa
39fb
f9b4
efbd
dde4
0fc0
d767
f641
18b8
1a59
2183
306a
1aaa
26fd
beaf
06b0
ebc3
1cfc
f4f4
d1e2
b961
0e8e
e1b3
f1c8
dab6
f266
4a1b
3491
cd35
1a4b
d4a9
48c6
dad8
dd90
f878
03a7
1890
49a4
e20a
17ba
1e88
e22c
fe76
e765
d290
0661
32c0
f8c9
0aaf
e35d
cec5
fa6b
60dc
d4f1
da4d
26c8
c634
efff
1d06
00be
2b17
ebea
e9e8
1a5b
1dc1
3344
e879
06d0
0741
d24b
fc4a
0f67
349b
effa
15ab
ea1f
fe95
364f
f1f8
17b2
2a3a
2986
1e8d
ef6d
e777
dfeb
f37e
0c0c
1d7f
33c3
d10c
1ae4
f2d4
dc43
2ca4
356c
29b6
1387
da21
10e0
eca6
d8f0
2579
de19
17dc
1682
fe5b
d2d0
2363
0499
d8ea
0c00
2fdf
d123
174c
1ee6
30af
ec3c
e89f
2b88
e1aa
2886
e930
2134
d85c
0295
247a
ea5b
eb88
0fb9
1406
d028
001b
e9bc
041e
d08d
f3ce
fb46
de67
0f21
cf6a
d60d
fed9
da4b
00f2
e5d8
212a
3a0c
d276
f1b3
e292
090c
0008
d0e1
2f91
fa64
ca01
09fe
fbc1
f9dc
fa84
0fb3
0d58
f578
c5d2
c2fb
1c44
e57d
ce27
05fe
d705
e56c
fad6
0189
1f47
b1b8
cc4d
ea25
249e
2692
e290
297a
172d
02e7
1d64
06a8
f8b7
a92f
f0ba
01b9
f220
ea86
c4b2
f63a
e836
c717
342f
1e5d
debe
e565
4420
d85a
135d
369a
1a40
c70b
f25f
badd
3ab8
cc1f
0614
39c4
fa65
4df4
2ed5
13a6
15a4
1425
394f
30d8
218c
2cd8
033c
4b3d
2600
be5f
315f
020e
2c35
39a6
34c1
33fc
15cd
07af
af38
bd22
d586
1f22
5725
2129
e2ea
cf9b
be59
03cc
3dfe
e558
fa7c
e753
1718
f11b
017b
25a6
fcb8
1b22
0f64
cf15
f9a9
3dfd
0ea3
1418
dd86
da29
0b66
1d15
b32c
e538
2f03
c490
e3be
18b4
e39f
087e
d679
04af
f4db
dab8
f854
4a39
015e
3134
cd99
daf1
5151
cd49
db52
5ce9
e63a
5d44
f51c
d476
11ee
f01e
06b1
2c13
eed9
4366
43ee
d5fa
fe99
d94c
e314
d786
15c2
1229
0eda
191a
cd79
febc
4ba8
1fad
1efb
2efb
b95c
29cf
38ad
0f94
d820
6130
e4ce
5201
e307
db2d
2a27
e6d7
1d2d
3855
2b10
d012
e047
3df2
e6ab
a0e3
b448
fe31
34f2
1214
c619
eb4f
b83b
2047
162a
d95b
e541
f959
ce62
e5e3
e151
046b
0863
de18
ef86
b6b9
217b
4d6a
bd0a
2367
b0a2
cad6
f9ca
0ad4
0aa8
cebb
2ccf
0ffd
27e2
fca2
df80
fc56
1b58
1a0d
1fe7
ef3a
b964
079d
c9ce
4f0a
062d
f350
20dc
f630
0c46
f9f3
ad63
08cb
b86d
0936
2843
f1e1
fab6
f8d4
2321
be7d
6411
ec30
fd4b
2d21
22b5
a30e
0fa4
b7cb
45fd
c9a7
1412
633a
1732
1081
4015
e4c6
c9e6
175d
075c
0fe9
ef85
f4ca
dc92
ce36
2bf6
e71e
33e5
353c
15e2
165d
0538
ba6f
de2a
6097
194e
2e84
3e97
ff6a
2863
f07d
1153
cddd
bd8f
00a3
f68e
e084
d151
003f
14a3
edd6
c635
fb2f
ee6c
e8a2
189e
c1b5
fafc
0e74
b725
e5e8
c98f
d2b4
d8ee
248a
188c
db13
fc26
f87c
0499
07f0
ee4f
1702
f8d3
d3da
386b
1616
ee63
13ca
4a14
1006
f2c8
df3f
30e3
dcc5
083f
2fac
0ab2
2750
13e0
ebcd
f458
3c75
2482
2472
365c
ccf4
11d3
2cc2
ca99
019e
0e6d
f270
dde4
bb83
26e8
ccc6
113a
2d32
dff8
13bc
dd48
026c
e3af
f290
cd73
23ee
313e
c01d
232d
f9ca
f020
1c50
c65b
f98c
e79c
dc1a
f167
f004
d90e
cd8e
2d76
eeb5
ea70
1194
ce92
ebac
27ac
c051
2435
0db4
e2b3
df46
21c6
f681
e25a
3745
2789
3133
cf06
e020
4144
c319
4b1c
0663
3df2
213e
f02a
e33c
1e34
d5c7
004a
2361
10c6
e35b
12b8
04a3
4323
e13a
ff7e
e8df
edb0
19ad
160b
d0b0
1c0b
012f
ff6d
bedf
cdf0
fedd
15db
02b4
efe1
bba4
0378
07a4
ddd5
f7b0
ec20
d04e
e1fb
eef6
ffeb
d5f9
3dac
090f
29c8
10c5
ce9e
0924
0995
eeaa
0b9d
eb6a
cd33
c8f7
0a56
026a
2934
13cd
1781
1c80
1fbf
d95c
2796
ca78
e2d7
4c39
eea5
0ab6
b6d0
bfb6
0aaf
0f5f
1c69
cc22
0abf
f883
243e
1075
f436
05a4
00c2
fbc0
2e79
29b1
eb45
b028
5143
d01d
17d0
ce9e
2089
154f
ceaf
cb8e
30a3
1c17
4b38
d0ba
137e
1dde
4929
e70c
0c3f
e965
eba8
1fd2
ba8f
f35d
1fdb
f10f
fe7e
ae8c
f8e6
d5f9
c777
f43f
05a5
0280
da86
54bd
ea70
110c
3654
dad7
d62e
280e
e4a1
3254
d75c
0b79
c708
e677
f40f
ef34
3f2c
ee6f
6bd0
20b9
00f7
13fa
069e
b6cc
3707
9622
2970
cb81
e7ab
1699
ffc7
fa82
cfac
0963
053e
cd62
ffb6
16f2
3425
0d79
13e4
d219
f231
0572
c2b2
e52f
d068
e04e
0d83
1d56
1420
e468
229f
eeb5
250d
059b
f64d
0079
159e
df0b
2923
1781
e965
cdc0
3557
ba5f
1807
d0d6
4161
367d
1662
f4eb
01f2
e756
278b
0551
f486
14cf
01c4
e438
44cd
9e6b
cd14
2964
d584
0fc8
c9cc
0d40
e3cb
1c6a
01bb
ea80
0220
cf68
c33a
1904
1cc3
0947
df62
e2ef
de40
dd2a
1f9d
f671
09a3
138e
17c7
4f17
fbca
fcc3
d2b2
f2e3
c715
097e
e07d
efc4
2060
2c07
fe1b
2a1a
2838
fce2
f810
2106
37b2
0380
ecf3
64d4
fe86
0bf5
f3f4
10f9
f801
e4e4
2493
5c56
e665
6c17
1579
ba24
1ed6
d082
5846
3bd4
e7b3
e183
07f1
002f
ecc0
cb11
fe71
18de
207b
3b52
ceb2
1c8e
dc15
167e
2e4e
381b
e776
0300
1a50
ee29
3ce4
d4d3
12a6
34f3
d09d
0cd6
0e33
dced
fa9b
d95d
3bb8
1217
f65e
d8a5
38d0
e4c0
0389
9faa
0473
c49e
3717
e0d2
1ec8
cb74
fff3
f9fd
20be
e865
3bcc
d336
21d4
2294
3d9c
1329
15f9
f274
f8e2
0c3f
1ea5
d3a2
1c62
2db1
e236
c401
024e
bd08
1c5b
32c9
00f3
1cce
facb
0680
1f27
b683
c348
e080
e601
f231
c3d9
6474
3077
0f80
f708
ccdd
4165
db78
e354
1cd3
d655
6990
1fca
af86
ea04
1589
f65f
08f3
3930
2259
3bbd
d031
bca9
afbf
8cca
01cb
66d1
f01c
ffe1
d1a4
ad08
189f
1ee2
caa0
1f04
15c1
0c2d
f1d4
edae
47ae
c062
d6dd
f7a5
0563
1c06
f821
15f3
49ae
3bc9
1392
2950
ab61
d880
3da6
fd04
d8d2
d10c
2746
2cc0
ea5e
bb3e
37d7
b824
da9b
06e1
e099
37b1
1cfa
ee3a
04b6
dd2f
266b
ef6e
ffb9
c9fe
3752
1f96
0b9a
fdd7
d55d
e387
fe8d
28ab
09c9
2981
d6f3
f90c
c34f
0c26
0d86
2515
e3ec
e471
1c78
fe8e
0985
043a
f8c7
e794
33f1
f5d8
07ed
f1e7
01ee
e216
f8ba
adca
2318
caaf
f20b
015f
9c99
13ec
e128
ff50
bf8d
4125
e746
f488
698d
f872
cdd7
f1c6
a6fd
441c
c6f9
22e4
6408
1e07
45f9
cb72
0f9e
bead
c591
3835
f5e0
1a89
4892
fdff
4a2c
1c50
ca7b
367c
15b8
17e6
6a2d
2fa9
c91d
4f4f
1dfb
b410
e855
e0ff
fc80
3fda
1372
3134
e76e
fc65
1082
146c

// dense_2/bias  shape=(32)  count=32  scale=4.6062642110e-06
cc16
3853
e539
91c9
d637
1da9
620a
289f
e2eb
7fff
d3a8
6ade
7ddb
4fae
382e
2e2e
f722
f119
f87d
ef0a
7b06
7c75
3fbe
14d6
38a2
223e
19fb
3b29
ec1e
429c
341c
e096

// dense_3/kernel  shape=(32x16)  count=512  scale=2.1699623283e-05
4acc
ca19
b28f
a2db
027d
e9a5
12b6
b002
fa80
37de
16a8
69d8
fde1
3e0a
2f83
b6a1
0636
36ed
fa6f
1d73
da20
b554
f031
4efb
f13a
c2dd
2a53
f5cc
0a24
e2d0
da7e
1fd7
0d02
da96
261a
d2fa
7fff
f605
ea0c
bf63
9b29
08b9
1812
fc2f
a7c4
0eb3
06d1
c574
bf5e
cd0c
05ed
c8f4
4514
cf9e
eb12
106c
2190
e30e
ec50
e7e1
fdce
dd62
e56d
f606
c27d
e079
e54d
158f
3e72
388b
028a
f7e4
f595
e6b4
01a6
2225
e45c
ed63
3244
123f
3090
f0fc
acda
3689
e450
ae26
a952
f991
d52f
15a3
5693
1376
04c5
ff58
39fd
2e31
2aab
0f84
c345
d54f
bad1
c7d2
cb09
486c
0f22
beb4
19c2
c0fe
09e1
02c0
c030
2017
d766
da9e
2b01
b7b4
f9ee
55fe
3c71
c444
194d
1842
064e
c63b
fbb3
f61e
eb40
d9d6
2490
f2d0
b085
c855
4435
e217
d4dd
b299
3666
2893
28b4
5d1d
d0de
4f52
1fee
d540
e28f
2a77
f4e9
1758
e783
241f
41a2
fc77
1824
c3db
1685
d5f7
396d
b87b
bbe2
303a
4540
1d2b
c013
b4fc
144f
fc9f
ea32
d8da
3e7a
24d7
1c80
535d
dc22
413d
331a
eb37
f060
316a
e4b1
30e7
b8fe
db68
25fa
0fe2
09f9
fc44
22cd
d711
23f8
ccce
d540
473b
d8cc
c5b2
4686
d99a
0016
51f7
37f3
05db
fb23
c860
bb90
d005
06d8
008f
afed
d289
4f5b
354c
fc0c
45b5
00c0
00ae
e0ff
0fb9
ddbf
166a
54fc
0289
27f5
da17
0b14
56ac
3348
1947
c5cb
2e6f
b77d
1cc1
146c
2944
2d44
d565
0675
d1a3
3bdb
c39d
c23b
04c0
2e20
229c
ae57
06db
ed45
db6a
aaad
110a
d3e5
0ea7
48f0
3bf2
05de
0673
5121
1321
f28a
afc3
a1cb
eed2
108e
d4d2
d7bd
17a2
cf89
5e8a
f9f3
3703
ea5b
71c5
1a2a
f179
2322
26d4
c061
3182
da0b
ecc5
b80a
3bf3
ebf5
24d6
1e04
e9b1
26ac
fc45
2738
026c
29bd
acc7
bed3
c9d0
bbcc
40d4
5961
06bc
41a4
e696
e5a4
2b77
0160
eda3
eea2
c6b1
ff05
d0d8
1e98
0ff4
6768
fcee
20fa
e3a4
ef7b
089b
ebbf
2645
c90f
3f35
26be
ca9a
0d39
3b89
d6ac
3712
bf03
dbc5
bfd1
4fdd
e2a7
dd0e
001c
da1d
41cb
0371
c7a3
2a1f
0ae7
ea81
26dc
f392
26e7
64fa
4c66
0e61
0e8d
b520
bef6
d801
f918
f99d
e1d1
c652
f52d
d1f0
5b70
ded3
6ce1
1570
f71f
cdce
ce91
f5bd
f45b
e14e
e3b6
30a1
eb78
b1df
e717
b713
5ea5
c7ed
1ab5
f019
3098
f01a
cb42
ef57
d98c
e265
bf22
01fe
0e93
f9a6
efc7
f258
047c
0c37
e4ed
3f83
3e46
186b
124c
eb06
01fd
d884
1175
ae00
d17a
016f
12c5
07f0
f720
02bd
1eaa
d7cf
fe4a
3913
de0b
15dc
2aaa
0136
2644
29ee
63eb
1f8f
fed8
0c1e
f937
da40
d7dd
5934
5e3d
424c
406e
20c1
d835
e0f9
2f8a
f08e
c641
c856
f9bd
cd61
2ea0
c27d
41e3
2613
18ad
15a8
0254
0837
0019
2af3
0035
28ee
075f
c6eb
36e8
305b
2f68
1e3f
ef82
f647
e526
e2c1
361a
fe17
235e
1805
3542
e3d7
3508
d443
d330
bbae
4fe9
c4c9
f548
6590
3c8a
eaa5
fccc
fb1f
ca1a
bdad
0548
f752
c493
be93
0647
1ef9
1b55
1ca6
755c
0818
d8e2
010e
d442
0184
2710
0b64
bc48
47e9
e72c
f71a
5289
d374
fa44
1393
33bb
d24e
b2a0
16b0
f873
429f
28a6
2ff1
d2da
598c
0903
fdd0

// dense_3/bias  shape=(16)  count=16  scale=1.2528898333e-05
dad3
03dd
5d62
ead5
4753
5f74
7fff
33f1
13a5
c8b6
daba
e4fd
2c7e
13bd
dadc
1662

// dense_output/kernel  shape=(16x5)  count=80  scale=3.7871092666e-05
2d68
c657
f074
2f82
1310
2c9c
d2b4
d2a0
dbe3
0059
b221
2c63
2326
0175
b83f
3b9f
17a1
d10a
065f
f9fd
cf01
113e
ec24
0d91
b45e
bf80
2b21
2d2f
c03a
ce72
bb74
150e
1a67
9ea3
b9e2
3318
cb2a
17f9
fc50
c011
bc9d
f0f8
4193
e631
a085
fc4e
ea5c
010b
42e1
d186
2b7c
e551
e335
2492
d7d8
c78a
f096
ceb0
20b8
e84e
4347
e0f4
3bea
de78
8001
e143
2954
b692
362e
b744
f593
d1b8
c8da
218d
ebef
2ab3
fed0
e634
ecff
be7e

// dense_output/bias  shape=(5)  count=5  scale=1.8211608294e-05
dee8
5683
3c36
8001
c19c
