// HAR Model  INT16 quantized weights (symmetric)

// dense_1/kernel  shape=(19x64)  count=1216  scale=2.4935424057e-05
120a
fdf5
d8ae
d593
2012
fb26
2e54
f597
feac
fcea
f69f
e333
edca
0630
0ce6
1716
fca8
02c8
f36d
ef57
01af
e36b
0c8f
11f3
1f09
1a05
1b07
fefe
f12e
f626
13ae
eea7
2506
e645
00b4
dc12
ee67
e91e
f19b
1d19
11c2
0a09
1be9
02d7
19ba
10c9
f675
ff2c
efee
f637
1653
f912
ec0a
1f96
fe8a
f3e9
e3c6
0a83
d1e3
0ada
3717
0cd9
0be8
f186
11a5
21c9
dc47
1dce
eec1
042b
f665
1b92
ffbf
1f7d
16f5
0053
e179
fddb
0f63
0c72
fcdb
e196
2407
3c68
f247
e7d6
e5ad
1bc6
1994
e8be
058a
ffb6
0433
205c
fced
0f0a
03ff
0ab1
2200
ec4c
133b
09f2
fa4a
fa8e
d855
ec11
e572
1631
f178
f0c7
00b2
1be5
e1a7
0ad7
22c8
fc03
c793
1a8a
d9cf
eaed
f164
f166
11ce
1aeb
012a
fc7f
f85d
1346
1519
d5ce
0d49
001c
efe7
ef46
283b
e3a9
e8e4
eab4
f329
db34
1af9
fddd
feed
071b
fb5c
e741
e0e4
105b
13ab
ecc4
10b6
f83d
ed13
08e5
f613
f375
fce1
fe40
ffb5
fd14
2696
1325
123f
1b8f
dde3
fc20
0a27
f01b
39a0
057f
f82e
edc9
109f
fe10
fee0
0b33
2433
07c8
d2cd
ef27
2c12
de7f
ef43
d2fb
df96
0601
f9a8
ffdb
fe76
029a
0499
fe58
ee4d
0018
002b
db15
2561
1ac5
d318
d9bb
3143
382b
298f
3833
f063
0f2d
2b52
d77e
12a8
f1b4
e15b
f949
21c2
32b5
162e
2b6b
1ae5
ed92
de70
c8e0
3e00
1b7c
06f3
fb16
f42d
218f
fb08
34d2
1c35
d2ad
e7f4
10d5
20b7
fa12
288a
0514
2856
24c6
0c29
2e81
1f18
2aab
f563
dc1c
ec4e
2bf3
f67f
f30e
d80c
ef86
07a8
11a7
2bd2
dc87
fd39
da7b
fb78
0c75
334b
eaf8
0c6d
e08c
112d
08d0
120b
284a
2879
330a
192b
ea50
e7db
e838
2685
e9ec
e229
d6f0
049c
1db4
0850
17eb
2f1f
e986
dcd4
f36f
29e6
fb90
d5d6
e61e
fa88
edc1
e3a1
0aed
e306
01a3
d37a
27bb
165d
414d
09d7
18dc
15c3
1d68
265b
f333
0b50
315f
149b
ff31
1b41
edcb
064c
d463
0afb
cdb0
f452
f52f
f5ea
2a47
f9d4
dffd
00ad
e0b7
0732
e151
1d15
e165
0550
f366
fb28
09a1
0f66
fab9
ddc2
21a6
260d
ef7b
f848
2b86
f8c9
05c6
df43
ea90
d761
e4a2
2338
f830
1fd8
fb30
0ea9
d8ca
ecbd
d653
eed0
fc2f
06b9
30ab
076b
cee4
e775
f62b
04ab
f060
1a7e
258f
21c4
0e43
dc3a
1476
0d1c
2ddb
e758
233d
ee4b
f859
e616
1af2
01fd
0225
f40a
e4c4
ec5e
ea37
e48f
0259
112d
c1be
0f34
e5b0
19e4
41eb
30d2
f6c8
ffcd
af22
3635
0cf4
a11d
fd39
ad3e
585e
2046
1f8f
b8fa
ea78
0026
a4a4
2ef9
369e
b132
0b97
18c9
6182
45dd
4caf
55a2
4c8e
da5e
1d6c
b55a
f4ef
1ee7
d34e
3a05
25fe
c763
1e7c
24d9
2527
2829
3748
0fad
0c5f
3071
3991
259b
ffc8
d116
02fd
dcb9
cbe3
5765
459b
fa0f
0d8a
fccf
e1c7
c8ce
2c23
5183
e8b3
1170
54b9
016f
ea8b
fbc2
3a74
cb2b
f333
f2ce
b5d8
c813
0586
f7ad
f630
9dac
e75f
4a69
1521
6731
1169
08f6
0f0a
25f6
f34f
aabd
f604
e47a
2f78
0543
f402
16ea
f552
33e6
b198
0f96
682d
f68b
0385
0b83
d894
dcd3
f830
04c9
9a44
81ae
bd11
0152
0090
9a74
ffcc
3454
0ef2
03ee
38df
054f
034d
380d
5077
82b0
8001
4c92
49f7
4a37
f598
dd57
5686
0bc0
1010
01cc
bbe5
e23f
3001
e6fc
02a1
f611
339f
090e
089a
0535
d757
0d6a
fefa
f6dc
2635
ede7
113c
0ac1
1d02
ff0e
06c5
e5be
1afa
fe86
fe57
1bcd
ffa0
0c5f
f321
f540
6169
071f
244b
18c5
ea03
1091
e7ff
03eb
06d6
082c
e861
dd8a
e57d
0499
0554
dcea
e9ab
2268
c4c3
0f98
0c38
d604
f954
0623
00ff
fae5
f2b9
189f
0bba
14b4
29e6
ed20
e9ac
e73d
032f
ff38
e52e
0e2e
d409
0994
f35b
e42b
0eb3
eb53
fcf6
fb93
f0e5
0818
015a
0229
e53d
ddac
1518
203f
13db
dda1
028a
0c34
eca4
ef32
dab9
de9c
f398
f76f
16a0
dea8
e45f
faa5
0552
0559
0a16
1ec6
db97
e9dc
f15c
d7c0
fc3a
f74b
0a2b
28f0
1538
22a0
0bee
fade
f9cd
ced2
18c5
0a9f
0069
0dc3
ea6f
0306
f267
fd83
d47a
0891
f7a5
1539
0449
f305
edac
0429
1177
f13c
228a
fea8
f929
f648
e8dd
fb25
dfc8
e8c0
0139
eba4
ea3c
f8ba
2986
f84b
07a2
0264
093b
168b
1945
1a33
edf3
c679
fabe
ea3b
fe34
f709
0591
118e
000f
f0eb
dadd
1a46
e90b
ef76
0491
d47d
0c6e
f05a
0859
c991
faf7
0cd3
2718
f830
1f62
1e73
e1b4
0ef0
0541
12a7
02b7
eb56
f05f
e6de
eb67
145b
0548
e498
10cf
069e
0aa7
d6d8
e4f5
0eb3
eea8
0c0c
039d
0692
d30a
f0f3
ed24
1546
f73c
1ef8
ef4d
00e0
08a3
05ee
0991
ef1e
0931
ffad
13e3
d4e9
0515
0cf7
e8e7
f2dd
0dce
ff11
108e
fe4a
d897
0c23
0b6a
d7d5
23f3
20d7
0d7c
0566
d822
da03
21b1
f7db
f0de
1a57
de27
1bd6
01f3
19e9
0e57
e4cb
f52b
ff7c
14d9
daf7
f4bb
e6eb
fe75
014a
f69a
f324
ed7d
1fd4
01c7
41ee
4292
e835
02ed
1f65
109c
1e47
132b
f7ed
09bf
ebf7
3847
dfe8
f489
1e7a
048e
06c4
d8ed
26cc
f1a4
14ff
e92d
00bd
e83a
0699
e71c
18fd
d02b
dbfc
0fc3
f1ed
365b
20c6
25da
f582
fb51
e5bc
0a97
10c5
2f91
1ef7
0070
fb3c
f7fe
e454
f07c
f5d9
f410
f18a
20a0
e208
3118
1155
e786
ffcc
ea79
1ad0
0001
ff5a
d6cd
f3fb
191a
0cd6
340a
1302
01f6
2423
faf1
fddf
fd7c
0e7d
ef97
09f1
0c26
f10e
0443
1642
fa46
ea83
082d
ebcf
f4b8
10eb
0bbd
fdab
071f
2745
e0be
186e
060c
f72f
dadb
0a60
08b5
0b64
2a80
2d4d
fa34
1bde
de6d
05aa
0128
24e8
096c
2c7f
f15e
0821
355a
150c
19b5
009b
1a37
19fb
fb66
e3bd
dd15
e49a
27a0
11a3
f536
f21d
1b40
ec6e
1a60
e04b
26b5
3dcf
1649
443f
1243
e159
e60c
03d9
ef61
edca
0e71
f68a
140d
089f
f761
f382
f650
154a
f79d
f62c
ddd5
37d2
e40d
e322
d755
28b8
1ad4
fab3
32e7
2d7f
2096
0f1c
2465
0ca2
1535
1a56
3422
1e1d
01fa
0c55
0cf5
0acd
e4db
f632
102b
0ce8
0e48
f6c5
2330
f1f9
f52c
e175
e7fa
f636
fb4e
0e37
e788
fca0
0350
26d9
1b99
fcae
08bf
189b
df85
f879
eeb8
eb0f
24f4
1560
f180
e8d4
1915
f90b
1b41
d857
fe3b
14dc
202a
d514
f7bd
244e
e902
06d5
d10e
01d8
eb1d
1775
07d1
fb4a
e2a3
d919
ff50
0b95
101b
1468
0e88
15a7
25a8
e628
29b0
f1d8
f9ca
ecf9
e0ac
20d6
019b
1a81
2b29
1310
f680
05fc
edaf
fb11
e2f3
1ee2
df09
2642
0547
ee99
1b28
200d
1802
2e25
df47
283e
04dd
d286
0a31
2f09
1328
ff22
219d
ed62
f232
f873
e9e9
f847
18d9
23f5
0756
e070
1b48
0181
f5e5
0063
1576
efb2
f26b
fe3a
f863
e321
ec34
0622
e5b0
fc93
1d2b
29f5
160d
1305
e888
fa7b
ff28
0e30
146b
3b58
f6a4
1200
140b
e99a
fe6f
e20d
0ebf
21a2
36b2
17ea
e4a7
df84
dbb1
0df4
08d9
fea4
e666
02aa
22da
ea0a
dbb3
373c
10ca
e442
d93d
23d0
d8dc
1aff
0bd5
20f1
0090
e3f6
e641
0f1a
cdc8
e816
1376
246f
de97
f9db
e6d2
d9a1
f667
12fa
00b7
16a8
066f
0b02
12f5
d163
ec0f
2de9
1829
fb44
09a9
f7d5
1af7
e901
29ba
e430
2c2e
eef1
f484
25ef
1858
0ca0
00cf
117b
2a56
1f79
1be9
251c
2cb7
17e8
f147
e6a1
0c35
04b9
fe85
2a65
0b09
070f
1ba2
fa49
02cf
fc59
0c04
0cad
d6c0
eb54
0edc
1340
ebfb
3b0c
01fd
1275
fb42
ef94
de99
1ec6
01d9
048d
09f0
ec60
1d27
1ad9
e77d
0918
f156
355d
0b5b
fa7c
12a1
dcaf
fe52
193f
f44b
0f20
077b
1fd1
0363
02e7
2471
2bfe
13db
ffdd
06e0
0c9f
1bc9
35bf
1b38
2217
35d6
f235
ed0f
eef5
3679
284c
0f5e
f245
f13c
ce03
0117
143a
18e2
d667
e840

// dense_1/bias  shape=(64)  count=64  scale=8.8851730988e-06
d9c6
f1f8
228d
f790
017b
f272
07de
dca4
5984
2e06
7fff
5d35
0901
e458
db03
16c7
477b
134e
f8fe
e9c9
030e
0d77
0fa4
e42c
45ed
c6ef
dd97
0724
644e
dbc8
fa28
014f
3060
ee20
017f
5fa3
2893
fd23
052b
40c9
02db
5b2c
07dc
384a
4857
3edd
5837
3c08
4838
4633
2b34
a93b
f60e
5523
c7cb
0741
effa
0861
ec6d
e65a
34a3
13dd
fe92
e930

// dense_2/kernel  shape=(64x32)  count=2048  scale=2.1120182897e-05
1709
131a
12b1
f5e2
1d2a
e97e
0ddf
f0f4
e46e
ae14
f645
2750
1727
e9d8
ee87
2494
e2d7
fcac
2b5c
54e2
d31a
0051
e605
0197
15b2
eb6a
2986
2528
41ed
e50b
ca94
e7f4
1a9f
126e
f42f
fda0
11e3
0c24
1fb9
0de8
2008
d291
27af
02eb
111c
24b1
0a4d
26bf
2a54
2234
fe8a
02a4
f159
2d5b
15eb
fa12
3cee
f8e1
20e2
25ae
0a42
0e72
e899
0e1d
0901
fe96
feb0
e43d
d1fb
f199
1900
d19a
f0c5
2ffa
287e
d741
219a
06ed
0512
cb7c
001c
ea12
119a
f3cf
f782
f268
e829
e499
397a
2fd1
0a15
e288
2774
ea48
0487
1e46
2634
7fff
ecf4
00d9
f149
fc33
c8d2
03a8
15a3
e85a
bb40
eda7
f98b
25dc
d8c7
2d51
f613
1cf8
53f1
3505
ba9c
0ebf
a23a
00f7
0f49
ebff
ec87
2c84
62b3
ccda
9e47
ea4e
e5d8
1b85
fa80
fa6c
1b24
096a
f457
d7d3
d4d4
24bd
111b
fb21
138a
1417
b8af
fbbf
dfd6
1eef
f7bf
11a8
08df
e14f
feb5
037b
f328
20a4
e1c6
ecef
2b6c
ded8
fff6
eeda
f404
f970
3c5b
0cdc
11bb
d6e7
0682
2dda
f5c7
17bc
0280
0e87
ca55
c3b4
f7eb
ff56
ca38
d13e
ea47
16f9
0833
e014
1747
f083
ff6c
e4a0
4e55
2ebc
0ccb
ee3e
0b31
dee7
b90c
ee4b
206f
4dd2
dd6b
dfe8
f9d3
2995
e1c1
20a0
f96d
c5a4
cc9e
0842
fad2
1074
ea01
af5b
faa3
f5fb
19f0
be8c
debf
12a4
e294
0fbd
09bb
48a1
eaee
1d78
0eaa
f52a
0b8a
37a7
d411
ed40
f232
cca3
c637
f4c7
f819
ccae
ed55
fa13
21f4
2c45
ef08
0d78
2552
2be8
0efb
0649
cff6
39a6
faaf
0ffb
f012
ec76
0233
38ee
f5f9
e090
d2a1
e930
e372
0213
fbb7
e91e
fd84
33be
e409
dfb3
2dba
47f0
3b90
e919
d618
f926
d690
1943
e55a
e695
0bc4
e924
4edf
ee82
d353
f8d7
e8cd
2a71
c382
1392
ee71
10a4
025c
0708
0096
f943
f3e5
fd62
13d4
2c12
eba8
c81d
1935
33a3
fbae
3ccb
257d
240b
cdfc
aaac
2b2e
ee62
dcd2
32e0
2aba
208d
ef10
03c9
34e3
2774
c9b1
bd9c
f07d
cce2
1ba9
1c1f
f80d
dfde
f018
d040
1625
223c
ee95
ea59
1364
0ee3
3ec3
1863
1388
def5
1709
f3d6
f110
e0bb
396f
d434
2e60
0706
a82f
e5a1
f1a3
2772
e436
d1ba
0842
c4f8
2dd1
1c45
ed6e
d736
1912
ce16
ef55
3340
d96a
0174
6708
3c29
3dbd
0f39
0eaa
ffc6
07c7
f75a
ff21
08cf
38b3
d65b
2c48
f485
d149
1087
04c6
163d
d9b6
cef6
0c1c
d315
1820
2c3e
1280
d66c
d474
f241
0477
35ab
16d0
c24e
1b83
e49e
216f
5bfa
52a1
fb19
264e
ba7b
fcac
16a9
d6f3
303e
1f7b
4550
5c13
22e2
1e71
ce02
eeee
0ad9
0eb5
2359
fcc0
0182
0537
001a
197c
3243
17b6
179a
1e40
225e
2724
f418
2b6c
0675
1fc9
12e9
1c43
fb31
155a
ef6a
11e3
39be
f60c
fd25
f46a
06e5
f8d4
c7a6
2129
fcca
026b
01f0
12e5
0758
410f
0318
e4df
d7c4
0885
192e
ffd8
e4ea
34cd
cb0d
fa66
3ab7
1118
2d15
f453
c19c
38a8
413b
faae
3e7c
f79d
09ea
f872
e9a6
10b1
08f4
e36a
deb5
0009
f08c
f4bb
1039
f4b5
0452
436c
1de0
179a
d942
13a0
4b1e
ced6
f126
160a
ce25
a865
ba09
1632
07b1
e4b1
b5a0
03e5
06b7
0200
e481
eac2
f838
1967
1c17
638e
4933
e791
026f
0414
c697
def1
a79c
0990
d5ce
f759
2d5a
0988
f50c
63ff
2dbf
6c2b
ea40
e4ca
dfdf
44eb
bdd3
fdd9
d1a0
0b9f
dfd1
2e5f
0304
4a42
d298
1b58
3214
d695
0ff8
e2f5
4e41
4794
2046
11ca
200e
f4e4
f40b
cd4c
18f9
2677
0850
0845
245a
29c0
1d9b
d8e9
0f2a
3317
ff74
d8a4
f065
2601
cf7c
5014
ef32
3062
ea40
22ce
5796
db32
0c84
d5f2
fd75
0d36
2ad8
1458
2acd
faa8
f535
e197
00b6
fcbe
1319
e0af
0772
0615
f3c6
25b2
f9c0
c520
0fdf
f523
1ee0
3a2a
475d
ea27
2ad8
c6ad
0f1a
f6cf
d0af
f42c
ffef
5eb5
e54e
a957
382d
207e
124d
1295
12f7
1791
ed57
decf
1d28
fdde
d876
032e
f0d7
18d7
04fe
050f
1fe2
2e3f
0f91
0252
215a
f37d
ec34
19b4
1947
f3a0
0bfd
1757
0ae9
1582
d28b
ecab
f58e
0a9c
2516
02e7
ff37
ecce
e845
c1bb
11b2
2b11
07c9
c136
e614
2387
03ad
ea97
2670
1f0e
0728
08b3
2aa7
01e0
f527
fe84
090a
2193
deb2
1a27
dcfa
0e42
d0e5
e7a2
0fb4
420a
183b
bd54
e621
f239
36e2
e546
d68a
5287
feb9
1f5d
f5e7
ff4e
17b1
044e
c440
37db
260d
e26b
02a7
0ac5
238c
3ca0
d3aa
45cc
efa9
cdca
f14a
ffb3
e548
f1d9
3075
d513
0419
487f
443b
dc17
c991
ec7c
1a28
35fd
f4d6
089e
1b69
f010
f66b
f729
efbd
25b0
f509
0d8a
0b8b
29e4
d903
f231
ed27
088b
f330
3ecd
3037
f30d
0e47
0686
d45e
fb97
0620
3ee3
02d8
0fcb
0a46
0ead
0fcf
ce68
0b33
2219
fb8e
c63e
1145
03a6
0e3a
fd28
c107
17ff
e8f4
f0f0
e6e6
f04e
085b
cef4
13a0
ffa0
1c0e
ef75
ef17
e150
cd00
1613
db8b
fdb1
b1ab
ea33
174d
1c5c
ef55
3155
2483
e882
fddf
1ca0
2f4e
1bd0
acd3
3b35
0b8a
2891
084a
057e
27c5
10df
f8ac
2aeb
287f
e055
b68f
18a8
01e6
0a2c
194f
f91b
2352
36e4
2b34
f5d9
0278
2a27
0af6
e532
0539
edcc
fc98
2590
e868
0ecb
171e
23c8
0d45
10f8
e154
ebf1
1f8c
fc36
0204
ee74
d172
f5db
ece8
1fe7
2f73
11e8
f8d7
e264
e377
0925
219b
fd15
0391
25ab
2d20
db84
f4d3
05f7
1009
13e1
debf
2c58
ef77
155c
fa7f
f7ea
0bdf
317d
060d
fc88
d63b
e808
0628
2d8b
fbdd
f286
3284
1500
217a
efc6
fb1b
4bdd
52cb
ec45
1271
fcab
5eba
f3f3
f8eb
ed9e
df57
d57a
b49d
2529
02a0
cd71
cea6
0cec
f5e5
14a5
e320
0b33
fc50
bf3e
3324
442b
4606
fc3b
00bc
e93f
af8f
e20c
2430
cc50
f4b5
e81a
fa51
0182
cda5
227f
423d
f23d
f8b7
0569
d351
bc96
044c
e47e
d1c6
1207
1126
fdcb
fd63
bbbe
f6fc
3439
4175
0e54
d99e
03de
01e3
434d
365e
eebd
1eba
20e8
2bc1
ecb9
f363
fa49
1fa5
e591
e6b2
0d3e
006c
f864
d507
1e7a
2997
d44f
c24c
2032
d6d0
f9dc
bbdd
e78e
10a9
dfdd
f963
185d
3ee8
111a
f089
e6cc
fee2
eb57
f38c
3a16
61dc
c867
e616
1c08
5609
fa80
fbe6
f4bd
c87a
e9fe
df9d
fe23
2133
d42e
e42f
fca3
f078
e217
ec46
fa7d
ff3b
f43f
e35e
35f7
3479
fde6
f43d
1163
fd01
d750
0f13
59e4
09f9
e564
0f3e
f767
40af
f09a
17ea
f690
00f1
ac05
d34e
ebcb
01b9
d32c
a247
fa7b
eced
fea0
0804
1650
0dce
e39e
cd7f
36e7
4a31
fdf3
118f
0d03
e7a5
04ef
fb63
d67f
0d3f
f221
2c6e
09f1
19e0
230c
241e
05b3
0941
27c0
0158
1958
d1bd
2a2c
f189
27fd
02e2
fda6
3925
1fde
e031
e76c
fd92
c73e
c5bc
1b8f
d0a0
1283
f6fb
d38a
0676
3a40
384a
eb42
da70
ed93
26d4
25d5
10f1
f0e9
cf3d
db1f
1dcc
f604
ec8c
ec6e
ddde
fcdc
158e
e175
efd8
2143
e941
ff23
e026
2a51
2fdc
f572
0850
21fe
ee01
fc17
6a17
fc24
e3bd
332f
f97b
a090
004b
0435
01a7
b504
3d76
ff57
331f
d81c
20c6
1475
0617
3767
3b42
df7a
170d
e0d5
e995
03ed
f83d
fd26
fb23
46c9
d97c
d91f
ea48
0dbd
e6c7
0199
be3d
d2fe
32d9
ea25
f4e5
3895
0b5c
335f
fed8
03d1
1190
0f2e
15bc
18fd
08d3
39ea
0abe
36a9
e71c
eb94
268d
1903
0a51
c6ab
bfa1
04c6
db32
1d07
0c1b
0bf4
21bf
f6be
c61e
23fa
0cd7
23a9
d80f
4c19
2c25
0194
d86b
d8b3
c272
dbd6
2702
f5bb
2861
04c5
e3ac
3a13
fd82
be55
e591
07bb
2d09
fc18
e554
e164
fed3
2934
114f
2ceb
4586
fc80
0c26
2db1
0a83
becc
e249
f9ea
b671
d682
f749
02f3
1b7e
b480
0f2d
ef97
236b
4e69
3913
cb23
e2c7
0350
dfd4
f3a3
c441
07e3
e183
61f7
ab00
da9c
0fcd
9ba7
000e
52b9
5762
e29c
e5a5
0b39
24eb
d8be
f6c0
f7c1
c894
d398
02ea
ed87
f7e5
d9cd
1133
0560
f61c
1cc3
d2d3
21ca
dc6e
d42d
01b7
56e6
30c4
ff47
196e
ea4b
b78a
e116
f5b7
cc21
017b
1cc1
2318
cf57
ddcc
058d
ec6d
183a
05a4
ffc3
dea7
dec0
1f64
d335
e556
eaed
d052
ee14
e84c
f9ec
cbde
18f6
3143
dcbd
d974
110f
e5ee
fb3e
02b2
251e
032d
ffe7
c341
27ef
f198
04b6
d6d2
1340
f680
c5be
4dd1
1031
1d41
d1e5
cc57
35b7
2ffd
18f7
f8c4
26ea
3315
129a
ea5d
035a
26fb
bedf
c149
e7f2
dcb9
e027
4e6e
0d23
0efb
c68c
13ae
199d
42bd
0fac
fa0d
70f0
06fd
2836
112d
0f21
f4e4
ec88
f00d
e01e
dc92
2d1c
e06e
3b85
cf67
d185
2359
38f4
3846
0313
e346
f6be
f4ae
44a4
133b
eccd
f421
1e6d
d956
d8e5
eb8a
14b2
e9dc
e845
0681
3514
cf3a
d4ab
c8aa
e53e
1fb5
ee58
e74b
352b
28cc
f2dd
10a4
c0ae
feb6
dfaf
37f5
10da
1131
d51d
ba61
f26b
109e
151f
105c
d9eb
d9b9
d2f9
f5e8
e7de
c87e
2598
0bbf
fffe
d732
1a12
eab4
0cfd
e81e
e45e
f6ad
2b34
f272
002f
e6c6
cf8f
dd52
1317
15dd
016f
e29f
2fff
e668
1ed9
f2fd
1496
e6f7
f087
f616
227e
206c
eff9
1c60
290b
39b2
1cc3
f821
ff7c
f50f
e7e6
ede8
fdfc
0984
320d
0c4c
2eb4
ff8f
fbbc
d370
37ec
2090
e3f0
0160
0ab6
d8bd
1210
08e1
d519
dfcc
0c69
213a
f639
3eb0
f67c
01d2
01de
0243
2568
dae2
fba1
ca47
2aae
eb34
f71b
1785
e3c7
be0c
5959
d527
0dbd
e507
32bd
38e4
1d7e
2536
a118
040b
4c49
07e0
24fd
80ac
1436
1433
e458
19dc
5bd4
0bd7
7ebe
2a99
28df
e709
0574
f600
0f64
9015
169a
f145
f176
d7c7
6cf5
12b6
34fd
d4f3
33e4
549a
d141
d538
d79d
31a6
552c
45cc
ef25
f11d
d465
ea7b
cecd
172d
f32a
1543
185a
2cc9
32a0
1c44
d25b
215e
f81b
d9dd
d8ae
cbed
0335
ea93
15b3
f814
f5b3
ddba
084d
f9c3
023e
0058
cbe6
f988
27e0
1104
e648
e3ae
ebcb
fb5d
0d96
30f7
be4a
c3e8
3258
2d92
20eb
d705
fb4b
e287
c696
f7d8
0f05
1ba4
3d47
0268
e791
ee21
ffcf
2928
2c36
2984
20b7
e9cc
e98a
f7e8
f568
1aa7
c8a7
0945
12fe
d55e
23df
3950
e639
1287
42ef
1a3c
1d0a
dd1f
e638
eb8a
eba3
0269
fc15
03fd
f174
1de1
4fdc
f423
f9ee
f42e
337e
0ed6
2207
dcea
e585
d451
0573
3407
ec1f
dcda
20ad
057e
2191
18b5
2f11
0155
04e1
4041
14c3
2734
ebe2
1b7e
0dd1
e6af
de1c
f589
e1e9
f112
40e3
245b
1e91
0219
219a
445d
0775
16b3
b852
0ee2
fbc5
3c57
1593
e540
1f9d
f88d
ddaf
d580
de63
fea8
0af0
f06b
dad0
053f
e2ec
0b60
dc6e
f480
206e
1667
1d77
1f28
eb80
0b26
ec0a
209a
da82
c206
01fb
2c28
1145
f45d
1c9b
e08c
22bc
d6b1
fa73
cc4c
124f
f7a2
f4ed
e499
6498
f55e
070f
36e7
fedd
4104
1701
1166
16f5
0d7d
df9b
05bd
260c
1073
25ad
2809
0d6c
2689
c4bd
e740
e92e
16b4
f8f9
507f
ecf6
0e4e
ff79
ff96
f534
1738
0dcc
dca9
5830
01ca
43c2
189a
dacf
1e5c
eaf8
021b
0683
120d
24d9
09a3
32f1
f222
2865
053e
267f
3f17
137c
c281
cc1e
0fb1
f535
1414
1b6a
4086
db9a
e443
1048
d58b
bc20
d70a
1fe6
f91e
c89c
1df9
167e
2e3a
fa23
e9ef
088e
0243
ea86
195c
e902
f847
fdfa
300e
eb51
c7e1
1907
1387
f9a2
d331
c4b3
2b72
0d3b
2a7b
fa9d
e4e3
145c
163a
f087
d193
34b2
f5bb
ec36
04cb
0fb9
2a14
e183
1ffe
2cf2
296f
1c25
1b5d
f74d
2c7b
f5cc
3f5b
3a16
dabb
eb2f
1312
3685
d118
d279
0a08
10e2
004e
17d0
4a55
d330
0dbe
fe8a
38ba
d869
07b1
011d
f815
d98e
023a
0637
0c61
10e2
ffcc
ff30
f9ed
e529
e62c
07d6
ee9e
ecbc
04aa
4ef4
59ee
0b39
1287
fa94
ffb4
d742
2377
240d
41f0
fc71
ea20
18a1
225d
be3c
ebca
198c
bbdc
dafb
e9b5
14fe
f9fc
c09c
c0c7
f10b
f893
1224
e1e4
fdee
0f3d
d1f6
f738
56e2
718a
021b
ef4e
0e42
ee83
ede7
0317
f0d9
f4a0
f3ca
d975
eab3
21ed
fe0b
fdf6
c691
f978
f8b2
00c2
d296
0457
2829
fd6f
f41c
0874
faff
ead7
fa0d
3dca
1bd7
f1f5
fbd2
e6d1
eff4
da5f
c4f5
f5f6
ff1d
0bc5
f4e1
f3f4
26da
1aee
f208
1e7a
fc77
d728
bc63
f766
d562
240b
9f54
054e
172a
244f
2cb4
2d63
da35
ee3e
f7a8
cfa1
1833
f419
f2e1
2737
0c8a
d2a0
ca40
17fc
31d7
bc9f
d629
0e55
f3e6
1763
2d0d
1932
230c
34ad
2cba
f1a7
0a75
2a2d
1434
adb1
1918
21f5
cf9a
faa6
3dc3
202c
0f6a
d2ae
3b98
07a9
02ae
f88e
f29c
20a7
1250
f4de
370e
e9ba
1816
f072
ea6e
e2d1
1bae
d184
1ac3
310c
572a
ff11
3309
3608
3bd8
c5d1
5003
ff31
d796
eb07
6300
2507
4e6b
16a7
30d1
27b1
d998
0db2
d923
1265
1acb
38a5
0388
5c32
17e6
1ce3
da29
1356
a8db
097f
184d
fd69
bec6
23ce
237b
2218
a8df
3a92
2210
e40b
ff6e
4c60
b079
224e
c8ea
152b
0b19
e5c2
e5e3
131c
5789
ffe3
c5dd
164b
f98e
2611
0e59
3ad5
faf9
e4e5
d797
1705
f083
fd31
cfe2
084e
d6cd
09b4
d30a
212d
ef57
d787
06aa
1b2f
c892
f387
bcb8
e2cb
dab3
bb22
025b
2b3e
ee26
cdf2
f4ca
172a

// dense_2/bias  shape=(32)  count=32  scale=5.9183504044e-06
e946
1cf7
3332
53f1
e968
50f8
0796
3056
5f34
749e
77e2
003e
f52b
ca92
160c
dfd4
f479
e6e2
2d0a
2c54
5d86
e594
2815
f490
410b
7fff
4817
5754
fcbd
f6ba
48bc
1576

// dense_output/kernel  shape=(32x5)  count=160  scale=2.6600612335e-05
f3b3
13f3
fc68
4873
2bbb
b268
34b3
e8b4
30e4
8001
c2d0
1867
186b
a493
ed00
a1b3
3ebe
3d4c
cf3a
bf45
cf5c
ccc2
bf4d
e30a
0ab1
381f
b097
d1fb
06a9
f51c
d7c3
ccf1
1607
d01e
ddef
b25b
24ac
2185
bd4e
cf32
3733
ce8f
f718
1e76
c85b
3bfd
e402
15e9
e151
f07a
08a3
acd9
ed81
c484
e61a
e319
c5d9
e814
4f91
173e
c731
bf79
bd74
28b8
d6ea
ebd8
06cd
e904
3f2b
ffbe
d7c2
c817
1fc4
d1da
c55f
cc9c
3fd5
e664
fdfe
e294
cc13
bf37
f943
5650
bf8c
bdb4
d2e4
da80
2eb3
ce83
1fc0
0ad8
a8cc
fde4
c1d7
a42b
244e
bf2b
2f83
020a
1ef9
f4e1
1918
ed07
b27a
dbfd
c247
e08a
49ea
278a
ca0d
d840
3243
3271
9f30
f4f3
2709
e838
2e99
2f39
42ff
bc20
e88a
1f36
bdf8
0bb4
cd10
e449
c85c
e1c2
d28d
3733
364e
df5e
bfc9
c7f2
3780
38ec
096a
d872
e9c2
4160
b2e9
3e63
dea5
c195
e560
35ba
c2c8
f836
2e79
e4f3
215c
a1dc
edca
1748
bac3
b262
18a7
e155

// dense_output/bias  shape=(5)  count=5  scale=6.7945843406e-06
1ef7
3e8a
0b9a
8001
b344
