// HAR Model  FP16 quantized weights

// dense_1/kernel  shape=(19x64)  count=1216
27a6
2a30
acb5
a9cf
2bdc
3142
b40d
b2b9
348a
2cba
b231
32b7
34a7
321b
b434
a90d
b223
302d
adfd
28a5
b174
a14d
30eb
a526
b033
b23d
2fb5
2469
adb6
3553
2807
21e5
af3e
2ca4
25d3
29b2
2d43
2caa
3268
3031
2df7
2afa
3026
2c39
1f3b
2d97
b221
a760
2f42
a8e4
b017
3245
2bd3
a43b
ac21
b402
a4a1
2fe5
3090
2ebe
2c7f
b2b4
a851
a4b8
1ad6
a665
28ad
2b58
b108
3055
b311
a01c
b2d1
2a6b
af51
2c9c
b2a4
30c4
a734
253c
b334
3205
ad0a
a7b0
2270
32a1
ac65
ad3b
2d2e
2dee
abf0
2a9d
a9e2
a499
afc2
2eb2
2dae
a8cc
b038
b26a
25e3
2e2a
2eb9
9e5b
9b39
30dc
a782
323e
2cd1
2dda
2e51
304f
3086
2b48
ab0b
afeb
30db
340c
2c5c
b16e
b59e
b27b
a67e
20d6
2b30
af05
22bd
b14e
3033
b47d
acc1
a9bd
102b
a9d1
b008
ac14
2c7d
9e22
a333
2f0b
30bc
b59d
a814
2ea8
2dac
a747
32ea
2fd5
285c
2b0e
a6fc
3198
af0e
9776
28a5
2e75
afa6
2cf9
a9dc
2cc0
b042
b097
3079
b229
2d47
1bbf
3088
2f1b
2afe
31ae
324c
33c4
2d17
3085
a95b
31ee
177d
25a4
3003
2e3c
b02a
ad4c
28f1
b125
344d
2f6c
303c
a814
1845
31a7
2a20
3149
aed2
af40
b43e
2cc3
262a
aa7b
360e
3164
acb5
2fab
b251
b131
b21c
b0e3
3319
364c
3490
a8d3
2a43
3006
2640
b40a
3126
b288
371b
b1bb
2ca1
342e
345e
af72
1c0f
a514
a9ff
3392
2e02
342a
35a3
b290
2cd6
9f83
3063
32db
b099
25a2
357f
9ca5
3508
aa5a
378f
b3fe
3098
2c3e
b0df
2c95
3609
ae07
2fa9
26ef
358e
2b95
34ec
3397
2db4
315a
ae61
32d1
b00d
b009
2960
ace8
3176
b253
b221
2700
b021
3337
3124
3209
a842
360f
af42
a804
ae3c
28a5
a38f
b108
2fec
b2bc
3559
b3f3
34d2
32df
2b53
340e
354e
b1ae
ad2b
b130
b0db
3082
36ab
b1ac
31c2
34ae
3089
28e2
b293
3051
33a6
1dd9
3381
acef
2c48
b10b
2c91
a77d
ac89
add3
2190
ab9e
b0aa
b3aa
2d71
b198
3376
9931
30a2
352a
ada7
3209
b272
31a7
16e5
31fc
3046
ad09
2805
341b
30e5
a77b
3451
30b4
32dc
31a7
2432
20a0
30db
3350
a8f8
32a2
b226
ad85
3119
a69f
b2ca
96e7
abc4
92a0
b148
b27a
aeca
aaf2
2ee6
b05e
3474
3570
3184
ab3f
b4be
31af
b0fe
3515
287b
2c98
30cf
2f9b
35ad
32a5
ae38
34fd
b1ed
b01e
306c
b41e
a892
2dd5
32ff
a61d
2ebe
303d
b116
a63d
3201
b850
3885
3599
ad7a
34e8
3439
b5a6
30fc
3638
ac4a
b7e6
b25c
369e
23cb
374b
32eb
b6c0
b912
34c9
b3f6
33b9
327d
3477
3597
9ed8
34dc
b86c
ab60
348b
31c7
3863
b921
2d25
31df
3575
32da
b096
b8e2
3062
b9df
b8b7
377a
b72f
3746
34c8
af19
3419
3622
3842
36f6
3561
b73b
3179
3532
35c2
b7b0
ba34
32b9
b5d1
23fc
a964
a78f
b8bc
b8d9
8cd0
1d03
b853
ba13
b60f
a9ca
3910
b421
3933
b972
305d
331f
b919
b4f1
b310
2cb1
1ff9
ad05
2407
3988
2f52
ba16
b4da
b5d3
3823
b906
3326
b181
b981
ac93
315e
a88d
29e5
b08d
1e95
b06d
38fd
b1c3
b73b
2455
30a6
9e4e
3828
ac31
29af
b503
b171
b7d7
2f51
2cfb
b4e0
3405
301f
293d
b0ee
ac6b
2560
b13f
b019
b5c1
b1ac
3820
33d9
a28c
b065
31ad
b204
27e3
2ff2
3192
28f7
b266
ad7e
1f72
abd8
b632
2e4f
316d
b3b9
2c36
3581
1d00
2bf7
ad98
29e7
a427
b536
215c
a44c
2d99
b2d1
2fa4
2d21
b373
3116
a956
a089
b15a
b3d6
340a
a843
26ff
b2a5
a967
aede
a5b0
3797
aa64
28bb
b525
9b86
2e3f
1c38
a355
a6a7
a635
a84f
b2e6
1b33
a97e
a87a
b2a5
3385
b2b4
ae5a
36ac
ad3b
2761
25d7
1dda
ad9e
2578
b20b
9053
aa62
32b4
3140
b0e3
ab2f
ae69
b3f4
3154
2aab
33b0
1b84
ab22
a67b
aeea
a8a2
aa68
b3f8
b388
316d
b137
3288
31da
ad9f
b0da
ae1a
29a5
aec8
3001
2db9
317d
2684
258f
263d
2d59
2542
2cf9
2da0
b1a6
af7d
2c17
30b9
b34f
27dc
2f97
2c8a
af8c
ac21
a967
b271
2ee4
2ce5
b1d8
afc8
b3b8
3310
31cc
2fae
306a
2fc8
a8c2
304d
13d7
2d78
aa84
3126
1f13
31ef
a8d2
b348
829b
a23f
2009
aee8
ad1c
b55e
3436
b1ff
327c
a1a8
b076
322c
2a50
32b6
aed4
b23d
a8cd
308b
b204
30fa
a799
a6cf
3005
2e72
b030
acbf
b478
2f03
25f8
ab77
3328
b484
2d76
3077
aa51
2d9f
ad41
b15c
2e6a
2000
2dde
2de2
24e7
b425
af6c
2f5e
30bc
2c66
3168
a885
a5fb
b345
a773
b21a
af10
b08b
9549
30a9
2d50
2b0f
3104
aee4
3129
3061
b51f
b25f
b2c7
b137
b25b
2cf0
b223
ad3d
1908
299e
335d
a4c1
b375
ae89
304e
b057
abe0
b400
2d1d
3318
afa1
af71
25e8
2cd4
30f4
2bcd
300c
b3f5
2d93
b12b
add8
b136
afd3
3462
b1d7
b0e3
af7d
3281
b3a6
b511
2a75
2dd7
b050
b294
289d
2c59
b36a
2adf
afaa
b46c
b0db
abc2
2966
2ea8
a8e6
b0dd
328b
a9dd
343e
ac01
3007
b1a0
aa22
aa00
b2ce
b22f
21fd
aaca
33a8
2a4f
2d2d
3278
a041
b395
33c4
b0b7
333f
290c
b3b3
3434
350b
b3ea
3236
30ce
30ea
2dc9
2edd
b168
ab3d
280e
b173
ad7f
2bdd
a78d
a54a
b1f7
35cc
b2d1
a9a0
b1ba
32df
add7
b071
3478
2eee
2e41
33db
9a21
ac33
3286
3001
2c45
3640
b371
9ffc
3420
adb7
2848
b1a2
2cec
b3d6
33a4
318e
a4c1
b239
30d0
2d78
3411
2018
25ae
2d2b
21aa
2988
ade0
a916
308a
b26d
31ef
af4c
32ed
abcd
2939
2cb9
a305
ae98
28ad
33f1
b292
31c4
2abd
2eec
313a
3132
b23e
b3fd
3003
afbd
ac8c
a55f
3255
34ee
b26e
2de4
af6c
2e98
b331
b1d7
af44
aa9c
a608
2f80
32dd
b0b6
2fc9
3333
b106
af55
a22d
b154
330e
b12d
b053
33cc
b2b2
abff
2bb1
35a2
af33
b093
aff3
ad12
3283
b1cc
332e
2e5a
36fd
ae40
b217
a13e
b121
ae52
b3e9
acad
30fe
3165
b02f
3444
ac76
363d
31f6
3061
a865
2f35
afc1
acdc
34f6
35ad
a46c
3507
b228
327b
3514
b470
b1c6
325e
b112
30ce
b4a7
2812
28ec
b45e
3598
9c64
b3b7
2d06
b02e
2ee4
2efd
3503
344c
363d
21bb
32af
3211
1943
aaeb
b09e
31f3
b0e0
af53
9daf
2fd4
20c1
b0ca
b18d
b0e1
32b2
2f12
2fe6
b13f
335a
b1e3
a85e
abc6
b09f
312a
b2bf
2dd7
3334
3014
256e
b3f1
326f
3101
2d78
a230
341a
325c
3007
2cc8
3346
2c65
b206
a9ff
2cc2
ad1b
2ea2
b2b1
acc9
318e
ad61
b131
349e
b30a
abf8
9aa0
b17e
2a5d
2ba6
2f93
2f22
27a8
3443
296f
32ca
1abe
adcb
3011
30e0
2a71
b09d
3426
3258
3328
ad62
1cfa
b012
b43d
3093
2e66
34a6
30d0
b136
32d4
345c
312b
b116
3674
30cd
3038
b0ea
31ee
2cf0
2fc3
a28a
3505
271f
a156
3183
b32b
b150
aada
afc3
33a3
2e4b
ac94
3333
aec3
2df5
322d
b46b
b23a
2b81
b273
3502
b31a
ad42
172d
b230
3512
339e
3041
2f74
b402
323a
aff3
3409
3539
30c5
2fe0
b2ba
b081
32a7
b0e3
283a
b1c0
2e3e
2d4f
adb7
b46c
b003
aff7
30be
1c10
24f9
2fae
3321
30d8
afb9
a3a2
307f
2903
b232
b29c
34b1
b42e
2d06
b1b3
aec6
30c5
a275
a727
35d9
3372
aeee
ab5e
add4
2d38
b0c7
a92b
34d6
b206
3068
1707
327e
af8e
349d
adf0
2cf4
2be0
1e5c
b254
3421
b044
20ac
b1e8
2baa
2ddb
33a0
20e4
33aa
2de4
36d3
ac14
b035
b15f
352a
ab74
a46d
3299
33c1
2c69
af1f
b440
2c33
25da
309b
3411
b136
a656
343a
356b
33d1
31ae
2fa8
352f
24ea
31cf
30b7
a538
3560
24fe
3013
b216
3206
341d
3636
ae8d
2fbd
b195
339b
b26f
349b
b45d
af92
33b7
3048
3141
b45d
ac63
310c
a767
b0f9
2cbc
365f
1563
b1ea
334a
264f
a46c
2e48
b3ef
b35f
318f
3613
ab95
1ce7
3435
2f05
2ce7

// dense_1/bias  shape=(64)  count=64
aa26
aea3
ac9d
3189
3273
2f09
31c5
a692
acb6
ada2
2060
2d6a
2f8b
32e7
30bb
3389
3067
a847
ae98
2dd0
1f4d
a996
aa66
a8e6
335c
ac9f
2881
27c2
3234
303d
307c
ad64
ab77
aa6f
a631
276e
2d97
aa61
3081
a6ea
ad77
2ffb
a214
aa1d
340a
ab34
3012
a657
3292
ac86
a620
332b
29ea
ad48
2b57
a4dc
aa25
b065
33be
ac58
3146
b019
a399
9d24

// dense_2/kernel  shape=(64x32)  count=2048
2d64
a846
ac46
b43a
326e
b319
2e2c
2d5d
aabd
34a1
27ae
2cc2
26e6
3258
2c3e
a56e
b3b7
af45
2f25
ad46
32f1
3174
b1fc
b609
2d11
ac88
35f1
b103
2ffe
307d
b30b
b3f1
3524
b454
32bb
b240
2d9e
27a7
b30c
2d6d
30de
ad24
32bc
b437
b25a
3010
b29d
2baa
3393
b011
ae74
350e
a8a6
b323
b23d
b1f8
b247
331f
32d2
ac03
b185
b1c7
3008
35cc
b1ca
b337
22ec
ad80
b2d8
b525
a958
a123
b0fb
281b
b502
32b2
344b
b31a
13c1
b26f
1cb2
afff
aa62
2e2d
ab07
31d8
2cbc
a7ac
9b52
b40f
2421
300c
a957
2fa5
ab36
b3ab
ae0e
27b6
a3b1
b1cd
b151
325b
3459
3274
b105
30e3
203a
2e42
2d08
3190
2d6b
a402
b4fc
2f10
2ad9
b4b7
345f
32a6
b436
19eb
34e2
2d68
2fc6
b130
b1c1
2d13
a527
b02a
31f8
2cb4
aeb9
a104
b4b7
3632
3064
93f4
35c5
34bc
aeb4
2de6
aec4
333b
364e
30a2
345f
2bde
3803
aaaf
2c29
2ce7
b645
b37b
3104
28b6
333d
b342
2e9d
b4c5
9d93
2cf8
a9ca
2b2d
a632
2efd
b156
a70e
2089
298b
b4a4
3278
a0fe
3392
ae88
2c08
308e
2ec6
ae0a
afa7
a3f1
a8b6
a91b
b33a
aea4
b1da
b486
b4a5
accd
accb
2d15
285d
2ec6
b2a9
2948
2f4d
2642
aa4b
aa32
ab18
2dd2
b3f0
2deb
aa49
9590
3092
b42a
30b9
9ea2
2ed9
acce
ae5c
b310
3014
31dc
2428
ad28
b04c
b2a7
28c9
b5cf
3063
ad56
a918
310b
306c
3130
27f1
3637
00fe
ae73
adc1
b3b3
b1ca
33f0
b4df
adee
aa57
2fb7
2ec0
b5b7
ae95
35b7
b177
b2d9
34c5
a3d0
30cd
3012
9e65
a97d
2bcd
b85b
343b
9d41
12a0
2cd5
25f0
b184
b4c7
209f
a96a
22e9
ac0d
b12e
2c55
278b
b1aa
2bc6
addf
324c
b45e
2cb0
b11f
308a
b36e
314e
b0bc
b2e8
32ce
29ab
aeb5
a423
a973
24bc
a98a
b51a
31b2
9c20
a331
ae1c
b47a
3239
3047
3231
a657
b37a
2e7d
b498
2c48
a8e6
b33d
ad9b
b424
b55d
2d7a
b28e
2f74
b45d
278d
b28c
ae22
3602
35d3
b2ac
b25a
b52b
2f4e
aeb6
3170
a8f4
b127
3370
ac27
ae06
3181
28d1
2341
3284
2fb5
2d8e
2eef
1f6e
2fe0
ae5a
3018
346a
b0f2
2b4f
3137
3578
b22b
b081
ada0
ac6f
b6ac
341d
33bd
3472
3273
2e89
2f0e
b4dc
31af
320f
305a
31c9
a379
2300
3427
33cc
b25f
332c
ac13
2db5
a935
b4ff
30fa
ad97
3592
37bb
3389
af1e
ad71
b056
b2c4
b6b5
2c59
28ca
3470
b458
af12
2887
2c8a
310b
3412
3064
30cb
35f3
b46f
30af
2e89
b264
b20f
2f98
aaa1
2f43
31c7
b5f1
a710
b484
3101
31d4
352b
ae3f
b039
2f71
b337
aebe
a9ea
a80f
2f64
b7bc
b3c5
b35e
b343
a597
350d
2bc2
34e7
b58a
b09b
aa25
3340
9aac
30ac
ad65
3366
b10b
2ba8
ac3f
3555
3554
3595
2324
34de
2ca0
b249
3525
2e8c
b527
b5d1
2acf
3250
31b1
af25
2c78
ae7b
b08c
ac71
2e0d
2ad4
2ca8
2239
a925
2df8
2bfe
b4cb
a3a2
2ca7
ac55
ae2a
b094
2d90
a3c7
277b
b1e0
ae26
a476
a9cd
3461
b3c2
32e2
2e1d
a529
2cd4
b530
b45f
b178
b1bd
2841
313d
b38d
375e
a9eb
a8b3
a2cf
3403
356d
b039
abc6
3393
b257
3557
b2e0
333a
3358
2e25
b43a
366a
a50b
2dc0
33a0
b0a0
b361
294d
b0e5
2e03
2617
b111
b0aa
2849
2ede
2c2a
2ae3
2a8d
32ca
2c7a
b2be
aa00
2f7e
b3fe
ad84
1a3c
2c5e
3079
b03c
28f5
2c37
2cc0
3125
323f
b536
b0e6
add2
aba3
1e97
b012
9470
24bf
acbc
33f6
2ac0
af1f
b2bc
2f8d
2d5a
2cdf
357a
32f2
b49e
264b
2d49
9ec2
2dfa
b0ba
32b6
b52c
a7a9
2f7a
b528
2c23
3190
af16
b537
366e
2c96
a5fe
3135
a9ba
ac8a
913f
b599
2ae4
a907
24fe
363b
a77c
332c
ad4d
2d9e
b3dc
b345
346e
a67d
2bcf
30d8
b1ff
2e9a
b315
2e9c
b1f9
ae54
32d6
3531
20e8
b248
2c4e
b054
b0eb
b053
b4eb
b08c
324f
1f73
2f76
b3e3
b04b
307a
31cf
a0f3
3495
2c6d
b15c
ad6d
25a6
9b8c
2a68
226c
3353
b2e4
30f3
b0b7
2ce6
307c
2ff9
9c35
34df
a199
acac
2b60
acea
ad07
30b0
32b9
2c77
2a7b
b14d
a6ad
aea9
3082
b181
ad8e
b568
35cf
29d6
2cfd
aeb7
b428
2f32
33eb
b5e0
ad1d
b16e
2596
a80a
b6c3
3188
a191
30ba
b889
36ee
b376
2a27
33aa
35b1
2e96
a122
b47e
abab
2e4b
a89c
3702
303c
b11a
b0e5
a4c7
b18b
2c45
b143
ad6b
32d6
b42e
2e63
3007
291c
34ec
2fce
2bd8
b223
2db4
b235
9dd1
afaf
b2d8
3369
33a6
2d0c
a807
b4a6
aede
b032
29e7
3283
316c
319c
b284
2fee
b50a
30f6
3166
b04c
3129
34e9
abe4
36ce
2e00
30c7
2d1d
3311
3609
32e7
a81c
2808
3584
b569
ab96
a6dd
b4a0
b454
3189
31d5
3631
3156
a97b
3436
b58d
2918
b24a
b0d9
9d34
ad2a
3421
b178
2e5c
a660
ae2b
ad34
a16f
b0f7
b020
2b0f
a085
ad9b
adaa
ac70
a8d1
b332
2cdf
2e2e
b2ec
29f5
3510
b250
312d
b188
b091
3343
a272
b479
ad46
2c3f
b565
25e7
b04c
3543
2d60
b526
b307
2d23
b1ac
2d4a
2608
3673
30bf
2cd5
aed4
3585
b443
adac
357f
b1bf
b431
b14b
aeff
2494
b192
af47
b1a9
298a
33eb
b3df
2dad
b27e
3170
32f2
2e12
a9bb
2a7e
3004
b17c
b43a
3158
b19b
3297
a1c2
b485
a991
a5ad
b056
b328
3417
b427
a55d
3181
330e
b558
2ee1
a73d
31eb
b38d
b017
30af
b06f
b18e
342f
ad30
28d8
3361
32f8
3268
2cef
2eff
2db5
2cb9
3393
30e9
31f8
33f9
b01d
b2a0
b0c1
355c
b364
32d9
3002
b5a1
b380
34ff
2f6d
3578
a8bc
acd1
3371
af51
2c2a
358a
b1ca
3173
9c98
b466
3686
2bb0
aadd
3584
2efe
370e
acdd
b55e
33a3
2fa5
3685
343a
3492
32b1
ae0d
ad70
b478
b3a2
b262
2aee
3234
115d
309d
32fb
b269
31e8
3130
2680
34cf
a132
b303
b357
2c50
2fe5
2432
b290
25c3
2dcd
33f4
b3fb
ac32
a061
b1dd
2d4a
3410
b4bb
337a
a5d2
afa2
b2fb
acb0
ac95
33ec
ad18
ac1a
312b
b204
b06e
3076
2c2a
315d
b0de
adbc
2d86
2ce1
28cd
3435
b13c
2f65
2482
3519
28ea
24fb
2d42
9f37
2a09
32c3
3255
b61d
2cf8
2d42
b281
b45e
31ff
2acc
340f
a887
ae33
b077
b422
3102
b1ec
24c5
3140
31df
b321
1929
3460
add1
3155
3132
b27f
2c8a
b38a
338f
140a
3316
2ea3
2b19
238f
b09b
335d
2d5d
b267
b12d
3276
ad2a
b0f5
a2e3
a7c9
a836
2eca
263f
b477
9c1d
2a5d
2d1a
ae88
b0d8
ab0e
2607
b28d
a9fe
b4ad
297a
341c
a723
ac9c
b0d6
2c77
b1c1
a986
2f02
2f78
30c0
32dd
2f8f
3187
b4a1
2796
adbd
301c
aa43
b289
b501
2c20
b04b
ac08
b149
abb6
3540
3373
b333
2f74
b225
3528
b144
b0e1
a845
2424
2ef6
3538
b03f
2eba
3054
b03a
9efa
aefa
b271
273c
3331
a817
2a0f
b00f
b2fa
a654
36dd
b21a
b158
317f
b419
ac89
301d
1abf
321b
adb2
ae43
2f79
3038
3344
aeab
27b9
281d
b27a
a435
2c5e
3375
ac8b
2e24
ae34
9e6e
33b3
abf4
2eb8
31fc
31e3
3055
acb3
aef4
b08c
ab17
2ad5
302e
3356
b2a8
2fa0
ab78
b111
3254
3392
31e9
2d89
b15e
2cc9
ad7c
b189
3150
b0ce
2ec3
2e61
9f76
b268
3104
2537
b18a
2ace
32c9
b2a4
2e9b
3061
32e6
ad9a
aea0
322b
b04d
31be
ae78
30b5
b19e
21db
312c
ae23
adcd
2c75
2dad
b2c8
0faf
ae50
24ab
b2ba
aaea
a55c
b0c3
2c4a
b2e3
b1f2
9d3b
b158
1c4a
af6a
30b3
341d
b274
ac0e
b02c
2921
08c3
b2ae
32be
a65c
b3a7
29aa
a4d0
a6f6
a638
2c73
2b91
a9f8
b420
b453
3002
af84
b311
26cb
b1cf
af89
a5db
1ef4
306f
b58c
b354
ae32
3131
3178
b02c
31e1
2e92
2295
302a
278c
a821
b627
ac55
1fce
abde
ae16
b434
a98a
aebe
b408
3365
304e
b0b7
af8b
34d4
b19f
2d7d
33bd
2f71
b409
abba
b4e6
3429
b35a
26e4
3418
a65b
3586
32a3
2d92
2e22
2db6
3410
32ec
30c1
325b
2356
3555
3163
b4a7
32ff
20a8
3244
3416
337a
335e
2e2e
285b
b5ba
b4bd
b205
306a
362d
30b3
b01f
b2dc
b4a7
244f
3465
af8f
a641
aeff
2e8c
ac39
1eb8
3156
a371
2fb1
2c5d
b2ef
a731
3465
2c26
2db2
b0e3
b15d
2a76
301f
b572
af97
32aa
b436
b001
2f01
b006
28d0
b1e3
254f
aa52
b149
a85a
3543
1e35
32f9
b325
b141
35c3
b330
b133
3696
af4e
369c
aa2d
b22c
2d15
ac81
2796
323f
acdd
34c7
34d0
b1f5
9e5c
b17c
b019
b1bd
2e2b
2d26
2c36
2f1d
b329
9dbe
355d
307d
3064
32a9
b502
31ed
3404
2c6a
b1a7
36e3
afb6
35d0
b01b
b138
31fa
af22
3023
33fc
321a
b2cb
b07f
3464
af2e
b6be
b55e
a01a
3381
2d20
b41a
adde
b516
3093
2e48
b17a
af95
a78b
b308
af67
b059
2502
28c1
b0ce
acac
b531
30bf
357c
b4bf
3105
b5a0
b389
a70b
2a24
2a0b
b2fc
325a
2c88
31a7
a3a3
b09b
a427
2fc0
2f62
3086
acc1
b501
2851
b3ae
359a
2701
ab32
30a8
a990
2af5
a6dc
b5db
28fc
b513
2939
31b5
ac01
a5ff
a811
30fb
b4a5
3717
ad9e
a225
3265
30eb
b696
2c6f
b51e
34f6
b3b4
2db0
3708
2e93
2cae
348b
afb8
b3ab
2e9f
282c
2c82
acac
aa5b
b106
b30f
323b
af0e
335b
338c
2e34
2e57
25eb
b4ee
b0cc
36d8
2f2c
3298
3470
9955
31b9
ac66
2ce9
b31b
b4b5
19cb
a95b
b076
b29e
1478
2dd9
ad26
b419
a576
acfc
aea0
2efb
b46a
a5b0
2c19
b52a
af66
b3b7
b26c
b18a
312e
2ef5
b13c
a45e
a843
2537
2880
ad04
2e86
a812
b242
33ff
2e43
acfe
2d9c
3540
2c8b
ab7f
b0a4
32ee
b0fe
28ad
32c2
2a10
3192
2da2
adba
aa9c
3449
312d
312a
33b4
b33c
2d0d
3258
b392
1f57
2c17
abb0
b0d6
b4db
3184
b343
2ce2
3268
b08a
2d98
b0ec
217d
b003
ab9e
b32a
3118
32fb
b487
30fc
a70b
ac80
3003
b416
a752
aeea
b117
ac23
ac88
b185
b326
3271
ace7
ae1d
2cfb
b302
adc3
31a0
b483
3122
2bc5
b027
b0a3
30c9
a962
b034
33d5
319b
32f9
b2f1
b085
34a0
b451
3553
273e
3464
30b6
ac7d
b014
3048
b1fc
1543
3104
2cc1
b00f
2d4e
2542
34c2
b05d
989a
ae8f
ad31
2f47
2e40
b2b5
2ff3
1d5e
9934
b49e
b319
9d28
2e32
2221
ac92
b4d8
23df
2855
b0d8
a8b6
ada2
b2c3
b041
acd4
8de2
b1f5
345f
2923
31ec
2cc1
b300
292f
296f
acea
2a95
add6
b333
b3cd
29dc
217b
31d7
2d9d
2eaa
300a
3080
b17a
319c
b396
b022
3567
aceb
2a12
b530
b48e
2a0f
2c5c
3007
b35a
2a18
a83f
3123
2caa
aaaf
2665
1ade
a4d2
3296
31e9
ade1
b5a9
35c2
b2c9
2ec0
b300
309c
2e0a
b2fd
b36f
32e5
2ff7
3555
b2b3
2d87
303c
352f
af13
2af1
ae69
adc4
3083
b4ec
ab2a
3084
ac3c
9ed7
b5c6
a807
b1f5
b402
aaaa
2667
21ac
b150
3601
ae1d
2cd5
33b3
b144
b1ed
31ad
afc2
3322
b1c3
2a81
b40a
af3d
aac5
acc3
347a
acfb
37a4
30a3
1c5f
2daa
2780
b530
33cd
b781
31e0
b371
aee6
2e68
9410
a63a
b2da
2952
25f2
b32d
9547
2e81
3364
2ba3
2da4
b281
abd4
262d
b458
af9a
b2bf
b07e
2ba9
3028
2db4
afd2
30e8
ace7
3140
265c
a980
184c
2e21
b0ac
31d5
2eaa
ae68
b31f
338f
b4ef
2ed0
b2af
34a2
33b9
2e58
aa48
206a
aefe
319b
2607
aa81
2de6
2001
afe0
34e0
b6ea
b338
31de
b206
2c79
b3af
2b83
afff
3007
1fda
ae18
20d1
b2e3
b44f
2f17
3014
2942
b09f
b01f
b0c9
b0f0
307b
a96b
2977
2d8b
2ebe
359b
a4c6
a359
b26c
ab6f
b409
2962
b077
ac9a
3097
323e
a04b
31f8
31b3
a312
a880
30ae
33e5
23f1
ad66
3725
9eb2
2ac8
aad5
2cd0
a888
afaf
312f
368b
af42
37a9
2e16
b4f3
305f
b2bb
3642
343d
aee3
b052
2881
12b4
ad75
b381
9f12
2f0d
309b
3434
b2fd
300c
b117
2e60
3290
33f4
aef5
22ce
2f76
ad0f
3451
b21f
2d49
3381
b2b7
2b47
2c06
b0f9
a61e
b17a
343b
2d21
a976
b194
3407
afba
2402
b6d4
250b
b435
33cf
b06b
305d
b373
8b9d
a6d2
30a4
aeb1
343d
b259
30cb
30e7
345e
2d6e
2e3a
abae
a809
2af1
3058
b24a
3006
327a
b039
b440
2139
b4bf
3005
3333
1c4d
3015
a5e7
275e
306a
b535
b44e
b077
af5f
abd4
b443
371e
32de
2c65
a915
b33f
34a2
b12d
b010
3016
b1e8
377b
3081
b5b4
ae3b
2e1b
a975
2913
340d
30de
343c
b2c7
b4c6
b5b0
b815
2010
3749
ac81
9055
b292
b5e1
2efb
3061
b391
3065
2e2b
2ae7
ac05
ad31
3514
b482
b1d5
a8bd
261c
2ff2
a877
2e39
3539
343d
2d8c
31db
b5ff
b199
345e
a2c5
b18e
b2a8
3191
3258
ae22
b4df
33ea
b518
b14d
27cd
b073
33e5
301b
ad0a
2558
b0ef
3172
acb3
94ff
b3a8
33d7
307a
2a94
a0e6
b20b
b009
9e91
31c4
298c
31e2
b1d2
a7e2
b44d
2ae3
2baa
3142
aff6
afd0
3009
9e8d
2966
24cb
a818
aeec
335d
a9c2
287e
abfe
2060
b03d
a820
b5d3
30f9
b38f
abea
1e36
b70b
2da6
b05f
9a3c
b491
349e
af02
aa81
377b
a848
b31c
ac08
b64f
34d4
b40b
30f2
3717
3042
34f5
b373
2c6d
b4a1
b424
33f7
a9bd
2f86
3525
a08c
3542
3003
b396
33b9
2e28
2ec6
3786
32c1
b3c8
359f
3040
b562
aeb5
b065
a3f0
3486
2d83
32f9
aef7
a416
2cae
2dca

// dense_2/bias  shape=(32)  count=32
abd6
2c40
a80b
b029
aa4f
287a
2f66
2a22
a864
30d4
aab1
3008
30c0
2e03
2c3d
2af8
a15a
a480
a089
a51f
30a4
30b2
2ccf
264a
2c46
292b
27d8
2c77
a601
2d07
2bde
a8be

// dense_3/kernel  shape=(32x16)  count=512
36a6
b4ca
b6e2
b824
2314
aff3
2ea7
b71c
a7d2
34f7
3007
38b4
a208
3584
3439
b685
286b
34e2
a7ea
313c
b2bc
b6a3
ad9f
3705
ad40
b56f
3386
ab41
2b36
b130
b2ab
31a9
2ca0
b2a7
32c6
b400
39b0
ab18
afce
b5be
b87b
2a34
3047
a56d
b7d8
2d3a
28d9
b534
b5bf
b487
2836
b4e5
3624
b44d
af71
2dd7
31f7
b125
af00
b04a
a240
b227
b0b9
ab18
b578
b19b
b0bf
2faa
358d
3507
2339
a9c4
ab68
b07f
20b0
3212
b0ea
ae9e
3478
2e7d
3451
ad57
b764
34d9
b0ec
b746
b7b4
a893
b39d
2fb1
37b2
2eeb
26c9
9b79
3527
341b
3396
2d84
b566
b397
b626
b4fe
b4b5
3670
2d61
b5ce
3094
b59a
2b06
23d2
b5ac
31b4
b338
b2a5
33a5
b66d
a851
37a5
355f
b54f
307f
3050
287c
b522
a61e
ab07
af61
b2c9
3280
acb0
b710
b4f3
3610
b151
b3ab
b6e1
34d6
3336
333c
3823
b430
370d
31ad
b399
b13c
338c
abe2
3026
b05a
326c
35d5
a507
304b
b559
3001
b379
351b
b65b
b60e
3449
3628
312f
b5af
b6ab
2f39
a4ce
afc0
b2f6
358e
328c
3111
3769
b260
35cc
348b
af64
ad8e
3464
b0db
3459
b650
b281
32c0
2da6
2b17
a54f
3230
b347
3265
b48d
b399
3655
b2f8
b52f
3645
b2d3
0fd7
3749
34f9
282a
a6ea
b4f2
b615
b444
28de
1a59
b71e
b40b
370e
34bd
a5a0
3632
1c42
1bbc
b183
2d97
b217
2ff8
378e
2337
331a
b2bd
2be1
37b4
348f
307e
b52c
3421
b672
311d
2f43
3356
3406
b393
2897
b41f
3552
b55e
b57d
26c1
341a
3227
b742
28e0
aea9
b281
b795
2e0f
b3d7
2d36
367c
3554
282c
2896
3736
2ecd
acc9
b722
b830
ae1b
2de3
b3ad
b328
3034
b44f
3834
a84d
34e4
afb2
390e
30a7
ad2a
323f
32e7
b5a8
3466
b2bf
aed6
b665
3554
af20
328c
3156
afee
32e0
a54f
32f9
22e2
336b
b766
b5cb
b4d1
b610
35c3
37f2
28ca
35d6
b085
b0af
33ba
1fd3
ae87
ae2d
b518
9d95
b431
3170
2dac
3898
a45e
31dd
b10a
ade0
2a1f
af33
32ce
b4e2
359e
32e3
b4bf
2cb3
354b
b359
34e5
b5c7
b271
b5b4
3719
b137
b236
10f8
b2bc
35d9
24e5
b502
337d
2bc0
afa5
32e8
ac6b
32ea
387d
36ca
2d1d
2d2c
b6a8
b5c8
b31c
a8e9
a88b
b15e
b520
abb2
b418
3810
b1e6
38d7
2f9f
aa50
b476
b465
ab4c
ac24
b175
b107
3453
af4d
b6f2
b06e
b67b
3835
b4fc
30bf
ada7
3452
ada7
b4b0
adec
b2d6
b143
b5c4
21aa
2d2e
a884
adc4
acdb
2661
2c58
b0d0
35a5
3589
3057
2e81
af75
21a7
b305
2e35
b74a
b423
2014
2eac
29a5
aa50
23ca
3173
b325
a0dd
3513
b209
2fc6
3396
1ee2
32cd
3374
3871
319c
9e92
2c4f
a8d3
b2b6
b323
37ee
3830
35e4
35ba
31d3
b313
b184
343a
ad7e
b522
b4f3
a874
b480
3425
b578
35db
32c5
3063
2fb3
22a0
29d7
1084
33a3
14b7
3347
293e
b513
34e1
344c
3437
3160
addd
aaea
b0c6
b133
34cf
a16f
3249
3045
34bc
b101
34b7
b3c6
b3f7
b613
371a
b543
ab9f
3883
3561
af98
a48e
a6f0
b4ca
b5e5
2782
aa2c
b548
b5d1
2877
3181
30dc
3118
3937
29c1
b2f4
1dff
b3c7
2050
32f2
2c0d
b605
3664
b06a
aa54
3756
b3eb
a814
2ef6
3499
b410
b6e1
3009
a95e
35ec
333a
3443
b403
37f6
2a69
a238

// dense_3/bias  shape=(16)  count=16
afa1
2259
34cb
ac58
3352
34e6
3692
3155
2c08
b1ad
afa7
ad8b
3091
2c0d
afa0
2c98

// dense_output/kernel  shape=(16x5)  count=80
370b
b879
b0d3
375f
31ea
36eb
b707
b70a
b59a
1aec
ba0a
36e3
3574
233c
b991
38a0
3355
b749
2be8
ab76
b79a
315a
b229
3036
b9de
b901
36b1
3702
b8f2
b7b0
b951
3288
3418
bb8d
b970
37ed
b819
3370
a893
b8f5
b93a
b0aa
3916
b401
bb68
a896
b2b7
212d
3930
b736
36bf
b424
b477
35ac
b63b
b861
b0c8
b7a6
3513
b35a
3938
b4d1
38a6
b534
bcf7
b4c5
3669
b9b2
3834
b9a4
ae78
b72e
b847
3534
b23a
36a0
a1e3
b400
b1e5
b915

// dense_output/bias  shape=(5)  count=5
b0f0
3674
347e
b8c6
b4a7
