// HAR Model  FP16 quantized weights

// dense_1/kernel  shape=(19x64)  count=1216
2f5f
a2ae
b404
b455
328d
a7ed
34bb
ac41
a059
a50b
abaa
b1e2
af71
290e
2d45
30b7
a577
248c
ad23
aecf
2181
b1d7
2d21
2f55
3257
3151
3185
9e99
ae0e
ac06
3005
af16
3390
b141
1c98
b357
af31
b0ad
ade1
31f2
2f41
2c1a
31b4
24a4
3141
2edb
abcc
9d68
ae91
abff
308f
a9aa
b014
3274
a0c5
acf0
b1c4
2c4b
b4b6
2c6f
35a0
2d40
2cdd
adea
2f35
32e7
b34c
3217
af0c
26d0
abda
31a2
96ad
326f
30b0
183f
b23c
a302
2e49
2d16
a523
b236
335c
362b
ad9b
b0f0
b161
31ac
313a
b0c0
2887
9783
26dc
329c
a505
2e25
2687
2c5e
32f2
b006
2fdb
2c10
a8ab
a873
b40d
b012
b16d
3088
adf0
ae38
1c8a
31b3
b233
2c6e
331b
a684
b5c3
316c
b3cd
b04e
adf8
adf7
2f46
3180
1f9f
a5b9
aa3d
2fe0
304f
b44f
2d6e
11bb
ae93
aed5
341c
b1ca
b0b8
b05a
ad3f
b384
3183
a2fd
9f02
29ce
a796
b10e
b25b
2eaf
3005
afdc
2ed4
aa58
afbb
2b45
ac0e
ad20
a519
a1b8
97ae
a4c7
33e2
2fd2
2f74
31a1
b2f8
a655
2c26
ae7e
35e3
287d
aa64
af71
2eca
a256
9f5a
2c93
3365
2a5b
b49e
aee2
3480
b2d8
aed7
b499
b29f
28e8
a92f
9379
a107
2440
2783
a168
af3b
10e0
145c
b38b
33a3
3178
b496
b3d1
3508
35bd
343f
35bd
ae61
2e33
346d
b423
2f9f
add7
b242
a97c
32e5
352e
3088
346f
317e
af87
b2db
b5a1
3655
319d
29ae
a804
acd5
32db
a810
3565
31c3
b4a1
b0ea
2ee1
32af
a8d8
3424
2826
341f
3383
2cf8
34c0
325a
345c
ac56
b355
b006
347d
abc4
ad4a
b415
aebb
2a41
2f36
347a
b33f
a48a
b3aa
a768
2d17
353d
b04c
2d14
b26d
2f04
2b33
2f5f
341d
3422
3536
3124
b06e
b0ef
b0dc
33de
b083
b218
b432
2788
3211
2aca
30e3
34d0
b097
b32f
ad22
3448
a740
b44e
b149
a878
af74
b1cc
2c77
b1eb
2159
b48c
340f
3092
36ab
2c05
3114
3072
3202
33d6
ad3b
2c9f
350b
3036
9d49
3191
af70
2925
b474
2c7c
b524
acc6
ac6b
ac1f
3451
a90b
b28a
1c6e
b264
29e1
b245
31f1
b240
2857
ad26
a7eb
2bde
2e4a
a84f
b2ff
32e0
33c6
aec0
aa4e
3472
a9e5
28b8
b2b0
b061
b426
b197
3332
aa62
3281
a7dd
2dfd
b401
afdf
b442
af05
a63d
297e
34f8
2a10
b504
b103
ac04
27a1
ae62
3169
33ac
32e6
2dd4
b34f
302e
2d5b
34af
b109
3333
af3c
aa41
b14b
3181
2280
2302
ace3
b190
b003
b073
b19b
23ab
2f04
b65c
2e36
b160
314a
36bb
34fd
ab89
953b
b821
3589
2d4b
b8d8
a48a
b83a
3883
3298
3272
b741
b066
13dc
b8aa
34cc
3594
b806
2cbc
3110
38fb
3723
37d5
3860
37d2
b3b0
3203
b7a0
ac85
3250
b491
35ed
33c3
b5c8
323a
3387
3397
341a
35a5
2e67
2d0e
34f3
35e1
33af
95b0
b4cb
24e2
b335
b553
3877
371c
a8db
2d88
a536
b22c
b5a3
3482
382a
b0c3
2f20
3854
20af
b062
a6ef
35f8
b565
ad3b
ad64
b793
b5b6
2883
aacd
ac02
b905
b108
379a
3051
3945
2f1d
2b53
2e25
33c1
ad2f
b85b
ac14
b19f
34d9
284d
ace6
30ae
ac5d
354d
b801
2e5e
3952
abba
25c1
2cb4
b407
b330
aa62
27d2
b932
ba73
b6d6
2051
1b56
b930
9546
3558
2e1b
266b
35cf
2857
2565
35ba
381c
ba66
ba89
37d2
378e
3794
ac40
b314
386b
2ccd
2e90
21e1
b6f5
b214
34e7
b11c
244c
ac0f
3546
2b66
2b07
2841
b427
2d7b
9eb0
ab78
33ce
af65
2f0b
2c65
31ed
9e30
2988
b15d
3183
a0d2
a16d
31ae
98ec
2d0e
ad42
ac64
38f9
29d1
336a
310f
b07e
2ec4
b0e7
2667
2996
2aad
b0d3
b30a
b16a
2784
285b
b32b
b090
3307
b60d
2e5f
2cfe
b44a
a974
2903
1e81
a82c
ad6d
3107
2cca
303b
3447
afb6
b090
b10f
2534
9d1a
b17b
2dcb
b47d
2bd3
ad2b
b1af
2e01
b039
a4f7
a73b
ae2c
2a9d
206a
2310
b178
b303
304f
3296
300e
b305
2427
2cfc
afe9
aede
b39d
b2d2
ad11
ab00
309f
b2d0
b1a5
a860
2859
285e
2c1f
3249
b370
b086
adfb
b41c
a62b
ab1d
2c27
342e
3056
3313
2ce0
a831
a911
b506
310f
2c57
1959
2d9f
b068
24f0
ad8e
a411
b472
2b00
aad4
3056
2701
ad4d
af7d
26cd
2f23
ae08
330e
a065
a996
abf1
b0ba
a7f0
b295
b0c0
1ffc
b029
b072
a9f1
343e
aa4c
2a3d
23d0
2b8b
309b
312a
315a
af60
b5e0
a84c
b072
a1df
ab53
288c
2f2c
0e14
ae29
b396
315e
b0b1
aec2
2777
b472
2d14
ae65
2ad2
b58f
a81d
2d3d
33fc
aa62
3269
3238
b230
2e1a
284b
2f9f
2470
b039
ae63
b122
b035
3028
2851
b199
2ede
2968
2c5a
b434
b186
2e01
af16
2cec
25e8
295e
b498
ae26
afb4
3058
ab29
3253
aed2
1db6
2b0f
28d8
2bd1
aee6
2b83
9839
3010
b467
2827
2d4c
b0b8
ad5e
2da4
9e1d
2ec3
a197
b406
2cf6
2caa
b41a
3358
32b5
2d82
2869
b412
b3c2
32e2
aaa8
ae2f
3161
b2ea
31b0
225e
314b
2ddc
b18f
ac6d
9ac1
3042
b391
ac9a
b120
a10d
2037
abae
ad41
af90
3280
21d1
36bc
36cd
b0dc
24c9
326a
2ec9
322f
2fd5
aa99
2bf6
b018
35bf
b28e
acaf
323a
2772
2987
b3fb
33ed
adde
304a
b0a9
1cd5
b0db
2964
b116
311b
b4e3
b35b
2e70
adc0
358d
32b2
33bb
ac49
a7a7
b15d
2c54
2eda
34dc
3253
19bb
a7c9
aa8b
b1a7
ae57
ac26
ace1
ade8
32aa
b21f
3504
2f15
b100
9543
b066
317a
0237
9c3d
b435
ace9
3121
2d3f
3551
2fc4
2268
3362
a822
a2f5
a41d
2deb
aeb4
2c10
2cf7
ae1b
26f7
308c
a8ae
b064
2aae
b020
ac9c
2ee9
2ccc
a39f
29d2
3403
b263
30fe
28f1
ab34
b396
2c3d
2b1d
2ca7
3457
34a0
a8bd
31b1
b2dc
28a1
1f90
338a
2bb3
348b
adfa
2aa4
3573
304d
3140
1be6
315b
314f
a785
b1c6
b322
b199
340c
2f34
ac68
adac
3191
afff
3163
b27a
33e8
3650
308d
36f8
2f76
b243
b14d
264a
aeca
af71
2de6
abbb
3019
2b0b
ab0b
ad1a
abeb
3059
aada
ac04
b2fb
35b4
b1b6
b1e5
b427
3429
317b
a855
3533
34a6
32a8
2e2c
336f
2d29
3055
3161
3553
3227
2275
2d0a
2d4b
2c6a
b18c
ac02
2e9b
2d46
2dd6
ab8b
3330
adbb
ac6c
b23d
b0e8
ac00
a7ad
2dcf
b100
a584
2569
33ef
31a3
a56d
2b26
3107
b2a2
aa27
af0f
b047
338c
305e
adec
b0bc
3120
a9af
3191
b40d
a1c9
3043
3292
b462
aac0
336a
b0b2
2995
b4cb
2205
b044
30cb
2a63
a7b3
b1ff
b3f2
9c7d
2cbb
2e94
302b
2df0
306c
33b1
b147
3442
adc9
a913
afc6
b266
32b5
213e
316a
3469
2fca
abc3
28e4
af7c
a808
b1ef
324f
b2bc
33d1
2850
af1c
318c
328c
30e7
34b7
b2af
341c
27f2
b4a5
2c2a
34ce
2fd4
9daa
32de
af9b
ada4
aa2c
b083
aa50
3113
3358
29fe
b273
3193
20eb
ac21
190a
3062
aea9
ad8d
a1cc
aa38
b1e6
b00b
2903
b160
a59a
31f5
3449
3081
2fc5
b0cb
a883
9d83
2dcc
302c
3610
aba6
2f5b
3018
b093
a11d
b21e
2e06
32df
3596
30e2
b196
b2a3
b36b
2db3
2b3a
a071
b13b
245b
331f
b07c
b36a
35a4
2edc
b1ab
b3eb
3351
b3ff
3184
2cd6
32bb
1b5a
b1ba
b142
2e2b
b521
b0e3
2ff3
3371
b2d3
a905
b125
b3d7
abd8
2fc1
1cad
30a1
2941
2c7f
2fbf
b4c3
b013
34b0
30ef
a7bd
2be5
aaad
3182
b0b3
3443
b1ae
3483
aef8
acb1
33c0
30f9
2d29
1d4c
2f24
3453
326e
31b4
3395
3491
30e2
ae04
b12f
2cfd
27b7
a0d7
3454
2c82
29c5
31a5
a8ac
2497
a5f7
2ce9
2d2e
b437
b039
2e12
2fdd
b017
3608
2280
2f8a
a7bf
aeb6
b2d3
3249
220a
2770
2c0f
b002
31f4
317c
b102
2b6e
adfe
3573
2ca4
a882
2f9c
b337
a17d
3128
acc8
2e2e
2a1d
3280
258a
24be
3372
347e
300e
931f
299e
2d28
31ad
357d
318f
32f7
3580
ada3
afbd
aef7
3590
341e
2e47
ad9c
ae08
b51b
1f20
3022
3115
b440
b0da

// dense_1/bias  shape=(64)  count=64
ad91
a816
2d08
a4ea
1ae6
a7e5
2495
ad26
3284
2eb3
34a9
32c9
253e
ac07
ad62
2aa2
3134
299f
a414
aa78
1f1e
27d7
288e
ac0d
3117
b027
ad02
2428
334d
ad46
a2ce
1a19
2f0b
a934
1af8
32f6
2de8
9eac
2204
30b7
1ea7
32a3
2493
3019
3144
3093
326c
305f
3142
311c
2e4a
b251
a5ca
3232
b017
243a
a8aa
24e1
a9b3
ab78
2faa
29c9
9aa9
aaa4

// dense_2/kernel  shape=(64x32)  count=2048
2ff9
2e9c
2e78
ab01
310c
afca
2ccd
ad35
b0c5
b716
aabc
32cd
3001
afab
ae0c
3254
b10c
a49b
3381
3758
b3c5
170b
b07f
2066
2f82
af20
332f
326e
35b4
b0aa
b49f
b029
309b
2e61
ac17
a294
2e30
2c33
317d
2cd0
318b
b3dc
32de
240a
2dec
3259
2b21
32b4
3353
31eb
a00b
2350
ad12
33d9
2f96
a81a
3545
a8ed
31b0
3285
2b19
2d00
b00d
2ce2
2a3b
9fd3
9f46
b0ce
b3f6
acfc
3053
b404
ad45
3427
3301
b30d
31d0
28cb
2705
b48b
10ed
af97
2e17
ac38
a9e1
acb4
b020
b0be
34f9
3423
2afa
b119
32d3
af84
2645
313d
329c
3989
ae97
1cb2
ad18
a543
b4c6
250f
2f7d
b017
b5f3
ae59
a878
328d
b2c9
33d7
aadf
3103
3743
3496
b601
2d1a
b80e
1d55
2d4a
aeec
aebd
33b4
3845
b46d
b83a
af82
b086
30c3
a79e
a7b8
30b2
2a84
ac09
b2f3
b378
325b
2deb
a6be
2ec3
2ef4
b62b
a5e4
b191
315a
a9b6
2e1c
2a24
b14f
9f2b
24d1
ac72
31a6
b13b
ae99
3383
b1bd
8ad4
adef
ac26
a88b
3539
2c73
2e23
b31c
2881
33ef
ab13
301b
22eb
2d07
b4a5
b537
a998
9b5e
b4a7
b40c
af84
2ff3
29ad
b186
3007
ad5c
9a67
b0bd
36c7
340b
2c6d
ae25
2bbf
b1ba
b623
ae20
319d
36bb
b1fc
b18d
a846
3332
b13c
31a5
a88d
b50c
b472
29b7
a72c
2db1
af9d
b6fa
a76d
aaef
307d
b5aa
b1c1
2e73
b117
2d72
2abc
3648
af4a
3119
2d13
ab80
2bfd
34d0
b39a
ae7d
acc7
b471
b500
abc4
a978
b471
ae76
a81a
31e0
33a9
addf
2ca9
3275
3399
2d2f
285a
b428
34fd
a75c
2d88
ad83
aec3
2218
34ed
aaf0
b170
b3da
afe5
b0f1
21be
a5ef
afeb
a2e0
347a
b0d7
b197
33e9
3639
3527
afed
b340
a8be
b32b
305f
b09c
b066
2c12
afe9
36d3
ae0e
b3bb
a8f5
b004
3358
b53c
2ec6
ae13
2dc2
2289
28de
1a7e
a8a9
ac31
a340
2edc
33a0
af0a
b4d6
305c
3478
a5fb
3542
327d
323c
b454
b762
3379
ae19
b216
3467
3365
31a2
addc
253d
3493
32d3
b4b3
b5be
ad5e
b46c
30c9
30de
a980
b18f
ad81
b421
2faa
31ec
ae07
af7e
2eb6
2d27
356e
3038
2ec2
b1b8
2ff9
ac36
ad2b
b169
34f8
b394
3403
28dd
b799
b090
acf8
32d3
b0cf
b401
29b7
b51b
33ed
30e4
ae6d
b30f
3056
b451
adc5
346f
b2ad
2005
3875
3534
3557
2d44
2d13
9508
2962
a9fc
9cd5
2a18
34e8
b334
33a9
abf2
b40b
2db8
269b
2fb2
b2a0
b43e
2c31
b3c6
302c
33a8
2e67
b332
b389
acc2
262e
34a5
2fe5
b556
30c3
b0bd
31c9
37f5
3726
a6ca
32a1
b604
a49b
2fd7
b31a
342c
3172
35ff
37f7
3209
3144
b453
ade8
2b82
2d17
321e
a47f
202b
2738
108c
3069
3459
301a
3015
313c
31f2
32c6
ac1f
3383
2878
3180
2e8b
30e4
a6a8
2f64
adbd
2e31
34ff
aae3
a3e9
ac02
28c6
a8f7
b4e0
31bd
a471
22b1
215e
2e8a
2915
35a1
2448
b0b2
b2f6
29e6
305b
92f7
b0b0
3491
b495
a7c0
3514
2dea
33cd
ac0a
b566
34e7
35a5
a75d
3568
a9ce
2adc
a93b
afbc
2dc6
2a32
b0f2
b1c3
09ef
ad59
abcc
2d9d
abd1
25fa
35d5
312b
3015
b2b4
2eca
3680
b441
ad24
2fa0
b450
b794
b60d
2fae
2953
b0ba
b66f
2563
28a6
2188
b0c2
af5a
a963
3065
30dc
384e
3655
b03a
22bb
25a5
b4f7
b1b8
b7a6
2a9e
b34d
a9fd
33d9
2a98
ab94
3853
33ea
38ae
af87
b0b5
b18f
35f6
b5ba
a1f4
b403
2c05
b192
3403
242d
366c
b3db
30bb
3455
b32a
2d87
b106
36c5
3631
3195
2e28
318c
abb0
ac23
b463
3052
32a8
29c1
29b9
324a
3339
311f
b2c3
2d3f
346b
9a0b
b2cf
ad66
3293
b432
36ed
add1
342f
af87
3206
3794
b25e
2c55
b347
a309
2c92
336a
2f0a
3368
a765
ab78
b143
1bdb
a482
2e9c
b16b
2927
2836
ac3b
3286
a853
b518
2d7e
ab84
3158
3508
362c
af8f
336a
b4f6
2d3a
aa5c
b418
ac18
8dc7
3819
b09e
b77f
34dc
319f
2e55
2e6e
2e90
3014
ae75
b1be
310b
a1e9
b2d7
2466
ad3f
304c
26e9
2700
3184
3400
2d63
226c
31c5
ac54
aeda
3072
3060
ac48
2c26
300a
2b8d
2f71
b3dd
aeb1
ab3a
2b58
326b
2404
9c5b
aea4
b01b
b563
2e1f
3374
2963
b56f
b07c
3226
2517
af69
32a6
315f
28f4
2a05
3361
2132
ab82
a01c
2a41
31cf
b1c3
3086
b20f
2cef
b413
b037
2d6f
35b6
3031
b5c5
b07a
acc4
34bf
b0a0
b32c
3724
9f15
316d
aafd
9bb0
3019
25f5
b52b
34d5
3295
b11e
2357
2b74
3226
353f
b3ac
360a
ada8
b458
ad17
96b4
b09f
ace6
3431
b36d
25ac
3646
35e7
b236
b4b5
aec1
3087
34ac
abba
29f6
30be
ad84
aaa2
aa1e
ada1
3285
ab96
2caf
2bfd
333f
b2bf
acc7
ae86
29e9
ac6f
356f
342c
ac7b
2cf1
2884
b38d
a61a
283d
3571
23e0
2d77
2b1c
2d14
2d78
b44a
2bc0
31e6
a627
b4ff
2dfa
250c
2cec
a3e0
b573
3027
affa
ad36
b058
ad6e
29c8
b43e
2eca
9825
30db
adb9
adda
b14f
b469
2fa4
b24f
a264
b6c7
af8b
3008
30e8
adc5
3444
3251
b010
a1e5
30f4
3418
30d0
b732
351f
2bfc
3305
29bc
279a
32e1
2dd7
a912
336d
3302
b17b
b65a
3044
2141
2b0a
3061
a8c5
321c
34c0
337a
ab06
22d5
334b
2b96
b0a3
273b
ae4c
a4b7
3280
b015
2d1e
3000
3231
2c97
2ddf
b14f
aef1
3175
a53e
2193
ae12
b407
ab05
ae9c
3185
341b
2e32
a8f5
b120
b0f0
2a54
31d0
a40a
24f0
3284
33cf
b250
abbc
2821
2d8c
2ee1
b1c1
33ac
adb9
2f64
a79e
a998
2c1c
3448
2830
a4cd
b33a
b026
2842
33e1
a5ba
acaa
345f
2f44
31cb
ad9d
a6c6
3690
372a
aed4
2e62
a49d
3819
ac2b
a8e6
ae5c
b1a7
b35b
b686
326e
2344
b460
b445
2c79
aaff
2f25
b0ff
2bc0
a51a
b59a
346d
35e6
360f
a537
1c11
afe0
b6f5
b12f
3243
b479
abd1
b023
a7df
202e
b45b
31f8
35bb
acc3
a90b
277d
b3bb
b5d5
25f3
b0c2
b3ff
2e3d
2def
a21d
a33c
b5e8
aa3e
3485
35aa
2cf5
b2a4
255b
213a
35d2
34b4
adf9
3151
31b2
3392
aeac
ac5d
a7e8
317a
b093
b061
2c95
18b1
a944
b36f
3146
3332
b38f
b556
3192
b320
a840
b5e5
b03b
2dc4
b18f
a894
3037
3571
2deb
ad5a
b05c
9e2f
af26
ac4f
3506
383c
b4cf
b07c
30da
3771
a79d
a5ae
abcb
b4ce
af9e
b19b
a129
31bf
b395
b0d0
a4a8
ad60
b12d
aed4
a7a1
9c43
ac11
b0f4
34ab
348a
a1d2
ac12
2e04
a425
b30a
2d38
37c7
2ae7
b09b
2d46
a9f3
3598
ad54
3023
aa88
1d35
b744
b3bc
aefe
20c4
b3c2
b80e
a7a4
ae9a
9f9c
298c
2fb9
2cc7
b0e9
b45e
34c0
366b
a1ad
2e13
2c81
b037
26d4
a663
b32e
2c95
accd
33b0
2ae1
307a
3210
3240
27e3
2a67
32e1
1f71
3063
b401
334c
ad01
32eb
23fa
a283
34f2
3183
b181
b041
a2bb
b4e9
b50a
30c5
b419
2e68
aa3e
b3b1
2879
350a
34df
af2e
b280
ae60
32b8
328c
2ddd
ad39
b438
b262
3128
aae9
aebb
aec6
b1e8
a459
2f75
b149
ad97
31c1
afdf
9cc7
b183
3352
3424
ab4e
29c1
31e2
ae3a
a569
3897
a558
b0e4
346d
a883
b821
167f
25d2
2092
b67d
3551
9b52
346c
b2e7
31ac
2f14
2837
34cb
3520
b1a0
2ffa
b164
afc2
256f
a95f
a3e4
a6bb
3620
b2aa
b2ba
af84
2cc1
b05d
206b
b5b0
b3c9
3466
af90
abaf
34e5
2bdc
3472
9e67
2549
2e14
2d41
2f85
3053
2a1b
3503
2b6f
34bb
b04f
af11
32ab
3054
2b24
b4f6
b592
269b
b25e
3106
2c30
2c23
31d7
aa68
b502
3239
2c72
322b
b2e9
3695
33a3
205d
b2d9
b2cd
b553
b242
32c0
ab1c
32fd
269b
b0e7
3506
a2e7
b5ae
b093
2959
33cb
a569
b09d
b14c
9e83
3321
2dfd
33c6
3604
a4d8
2c34
33e8
2b47
b5a4
b124
a836
b65d
b32e
aa08
2415
30c2
b688
2d40
adae
3221
36c8
34f0
b493
b10e
2496
b191
ac47
b52b
2976
b146
383d
b75a
b278
2d78
b857
0ce2
3728
378f
b116
b08f
2bc4
3263
b2cb
aa67
a9b5
b4cb
b3af
2408
ae64
a99c
b29c
2df3
2771
aad8
30fa
b3d1
31d9
b227
b395
20be
3785
3438
9c02
3066
af83
b645
b159
ab1e
b47d
2019
30fa
3212
b436
b1eb
27af
aec6
3031
27cf
954d
b1c5
b1c1
316e
b3c0
b09d
af4b
b420
ae34
b01a
a835
b483
3052
3443
b21a
b2ab
2de7
b083
a695
2377
326c
2465
9043
b541
32e9
acfc
2686
b320
2ea9
aa93
b50a
36bb
2d9a
3110
b3fa
b478
34a6
3427
3052
a902
32bc
346b
2e70
af7d
24a3
32be
b5a2
b56d
b029
b21a
b183
36c9
2c8c
2d2f
b4f8
2ecf
306e
35c6
2d6c
a81e
38e3
28d6
32f5
2df2
2d3c
abb0
aebd
ad85
b184
b221
33ce
b176
3526
b434
b405
321e
34ed
34de
2441
b0f8
aa68
abd5
35f0
2ea8
aea5
ac1c
3144
b2b0
b2c4
af14
2f29
afa9
b01b
2880
3497
b438
b37f
b4c9
b0a1
317c
ae1c
b046
3499
330f
ac8c
2dc2
b57a
9f24
b197
34d7
2dd5
2df3
b36b
b606
acb3
2dc0
2f4f
2da9
b297
b29f
b3ca
aafc
b02d
b4cd
3281
2c10
82d1
b30f
3083
af5f
2c7f
b022
b0c8
aa74
337a
acb1
1416
b05d
b431
b200
2e9b
2f91
1fed
b115
3427
b06e
3156
ac81
2f20
b055
ad5b
aadd
31f8
319c
ad8c
30e9
331a
34fe
30fa
a973
99b9
ab92
b02b
ae43
a194
2a96
3454
2c41
340a
98e1
a5e7
b3b6
34d6
31a2
b0db
1f9b
2b69
b2cb
2e40
2a25
b36c
b192
2c4b
31c0
aac4
356c
aa96
210b
212b
2244
3279
b26c
a60d
b4a6
3362
af32
aa28
3012
b0e2
b5b5
37bb
b36a
2cc1
b0ab
3464
34ec
311a
3270
b81b
2598
3699
2973
3266
b982
2efe
2efd
b0c9
3079
37f2
2c19
397b
335f
3312
b052
278c
aaeb
2d53
b8d7
2fd2
ad19
ad08
b2f5
38b6
2e79
3495
b373
347d
3752
b40b
b367
b2fd
344c
375e
360a
add5
ad27
b38b
af72
b442
3002
ac71
2f5b
3037
33c0
3461
30e4
b3e6
31c6
a977
b299
b2ce
b481
2471
af6a
2f82
a97b
ab21
b1ee
29be
a851
2236
179c
b482
a87a
32e6
2de3
b073
b0e6
aefe
a66b
2cb4
343c
b5af
b533
345b
33e2
31b2
b317
a684
b119
b4f8
a9a5
2d33
30c8
354d
22a9
b03a
ae2f
943f
331f
33a6
332f
31a9
afaf
afc6
a99a
ab55
309c
b4ca
2a6a
2e92
b360
3235
34f5
b076
2e69
35ca
308a
3106
b209
b076
af14
af0c
22ab
a56c
2586
ad09
312b
36e9
ac1b
a833
ac17
3474
2d22
31e3
b212
b095
b38f
278a
3480
aee1
b215
31a7
279a
31cf
3046
3412
1f5e
26c1
358f
2f2f
32c8
aef6
30c2
2cc8
b061
b1dd
ab3e
b135
ad2a
359d
324a
314a
21cd
31d0
35ea
2929
2fdb
b633
2d26
a5dc
3538
2f77
b0a1
3178
a928
b1f0
b35a
b1d1
9f72
2b92
ad64
b26f
2743
b108
2bdf
b227
abf5
319c
2fc0
3119
3164
af18
2bb7
aee8
31a4
b27d
b55d
217d
33a4
2dfa
ac07
30f3
b171
3202
b326
a7af
b479
2e56
a9ca
abaa
b0be
385a
ab5c
28e3
34c0
9e4a
35a0
2ff6
2e05
2ff2
2cab
b19b
27f1
3295
2db1
3285
32ed
2ca5
32ab
b520
b048
afe5
2fdb
a8dd
36f7
ae97
2cf3
99d8
9896
ab79
3004
2cc6
b21d
37a1
20f3
35dd
3042
b26f
3141
af47
21d3
2882
2e3f
3260
2aab
3468
accc
32fd
2741
32a9
3575
2ebe
b552
b47d
2d6e
ab78
2ef3
30be
3595
b24c
b0cd
2da2
b358
b5df
b316
3185
a8c3
b4cb
312f
2fc8
33ff
a80f
afa3
29eb
2242
af6f
3063
aff5
a958
a19a
3428
af28
b4db
3055
2ec2
a868
b3c1
b521
3384
2c94
335a
a774
b0b1
2f0c
2fb1
ad5b
b404
348f
ab1c
aed9
26a3
2d71
3348
b146
3189
33c7
332b
30df
30bc
aa05
33b2
ab0f
357b
3506
b273
af34
2e99
34b7
b40f
b3e0
2af1
2dd7
16b8
301f
366e
b3c1
2cc1
a00b
34e8
b2da
2953
1e28
a97b
b2a7
2229
284d
2c49
2dd8
947e
9c7f
a834
b0a5
b078
296d
ae04
aeab
2675
36d4
37c8
2bc5
2e69
a781
9688
b30d
3223
323d
35b4
a4ed
af92
3043
31f2
b5b0
aefe
306b
b5e5
b268
afb7
2f44
a82a
b57c
b578
ad2d
a924
2e47
b136
a1bb
2d46
b3f7
aa14
3784
38e9
21d4
adc7
2cef
ae0d
ae43
2447
ad3e
abdf
ac3a
b2ab
af5f
31df
a16a
a1a5
b4f8
a885
a90e
1c32
b3db
2602
32f3
a31b
ac1d
29d9
a6ec
af53
a81e
3558
30d1
acdc
a5c9
b05b
ad8e
b283
b51c
aaf3
9ceb
2c13
abb3
ac2b
32b9
30a9
acd5
3146
a4e4
b311
b5d9
a9f4
b360
323c
b82e
2758
3002
3248
33bc
33da
b28a
ae25
a9c6
b42f
3030
ac1e
ac8a
32c9
2c57
b3da
b4a6
3026
3450
b5d4
b33d
2cf6
ac30
300c
33cb
305c
3210
348f
33bd
acf7
2b3d
334c
2efe
b71f
3058
31e0
b430
a768
3558
3191
2d55
b3d7
3528
294d
236c
a927
aca2
31a6
2e56
abb4
34c3
afb5
302b
ad62
af77
b10d
30ca
b405
30a1
343e
378a
9d29
346a
34ad
352d
b509
36ec
9c7b
b2fe
af42
3848
3268
36c9
2fd7
3439
32de
b2a5
2cbd
b2b9
2e5d
30a3
34e6
24e4
37fa
3023
30ff
b28c
2eb1
b78a
2a92
3034
a32b
b5a4
3232
3223
31e6
b78a
3511
31e5
b0d6
9a4d
369b
b6e1
31ef
b4c4
2f53
2bae
b08a
b085
2e9d
3793
9118
b508
2fb7
a876
3296
2cf7
3517
a6f5
b0b1
b2fe
2ff7
ad5c
a3c7
b42a
29bf
b321
2ab7
b3c7
31bd
adc4
b301
289d
30b4
b4cc
ac51
b5d2
b10e
b274
b5f5
2285
337b
ae2d
b455
abc2
3002

// dense_2/bias  shape=(32)  count=32
a868
299e
2cf7
3012
a862
2fda
21e2
2cb0
309e
31a7
31d0
0e0d
a434
ad2e
2847
aa3d
a478
a8df
2c5e
2c4c
3089
a920
2bc6
a470
2e4f
3235
2efd
303c
9d10
a332
2f0e
2829

// dense_output/kernel  shape=(32x5)  count=160
ad5c
3059
a644
37e5
34c4
b83a
35be
b114
3554
baf9
b6ab
3151
3152
b8fb
b024
b923
36d6
36ae
b550
b70e
b54d
b595
b70d
b250
2ca9
361d
b853
b504
29ce
acbf
b462
b590
30cd
b538
b36c
b83b
33fe
334e
b744
b551
3604
b563
abc3
32a3
b610
3689
b21a
30c6
b2b0
aec4
2b87
b888
b008
b67b
b1a5
b24c
b656
b136
3856
3111
b631
b708
b740
3470
b47a
b064
29ee
b102
36e2
973b
b462
b618
32ec
b507
b663
b599
36f4
b195
a301
b269
b5a8
b70f
a9e0
38b4
b706
b739
b4ea
b416
3517
b564
32eb
2cba
b8c0
a35c
b6c6
b901
33e9
b710
352d
231b
32c0
acd9
3178
b022
b839
b3d9
b6ba
b2db
3807
344f
b5e1
b455
357a
357f
b946
acd1
3441
b12f
3514
3525
374d
b765
b11d
32cd
b732
2d1a
b58d
b20a
b610
b297
b4f4
3604
35eb
b31c
b6ff
b61c
360c
3634
2c1a
b44f
b0d9
371f
b833
36cc
b345
b6cd
b1cd
35db
b6ac
aaca
3510
b1e5
3345
b921
aff0
3113
b78b
b83b
315f
b2af

// dense_output/bias  shape=(5)  count=5
2ae5
2ef6
252a
b320
b045
