// HAR Model  INT16 quantized weights (symmetric)

// conv1d_1/kernel  shape=(5x9x64)  count=2880  scale=1.1946809417e-05
3247
f139
4346
2866
16a2
1c56
47b5
485a
16c5
f0c7
efdb
0de7
346e
dfd1
c6a4
1868
1c65
1d94
5ed8
d3b9
b377
fe2e
f439
ec06
c911
dcfd
2040
f167
c4f5
3f00
fad7
345c
faa2
f60b
eed6
ede9
0097
19e5
20d3
0f08
ca19
220d
1902
2278
186d
d378
380e
08be
109a
da9d
e603
02c5
36d0
089a
f1e5
22d7
1711
f324
f9fd
d852
4359
318c
ef42
2b34
e479
ca53
ff08
e951
0805
e9cf
1dfc
f4e3
c9a6
e944
f890
e4dd
035b
e268
0480
e973
0569
dd8b
f1e5
de8a
0585
fe45
311e
1c5d
d723
d35b
ff2f
fe46
f985
f8b5
2f40
e1b5
22bd
e206
d01f
ff66
d76b
1890
062c
0305
fc01
dfd0
c9f6
e496
ffd8
0890
de1d
f46c
efb5
199c
1065
bc95
0e6b
c225
f253
0b38
210c
ee0c
2772
ffd6
d349
0792
d721
f519
e92e
f192
f71f
f73d
0613
ef5c
ffc8
1b0b
10ef
ff94
069e
e4fe
0af6
1a29
fd8b
faff
de75
2279
e8af
f60c
ce25
de84
fca2
f2c3
cc82
012e
127e
16a5
ebb1
075b
4023
148f
f130
0866
14fc
0fc4
04b0
ff36
06f2
1173
e72e
f71a
f943
eeed
f2a7
fd79
1f56
f99a
f934
183b
e97d
fba6
06dc
fab1
25c2
171f
ffe0
0af5
f4fc
ec9e
0327
21af
ecee
1b73
f15a
f389
1f85
3ab9
4fc0
d21e
105e
cb9c
c930
0eb5
e3b2
0e40
e65b
ee67
fe68
176c
eeb0
2096
102b
cfa4
f686
fe81
fba2
082b
f3ec
eb4f
0477
db4d
1d5e
f2c6
d3bb
2059
d3f2
df87
ecb9
eae2
bb78
0358
14a6
2d29
0721
e5ff
dc6b
e511
03d5
fb07
cecc
f49a
fc6c
0a75
141d
b5a4
de3c
f970
eb36
1791
12fb
fc80
1720
2e3a
dbb9
248a
d1c5
f5b1
f626
235c
f63a
ee2a
060d
1e6b
faf2
167d
0fa9
e702
1052
0fa9
3420
d36f
0d05
0b33
f35d
ec9b
0c67
2b58
ba76
0697
0323
0360
03e2
200b
f87c
189d
d718
fd82
e587
f8f2
f20a
1495
1635
2772
0fce
05c8
e259
fdfb
fff7
0dc4
0cbf
d8ea
eb17
e9d3
1eb2
f480
dc9d
2064
08d5
1282
f831
e21f
0d92
f265
f1ba
0bcc
efbc
d518
1562
d50f
f5e3
decb
f751
1e68
eaa7
0c03
1ebe
f7d8
ff4f
1abc
0a89
0b38
f76c
055d
f5cd
1169
1d54
0aed
f15b
2d1c
d738
d15a
bcc1
0593
027d
11c5
05f6
f783
fcde
156b
cb4e
3085
f56f
3572
1f3d
fa77
1466
e90c
163d
d4d0
f740
d403
1d1e
27d2
edbc
0576
22c9
0ac6
3901
0259
f64c
f9d4
cebe
edb9
0e42
0e4f
39e9
1a22
2393
d195
2c85
fdc5
27b4
f338
e016
1822
eba4
a628
e1d0
df33
01b4
e6cf
0756
f3a4
f50b
cdb1
b48f
e8a8
0fdc
db30
f7ff
1aa8
00b3
e273
e79c
e784
d119
03d2
f8fa
b99a
b4e3
c6ae
ffee
02db
aa3a
348f
1ee9
f755
2355
e527
ec58
cec2
0c79
e39d
06b9
c397
beae
fb3d
f040
0b34
178a
cd0f
0052
b712
0e53
0419
c486
029e
1c48
3495
1549
bbde
f7f1
bfad
45ad
bc78
e052
d40f
e1be
2e49
f42b
02f2
2485
276f
2432
1d01
07b1
deeb
ebe3
f859
fe15
0062
e8ed
cda9
02da
0d53
0d37
d251
f994
f396
2199
eaa8
e0c5
10e3
f75f
e993
e950
d603
0e37
0008
fe7b
e334
149c
24dc
fc7b
ebf9
db17
fc3d
ef5c
ea84
e7fa
f060
e9ef
1e56
149a
02f5
04a1
2080
f2fe
ec62
0996
f1f6
0fca
192a
df90
0211
1bd8
21dd
13c3
187a
e388
1fca
03b2
057b
20e8
f58b
de50
d492
e3e9
5bc9
eac0
33a7
1c67
e635
e112
03db
f192
1e98
0560
0332
0538
0e5e
0f64
1703
096a
f47d
f75a
006a
16f0
2214
e581
1715
f11f
eb10
0e09
fd01
2bbc
efef
f990
1291
48cb
0089
f38d
016a
0da6
092d
f0cf
21e5
fa2e
1651
25d5
1530
fd78
0c30
ebc6
114b
0652
fd49
f241
e954
e1e5
e70d
e2ae
ee85
0839
e251
272b
f19f
0e62
187f
1433
e31b
0100
30d5
e16b
edfc
188d
12c7
085a
eb07
2703
e041
f164
dba9
0310
d170
f98c
0f71
f890
fb23
fa34
34ac
1131
0125
e5a0
3028
02a3
f450
e3bb
ebb9
13d3
0b46
fb7e
e903
e9f7
14f0
e633
4186
f10a
ea47
30c0
0bf5
f7ee
dd44
1dd6
3790
c9ba
e462
1f91
f98b
fcb7
cc79
c885
fda8
d508
3a11
e828
f5b8
cf37
13f3
e178
0b9a
e445
13cd
e194
e511
fdea
ed42
dac9
bb43
d6a2
19a6
ce03
b17f
0f3d
0948
f101
d7d8
f5af
2677
e16f
ff90
e73d
f592
de6c
3714
0d26
1eac
fc50
0204
d636
d81e
2a8b
1770
2be8
2189
e4de
e4d3
f84d
c9e2
c641
e86f
16ed
0179
d0ad
10ed
0dfa
1631
0261
0097
f17c
1667
01b9
de6c
bf78
dcf7
04d4
1e1b
2ba6
cb7e
1e30
f41d
d221
d75c
073f
0164
0072
ff2b
18af
21f7
1950
0a8f
ef37
0957
0a83
12be
ea23
0708
fba5
1ee8
18d4
dc00
11cf
1612
30c9
f433
f311
ee8f
e157
f4ac
e159
129e
f1fc
0f73
258a
19f3
6919
18db
f109
f93d
0752
00b4
efeb
0892
1744
0f68
1227
e5ff
0c1d
0e0a
040e
00fc
09d1
f5c8
0047
29c3
1335
f570
f05c
0f6d
f40d
2007
fe06
0c62
e80c
0802
07ad
0388
f126
1caf
0655
1a5e
d970
efa3
06a1
fc34
e7cc
dd14
d857
00ae
ece1
e87f
f793
0164
2639
244b
098f
1602
d4e1
11f2
f66f
07c6
0a32
0166
0a74
2a60
f499
eb4c
0683
d3cb
c793
e7cc
0f83
fa54
0322
0bd5
f911
e87d
079e
1a40
f90b
16f0
2592
1731
f967
1551
dc43
d24a
0442
1820
f263
f0ff
cf88
e4ec
0526
03e1
1b36
d5f7
19dc
e177
f48b
e84d
c65b
e282
1701
f04d
f445
2d6f
12c0
30dc
0e6e
31bc
19da
06e8
ef21
0afb
1b76
0e6b
d241
d28f
da0f
f04c
1847
e9f0
efe4
e799
0002
f64c
e5e5
f6ea
0577
d61b
04e5
cf2d
0c13
f1ee
e7cb
ed97
0053
3a56
fd34
fe9f
2772
0298
f9c4
f934
ede2
e20f
f200
0bf5
e5ca
f0be
dfba
de9c
0416
e80e
e19d
11a5
d67f
1f8a
0af6
f74e
eb40
1bf2
0232
2297
fe29
f86f
133f
083f
2343
0a65
044d
2681
25c9
1c08
f0dc
f5e1
094f
ef52
2470
08ff
ea58
dcff
f21b
f0da
13cb
d74a
ba12
dfc6
1879
34d6
fc7b
efc9
fa96
0f97
d843
0618
0385
2c61
1e89
18b4
1bd2
ddb1
0cfa
0fb2
e696
e314
1433
01c8
193a
2a06
055a
085b
07a1
00cb
0aba
f68a
dbe6
f5c2
10c7
e4c9
ffc6
069a
ebcb
0731
111b
f25a
e9f2
0623
ea24
1f32
c35f
f0bb
d349
ce04
c0e1
42b1
bdd2
ba68
b6b0
de98
d5c7
04a2
0c0b
d648
136e
e761
bafc
e2e0
0d43
17c0
ae74
d8e6
e327
1259
ef71
0053
e92a
f640
b9e2
def1
0c7e
f822
1a7d
d7ab
dd85
c660
bc00
0269
c9b7
f674
d834
af3d
da3f
16cd
cc4d
bd38
c0d7
ec9d
b8c5
20fd
139d
07ef
aca4
0a3a
a787
ae7c
e7ed
0764
019d
f3ef
e322
cd73
1ca3
ee62
dbd9
124b
0577
e65e
0ce9
2a59
e827
0962
e570
014e
1ab5
f52b
dcf7
ef2f
0c06
1ac3
303d
fcaa
ce17
f2ae
f00a
ef8f
d950
e9d1
e90e
022e
0c3a
ea44
ea62
dcba
0821
14e4
4488
dfcf
faea
d854
d9ac
0b6b
1f25
1b35
0fef
e052
cb77
170c
fbe7
16b4
1ebd
da52
027a
c381
d945
fceb
d069
2585
2684
15c0
2dd0
0e7c
46b7
e4b8
fe61
fab0
f8a8
f18f
038f
eedc
e4f2
01af
d46e
3e7e
f8f0
0ab4
18bb
01dd
17e2
1789
dedb
3102
f4d2
0746
e67c
0d1f
1266
ec39
f708
0749
218e
0824
07b3
fa1d
19fe
1745
fd0a
e793
dae6
ffb0
0cac
e974
f1a1
ff70
2f17
123f
e834
0248
08eb
0ad8
0d17
f43c
1e15
f5ac
e709
20b6
05b2
f7a8
e409
fc10
23d9
1e96
00bd
d82e
d933
043e
eb91
24cc
f1a7
0ff9
31b6
f73d
1f30
f8de
de8a
17cf
e369
055e
d44a
10dc
178c
2063
fd50
cc89
fb17
327f
2e1f
e181
0de1
d5df
e7f7
db9d
4308
0882
e8b7
e0c7
ea0e
e63d
e3b8
fae2
23d7
fc33
0f3d
06a3
0ad0
e20f
dedc
1143
1bfe
dfbc
03f7
07a7
1c16
0492
de8d
1967
0b60
1a32
dcfa
24f0
0ca0
e338
23c4
f28d
06c2
fb84
efe1
0f73
091b
072c
01b6
3c64
cc89
0d5f
21bd
f09e
fdcf
eb5c
1877
ef8a
c92c
0a17
012f
36ac
20a7
d6aa
ff46
dad4
1b25
0538
e1d1
f72e
e960
f336
115f
f22e
efdf
cd38
088d
210b
e220
2690
f58b
42ad
e01e
eb3c
3cd9
0c5e
e767
03b1
3464
f1d1
4aa4
fe24
ea26
db07
f51d
18c7
37a8
26a0
f702
b705
3fc9
f58c
25db
1a26
c6a8
092d
0dad
fd1e
2d2e
e551
eea9
e9dd
ea0d
e1bf
f2b6
df28
e8e5
faee
1c81
03a7
1896
0f14
f68f
e1ba
d42b
c18e
ccce
1f92
1d65
0c3b
e2f3
e04c
0697
e90c
1e0c
d63f
eb95
c590
163a
1255
ef33
0ca7
fab4
f689
1b4b
e7f9
eca6
e8fc
2817
08ea
fab8
f9ea
e5c9
cb98
e545
08ef
039e
0b5e
f7e3
1381
282a
097c
18fd
0102
efab
fd37
15d0
0980
dd99
d47e
2820
1627
f434
f427
fa3c
0c6a
11ed
fce7
e276
eca7
1369
e9dc
f709
e677
df45
f090
eea2
e5ad
092c
2763
f18f
0b59
f6d5
0eac
ebf1
1e01
fc18
30fd
edf7
dd7b
f3aa
ec69
eb88
07a6
1d7a
ee82
f723
fa6b
17be
0a6b
1a2d
ede3
b5c6
deab
f84b
25c6
06fa
091e
2073
1d75
04a7
f268
e998
16c9
20d2
2814
ff0a
e1a8
fe7e
dcc6
1f28
2f21
fe36
eecf
19a7
dd41
f76e
ef73
e380
01ce
c8d6
f411
1685
f666
f1e2
e7e0
1000
0499
dd91
2ca2
f23b
e5a6
02c8
df01
f439
10b3
050f
0c01
0581
0a49
1f86
0825
24d8
0883
00f7
fbc8
0f22
2288
ffe5
eac9
ec54
fd84
1ef0
e227
eec6
eb11
fb49
080c
0737
d503
e848
feaa
f2af
d6ea
0d5f
1ce6
1412
1546
1248
d56a
2199
02e6
d0b6
e7b9
173e
09b0
1e4a
cb1e
f915
24cb
efb8
f968
ffeb
ee2a
1654
0b93
db52
0d65
00d4
f15c
04e7
1f20
19fb
1176
c8e5
0e54
f5dd
d4da
f026
0d08
0e54
f3a7
1040
0ca4
14c0
e3c0
f299
d215
0db7
2cbb
2f01
cebc
f03a
3064
f885
f3ea
f8f2
f514
1984
f965
0758
2bee
dcf9
f25d
0fcf
ef73
fda0
f926
e69e
129e
1ae8
e5eb
f67c
f89b
d59c
f238
c80d
21ae
dba4
19ef
1d79
0365
d9b7
f1a3
d42c
e1e8
1561
183b
e275
2b5b
e1ca
09a7
1a8e
fbfb
bd79
dca5
e965
dfa2
d4dd
0c9f
bb3c
b3af
f059
c4bc
0081
ce1a
d2b3
f4e1
1367
b7e1
bcdd
e6f4
b3ab
bc48
01b4
cdc8
f6ea
fe27
ea1a
dec4
b577
d1fa
0b0d
c03f
0874
1537
1461
bd6e
d339
e4e9
d401
f2c3
0309
c9fd
f798
d8f3
b5d1
f6fc
dc34
180c
d36e
1dbe
cc3b
eb2e
db4a
cce1
c357
3283
a772
cdbb
22a0
ca64
efe8
0260
cb00
08a4
2ef6
00df
087f
052d
faf7
cf77
e90d
47fa
f440
296b
0100
fca3
23ee
ea41
349f
e158
de62
d9d5
2627
f8b8
05ff
1e49
f95b
0048
df64
f821
e03c
0730
fbb1
04eb
f7a3
2bee
dde6
19e8
4e88
2794
e844
0a3c
2bf5
2179
e637
06ec
ec68
1f34
0f3c
0414
ebac
00a6
2676
f00a
0667
b30a
f05b
34d5
efed
2908
1a9f
eb5d
fc5d
1c1b
2155
cdc5
1aec
e021
52f0
f370
f13d
0fd6
e6b6
137c
feae
fa2d
250c
e886
1672
fa36
fb7a
f104
ef3a
19d8
3608
1bd0
f682
1643
137d
02c4
fadc
120b
2e29
d19d
127f
0330
dee6
fde6
237c
3486
1217
0394
23b8
cf10
0642
0151
ea18
ec74
f9a5
e062
4272
e058
f1fd
e137
178c
1c88
d07a
fc7c
145f
069b
2df8
ee1e
f1ff
0d0f
05d4
016c
1291
df0a
f194
004e
ed68
17cd
0058
0f6a
dd77
f847
19cd
147f
3e9c
c2ba
127f
09c6
f2a8
13ff
fa7f
25d5
d352
08ba
08d2
14cb
2a66
129d
dd29
d6d6
f3d4
1487
0af9
00ec
f8da
1dfc
211b
e1a6
0ac2
385d
0a72
2f1c
0fca
0544
060f
ebb3
e587
1993
177d
1250
df10
e925
1a41
d696
1a6b
fb30
3dc5
fbda
13e6
c66c
d92a
f5e1
f0aa
1b58
3344
04bc
fa3f
d35a
ec20
ed3c
1af7
ccab
c4c2
0f9f
e6ea
dc4f
311a
3064
1b51
48e9
0028
0ce5
e93d
1eae
fd3e
0b9b
07ad
0586
ef34
0328
e40e
c7cb
46e2
03a2
3303
cc4f
d909
3ca6
dd2b
ef29
10e1
02d7
30e7
2a62
2de5
1239
df21
ff52
ea88
f5ed
01ce
2a36
fb88
e1e2
f811
d178
ec8f
df39
f438
fdaa
ed55
1706
c5c9
1b66
20fd
057c
0826
06af
df96
df57
1295
3741
00ff
2e60
d170
1d9a
09ac
16e2
0f49
100c
fe1c
cd47
feaf
15fe
f2fc
def5
ffe7
e9f9
2276
e43d
009c
f312
0d9a
201d
30c3
0773
fd06
0f47
eacf
f0c3
0b88
faf9
f814
1b1e
f23d
113a
dca8
0e7e
1e1a
0e7b
1ab3
0ab5
04d8
cfeb
dd2a
f6dc
d5a3
f89f
17fb
1950
f9e1
fa8e
e14e
ce7e
19ba
e692
1039
0a79
0a22
089d
12b3
ebc3
16f9
f447
08a4
f45f
f8ab
d51b
1295
e7b1
109f
e75a
050a
0552
fa8b
06eb
fa1e
d9b1
1b95
1a77
f3c5
09d5
f99a
14c4
f5e4
f7aa
12aa
2833
0c23
e7e1
0acd
e640
0586
0fd9
1c53
0d05
ffad
d43a
0878
d526
1184
165d
bb2b
eebf
d581
0d13
f1f8
03c7
ffc1
0a8e
f199
fc96
f6cc
1183
eb03
e133
144b
07b2
0b66
09c0
09ca
4994
f4d1
ca40
0c8d
0e0f
26ff
1209
f453
0030
dcf4
12cd
1a5a
0789
eb46
e5c3
f48e
1009
be57
c33b
d9d1
ece1
f5bc
ef90
1ff4
fdc4
0081
f638
ec4b
1cab
25d1
f504
0ae9
04ca
d731
e6df
e502
0d5c
05f7
a2ae
171c
ef76
18e1
15d1
d223
fbc5
0c59
2d5c
0ff1
0460
fa48
faa5
2366
d213
e69a
0ab3
2b9e
1f02
0e7b
1103
cb36
1421
07a4
f203
10bf
e944
f02c
2235
0338
f35c
267f
0ebd
114d
dd72
098a
c4eb
f880
e922
19db
dcf8
0957
ebe2
df5f
e72e
e84e
e24a
e76c
e94b
1797
f62e
268a
0255
dee2
e6ea
1e4d
2155
f62a
01cf
f0b0
2d56
4316
e5c0
0c87
1138
f312
1818
00f5
34cd
000e
35a9
0058
023d
dde6
e1d6
08c3
1fac
29ab
d916
e8ea
f3d6
09aa
16ca
f5b2
d989
e469
f2cd
f640
fa4e
0502
0426
0568
1cde
f9c5
195d
129d
d4a3
1871
e2d8
f979
fe74
cdac
d873
111b
d098
d52c
b7be
f640
e5f9
ba9c
22d0
dab4
f8ef
de98
c142
e38e
e3f6
1965
eb70
096b
263c
1124
d998
cff0
b617
eeeb
0b62
c579
c07b
ba0c
c351
fc50
0413
ca96
0a92
bed4
ea8d
3954
a90e
b04b
d294
c0c2
ceb2
d159
b40a
0b23
fc64
c260
0037
20ab
bc16
d969
aab4
d537
0678
bb9a
09d7
f177
26fc
fe7a
eb0b
2352
d725
33fa
cbd5
fae0
c7b0
1953
e8e0
fa20
e96f
2691
10c9
066f
19fa
f3d7
f571
0024
ef2e
d116
3b89
0624
ea0b
d6ae
e1fe
de06
ef34
25aa
e256
2522
ff49
cbb7
10ed
d11d
f7d6
0e8d
f098
3126
1fcc
e941
f7f6
215c
fb60
d7bf
0a22
eea1
14c2
fd53
228f
e584
01d2
1c8b
246c
09dc
d9ac
f6bf
3c41
d7a9
edfe
16b1
e45c
22e6
452e
fbb1
18e3
11d3
2dac
125e
16d6
2099
0d33
494f
eb95
f709
f8ca
e4c8
0789
ff3c
edb6
19bc
e706
ce6e
ed52
e365
e309
fcfd
0a7d
f699
0ee4
ee13
d6dd
d11e
08d6
f903
015b
2578
dd19
1059
e6a0
0ca4
f1e5
d3c3
e450
0f84
13e2
2e87
fabe
042c
f1a0
ed1c
fcc4
098a
eb38
ebc1
e160
0768
0b25
e02e
1203
ee30
de1a
faa3
0f3e
0b2b
0d52
cacf
d7d0
f335
0127
0f2f
f9df
06ff
f0d4
e89e
df9d
e073
0860
1ed0
02fa
4606
d6c7
ed63
01c7
e881
d7d8
dde2
1cd1
0f5e
1ef0
28e0
e61c
d687
1fd4
ef6d
0b3a
1e39
0f7f
effe
ed7b
1dee
e91a
e7f6
2e1a
0e17
27f1
2f30
cc11
16a2
27a0
ff20
253d
f150
d3a6
13e9
0ced
de71
26d7
e625
e9ae
2545
2dc7
e825
cc5f
1930
cb1c
082e
c9b1
2a53
062e
26b7
dbf5
3c81
1f05
ea2b
e3d8
d142
e452
285e
c71b
c168
ec82
2021
35d9
d4b7
16cd
15d1
ed2e
ebb3
bfc4
ceb7
03e5
2693
1271
f2d8
fe32
06e2
184d
216e
ff03
e98d
fd33
320c
db19
0e85
268d
13c9
1a1a
e76d
25b7
139f
0dae
1b92
f6a3
06e6
f40a
0444
dca7
d4ac
dcc6
cabd
fbd3
3bc7
2663
f9e8
e80c
dfba
468d
cd14
15c2
15f5
ebff
f499
dc0b
0eb6
29fb
05a7
fedc
0d5f
fa35
045b
0b05
ca84
e594
2d22
caaa
f396
177b
0f08
09b1
fe0c
1c64
09e3
feb1
eb80
f5b8
0740
078b
0553
d587
cb77
1c3d
e7a4
e877
0ba9
01d4
fde0
0dc4
f16c
ee6e
f0e3
ea9e
e81d
dc38
f464
fe15
2356
e326
06b9
0fc9
fc27
eae9
0713
fa59
de81
200e
fb29
0216
02a1
10f9
f0d2
f2d6
0727
f47a
03a4
ecf2
ffb3
1d5a
f699
0248
11e4
feca
18d2
2799
ed01
fef0
febd
ec9d
e7b7
f6b7
ee6f
087a
0020
f841
19f9
0be3
f8b6
e9cc
f6b8
199c
eb55
f8a6
12a2
f5d7
2949
1077
f8a7
01f2
080b
0c58
fb14
fcb8
1e45
fdf2
08ce
1013
01e8
e556
f72d
f0dd
e809
f6e1
f42d
03d3
023c
f7f3
f55f
e7fe
f9d8
1a89
ff29
000a
f8b5
edaa
f07e
25c4
1a4a
131f
19b9
f59b
e5b2
ff0d
ee27
05d5
3e08
20f1
e274
f3f1
061a
0963
f64b
f179
ef09
f1e7
e615
edf1
f59a
f6d8
1ba4
f694
1374
17e5
263f
1aee
0957
04af
011e
22f9
dff7
d622
ebed
0718
f910
e2c1
0623
1eb8
02dd
d82c
0bbe
e5d1
1105
d446
d912
06d6
f3c2
d953
06bc
0baf
0845
f5aa
fd68
e262
f424
f79e
fd10
0831
edf7
eacf
18a2
0467
196c
04cd
fd10
19d7
d0c3
1e32
ec2f
fcca
08a3
22cf
2633
03b2
e7a6
208f
142e
226d
0065
e309
fb67
dc34
d18a
f026
1d5a
1b00
0846
0fcb
0e2e
e487
f6cc
2b5f
bff2
e546
e7c4
3d54
e2a8
edad
039e
ebd6
f697
e8d7
0e3d
0a7d
e1c8
071b
09e4
45e0
f27d
5892
0c6c
09ca
05f5
0dcf
ee48
0aef
1078
105a
de66
d980
fc94
f723
df4e
16dd
fe7f
d222
03e7
ce2d
d419
fba9
0327
062b
0356
e143
ec6b
e587
fe24
08d2
d6b6
f24f
068a
e04e
e263
e33d
02ec
fe96
fa9e
f01f
d1ff
2ffe
fddb
0ece
f840
e5c5
c2b2
f801
ddae
d286
03a6
2ea6
aef7
ec10
fc91
c447
b983
d34b
f194
bec4
e0db
c32e
cd74
faa9
00ae
1090
ec9b
150a
1959
0866
e869
f3d1
de27
223a
e2be
fabf
0e67
fab5
cac3
204f
fcff
dc1b
c13f
a89c
f13e
0cb6
bd4c
fc22
d18b
1a60
d5fa
f133
df46
daaf
215f
a50f
e951
b84f
07f0
d1c1
fdbe
0b47
fd0d
f166
e967
472e
ce78
cec9
d7e4
11a6
0eee
fb9e
1520
d3a7
2cdb
e224
22e9
16d8
013f
2c24
289f
2575
e255
2499
1a72
102d
e5c7
0573
1a82
e4cb
f26d
04b5
49a4
d2e5
e329
ead4
f568
f940
048e
1e8a
3ca3
148a
230c
2ce9
0324
0804
f099
04fd
1369
c6d7
31f5
0226
0a80
477f
f50a
e943
18e6
f06c
7fff
122a
cebd
eb0f
35f9
dd4b
2ad4
f995
ea14
efac
fabd
1626
f2f3
1080
0e54
1732
eb4f
d933
0fb6
254d
ff26
f814
f23d
f4d8
e20b
21cf
f054
ce7b
12ef
004f
e7fe
0976
f730
0d81
e3bb
03e8
e5f5
f7f3
29ac
1335
0f9b
05e9
f329
ef2e
0380
db7b
e1c7
0db1
d20f
1ab8
ebfd
ded1
185e
f6fb
ce9d
debf
efc1
faad
cbf0
be67
f105
02b6
047d
ecb1
dada
f492
140a
f3ba
0986
e92f

// conv1d_1/bias  shape=(64)  count=64  scale=3.9574436321e-06
a6a1
b00b
9b74
8997
9a63
dc01
aaa1
b679
a7e8
a6bf
840a
99ec
9060
b757
9ebb
b4b3
8001
a4c2
a999
a7b4
a29a
afab
b61a
b1e0
bf29
9be3
934f
ae17
c0f0
ac1e
b158
a6ca
e997
a350
8ee5
b30b
b7b2
abff
9770
9a18
a4ea
ac04
a0d8
b8b2
8e9d
9f5a
8569
b892
a4f3
c021
a043
87e4
a460
e208
a563
99fa
a0ad
9229
c054
9c77
b491
b47f
cb0f
9cd8

// conv1d_2/kernel  shape=(5x64x64)  count=20480  scale=1.0975300274e-05
0587
163d
d324
f7e7
fc16
2860
e7d7
1080
0f04
eb9a
0712
1c0f
07cf
f1be
e542
f627
26a8
0fa3
16cb
09e5
0e8c
0320
0f9b
2a61
f369
df42
e32a
fbfe
117b
ef0d
160e
ff62
29bb
0415
29f3
f8d0
2b27
09f6
d639
ff24
325d
2a52
0a9c
ec51
f4be
f5f9
ea4c
d75f
0978
dc01
228c
f2fd
fd7f
dc17
e202
08d7
eb00
1171
06f8
2962
f71a
e590
2bf0
dacd
edb5
f6d1
f360
de17
0e13
3c8b
e753
0e0d
fb58
1f5d
3351
1e5f
12e9
172a
f36d
f2a2
29ac
046d
002a
ec04
2b79
e938
27e5
32c1
edd2
dfbf
0a66
2577
0730
dc07
f26b
21f5
2c8f
1554
0d0d
0a99
f6f0
dca6
ffaf
03c9
2d9d
2b54
1884
296a
2d7f
29dd
06e9
eb3b
ff9e
092e
33f3
e5bb
05c8
0807
17ee
266e
299d
ec21
eb45
1430
ed89
db2b
fc7c
dda2
fda8
16bd
fa63
28a5
0b2d
10fa
0069
1b79
ea71
2a2f
0ae6
1791
f8ca
f371
1b60
f4aa
3474
0f4e
20a9
1b44
1406
1cbe
12e0
e906
ec5a
f1ad
05fc
00f8
2571
fa6c
1fb7
09f8
0fd0
f96c
352b
26bf
f2e9
12b7
d941
e584
15ef
090d
1cc9
053e
fd8a
f3cd
e079
f404
d8cb
0195
053a
002a
ec7b
11a3
0e1a
281f
1634
e8a1
0a18
1008
0247
16d7
07a3
f5c9
18c5
da7c
0b6e
0baa
18b3
098f
165d
19ca
daa1
ef7b
2df2
1968
e63c
177c
0df1
1587
3110
e520
174f
0fb9
254d
e1c7
2aab
fe07
e4f9
f643
ffc6
fd25
14f2
ed5b
ee9d
ea22
045f
02a0
11ec
fd6d
f19f
15f7
ef67
fc9d
2818
2f56
f2e3
f4e9
0eaf
e878
1667
e370
0813
e298
080d
e6fb
f92e
e1ea
1869
2825
0106
100f
ffa2
24c9
0db8
f87b
1ebf
f717
1055
0216
0191
1d7d
1c4b
179b
0641
0c06
f33a
1a32
400b
06e7
fbb2
200a
e462
3bb1
15ae
dd26
14f2
d47e
f97a
f2c4
1e13
0dcf
fa54
f692
ffb0
39dd
23f7
15cf
e58d
24e1
216b
f6bb
276a
1b01
0e32
08fb
029e
05a9
196a
06d5
130c
3389
1bc2
02e3
044c
f1e2
fe9e
d2ba
28a1
ddec
e413
f048
f529
22aa
0956
0594
e608
2219
da6f
e88d
1c50
f8f5
1dda
1e22
ecef
0d16
2514
0f20
1bf8
1d2c
f39b
ea05
d89b
f5bc
2351
2d59
e846
fe79
0f6a
eb89
0a21
033d
0a7c
1054
efe6
fc58
0c87
e1f6
e896
0004
134b
03ec
2a95
0bde
2c01
e96f
ee31
2bc7
db98
f205
f28f
0ac0
0762
14ea
143f
06a7
eed1
2469
f9fd
de2f
182f
30b8
1a64
f21c
2653
e4c3
12c5
0357
3453
dc37
4613
0856
f418
1ac1
e25a
f767
1276
fc39
e8c0
ed3a
fa1a
1d4c
1a9c
260e
fcb4
0765
0f5f
3464
f9e8
e671
dd8e
5b6f
1a98
fe37
0950
d624
f6be
ee05
03e7
32a9
fcb5
fba3
e1bf
17d5
2615
06d1
f009
198c
1ec5
0235
2cd7
327b
1eac
12ee
0e2f
f34c
0f8d
2ddb
0672
12f6
0695
00ee
1aae
fce8
0698
f44b
0da4
f78d
dcbe
fda4
fcc4
160e
0943
1c39
eb08
2f03
d251
f4a0
1062
0d4b
d823
06a3
d1b3
1ee6
fdcb
f9ca
fda0
0bfa
e2d2
f742
0829
0a56
123d
f20f
da93
4f47
1d9b
179b
1b12
17b3
0e30
c167
2c64
1652
3a09
122e
edc0
2ce4
fd87
d1aa
03f9
1578
1d29
ee9b
167b
3219
34b7
efd3
cc46
12a8
1d3c
1697
3b81
fd28
1fbc
1f96
132a
37c4
d2f5
06f2
21de
0ec4
e459
2cb2
237d
12e9
1980
f637
1633
03d9
df46
04df
21ac
11b1
e113
d9bf
fc1b
e1d5
2228
1398
0b82
270a
e071
f4fe
0795
2f7a
fc75
f585
fc31
e60f
fe96
ffb7
0532
0949
fdce
ca83
1713
0aac
e9bb
ff81
e135
201f
1457
ced0
04f6
fd73
2afc
f053
1bfd
0223
2fc4
18b5
d6c5
2506
2b42
2884
03aa
050e
fe20
1772
ffaa
fe73
f15e
d9db
e818
2013
056a
ff87
eaf0
0b5e
0ecd
f456
e5d2
0d87
e998
1a6b
10ff
050c
f69f
e837
db3c
f3bf
0b82
23fb
f34b
159e
f09f
e467
0f34
02a3
1981
f143
e0d7
f4e7
1757
14f9
06b4
e9a5
0875
daa9
091a
337a
095f
e351
0669
fd89
2323
122c
04cb
f49c
fc92
ebb5
1c91
ede7
fd47
1000
e790
f10f
0992
0e07
0915
232c
2bd6
de90
e0d0
dbe8
c527
f89f
1876
0c15
e874
ef44
f698
0ebb
cf87
250b
ce0e
069e
0d0c
ddaa
3062
f598
f55c
faed
e77b
e61f
f6fe
fe45
138e
240e
1955
03a6
1b8e
eeed
0330
f259
11bb
31a3
eec5
f5ee
feb6
1380
1b39
debf
e4d4
1493
f520
0ac1
dfa1
e54a
0ef4
0b27
ea63
0d9b
ff7a
ef70
1ee2
e166
d551
e9b6
0139
de4b
0696
29fb
ef0b
f13f
fc53
f549
1c9d
f8da
e86c
1723
2366
f0bf
f514
f280
0bec
1ab3
1a1b
e28f
f573
05a3
e6c3
e9ff
28e0
c18e
d496
e085
098c
f9f6
f11f
f5da
17c9
309b
06b7
fc12
f9b4
f49b
f20e
fe92
22d0
2cb2
f296
e555
f4b7
f8bf
0134
dcdb
ee60
e7c9
fa11
19cb
ede0
1d7d
2a6c
efc4
efb1
1937
0e5f
0168
11e5
f225
2097
0e49
dc09
0c03
35fd
2091
132e
144b
15dc
f61b
fcbe
edcb
dc57
f8bb
22ec
e7c0
ee7a
fc98
eed9
3193
26df
fbf9
f14b
1a18
1871
e1ce
272b
f89d
dfd1
e77e
df3d
1b03
0c91
f7b6
f7e0
f543
e065
1911
1c63
0744
fcbf
23fe
1687
0ccd
250d
0963
1ad7
0ce3
f4fc
d942
02cb
0b02
ff0f
f451
de93
1c7e
0dc0
eee8
0588
2d57
188f
ff4a
2b87
0586
434a
eca8
d43d
f227
fec2
1a20
0c90
f3a9
efc1
2530
e9fa
e59c
0899
fa93
ff29
0ac7
e327
cec6
e77b
fadf
0873
11a3
1a7a
14b6
fa6d
0e46
19a5
07f0
15e7
1dfa
f80b
1c3b
f1db
0475
1106
0681
e61f
f2dc
1621
fac3
e2b0
063b
0f70
ec22
35ac
e118
1fdc
f937
386e
f2bc
1dbf
1c88
1566
fee5
fada
f4d7
0cfe
07a0
ff18
21de
303e
f1ac
0c2b
fb6f
0be7
0c3a
d105
e170
282a
341e
2222
33a0
058a
24fc
17ba
f4f2
b15c
ef71
0473
1dab
eb1c
e965
dba8
319f
cac3
0d51
14fd
1c3f
fc48
d7bb
2be9
d5f9
e7ae
e7a8
0c4d
0c9b
189d
fb3b
042e
fdd6
e6d3
0d09
0c9e
19c9
ff38
dfa3
0576
3c88
f2f6
edab
17a2
0d45
fced
dfc5
07eb
f2c6
2255
e259
ef89
fff6
0dbc
d213
eea5
2574
14c1
e21c
152a
21a6
29e0
e819
1de8
fb4f
f113
1602
21c8
1a7e
f247
fd80
0b73
0711
fa4c
ec3a
e79f
f9b6
0185
f6ff
11bc
153b
db3e
16d8
1bd0
1e64
d82f
1b1e
e43d
088c
ef18
ddad
d5e2
0ffe
0722
0bce
de32
1029
e514
e8a3
05a5
ea4f
e575
1ea5
2447
619d
1ca8
fc96
ff34
f9f4
fd0f
c93d
020f
ee58
0330
1525
1653
e118
0be4
e8da
ed47
ebba
0921
df36
0ac4
1558
11c6
f948
15cf
e9c4
1c6b
ff30
e3bf
1571
ff8a
01ad
0b97
1192
caa3
ee6b
f1a6
ee30
00bc
2a42
0bc9
eded
e0fb
0e64
dcab
1b98
00ee
ff83
1d79
0c7b
f11a
dbe8
2be6
0232
f899
f9da
06d3
f367
1779
02cd
f676
3088
d367
14e6
f64f
0ae0
fe1c
f1bc
0172
dd8e
f16d
d6a0
04ee
db4b
d16e
1c2e
e06f
ee11
1f1e
0437
06f3
eb90
3081
ddb1
1682
1d39
e1a8
0f88
0026
e462
2298
191a
f906
fdc9
0e8c
19dd
191b
d1a3
124c
1385
f556
e0b0
f699
1e10
f9e8
0ef9
e0a8
0ad8
c189
e9e5
08d2
019b
00ec
eaee
e041
f8bd
df20
2980
0e3d
26a0
db71
fdc7
3bcc
1592
10bb
17fe
1774
ef88
ee00
25f1
350d
025d
f84f
f71b
203d
ff4a
3f54
1534
cb76
f4c4
e8cc
fefc
12ce
115b
0768
003c
0fa8
20fc
384e
2c10
14e6
f1c8
0353
0d6f
259c
290c
28b7
2a05
0782
1faa
22ea
e06e
f5b0
01c8
0f4b
e03f
1b35
2818
276e
2db2
0150
ef11
053b
f938
0c59
0edf
1a88
a99b
0a34
d5f2
f44e
0dca
0e16
206d
22ef
15e6
f846
f041
223b
f88f
fc48
1c6e
cd0d
0030
3ec1
de1c
10c9
f8c0
366a
0e8f
fd26
2ca4
fdde
24b4
1af0
3c68
0a96
ecd4
ed47
180b
3115
f37c
1285
24f2
3ebe
fef1
e417
dec4
1f25
3368
35fd
f9d0
1010
1250
f791
0f19
d177
dcb4
4030
0b08
105c
da96
f614
0abb
32d0
1424
019b
0e26
d40f
1611
29d5
1bb5
dfa6
1d1e
fff5
e27b
3710
2c2e
d5d6
2d2a
fcad
e21b
09b3
3855
f23e
e9c3
f3c2
e67c
1003
e30f
fd1c
0ade
fe30
078a
3435
3184
e030
e2bd
0090
37b7
0aec
d0b1
175e
123a
255d
2ee9
1640
f062
2df2
1237
099c
e041
09ed
297e
3477
1592
07ad
3511
f5de
f1ac
ffd5
f1b8
1d5e
f2cd
1432
e183
0b99
3b81
17e4
ee9f
12b2
02a1
f74a
1b29
1907
f73b
d8fd
0391
f96c
f480
16ae
44f0
ef84
19e0
11c8
0f55
216c
43b0
e71b
e71a
f0b5
b9d3
4384
0490
1938
087a
3d29
fc3b
09ab
16c3
fb14
eca0
e257
0aaf
2856
ce46
17e5
1694
4283
f0e2
1382
1faf
f9ca
1bba
e0ac
fb0b
3fcb
39eb
1a4d
fa39
03ae
ec22
e140
f24c
d2be
1bdd
20fa
0b4b
fb6f
07ab
181e
3d33
183a
15bd
e93a
0106
dfeb
e655
1238
b28b
00cc
e357
f500
e4ee
0dbc
2940
0219
0b91
2045
f650
1651
3689
0be0
f0fa
ef81
f98f
14f3
f314
0bbe
0195
f8bf
ee42
29ee
2288
ce14
1172
0529
2274
010e
dbbd
ee73
2b98
0233
fdb0
f0af
03d4
11bf
f4c8
dce6
f00b
217e
f2e9
0ec4
20da
0f7f
3a87
ea67
e3e6
fbe7
f080
0f81
ed93
f9ab
2d22
e70b
210f
d8b3
e5a8
e14a
2123
1842
e5f4
fe08
160f
1324
d18d
f054
f365
d543
028c
b3ff
0be5
ee1a
e04d
f1a2
fb77
0407
0043
1ebd
2ed4
f23e
1e39
0180
1913
2420
03b3
0fc3
13de
cf41
0af1
0031
1b13
0a04
1e36
f92d
11fd
3578
2be3
11a8
ff51
2cbf
f284
faa8
1e02
15f4
263f
fb3d
0b16
264d
1018
e2f2
095f
e6bb
e832
1ccb
dc60
f9cd
e417
0c94
0bb0
f5de
e700
ea12
2520
cdf6
0d2f
fd25
b4c8
dc26
fe97
f836
1068
0d9b
1fb6
fff8
0422
f9a4
016d
0c07
2dc1
10e8
2638
cec6
f530
2df1
dd46
19ec
11ac
05cd
06d8
fb51
2a87
e603
f717
fcc7
38c6
1d93
c196
22a4
0dc8
329c
320b
07c9
2608
0ac6
1121
df41
13e5
3f36
097d
fe30
3028
1862
e2bf
f23e
111f
c9ec
d372
305a
ea62
19a5
eb54
179e
0d1a
2b32
ea37
03e2
207c
08d1
fac1
2c05
df54
fd49
0c50
148e
0e7e
2c24
0c40
e071
0524
054b
f0c8
325b
1908
22a0
19df
e923
1d16
08af
ee0c
0626
e2c1
18e2
f711
1699
1087
f226
1356
fbf9
0c3a
0189
f856
215a
1dd5
2730
fcf0
1c95
0ed1
035f
0318
ed3b
ec77
2975
2da7
0902
3392
1d69
fe96
03ea
08d4
d8a8
1c9d
36c3
1a8a
f533
e41f
ee2d
3364
d78f
16e0
1f68
fc92
0204
f91e
19c9
080a
1a44
ee23
eb7a
0f16
19e2
1a40
2828
0385
ff03
0bdf
0254
11b1
2696
0f65
fd68
284c
fc5c
1e31
f486
0234
208e
b5e8
1b0f
0402
2171
e63f
041e
ead5
0602
f635
fe5b
fc52
205e
0d18
0114
f183
e919
f036
0cc5
e372
329e
0646
0d3c
16bc
f97e
dd93
11f9
f972
d8c5
049a
ee48
ddf4
edab
ea06
1f7f
126c
fa15
022f
1afc
1689
d71d
0c2c
08a3
d357
f74b
f541
d066
0d10
e796
0a44
f87d
f0de
eda7
df66
00c5
e59f
d4d7
f06b
23d1
3203
0292
f733
17c6
d33f
0d92
eeb4
135f
1f6d
d24e
0405
e9bd
0353
fb0c
116e
df79
f3d4
2808
09a3
1f2c
1786
1429
f9b9
096a
f3f2
1b72
ee1a
f3a4
04b1
fc69
fab3
1559
e295
e00e
d7be
14de
1635
eac4
26a2
1120
0ee6
cb92
1752
e043
2a24
060b
d647
2eb2
e8f5
f496
ed98
eeb7
1da1
230d
1567
0367
1d95
08ba
dcd2
1891
1dda
237d
1165
2cc1
2109
13b1
00a2
190d
ffe0
1057
d35d
19c0
16bc
d788
1cb5
0398
23a9
e2c3
d564
fb88
1317
1b65
fb9d
e137
226c
f4b6
1a73
1454
f5b3
0508
f7a1
2a58
ebe3
04e1
dbc6
04ae
f749
df64
d488
fafe
eaa6
0fb0
f2ed
0e96
e9a3
0d43
00c7
e600
17c1
d669
e3fe
1d84
dce3
f0fa
f725
068b
07d0
32eb
2af3
0f59
3d52
0489
21f4
1162
3b3e
0320
f617
e299
ff23
0105
14a1
1ef1
16df
0fa0
0ce7
0aba
230d
e44a
1732
1d2f
213b
0379
fe11
04be
0b2c
3e13
2e94
0798
0ac2
f910
0ee0
fc92
d3c2
3174
28ec
45af
22e4
0599
fe71
def2
fa6b
ffef
f762
3ec1
e153
1b07
f8fc
edca
2cda
171f
f500
f4ba
0718
d4ca
ff16
26cd
b983
f237
1019
194a
1dfd
34f6
f7aa
0750
10f2
fba1
1eea
ff2d
1516
0ee4
23ea
1476
11f2
2b11
e6ef
20f6
e0a4
3f33
03c7
3a9c
242c
0092
f680
1618
07af
eda0
05b7
f5a8
fdd9
29d2
1608
0c46
2fe3
ef19
234c
e64c
0a90
f9a5
1ff6
1bea
f24e
e9c3
2be0
2f26
02c9
f80d
f625
1f2f
1494
017f
2da4
10f4
1eb8
f129
de27
0f05
0df5
f2db
25d5
34ed
183b
091c
e6cd
e541
16b6
e62d
12cb
e4dc
e3cf
e59b
e519
1055
07d4
053d
1103
fe19
0302
f6f1
dca6
eab0
eaea
ff33
18e2
15fd
fb77
e2b7
e317
0e36
f0b6
fc64
f650
e633
f39f
e66d
0b17
ec00
0bc4
3fad
045d
ef77
f7fc
fa13
0e85
159e
24ba
0c2d
cf5e
e9c5
f1ab
ca39
a982
fcf8
dd7b
10b5
0315
03a2
f39c
109e
ea1d
f284
fe81
c5af
e84f
f208
adcc
efe2
f4f1
0aed
159d
29c8
e928
15d9
f276
1a3a
085f
eaf2
febe
1d40
1c56
15b0
2edb
fdfa
0f5c
f5e5
e60b
2575
da7d
0606
14fc
247e
1850
0f9f
1ca1
0427
ee30
0234
0bd3
0161
e5b3
0511
f92a
fb34
109d
142c
089e
ff1d
2b2c
1ec3
1213
18ce
3402
e76c
14eb
f811
f1ff
0e2b
1b12
ffa6
13c2
0886
2479
cd8e
06f5
16f3
f475
0516
f770
ec1a
1661
0668
ffb2
faba
0cbe
4c64
e03f
5b1b
345e
08ec
1e1d
fbdb
25c8
013a
09b4
f4ab
2639
28d8
ed38
0ad6
110c
1284
f31f
fc5f
15fd
3411
0974
f5c1
1e50
fa25
e88b
fa37
1eb4
0bbc
19ec
ea4b
262c
f363
21c3
fd38
2da9
36f5
19a8
061e
ff03
c90a
2cb6
3051
18b6
4e3d
1ee4
3147
e7f0
206f
e9e5
1283
d441
0113
d9af
3050
e6f6
3747
ff72
1545
41e7
f335
e4f5
12c8
e2f5
fd9e
fdc8
eab5
2c7c
db8c
fab2
2ca6
f3de
ec91
e73f
11e5
01d7
0bdd
f00d
0a48
e846
219e
ff45
06b7
fbf3
02d0
17d9
dcc9
11de
142a
f022
ef49
f301
22c5
0b29
34e5
1c4a
342e
ff5b
fe0e
0645
1902
1712
ff6e
077d
15e2
1339
e78d
1a0b
1384
d6e4
2f10
fd57
e89e
da1d
1733
300c
f9f2
2a78
f356
057a
e8d1
e00b
02d9
c7d7
0258
e4ca
f9b0
eebc
040b
237f
f2ff
09f1
19e9
d951
081c
1554
e71c
1211
f55f
204c
0745
d768
2ac3
04a6
2c2b
d7d2
0c14
fd78
2fd6
ee40
15b6
0487
fe91
fc4d
fd3d
0dee
fc56
21d4
2dff
090f
24e0
e20e
e935
0477
0462
016f
2ab6
21ed
3179
e121
ea95
ff94
0ab2
dec8
0bd3
f51f
fa29
d315
e297
ffe8
cdc2
de96
0767
2a97
e809
07b0
1455
f36a
1423
0bd0
ee9a
0ff8
2f2f
024c
d4b9
005a
de16
ded7
21e1
fa64
0ccd
1078
e8d5
f1be
1832
ce53
0a27
d202
23b3
2f8a
3077
1267
e040
121f
085d
182d
0faf
d94c
169e
07ec
31db
f5db
1e21
1897
26e6
f8e2
1243
e517
3709
175c
2504
1474
02c4
f8b1
ebbd
0859
e80d
0ad6
3256
02f5
0830
e302
e9df
2bda
e586
f30a
fca2
1186
e51f
fd5d
e889
fbb3
118b
1f2f
d980
fcf5
1e15
0050
f737
23b0
ea04
e3d6
113b
2190
14f0
0896
041b
ffa4
38ca
f1bf
26f2
0ea7
008c
d90b
2cb9
2014
f63f
e1fc
fc74
2ab0
2663
0401
1180
3119
01b1
255f
20a7
f7e5
0020
1908
f6e3
e4cc
3bc9
f960
1c2f
fe51
0678
0080
ea9d
1ed0
1449
f9ee
0bea
fcbe
0cdd
e5e0
fbad
3baa
f61a
efaf
f057
1463
e466
ddf2
2d55
e249
0c60
2162
0378
2916
f434
01c7
0e28
3102
0f1a
062b
0751
2c9b
0e3e
121b
f458
50aa
24dd
04d1
0d81
19f2
2b1f
2f47
10f6
07d3
e2ec
0d3c
fe2a
1263
0f9e
f4bb
fab3
1971
02cf
218b
ec61
22a1
fc39
27a8
ead9
1896
2a63
fc99
fa2e
0019
eb95
ff1e
108e
099f
f668
ebbb
f22d
1269
0623
e8aa
115c
fe10
0605
f11a
1ca5
13eb
0a52
fa07
28b0
fa66
fa3b
06ae
ce2e
212e
face
fc0e
fae8
fd36
ff9a
062b
0bde
3127
f11f
f279
c8f6
e7cb
2c91
fc77
e839
f8a4
1d42
fc2d
19f5
f589
0ed3
f196
0825
3528
2464
f4de
0b54
2780
0fcd
2708
f78a
04dd
028e
e20d
e8c7
0c5d
0d6d
2a66
04e1
1c45
082a
05b8
fa7b
f31e
1cf1
0b3e
25ec
1429
ecd1
f092
0e3b
2881
e040
007a
e62c
fd20
10df
e8de
0615
f488
f485
fa1a
02bd
0341
06ec
0c7b
fc62
1c55
1326
e628
316e
2ffa
fa25
f02f
dfce
1a29
046a
e6db
fe5b
e105
06cd
d1c6
0b28
26ec
cc99
0292
f278
fecb
2bc9
e5d9
0a4d
0d10
1739
fd40
350c
f0fd
219a
eb33
e942
e9a8
22e2
f2f7
4147
2344
199b
1acf
e855
cb7f
d633
0a45
06d0
f6cb
fec7
d180
133f
2a55
1f8a
e5cc
f9c9
0559
ee36
198f
1212
e25c
18fd
05d9
3904
fc24
2560
f485
f248
19c7
05fc
06a9
1187
3d35
1815
2382
e8c6
518b
1b9a
fa2c
f43c
05db
3030
0661
199e
048c
d161
0396
e667
0ca1
f6da
e556
fae3
2745
29e2
08a0
19ac
1bf8
0966
0213
fbc7
e3b8
0557
fbad
3437
1c41
1fcb
284a
ece9
fd8b
ebfe
f263
0e6f
05a9
efd7
0cdb
f888
0fa2
d0cb
1ac9
ebcb
f39c
db64
e98c
f175
e669
e905
f260
105a
e05c
f73c
186c
c39d
f9c6
fe30
e1df
27c1
f37c
f868
23d0
11b3
e612
0c85
e9dc
eb21
0614
13c4
d8dc
0b90
eddc
f3bd
1397
07c9
06b6
f595
f570
eda4
fb8d
0d52
1e3c
17ea
fb4a
f16b
fc38
d949
125d
ff8f
f089
0830
2614
1d8e
01df
e7b6
f8fa
13e7
0469
f9f8
1321
fcfc
f5f0
0391
1bb0
e58d
fd23
d3f2
07ab
d346
12ad
047a
c5c5
18d0
fdee
dc95
1d01
ea58
f57d
1d42
1f43
1171
004e
0900
39a9
05da
17b7
0802
baab
0abd
f1aa
2143
0da5
31e4
0aef
f4e3
fc16
d270
0599
ff3d
f4e4
1d83
0b5b
f3be
0fb7
2741
fb45
2413
f4ee
1b85
ffde
f8f5
1e1e
1cb2
fab7
23e8
2d84
fda7
0520
ebaf
ce33
e7ca
e6bd
f3c7
e5d3
004d
ebb3
05ef
285c
f8dd
2543
0051
00b3
d3fc
f468
16eb
eca7
f61f
04ad
d915
f6f9
2b3c
0ea3
0b44
f137
e9be
0705
d764
df69
0b6a
1cfc
2581
0e11
1ec6
e62f
1731
fab6
2c64
017b
2166
de18
d828
e374
fd21
1163
0bdb
eae8
ffb2
2194
f714
e3dc
11c1
27eb
0280
186c
d938
158b
e647
058c
087f
19e0
f735
101f
05bd
dafe
fba7
2fa2
e3c9
01a7
f30d
0902
1567
e8e2
0705
0e36
f233
2007
2ad2
df25
e3f3
f62d
1a30
13ab
e53a
14ce
13c9
1f1d
181a
fc8c
f8ec
ee8c
eb52
0242
0a34
f058
1c93
29c0
186f
e00a
f5e4
d31c
0613
17e6
1188
1699
f999
f187
eb1d
f76b
ffae
0477
ee25
11a7
f44d
1184
1aa8
1702
fad5
166b
f7aa
180b
048f
1e4a
22df
1e15
e7ca
fd1e
f368
13bf
0f57
e323
106a
072d
f632
f3ba
0cea
ee41
0313
e122
1a3c
f84c
2575
0358
1143
1a8b
fa96
07b1
2840
e5ef
07ee
1cb4
e88b
1560
16ef
155c
2958
334a
daa8
f08b
ff65
3f42
1796
1cd4
1e05
f2e6
2ef0
0332
3097
2810
ef5d
21e3
e4a7
0ef4
f9e0
15f5
01b7
2e40
09e1
ff08
0d62
0f22
00a0
e167
da15
fe87
2385
1650
3707
0ec7
2aa5
eef5
0a42
1f7e
02fd
1b4c
f595
f5bb
14b2
2594
153d
1687
e800
080e
f957
fb7c
140c
1665
093d
057f
0cfd
fa3f
fdcc
1494
2464
0683
db4e
faa1
e677
edea
2add
0494
078c
eb86
f8f0
df20
40bb
f889
2cde
0460
362e
d2ea
0234
1646
049f
f368
1c64
16c6
f203
e679
01a9
225f
2e3d
e4e8
fcf4
fb39
f0e5
17c9
d1e3
fabd
0595
0e67
100e
f652
3240
f2eb
200a
1c36
e390
e81e
f4b6
e933
22d2
24aa
ef73
2030
1b9e
df7d
c93f
fbdd
edfc
1049
43bf
1625
f3e9
1d66
f4c2
f863
33b0
2d3d
fc4e
3384
0fcd
004c
1b6d
147b
cb87
ee78
fdb9
e87c
2239
02cb
f806
d9b2
2322
04c4
3184
2b26
e5b6
12d4
f257
1ef8
fe67
1977
f16a
2665
21e2
1182
3804
f24d
e132
f636
e258
e3a4
251a
3731
1a6b
183c
2c82
01ce
f976
0828
ebb1
0089
007f
fa4a
1e2a
f2cd
05fc
1f62
3656
0633
048d
24df
11d9
05d9
fd5d
d593
e0d5
f9f3
e6f7
1e28
f4b8
0981
e6bc
1720
edfa
f2e0
2a0d
2200
f1e6
2594
dc45
37d7
20e4
fa1f
0f3d
eda8
f735
e0f6
0036
edd9
edbe
16a2
dd8d
0afc
0ae5
d0ce
f339
0b9e
f575
1b63
f49b
1c54
f924
e542
d933
eb95
22b4
fb69
0083
10eb
eb7e
020a
15d0
e904
1bd0
f74f
e6b4
d509
0294
e0ed
1c36
2e14
dd20
f49c
df58
eaec
db6f
fdf0
0f07
15ae
da25
fe2c
eb25
e076
e61d
0cb4
2b80
db7c
e09d
177f
fca7
0821
04fe
de89
2cab
11ea
c589
14ad
0200
fe51
002a
1bd5
d3c4
0311
2f9e
00c9
0124
10da
0206
edb0
0372
bd6c
db1b
19b6
022e
e94e
308b
0698
e6fc
f7f5
e46e
f483
e33f
dcfa
e03e
faff
f4a6
152f
e53f
f5b0
eebb
f0e7
feac
f986
0311
ce89
f9d9
0352
f1d0
f0da
fc9b
f015
030a
1055
00cb
0dca
1be6
ef1d
0657
4015
1303
0aee
fcb1
e6f1
135b
343d
09ce
0eea
dd46
03ea
08e9
03de
18f9
e058
2a64
f9ac
1236
f54c
f524
ed53
e837
0bcb
3564
07ed
241a
f5a1
1ec3
009a
40cc
f177
1251
0db2
0d20
fdb2
3f67
0f3a
21c8
2808
1333
0412
ff71
f0a4
01cb
2113
1323
0709
ede8
da24
09bc
1298
1a34
edd4
147f
2ca6
0293
1b69
1e66
d3f9
f43b
d41e
bfef
dff8
2b7f
ee42
c42b
224f
ebf4
df27
e525
07d9
fce2
0bf5
fd26
d915
16c9
07ba
ed04
e82d
1150
f68f
112c
05fc
e7d3
e19a
0413
f3d0
1dbe
d8a2
0831
1666
2867
2354
1989
1195
2a73
215d
eaf8
f531
0438
0843
0dc5
16a6
ec82
ea66
20b1
daa0
db0b
e71f
c894
12bb
21ec
eeb4
ea5f
fece
f7fd
1c0e
15c3
1472
019f
e1a8
02cd
bdcb
f993
d381
ef61
144c
f602
2193
e8e1
2cb8
d340
f19c
10a0
14de
0780
f0cf
13dd
1abe
0648
0345
fec4
d5a0
0a54
d251
ef93
0f54
026c
0012
eb52
02f9
2778
c582
ee90
e662
f63e
f08b
f85a
fccd
05ab
1948
04ef
de07
013c
0e82
0d41
22e8
f83a
d29b
fa2f
cd31
e0b2
fe05
1900
f438
e9e4
f7c3
1582
0639
0aac
dfb4
d482
1169
0a0a
0ec9
f359
fd57
012c
fd27
fb86
e967
0d63
12db
1aa7
fe50
02de
02d9
16e2
1767
eb41
2258
edb7
faf4
19e4
23f5
085d
f9c6
0134
f099
1814
272a
00a2
eafb
dbde
fd33
0595
fed6
fcd0
1e20
0f69
fa61
1903
0636
d445
2aa2
e941
1046
f1df
1d0a
f8cf
ec87
075a
3eef
13e3
0607
16c3
0362
f4dd
fda9
fc94
fa75
0662
ed0c
b54a
eb9e
33eb
0e2a
23a8
fbf8
dbac
421c
e96b
1641
15c1
fffd
2964
361a
f769
0071
fcdd
21b1
3e8a
04e5
172d
26e3
0a20
e9dd
357a
eb48
206d
ef70
2b6f
c4fe
f7ea
1eac
e2a1
0e9f
06bd
200b
02a1
f064
0658
edb9
293a
08b3
32e8
06d4
f95a
24a7
06d4
0b1e
1eac
f649
fa4d
2746
2347
03f3
f37f
e8bd
ebc5
04bc
0f7f
0610
ef18
13a5
22e0
0bd6
d1d6
e491
ce17
0241
e016
2051
41f1
d2f9
e3c8
1aea
f5d2
e0ea
e120
23ab
df5b
2a90
ff48
efb5
1822
f659
f448
e896
f25c
ff11
3b43
e24b
235a
00db
0eea
eafa
08f7
e969
fa05
ef21
e521
22b6
0fef
da1e
0632
1095
0ae6
1722
29c4
f0b6
1a94
08bd
e370
148d
f766
19c0
1949
2413
0386
e435
0dd8
e76b
1427
ea75
1a1c
18fb
f366
2569
2204
4399
d4f0
0968
d4f3
092a
ff12
fa40
05a0
f603
06bf
0fcc
0043
0ddf
fe4e
f2dd
13bf
0259
1525
1dbd
1dd8
1602
e52f
e6ea
09c8
d16e
29a9
ff14
fae1
1340
ecf9
fe0f
e14d
f85a
faad
f4b3
e6ae
0bcf
11b7
e992
1987
ece1
06cf
26a9
e3b0
f702
f204
eb2d
0090
ffa9
eb6e
fba8
ffd8
f624
e098
f446
f60e
d6dc
f940
09e8
0816
e94e
011a
208c
f4ac
1a04
c1c0
ec84
0d67
f954
fb8b
1186
e324
f4bf
0643
02f3
294d
12ed
f9f9
231d
09fb
1b55
0869
f6d9
14ce
06e4
08c3
1414
e489
101d
04d8
0db5
2689
1d11
2e8d
e47c
1296
febb
151b
0657
f280
2dda
03ed
0368
1ef3
f09c
0e64
d895
1f9c
ffbd
fef0
0819
e88c
fc52
068c
22a8
265a
1e02
1f42
f157
e990
1fc5
fba5
02c0
145a
ee47
2ba2
f5f5
1f44
25cd
1457
0d71
f4b3
f65f
eb1f
0bc9
37ca
e39b
e982
036e
0347
fa20
1acf
fd55
4c86
0817
1a7b
f792
0dc8
287e
1adf
1d16
ed9e
0fd5
ff1a
f4c8
227a
f5fa
083c
ea71
075a
d31c
21de
f366
e21d
2678
ec37
e21f
f697
fdc8
291b
15fa
ed70
099f
bf0d
2527
1626
0cc5
0289
2c9d
21c2
24b9
e0ab
2346
1706
2d3d
16fe
2e09
0a08
fe0c
ee92
36fd
01fd
f2f5
f96f
ea9e
4928
166c
1d39
2358
d29b
2088
f618
e6c7
0caa
0018
3222
3dbb
dc04
02fc
e5a7
098c
1a57
1ada
02a0
ff62
0392
ea64
22de
11a8
ff0c
d823
2ba0
c8ba
1276
20f5
e98d
0aab
dc77
329d
1ed4
1d8c
0e59
fc16
2925
21e5
37fc
115b
2239
eef4
dd9c
e109
45a9
fb38
1aa0
ff52
085d
f237
e618
28ac
0655
1631
1f90
fb77
0e55
ed62
e902
13db
241a
ff15
084a
34e5
ef01
e65a
244a
f0e1
02fd
0ea1
f077
f18c
1cfa
f778
e71e
204a
f2cc
f86c
fc2d
2329
14b3
0bd3
eb67
1b39
f5a1
f1d6
02b0
f567
26f5
dc00
16cc
1c64
27aa
fe1f
0aa7
167c
1fa6
cae1
031c
3020
edf4
f0de
2d54
0715
23d9
0f26
cc73
e71e
17d3
1c66
2dec
1bae
2316
0973
16f0
3cc5
dd48
0a7f
1873
f963
fdab
260d
2665
0ebf
d65c
0910
e8b4
1dfb
dd2c
15fe
1e2d
2238
f137
e432
0f34
ea18
058c
3d6b
1c8a
1ec3
1279
e77e
1e6f
0c74
d076
e671
ee59
f506
2215
edf3
ffa6
dbe6
0f4f
f4c1
2d06
fc80
ea87
168a
e7f0
fa92
22cb
e6bf
20f5
fde2
212e
f94a
00a5
f10e
1f17
1f08
ea1c
ecef
346c
fee6
3bfe
1c57
255d
e008
0901
193b
d947
d839
33a1
f1f7
e85f
db0f
01e8
16c9
3b82
15fd
ff21
1d52
ddd2
0980
00f7
00ba
d995
112d
ff56
00e9
fd2c
f12f
13ef
2447
fa77
2020
e881
0b20
e2e8
19cf
16b9
0ec7
f46e
ff09
1c20
eda5
0647
e8bc
1db7
298b
df80
0139
eb43
110b
fb6e
f2d0
1fd8
1447
055e
1065
ed8f
075a
1105
f6b8
e093
15a5
034f
f224
2bb9
fa15
dc45
2b6d
0523
f03b
0f0a
1e72
12ea
0cee
ff24
0dad
feb0
2520
e04c
f0ae
086f
149f
1606
f524
d11d
f0d6
0aa6
eece
08dd
f73b
fc31
33f8
f3e3
fd20
fc04
e9b5
29f8
1228
f519
f4ff
1fe3
f072
1a4a
fe18
23be
e6e1
f096
fcd9
0691
ff12
ea61
0d06
1a56
f417
1ef5
f3f7
f982
0153
158e
2e3b
1617
2e97
f0e1
260b
df00
ea69
1451
0907
0c7c
1f1c
f3b0
0fc7
17d6
ed0c
cd91
cd4f
085e
eac9
dccd
eac5
ecba
f6ed
04dd
eb81
0894
eede
08b3
0102
2bcc
cd8d
148b
f021
15e9
0756
178f
fb38
143b
0469
e776
d7e1
20dc
fed6
ea49
0579
e45d
db80
2ed8
dbcc
1947
00ae
ffec
07b6
1a3b
11a2
d748
1546
1b3f
eaf5
fad5
f3ef
df7e
03c3
16c4
f98c
2c01
ec83
125f
d4a0
1454
e0ab
0de6
1f83
0be3
f10b
0658
1a9f
f5f8
e969
eea4
0eb7
fee1
17a2
d7ae
e9cc
01cf
108a
dcb1
1372
ddea
28db
113a
ddca
2845
ec9c
d435
14c7
eaeb
fa98
f979
1f5c
dfa5
f128
f052
f4c1
0381
0e2c
d061
e58f
f74f
f5f7
03cd
109f
0ac9
e5c0
07f6
f5be
f7fb
1b92
f149
0c49
1403
0833
090d
0abe
ff34
05af
2275
fcdd
01ea
14ae
05b8
e18a
1aee
1a22
fd38
fc2a
32f7
16cd
feef
ee8b
157d
0b4a
f9ab
e1fa
27ac
fbf5
e8f3
f091
f715
042f
df12
0bf2
070f
2912
fcb5
f4d2
22f8
b57a
ee1f
0d9d
fdbf
1b65
f99a
26d1
e5ab
0e04
1560
f7d0
4240
3e66
f8d9
fac3
2301
0c7a
103b
e06e
06b4
f0c1
141f
e37c
0172
e403
13f3
0d05
f4f6
2a11
f84c
024f
f3f0
2b40
0611
07c7
3875
2333
edac
0492
e5fc
ebdd
4004
f2b9
f7f8
1504
2a51
103f
0c20
0fff
bc05
d6df
00e2
e942
f7ad
063e
fc59
0c18
1619
f3a8
1434
eaf0
d122
eede
0cc0
e833
eb98
df67
f3f0
fd39
1a53
0aea
0658
0881
1b89
1047
26e7
38df
1d72
f4ce
1c46
2a44
0d0d
196e
1b59
e6da
16b3
eb32
0c01
1110
eb68
f8e9
0bc8
39fa
e91d
d7d3
0906
2b63
3781
0496
1390
f771
0fc0
0139
27ad
00e6
fadc
2abe
19da
1b94
f612
2d1d
1c58
38e1
e529
0a1a
fa23
f65e
23a3
0de1
2818
156f
fec2
1547
fbf5
1f4a
07ca
e254
2cb4
df27
eaa3
e0b0
e92f
027b
1d75
3a1a
d73f
2f64
f197
ff8d
3c4b
279b
e532
0dfb
08eb
facc
326e
f46d
0170
1795
3262
ee7d
0f64
2e4a
e9ac
1916
f3c2
22f1
0878
f138
e910
14ef
1a57
0fed
1993
fe32
26bf
e798
f4d6
258b
3ff0
06f6
0833
0ed7
1f37
e925
11ae
186e
1113
ecf1
3af1
1893
19ad
e54c
2065
20ca
3b7f
fb2c
d668
3697
0aac
1074
2e16
a8ea
0861
fbe5
0118
f73d
3b8d
fda9
4d74
f29c
0bd6
197d
114d
108d
f0df
0a97
0a91
06e2
22f3
edfb
e4b5
0c1e
07b7
fa14
34a9
0869
2a18
1406
018d
f0ef
d9f8
ddc9
f83f
2cb9
e55d
d70b
f029
0f21
ebe2
0dd1
f397
0cec
f522
1cfb
1ca5
070b
e50d
3500
f6c8
ea07
3efe
4803
298c
f193
11be
e78a
190d
ed82
1804
c87e
2559
0660
1b08
d775
d602
4d27
ead8
e032
0bc5
054b
08e5
2388
f373
089a
06da
dfb3
092f
3a3c
14ba
f644
0a9e
0ea9
2a96
df9b
207d
1645
3202
0168
0ab4
fc8c
ed72
f686
fbbe
3110
ee16
dabf
178e
0245
1892
0050
2521
1315
1270
fdbd
f8d7
ffdf
342a
29a7
3753
2b61
046a
0ae0
e0b3
f889
ce41
17eb
06f7
ff8f
1b46
0d49
1912
04b1
1123
e4b2
2d44
2357
f005
03d5
1164
e00d
e51b
d4dd
2f1c
2271
3f84
14f4
e6d8
033d
17dd
13df
08fb
4142
22a4
0d45
f8c6
0405
0045
e82f
179c
de2a
19e2
d31f
fe06
21a8
00af
20d1
0178
2f58
fa8d
036c
2fad
0516
3975
1c6c
3e83
018b
342c
fe44
0162
ec9f
2bad
2290
02ee
3292
0820
1c5d
048f
1310
e309
0971
ff90
ec31
0c6c
e37c
0848
1305
13bb
1135
07be
f7ae
e432
e0d2
1aae
ea1a
e2a4
de78
24b0
dfb3
0b57
1b9e
d747
0a3f
0155
0ee4
11b0
344e
dddd
fa5b
f724
4800
04dd
1b84
055b
0392
12a6
fe3b
2c92
2159
f1f6
f759
fdc1
10f9
21b8
ed03
13f4
fea5
0e7c
24ce
30fd
fce2
2c7a
fe9e
f650
e14d
2aba
0c22
2a3b
05d7
ec7d
06e1
dd97
f9ab
efd1
d5ac
2114
f140
12bd
1bdd
e86e
1ca3
0f9b
0709
1fda
27e0
d04a
fac0
0643
fc1f
dbb7
e2ca
0610
e7f8
fc62
f26d
1647
2556
0102
f205
0abe
042b
066d
1bec
f8e6
5e88
f178
0a46
f5a5
f91f
0080
0ea4
1a02
262f
06d5
fadd
01df
1f6d
005f
0455
f0f8
e485
17d3
27f1
27b1
0a13
e2c4
08a4
f5bb
04e8
3165
f9e0
13ec
1c60
21fc
d788
10a9
1354
1cfe
eb00
2175
1684
1172
cdd6
f8ad
2b80
b79e
0952
f91b
f711
e4ff
f2f3
138b
3859
00ed
e0c5
e484
eb6d
1f6d
257f
e84c
1acc
db1e
0d02
2204
2784
cf31
e725
fc05
57c3
2faf
06b4
026a
f273
f2d2
db7e
e981
22ad
f62d
0fc2
f0a2
01f7
0608
2368
1d20
e18b
2c5e
ece1
2ad4
e747
2278
1620
db78
044b
0f3c
ff8e
2680
f333
273b
e2a4
de36
de22
d5a0
e467
1fe8
e0e1
e310
149c
1e53
1058
d4b4
e138
dab2
e71c
d07d
f141
196a
e72b
0554
e53e
20bf
ff58
1f2f
f492
16c0
17ee
14ad
1e42
1611
0116
2ee8
ef97
fa88
3542
1cc6
10d4
f4d7
f165
11cb
1edd
2a0a
1a85
eee2
fb4e
1918
fd1f
16ba
efc7
fadf
fb62
1523
1732
0095
2966
045f
001f
f811
f068
fae1
1a2b
fe78
011b
ea9b
2516
def3
1425
1b69
0225
ed99
1bcf
2853
2196
f022
1091
0371
0e0e
dd86
0fb7
0605
e9ae
0b40
e129
1c35
e962
18bc
ea41
ffe7
f3c1
e01c
16db
0f60
0342
2480
1442
fe58
0cd1
10ca
fc8f
039e
e2cb
f65d
0cc1
1e5b
00e3
044c
f1d4
d4de
f2e0
e2fe
ef26
15fb
f248
e7ee
0244
077f
f742
1a46
33f8
146c
1ff8
117b
f58d
e8fb
14c8
01b6
0785
f23a
2412
04c1
efea
e18b
16fb
e87d
e8bd
fd09
d6dc
1fef
08dc
ec5b
de29
1dfc
22d3
db24
ed4f
fcb6
efb0
ebe3
1640
03af
ee89
20b9
19f6
e85e
f77c
0ec4
d910
179b
028f
e967
f694
1621
28ad
fe98
165d
0b74
08a0
0760
0b8f
229d
30c1
d20f
da41
130a
f1ba
1213
2b0b
f714
ecfd
fff4
1e4f
0b3d
eedb
3bd7
ec40
e239
f2fe
0e32
1bab
0017
2a07
2959
f69e
f337
0580
b718
e1d3
e986
1a0b
f99c
1867
e49e
f633
f377
f771
def5
ea92
dd35
13e6
2a86
ede6
0b56
ece9
d4e3
2301
28b9
184f
bb25
2bbb
1566
f6ce
1bf5
1dfd
02d7
fcf6
12cd
52d2
03b8
f6c1
fcd5
dff7
0022
1807
fcf5
f391
0652
0df1
dcfc
181e
ecc3
0dd3
ea57
f6a8
198c
06f6
ee6c
f857
fd5e
f151
0da6
2a40
ecb7
19dc
eb25
fe22
fc2e
ef67
1439
caf1
08d2
f4b5
fafd
f963
f622
1c9e
1ef7
efcd
e03a
15eb
ece2
01be
f0a2
e69d
ee29
f572
dea8
d8f7
0ae4
13b0
fff8
1a9b
d3fa
07e4
048e
e6ba
26d4
019e
2594
f1a6
145e
31ef
02cd
003f
f556
e99a
fe48
0868
e9a5
f679
e841
fa33
e1fb
1d4a
f7df
1bb5
005d
e666
f543
101a
f266
2215
36aa
ef39
fc29
0b0a
085e
2402
05e6
e745
fc9f
d3a6
0288
e921
d867
cd2d
f8b8
081a
13be
f448
005c
f7a5
112e
2501
f1f0
1578
1027
12af
118c
f2ae
e805
1466
f85c
f98b
edf2
02e5
f90b
06fd
1445
ff26
1c0d
f1d7
31d7
1708
f328
01aa
10f4
f892
1d37
18ab
1d7b
0c8c
15c0
1995
dae1
0b56
0557
ea2b
06b1
eebd
ec4e
e680
267e
02fe
253b
ebd7
185a
f21c
e4d4
0e06
0c0d
fe97
ee48
efa7
0c04
04a2
e092
0567
e8ee
f689
00ba
eebf
ee23
1161
2439
1dba
db99
e234
faa4
03f0
ee7f
f790
21a9
e901
fd09
dd7a
eeac
252a
135b
2aa0
e7b3
24a0
f864
1861
0f9b
fb1e
1347
1f18
fdda
193b
f925
fd6c
0c62
126b
0ef1
f022
13f5
f4d9
dd04
0d45
f5d5
254b
f6c5
f359
08c3
efdc
10be
f73c
1dfd
eff3
1dae
ea60
de29
e5fc
0098
1000
135e
0755
050b
03eb
e5bf
d42d
0afd
f6d9
f20f
ef8c
fd74
0e59
1078
1179
0fdb
f953
f0ef
fe34
1535
e134
fbc4
fd2c
d461
efc4
2581
0e94
1251
0d9d
f7d8
1404
f426
fcc2
27bb
23e0
1167
e650
fa80
44ea
2d04
eecf
0910
06b2
2f0d
e757
0153
f845
f634
265b
f904
3eec
19fe
eb61
e993
12a6
106d
2a1e
3f9f
2c79
f1c0
2778
e62d
0664
0140
31c2
0a84
0861
0261
2207
d848
4147
f0e4
1844
09b1
f8f9
e22f
0b89
178c
2257
06bc
e60d
fb1e
f8c0
ed83
0fa4
0c39
eb7b
e04b
ec48
0520
e648
20b1
158e
286b
f429
e40a
eb89
0772
0d86
01da
0a7d
1071
d5c8
1987
04ca
f22b
d2e5
1acf
0b35
0530
0d84
2c6a
0f7c
e59e
247e
1420
f6d2
1347
004a
2c0d
2322
0678
033e
2aba
03a1
da71
0127
1dff
1c14
07b5
1740
04d8
0423
0a4c
15a9
dfcb
0a06
0abb
1922
e51e
1999
080a
0707
116a
e81f
158b
2fa7
1162
eeea
1414
3083
0595
184f
f974
1186
2240
333e
026a
215b
0651
e8ba
4d72
2e77
e4d9
079d
11ce
fd19
3e4b
0305
0264
0cff
3285
f974
23f2
f33d
0366
03ca
f1f0
03ad
25cb
fba0
da86
2453
2401
18f8
33fe
21df
00e4
e835
16e8
2e4b
27b7
11fe
2d4b
fb8b
0a89
13bd
1e88
d17c
e5bd
ed08
2753
e1f3
2476
1874
eda0
3edd
c0bd
1c2e
112d
15c5
0d17
209d
3344
b719
0a5d
155e
0412
fc90
0a19
2d2c
0bed
0569
0651
e6f5
32ce
239c
233d
05c8
f14b
3f97
feb3
eac8
26b2
ffb9
27a9
1fdc
0b0d
051f
f3e3
ef65
ef4c
259c
1cdb
c712
1a08
1e39
f825
1d14
2b07
ff56
0d57
e671
f866
ea2f
3bc4
12dd
1ca6
fbc9
3846
0d4e
17c1
f999
050c
e54e
04d4
db6f
04f5
e0c5
fe80
08d2
f4ef
17e7
03a5
1550
04d8
e68b
f57a
3922
e182
f3b8
cd17
1ae7
f517
17f5
e6f7
1ed3
e1df
0a0c
12e0
1b64
db66
df32
3076
1edd
1a61
093e
fe5d
02e1
2cb9
e466
f7cd
0cef
d163
fb54
fe89
15e0
0780
16d2
1d62
d73b
308f
28d1
01c1
08a0
2c41
1479
f794
d8aa
0b0f
f771
fbfb
1135
23de
bc5f
0b83
ef87
db85
f1ca
ec83
f711
146e
ea82
fafe
03d5
eb03
0a8b
fe43
19e2
d9b3
f071
0b1a
c5cf
feff
18ee
ff81
ffc0
2ebb
0e3e
0b17
ff9f
0f47
15d2
2e76
014c
d43c
fc52
e544
ddf0
1f7a
0761
04d3
ebeb
30cc
d1fc
0670
2971
0bc5
ee58
e6dd
1639
202c
b13a
1a4a
04e5
1dd2
f701
3378
0db5
e20a
1978
0253
e3e0
193a
2b9b
1eb2
2462
2da8
2634
06d6
f987
f22d
fbb6
14c2
f79d
1d93
f2c8
0d06
156a
b540
1a4e
ec6b
19a5
d22f
1ea9
270f
d804
fc1f
f73e
e08f
e661
25eb
f6cf
0584
f87c
f5f1
1830
f6f1
2b62
00b9
f61b
d761
2aa3
322c
110d
fa38
d5e9
f5cf
e70e
1013
27b6
277f
187b
0ee4
fac6
0596
e205
0071
f85e
0130
2b03
2f4e
2392
2f8c
e117
0350
ea3e
3a4d
2b63
1168
1b60
2a14
ea97
133b
22ac
0251
08f4
2bae
0f32
12a7
e198
e932
3ac2
12ae
f479
1e89
02f6
f43f
f801
2e0c
1bb0
1857
1dae
e04f
0760
e013
2a8f
1dbe
1c71
fcce
f62f
0c9f
0783
ffca
10ae
eb6d
182a
21c2
0a50
26d8
f0ea
0187
f1da
0aa9
24b8
205f
f892
1b22
23b2
0cd8
06e2
0f45
e7a8
fe00
04ca
ef78
2301
07f0
1cf8
0782
f5a3
1e73
2b27
003c
1c41
fbd4
e877
f7f3
0fea
e3ba
ee19
e199
09c5
027f
db24
200b
36f7
28b9
0f19
d633
f43e
fafc
dec9
f39f
da08
dce5
1783
fef3
e95a
f8b4
13ac
de7e
1eed
d5d7
f03c
2960
ff75
270e
01fb
dc1c
13dc
1cd9
e213
eb73
124d
18b0
f049
1c8d
17b6
fb2e
12ed
da38
2570
fa02
1bb8
173f
f6a9
1d7c
15ca
1bd1
03b5
121e
ebd2
0d93
f7d1
3191
11e6
f392
edbc
e2c0
1c45
04bd
ec7b
d54e
f308
f4a7
058c
ddc0
de56
1a4a
2bce
ff81
0af0
ffe4
157a
d49a
f13b
15d4
d4e2
fdcf
e9f9
e046
029c
e61c
fac9
eab1
082e
f4de
eb63
14a6
1620
eed6
228f
315f
18a4
09a4
fb98
211b
d270
0ad2
f685
1665
252e
0488
f0a2
f834
1c2b
f96a
da9e
0eea
e98d
f97f
08c5
0d05
fd71
183a
003f
e163
d64f
0c79
efc7
086e
01ec
0388
f2be
10e5
f2da
e0ac
f93f
047a
0047
e11f
f7da
1fdf
15f6
0eee
0644
1581
e7b1
09fa
0ae9
1d3b
f83f
da4b
e9bc
11c6
11cf
2cd0
24cd
1814
2f09
fc0c
e25e
091e
05be
d9f1
181a
dc4d
3b15
ffa4
ff7e
12e5
f6df
273f
c6f7
03c9
2662
ff53
ebd1
d8e2
0816
1f45
d59d
dae6
1b99
01a0
fefd
1d37
031e
f6dc
f72d
f537
e613
30c8
07ef
273f
244d
f6b1
15a8
ffa6
31cf
0eac
da0f
3444
0c00
02ad
0b02
25f2
3be3
a9d3
fc98
f266
1653
fffb
f230
3ebc
2001
e911
06b2
1878
12d0
14bc
0681
d6f4
0453
2705
1582
2bd9
384b
3d25
11c4
1dc4
3e51
4192
0772
04d2
14c5
3a3b
d9a2
360c
12f7
fc65
2624
e149
2bfd
042c
f11d
0e6b
0c83
0531
21ac
15e5
35b4
eddc
125b
f8d8
042f
03d0
2f6c
fb4d
2e7d
145b
1869
0e86
f315
e226
1f49
133d
f176
0be2
0ca6
034a
1877
40dc
1bbe
3052
fd89
f737
f50e
0a6c
21f2
dbd2
f06d
e5fe
e626
f0b4
e789
d9c2
e81b
ed41
e9d8
10de
f48d
153a
04c3
24b3
bfdd
e9ba
1668
d4ba
0320
f7f8
e6e1
de2c
0176
c976
f388
0497
de95
e55e
e388
cd10
e009
14eb
22e7
f990
f094
3127
faeb
f16b
f9fa
dbc8
0411
f0c4
1d8e
f41e
f700
cd16
d2fa
acd5
cda5
c773
dd25
0df0
e5a1
0a44
e8af
008b
e684
e9bd
d8de
d1ec
1384
f114
d4e4
07a2
df94
159a
0a15
e72d
176f
dd52
0c98
096f
ed65
db70
e7a2
e3fe
1124
ed7d
e0cb
00a2
0e80
0f4e
e746
282b
1d7d
2444
f1a8
ddd2
e2a7
f843
1ebf
fb48
f70d
1b00
1105
ec55
0769
04de
e12d
fb01
1e4d
d016
fb61
e2b4
2930
00c1
0697
0488
f3df
014e
c7d7
043d
eafe
e62a
1138
fa3d
d82e
1870
f0f9
2d63
0cc3
2ee0
1bb6
21f3
f92a
0692
f589
02c6
fe29
e124
de2f
5af1
f855
4cde
03b1
177f
01ea
d384
022f
0e80
1041
c0eb
0999
2c61
125a
2aa9
f00b
f4c1
ff7d
18c4
fd9c
26e4
14d1
0f59
2676
ea0e
e6bc
ff98
0bf5
05ad
e774
e70e
ffee
cd01
0e51
f00e
0125
26e3
0e45
f0f4
dafa
fa0f
2a7d
f148
18e6
3182
3c4b
3ab7
03df
f210
0113
261f
d9e6
159e
efad
fe25
1248
0d46
f28a
04da
411b
0b26
f167
1cbb
f30d
e5a0
24ed
01dc
1506
0efd
fb7c
00b9
2451
ef92
11a3
308f
fac0
f787
f8de
163c
d2d8
f1d3
faed
0759
1561
348e
e402
f4d0
0190
0369
f235
03e8
1996
0ec7
f382
12a0
1bb7
eb1f
d721
d92f
063c
21c5
2d78
25da
fe17
fbee
e937
0a42
350c
ccd9
ebc9
1eaa
e6ee
e52d
0efa
1f98
33ee
eb6a
0bee
0c52
0a6f
fa59
119f
fbae
11e3
12cf
13f5
e968
d720
1fb1
f704
094d
24e7
f7cd
0f43
f6db
092f
fce1
13a0
eba1
e2ac
1ea0
f854
f393
da8c
11f1
ed37
2f29
10d6
0e40
0cfc
0dc9
27b0
ec5d
07c5
f50e
fc0b
1db1
1bda
158f
e8dc
2737
1562
f55e
d1f8
0b0d
197a
1fad
fb99
20ea
fca7
10cd
1b58
0152
1743
2b68
f5c8
d8b2
072e
f826
fc6a
1441
fc04
ed65
f3ee
17c2
e275
2123
ff39
135b
07bc
f9ca
0f50
07bf
0dd4
03d6
171c
0362
0347
f924
218d
dc39
ddbf
fc9c
1c10
1085
0298
002a
137c
eff9
1c8e
1bb9
1a23
f2a4
e70d
da6a
f94e
016b
0bd4
df62
0774
1550
fb29
f43b
eb6a
381c
129d
e085
138d
008a
21c4
0c00
ef0e
24bc
ee2a
f3b2
fdc5
e1cb
f6e4
1803
f68f
f385
14ff
f89f
16b5
fe9a
fa49
e20a
03f8
fa21
0bba
313d
0ea6
ed20
dd41
ff7e
039a
24a3
1184
f142
380c
196f
0e67
22e7
0025
d9ee
21d8
1049
451f
085f
1a51
108f
fa0b
2504
15ae
056b
253b
f11f
0095
127b
3fb7
2bc2
c5d1
229a
f3a4
1ac2
f30e
256a
306d
0d6c
2647
0871
032b
3e15
1cae
07cf
0102
27cd
e963
1dc5
000e
ee2e
06db
0462
043e
15cd
1af5
0b06
06e3
2fa2
f31a
27dd
2f08
1173
e79a
f9a8
d6e4
f76f
1423
1d14
e99c
f410
1ee2
133e
13ba
0faf
125f
f25b
ee4b
e111
2382
030b
2a64
0339
2194
026b
f70b
16c8
ee84
1340
1dca
2a12
1aea
0efa
ebac
1289
0593
0a50
e9cb
10e5
1837
231e
fdaa
fe57
f49e
fe19
dcd8
e94f
01f3
22d2
1a9a
1a6d
2090
f574
ff2c
f991
076c
fe6d
04d1
dc5b
1b8c
ffb4
eac7
140f
1f10
08e9
ea48
1276
0427
f544
2a45
f3d6
db6e
db7e
139a
36d7
095d
0905
23c6
ed2a
114a
3074
02f9
05fa
edfb
fbf6
1ee2
1518
efd9
fb31
f956
0a36
f67d
fa87
fccd
f04a
2031
ddbb
13cf
1218
d4d5
eee4
0ee2
3108
e1c5
1274
1f17
0731
0f39
ee42
0efc
1a29
0f27
00da
20a9
1426
0ac5
e19b
f9a7
181b
f03a
2177
e4ec
f37c
1588
f8c2
3590
fb01
f4f1
fc69
fc2a
e16f
f15d
18dd
1597
eba0
fd2c
fbd8
fe96
131d
fe0a
1ae1
e7c5
0c8d
1cc5
1b33
09a1
fb8f
f956
e603
f0aa
1241
e026
18f1
1ca1
269c
ffac
0bda
02d8
071d
1d39
0870
e3be
f7bf
f328
0cee
1362
38ad
ed39
0552
0cba
fc13
ed54
0a42
e302
1cfa
ef15
372d
30d5
2a57
00d8
d6b8
1930
e20c
ecf7
0377
0593
195d
d8ef
1891
12ba
00b6
ea9a
dbb7
3106
d609
f680
28d8
45da
ec0c
15f4
c426
1fd8
0f98
30e6
1091
efdf
efcf
1f65
ff30
f0fe
e12c
28f9
06d4
02a6
0677
ecd0
14af
f37b
29ba
ed79
fde4
2cd1
ca42
0726
ecf2
11fc
eb51
eb09
1437
143f
0b1d
2523
ec8b
2955
eec0
fb22
f221
28eb
f49b
ec35
2f92
f386
e960
16b7
ea93
e9d9
ddb0
fa44
049c
e692
074b
fc80
0454
2748
e057
f8a3
ee0b
088d
d971
0444
feb1
ef55
e112
d977
0bec
05fe
1306
07e5
fcaf
000b
dea5
e7f6
f121
11d3
e835
f984
194f
396e
ec9b
ed43
2250
0a75
1688
f4d4
0d28
2bf4
f032
f709
e2a6
2e1e
1989
f03b
eb87
ebf5
1639
ff42
15e1
f24e
18c7
e82a
0bd9
1a0a
1517
2acc
ee4a
0e62
25e2
ef81
f149
e153
bcfa
e8ae
1fae
19b7
170b
0d0a
20fa
f980
06d4
f8a7
de4a
03c1
f60c
fc2a
f51c
fb69
fa55
13fe
f3b7
00b5
de51
f37b
3110
00dd
e6b7
0281
1a6d
0b4d
f5fa
0f1c
f7b0
4795
1ca3
e487
24d3
fb97
3717
d7fc
0847
2f71
2732
dfd5
08b5
e756
0cfa
ef02
fcff
05ce
fa7a
2161
3716
ec6d
fa5d
20bd
d6d8
f9d0
3aa5
2a42
fc1d
20d4
05d6
fa56
1b3d
3463
d2c7
1bd4
2c83
0fbc
15e6
07f1
113b
3d5b
0062
f653
dfe6
0b85
1594
da0a
2c35
2db8
f42b
f635
dcb3
d770
db3b
11be
0aa5
16d5
0b79
f286
0382
f1f2
fe0f
17a7
07f1
d731
f8f6
f657
1fe8
141c
1ae7
f0f0
0143
e0cf
3f71
e0c1
1a94
06dd
1396
06cf
fa9a
d1c8
fb6e
dabd
fdd4
2482
058a
de44
df66
f903
e30c
0dee
033f
f489
082c
e9fc
026a
3579
1def
30ab
1c4d
faf3
1107
d62e
f056
00b3
fada
276e
f4e4
170f
09fa
01a7
cc9b
3eec
e162
e1eb
e8f8
f5c1
30ad
140a
e51e
16c0
e32e
079b
27e3
ebbf
fc93
1d35
f760
7fff
ec5a
ed1d
0c99
d9fa
320f
1456
0770
04ed
13c3
e602
f034
126e
02e8
ef4b
ec6d
fc0e
19a9
ec32
1704
2eb5
29b6
122f
f512
f581
2e57
fd22
f2a6
f090
1bf6
294c
0306
2ecc
eb81
eb6e
24fb
e749
1396
dca0
e2cd
28df
12cd
15f3
11da
eced
12f2
fa5a
fecc
ff34
eaec
fb48
d869
1409
322d
1e19
e5a6
f498
0480
053d
2448
093d
fd9e
f3b9
fe94
13b1
16f9
06ac
14a0
d236
03a2
1c01
1b49
0b83
fadb
15ad
0d2a
35df
293e
dbce
0d2d
1899
0a53
07ab
1824
205f
e5f5
1036
dcc3
1f56
01bf
14ab
38a5
323b
17f5
fd8d
e0d1
c727
e7f9
e4f3
e34f
df42
e7e0
16f4
1791
04c3
f506
ff1f
d778
2e10
fce6
e05a
1f9b
d9f1
191d
02bb
17e5
0f3a
f90e
ff9e
e197
176d
1408
f122
3a68
188e
1d1a
f6ce
03cb
2dba
3ad1
08fa
338c
f403
21d0
fc89
1fce
19ae
e6a9
26f4
ec44
f493
16ad
06d1
00a2
e163
1962
1889
feb2
1959
3e9c
0db4
f858
064a
30eb
236e
0866
03bb
1c8d
0576
e90e
1f20
fc82
121d
303e
ed65
eb56
e752
22ca
1a37
28d9
e535
15f2
176c
13cd
15fb
1f31
c222
d71a
f418
f205
e9e4
0207
271e
ff87
0033
0582
1ea6
3929
36bb
de13
e965
dbd5
185d
3b31
13ae
18c7
0356
2689
fa6d
fe40
f02b
0077
0766
df87
0dcb
2759
e1ef
e68e
25ab
4334
1f58
24b1
1210
02b3
e123
e1d6
208f
1668
fca4
33e6
20f0
fac9
0782
f7b0
ef2f
f449
1379
2cf2
dd4c
1447
0c04
19e7
17a1
cfbb
ec5f
0529
0568
0012
ee87
2764
d477
09e7
04a2
04d9
ef47
19a7
0cd2
055d
0543
07e4
fe63
f9b2
27a5
05c8
ffdb
14b9
1472
f09a
fc28
f400
0c01
1487
055a
fb57
051e
fed0
0da4
e993
13e1
1e5a
0adb
ea42
fbbc
212e
ec30
124a
0157
1ecc
f14f
eb7e
effe
1489
16ab
1acc
fb8c
098e
e9b8
181c
e3c4
dd0c
ee94
0aff
d95f
01fc
e9f4
1cd2
0926
f7f3
f069
eae8
0f81
d82c
e49b
0163
cfd6
f09d
23a2
19b5
f66f
260e
e0b4
01e8
f353
d84f
0061
ff43
ec96
05f6
f39d
334b
ee7e
cb6c
faa5
c193
18a2
cf94
15b7
fbbe
0b9f
2030
e7e4
e423
06ce
cf50
1062
e7b2
f8be
df40
06b0
d86f
ee9b
3b7d
fb7f
0963
fbd7
fe7b
fda9
e4b6
0bc1
e944
1559
fab3
08cd
0121
28c3
d73a
e212
dc23
0ca5
0807
d32d
c514
f2f2
1a38
e32e
0266
0f32
c0fa
eb24
fc1c
e0a3
f4d6
0c3a
2c37
fca9
f6a3
0101
f2b9
e38a
3a2a
0daa
f64e
14d0
f886
f36c
1be9
077f
04e8
fee2
0675
f82a
3497
1978
093e
eca7
e154
2990
1b5e
073f
fe02
1751
2e98
2083
3b35
0483
ee93
fe98
0ef8
f3c3
1b57
f5d8
3bad
360e
f6b9
0aad
ffb6
e60b
12ce
191f
028d
dc88
11ca
f9fa
0e58
2b3f
016a
ee63
fd05
040e
f547
1e4a
193a
1735
0318
e1cd
11dd
e089
ebd1
e175
e881
0ce9
f97e
e545
dac7
207a
e2fc
df47
067f
1900
f2c8
f8e4
ed8d
04ec
f83b
0fed
0860
ff6e
1423
01c3
f2bc
fa9c
06c3
d33d
f746
f75b
1c60
ddb2
f77f
0e5a
2637
00cc
0652
00b3
10d0
0c58
201f
fb40
1801
0124
0b32
22f0
eac1
ea0d
1816
1751
ea37
fbaf
0125
e54b
0fa7
fc2b
12ac
efe8
e296
ecdb
e60d
1cc1
f085
f5dd
30df
1048
e864
fe51
d7b9
03c9
108d
137c
0206
25e9
e6d1
0891
0fb6
59d9
02e3
e2a8
0d13
0c11
14ab
c357
324a
28c1
e220
1d03
eca6
efc4
0232
081e
098f
1ba0
0333
f081
08fd
ee3b
0e68
0d85
da37
f893
3cc8
33c4
28fe
fcd4
f0c2
2708
1182
06fa
e4d7
e625
0369
1fe3
f42e
e4f8
ed11
31ea
19eb
e99d
fe9a
2111
00dc
1e6f
0c45
e2f8
efef
f839
dff8
e5b2
1cf8
e61a
1f64
176a
0a5f
f50f
e45e
f659
05a4
1fea
b910
288a
f1f9
f024
ffb3
e9cd
222a
2f17
1df8
e8a9
130f
e10b
16a3
0f27
1609
db86
d35c
0541
f20c
0a8b
1f93
021a
b1a5
16ac
072c
189b
01b3
12d0
128e
f20a
e216
59d6
07a2
15f3
065b
114d
13d6
fb0d
1a47
eda2
1dd3
1277
0e3c
e2fd
306c
fe92
0d5f
f5f4
f16d
22ad
e42d
fc1d
2f75
2551
2065
1281
e7df
1f30
e652
2347
2db7
06f9
18af
ea63
ff9a
0a95
2962
0f4e
fa80
1800
0094
1555
edd6
2917
0b6d
f3ca
0112
36b7
2b10
14ca
fe9b
0c3e
2ad0
fd5c
385c
208a
323d
2676
0d41
046d
1883
0cb3
0594
f5e0
fe51
06d2
117a
e20d
d6de
f416
1b4e
1f27
0acf
d808
00f9
236a
23d2
0600
d9e6
30e9
0afb
1a0e
fb22
fef3
f0d9
0c4f
dddd
124e
cf37
184a
c81d
15ef
0422
e47b
2701
160f
0956
f68a
ebf0
1a87
1703
f9d0
0299
0ae0
14e0
ffb3
0276
ebbc
fd6b
20a8
04cf
0ceb
0604
04e0
fb60
16e5
08dc
ff96
0ad7
e3a2
0053
f890
0d06
e5a1
2dad
31f3
ffcd
ef77
13a1
15d3
0ac4
021f
12d0
fca6
e08e
0837
fafc
eeae
12d9
3d91
1c46
0390
ea97
1c37
1160
eae8
1add
0cb7
fcff
cc9e
fc83
e6aa
fd0e
d885
dd3a
ffaf
e04c
e3f9
139c
df02
fc74
fb3e
f63f
ecc5
e4f5
1bdf
1446
de56
1158
d79c
12c1
0036
eba8
f418
e6dc
e91d
1ef0
ebd4
f792
25ba
f6e3
f97f
f42f
e839
eddc
1f84
ec61
1941
e1d2
f144
d99b
1ce1
1523
09eb
fa56
efd1
e694
ec57
f5b5
ea1f
05ad
11cb
fe63
e6ec
de91
0757
dc6b
f865
dc48
db0f
2251
0635
1856
0f24
fb23
21a5
2233
f5e0
d98f
e37a
faeb
fc5a
0442
0eba
e5ca
1eab
13b1
f86d
080b
2bad
fedf
06e5
fffe
e3a9
1229
de64
0ad6
27d9
fbe5
fb40
2bf7
eeaa
0d24
1747
15bf
f0a3
eefa
ebdf
03ff
ea93
ef4e
e8c4
2973
0f23
09d3
ff2d
0da6
eb19
05cb
25a9
da2f
1302
1c1c
1e73
14f3
fb1f
1591
32bb
d7ca
19cd
fd32
f0dc
f12d
0349
fd1f
1827
1878
0973
f868
2c10
4558
f43e
450c
06b5
da36
366d
0a2e
f0c8
1a75
fcba
bdd1
f75b
fcbd
024b
122f
fd6d
02ec
13ec
0357
e277
fa37
12c6
f338
2012
0d24
179b
fa3e
f5d0
1b1f
d3c0
d1d8
06a5
f0b7
1774
09ce
2b39
fb7d
0d96
01ab
fa16
e8ed
0849
18c5
dd68
3aee
0f18
d964
e6b9
03e2
f359
128b
eb2f
1136
d4c7
3a17
eee7
331c
1142
1480
0dd4
ef08
fcc7
32a9
210b
17fc
27ef
e148
40c1
1597
ee98
3fbd
2054
e414
eade
035e
3226
16e9
0292
3934
dbdf
39dd
068e
287a
1dfc
0fec
02dd
0ca8
392c
f927
06bd
10d3
3594
495e
2914
219f
266e
1bde
10c4
fcec
04cd
05c7
382c
2c6d
0750
100e
3442
df6f
2114
f018
ef5f
2837
df63
17c5
11b1
019d
1461
d107
19bd
f72b
137b
ff3a
03cc
2bfd
bb23
d89a
df27
ed11
0e25
228a
01ff
e106
1a5b
f6d7
f07f
f75b
fe50
ff1f
f089
f066
2d85
1821
0198
0ada
1854
2c2e
ead7
1f0e
0ab2
e5a8
0df2
edd6
13ae
09e0
e59a
33fb
0372
2f5d
e15e
262a
ecd0
1c0b
fd00
1366
1079
f921
fd2c
0f06
eb9b
2599
11ef
de13
0b97
1711
fc6e
1030
e8a9
e349
fa48
1a2e
0eba
1afa
ea26
07bf
277d
f03e
fbbb
0528
f549
f00c
1964
0a41
f574
fc91
122d
1ae1
0562
1d5c
16d2
21c6
23c5
f024
15ef
0f54
1b7b
0765
0a88
0b4b
d4a5
1e6e
eebc
3309
045a
eb83
009f
1d72
fdcc
f47d
0e10
df8c
1f64
47b8
0c0e
39c6
1e3f
f25a
fba9
0edb
170a
3f37
035c
41c5
fd13
002b
2da3
1357
1706
0b7c
e20a
04a9
0853
1559
f725
13fd
2fa9
bb98
eefc
07e6
0cf4
fc3c
f4b5
36ec
1b09
ed85
f805
dd18
fb38
08a1
edc0
18d1
2fa1
1191
087d
f48f
f1b1
d16f
f6e5
db61
0f4d
0ff1
f254
20d5
f9d6
16cd
0c5f
1ae4
222a
fbf9
22cd
e100
f75b
dcec
f33c
d84b
1a7a
2138
21e8
d4d9
1ce0
e71d
0a24
f161
0d50
1b78
f671
10c5
e31d
ef78
2f99
f77b
f526
2e43
0b61
1f95
e3af
1588
e41c
1601
f367
fbff
e438
1f0e
eada
e88a
f245
15b5
1708
0258
1d21
fe49
0524
234f
f210
da35
15b3
f8ac
1be9
1c2a
f515
effe
020f
ee11
fc61
04d0
dc47
190e
0205
184b
0b04
184a
f7f5
1064
fc9d
e48f
2cf2
1a74
ceb2
0467
112f
011a
2025
1f7e
27c9
2803
092b
db92
da49
0de8
f477
2bf9
0558
2018
2f0b
e251
1be7
c04e
0c38
012a
e3b9
f889
d398
e63d
2f26
2393
1ba2
2636
f467
0147
e404
fe54
e8bb
d837
ea0f
f03c
d9af
11d4
09eb
1155
0718
e732
d466
f845
2813
e1e0
fc2e
1487
fa96
0b06
e255
0c15
fbec
18f1
f51c
1a90
1ffd
2821
ef1b
0d6a
18f6
f69e
f770
d8df
f4ab
2858
215a
249b
054b
0a95
e384
15e7
e022
00b0
fcff
f04a
165b
0761
f269
082d
ff6c
0618
f0f7
0a8c
fa77
064f
1e0c
da65
efed
b902
e1d8
1955
ffb6
04bc
0430
036e
2db8
d6ee
13b8
ee7f
f416
0d4e
1ec8
0476
f99f
ef37
1ed8
1a5c
086e
0015
fd1c
2157
0ecf
09af
0bff
f1b3
da58
3408
f294
2cf0
05f4
03de
f035
00e7
22a2
1d7c
dbce
0139
2120
0c60
1425
f9c7
2939
16d8
f86b
d2c7
e617
16ac
fa29
135a
02ef
0685
219c
d76e
f54e
0466
d9c2
f93a
f970
f17f
ed24
1735
0c77
de44
f6d8
1af7
1d7f
ebed
04f6
138d
bd01
0a62
1c1b
df38
f985
f499
1638
ea3a
0bdd
fa59
2adb
0b8c
1854
dbc5
297b
0ecb
e284
36b6
207a
2044
ee7b
f78d
dfde
1738
f9a3
2afb
0428
f2da
1a25
2a00
0a6d
1083
0443
1b96
1898
2c5e
f8a3
0e6d
0191
d93d
159c
2d20
19da
2651
f8ec
2cec
02f3
f8e4
e154
d771
d113
ec42
2381
f4b4
0056
02e2
26da
e5a0
e0d1
f39a
134f
0f31
1673
0d64
1a14
0a5c
095f
0862
05a5
29d1
eee6
1aee
2f84
fb7a
f557
09ec
190d
06c2
e89b
1f3b
f736
2d86
0bbd
1170
0995
2be6
d5de
16a4
1a85
f98b
e043
e961
07d2
e66b
0e3c
1b19
f462
f59d
ed58
2085
01f5
06ff
eb0e
fb39
077e
0eac
2f40
067d
1a49
22ca
ef88
f862
2b21
0240
0e8e
1a9d
dfcf
04fe
14ea
fdce
32cb
1751
0398
0b7f
008f
f2a7
198c
27ed
14b7
d6ba
e9b8
fc76
eba9
e33b
300e
1cad
03d0
150b
fc3f
2f7b
ec98
d336
e7fb
fca4
cb7d
1b27
e7af
0b95
e195
1a2b
ecf8
0c91
e97b
3cbf
1b35
0f92
1c6c
150c
e3c4
f39b
1382
0626
1c0c
04be
1f11
2041
0ac1
d23b
10d2
1cd3
0cfb
2430
042d
3486
e265
1970
44c3
dd2d
0241
14e7
f350
ff0e
ea85
102e
08a8
2563
1ac0
e87e
138b
e352
f39e
114d
36ae
e246
0080
0e5a
0991
22a6
fc63
1d51
1a9c
cdce
fc29
1783
0931
1eec
0506
d090
2fe4
fb81
0116
edb8
1cb2
fa57
1060
059b
f5dc
0cae
12de
ed6c
3617
0a93
17a5
00cb
0b4f
1b07
e656
1075
0d9b
e650
1791
143f
f989
e8b5
16c2
f90c
02a7
d761
5fb5
17fb
0f70
4a1b
470f
28bc
e2c2
1790
ed64
f2ae
ee0c
bd2d
d93f
306c
e517
0f5f
e7ca
060e
3492
d7e5
e280
050b
de68
ec50
f580
fd21
0287
0533
eb5c
1d99
0591
108b
f9d5
1727
d861
2938
e187
0357
0b80
0789
cea9
0fbc
3525
13b3
fbe9
fc1b
3675
f095
1e6e
ed03
0c51
f5fb
224e
ff3c
f540
2b85
e005
d28c
1237
34d4
fac6
2da4
2fd0
0c70
1cfd
f168
0ddf
ede4
e4aa
0115
18de
1974
02b7
f03c
0715
cef0
e9fb
f331
17a0
0bc8
fbe3
1d59
1885
fbe5
191c
0f22
1a28
1b1c
3568
22ac
1749
fbf0
1a38
3e2a
2f04
f8b8
1014
16de
3671
0ee8
f6ae
fc11
0c31
0466
d2fb
3349
fbe2
f013
1643
ef01
1cd8
2743
edeb
0d41
25fe
377c
f6b3
20c2
1da2
e9e2
30ca
1f15
fcd2
fd48
1728
0797
2072
266a
1856
1b22
088c
11a2
10a2
0597
0b85
0697
1c3d
1e73
06d5
d46f
f148
280c
18ad
d8c9
fd58
eeb4
e421
f92b
0e0a
0d29
1f35
f1c7
3798
db9d
08c5
0194
1c4b
0e92
13b6
018b
0837
0562
3946
1105
f425
f9cd
0e7a
2e4b
d6af
f892
288d
e28c
f8ba
fc77
04f8
27c9
1ea5
e493
0beb
1a89
ef65
050c
233a
308c
ff72
ea05
e80f
070a
0f18
2fbc
f7ee
0fd0
2222
009c
0e3d
e157
f5a3
2203
ff29
0160
0d66
19da
2f2e
047a
1775
f340
f2c0
f4cc
ebcc
2634
d12b
14af
e0bc
db2b
0845
ea71
fa40
cd32
2614
dc4d
f240
f1a7
0d0a
ce1d
19d6
dcbb
e7b2
0e1e
d9dd
05bd
f926
f8ad
e94b
f1ef
0e60
fe62
d97b
0ef8
30c1
0af1
01c5
eb10
e967
2622
3007
09c5
f674
0db8
e3f7
ed2f
e704
21d1
1816
22ce
232a
2de1
d899
d887
f3d0
0225
0af3
0ffe
14ba
10b4
09f9
ed77
02ec
00f1
fec3
e44d
f607
d82a
fcde
ff31
ee25
0548
081d
12ad
0e2c
f5dc
08a3
0737
f1b8
e2b7
feaa
1648
fb08
192e
0e47
fea7
f26e
f141
e423
e92a
f3f3
0811
d580
e607
1c35
ea26
0809
fdad
f88e
1a8e
fba0
dd81
e106
f71d
ebe9
2402
0ccb
0b14
1828
f8ff
0523
2877
edcd
0268
0158
f102
f006
f570
d6ac
f4e1
fc40
efc2
1b63
20e3
e51d
f873
36a5
0e42
0f22
13f6
1eb4
d764
1015
1cc7
f82c
04fa
040d
dc8e
ef24
fa12
048c
f286
f8f7
f158
e8b4
f146
2fe5
dc2f
200c
0e3b
e7fd
1628
235a
212c
1a0f
0b00
fbfd
0fe5
f0c6
f847
260b
17d7
2980
fdb3
e852
0160
02c3
0d5f
202f
2474
0988
ed21
ebe7
0ac4
267c
eadd
076a
1891
f570
22d0
ed3e
04fa
f6a6
df2a
0e7b
068c
1222
17a7
010d
f878
2db0
1c2d
0b54
dcf5
2393
e67d
f6a8
0afb
2cf7
07b3
dcb4
3121
f454
fd41
1edf
daee
2068
23af
fad2
eb3a
2af7
ce23
f355
3278
3ee6
271f
feaf
0b51
db64
08cb
f4a3
1da4
0894
bcc3
fd87
06fe
31fd
0bc1
0f6a
0b53
1236
12ac
090d
28c1
f19c
0fbc
ff3f
d913
0696
23bb
2283
1422
133f
f23c
212c
e669
e7e0
01f3
188c
1983
0e43
1dd7
1981
015a
2f2f
e43e
1260
fec5
fcac
115d
ec70
17cb
c9b3
05f5
f1e4
e4c0
0c11
00e7
3111
ecc6
0acf
041b
076d
159f
f5d6
0b99
ebd9
4236
44e9
16cd
0a85
fca0
d251
02e2
e901
0fec
246e
efee
e56f
f12c
1cc1
e748
53fc
0d71
0141
0c9f
195f
f4bd
2cd1
2b30
00c6
e74c
13e7
1c10
0ad7
18ea
146c
2be5
01f1
ec1c
11c0
dec6
e17b
20aa
090d
117c
06e5
0c50
03c8
e2d5
0dfd
05b7
0865
d8c5
1486
008f
bd1c
12cf
f7fa
089c
2184
0ecd
1c2c
c93a
f5bc
0b26
1c6f
06d1
0133
255e
e3a9
f662
44c3
0231
f3cd
2c40
ea58
ec2b
199f
0195
eeb2
0035
f641
e834
22a7
0df2
225a
dfe1
fb9f
08ea
ee5c
ebaa
f048
174c
eb4b
f96b
f2f4
1634
2bfc
2788
e922
fe43
d931
04e9
f17d
d825
fcc7
0259
f27b
f5fb
f269
14f0
1050
3381
130d
ec76
0c33
06ea
fdf2
01c0
1256
e8ab
e83d
15ac
08c4
cb2e
135a
cf3b
103b
06cf
02a5
edcc
19c4
16d1
0271
27b7
0b75
23b5
1f0f
0a12
eb5c
0e4d
ed00
05ce
ecc3
f9c8
1646
e6f9
0359
12d6
e375
07ac
0420
0efa
2649
e1ae
fb47
1b79
18e6
d825
e36d
e109
f5bb
093f
0c37
0d57
f955
060c
e2ab
e5fc
f5f2
01b9
053b
0338
0096
060b
ee43
1b6c
0730
dd6c
f675
12be
faa5
c9b9
fe10
fdd6
eeec
fe6e
fa3c
12b7
0d5d
ed24
e2b5
04e5
10a6
ef9c
25a5
eddf
12b0
e158
f436
16f3
ebd3
fc90
0fbc
faa4
1d61
0606
efca
f3c5
e3f7
004d
16e4
1cd1
fc65
00ca
0790
076a
0009
1eb4
12cc
2189
edac
12af
094d
1e41
1d66
eecf
0670
f9ea
fa53
e2db
f28f
1033
0e4d
2399
0be0
e9ee
d43a
1ec8
275f
16c2
07d0
e8fb
1dbf
d639
2269
02ea
0123
efe8
2284
2673
e21c
f806
174a
1e3f
fec3
0fa6
e77f
ecfc
fc83
d056
e9b5
f24f
4c3f
2a1a
1751
058b
f6e0
319c
fc2b
103c
f006
47ef
e0c7
e2ed
1e93
047a
188a
1642
09a9
0461
e7d0
1e3c
109a
f534
0484
feef
c3f4
119a
24c1
fe75
0d24
2c35
f82d
ec01
1baa
ddc5
fddc
26bd
1bdb
f092
d3ab
0e48
f19a
fae5
01c0
d6b0
1d3a
dc46
fd59
f1ca
1d5d
fce9
cee2
1fc5
f062
1c80
2179
175a
2b8a
16e0
f5c1
3ed7
0cae
d8a8
f1b6
cf54
3eb1
094e
f701
1143
e395
348d
e201
0a3f
22f4
0c5e
e720
ef01
0e5f
1a5d
0725
e4f9
332b
501c
2f3e
0d74
256e
1148
f648
fab1
08a7
2c2f
0ecb
21c4
070e
fbef
3322
0fb0
f1ee
f664
e4b9
1eff
dcd1
e33b
3936
f4ae
0b07
f2b9
0756
f7cb
fea8
f279
e587
3fbc
b684
e23b
0cd9
e366
e7bd
f047
200c
04a4
1ac0
f2ed
f39b
2daa
00d5
f0d9
f0a5
21f9
3ab4
0f5f
d764
fc6b
e16c
3331
0604
2fc4
12b8
cf10
1927
f28f
21b0
f061
077f
cc05
f993
0288
1f02
01f5
28a9
1b09
effa
0bcd
e93b
0174
2c31
fe0c
f74d
ee71
f4ea
0864
056e
fa8f
140f
0c3c
e570
1aed
28ca
f78f
fc34
fe68
eafe
f562
f1e7
00b0
f815
2f78
d641
fd47
0d5f
e542
1587
1000
fd63
2125
2951
ecad
2b50
1552
1804
3663
2b25
13fb
1bde
1ed3
001e
ee94
de8e
14de
ff73
223a
36a3
c7ab
1e54
e72d
00b1
3240
d930
154c
0702
2383
fa8f
0861
2803
0ffd
0638
fb23
2b48
047e
3cdd
3ab9
feb4
354f
1b87
fcb2
d8e1
ee8c
0a25
f968
e2ab
23ee
f2d1
edd0
20d2
2ab7
2999
08ba
2a6d
dfb5
03b4
2e85
d649
fe47
01fa
12f9
f465
258f
07a6
0871
fbcb
f60d
0940
07c3
1d05
fa29
f385
02ce
fb95
2279
f056
f7e6
18ff
2425
1dd1
20e8
fecf
17b2
f047
fdcf
15c3
eb0c
00f3
060b
1043
03b2
0917
3aab
0c76
1eae
efbd
d5a0
da33
0f72
1654
fa1d
028d
0e35
059d
0e46
03ae
e929
262d
08b1
f1c7
1d83
eb18
1428
2d9b
18da
ee20
f0d3
2d35
26c2
ff89
1589
3fdb
fc9c
0bdc
ed36
01e6
e2be
1c1a
c94b
0f29
d783
11d0
273f
209e
00f6
0b5e
25ac
c297
022b
dedb
efa1
f516
eed7
fa4f
f50f
138c
c2e8
e1ba
fb78
03ad
f7ee
31bb
dd5e
0760
f7aa
099a
effc
1041
376d
d80b
df61
ff1c
19d7
000a
1b25
ef6e
02f1
db05
d811
f049
ac95
e8d9
e26b
07a4
031b
1110
dbdb
0aa0
dd66
e1e9
f4dd
f81d
d8f5
0b8d
f58b
aeb4
074c
ee6f
f829
eee4
0991
16fe
13dc
1c3e
ed6f
fff3
33b0
155a
e2de
2f54
08f1
0acd
19ae
1869
0930
e85a
10e0
10b3
1b94
fa31
d9b4
e617
d899
01ec
ed9c
c100
ead5
0db6
f802
01ae
2ba7
07a9
e06a
e786
e32c
f86a
f970
3270
f8b6
398a
17ce
0e1a
fdf8
f0d5
f982
dfe8
0532
f05a
ee5f
0d3c
fbfe
3d58
f2f8
0eca
f835
f69b
c88d
0464
2ba9
bce0
e232
1a49
e212
e964
15a9
297d
0e43
f781
df04
15ac
29a3
2765
0f91
029b
d970
26c8
1d40
d6a8
ee23
eb10
2e07
2aaa
2ee3
00aa
d8b9
e22a
f2ea
1518
2aba
0457
0039
1c76
3c41
fe40
2422
2e79
35cb
fbf5
fb91
e6f5
1c4b
2dc5
1c0d
2439
f5d2
090d
0f54
f03c
0c5b
053f
1c56
da22
f3aa
0c26
0b9e
412d
2414
0bf8
0c85
fa2d
d1bf
0772
1dde
da96
f4e8
05ac
1ecc
011b
d992
06c0
12ae
037a
e751
e3ab
06b2
2795
f35a
f177
feaa
1c96
f0cb
1c93
f823
f39b
f641
f9a9
03f9
1ba2
019c
f6e8
ef5b
f57b
e50a
e50f
e4d3
026b
fee7
28e7
0e15
f992
f147
f1ff
0b57
da92
2ef9
21f3
f5e8
25f0
ff27
e737
18cb
1fee
f962
f442
01d8
e907
f742
1c72
2030
0f33
070a
f130
1322
03a1
efc0
1dfe
1d47
dd5c
d814
0915
12eb
ea31
ee1b
0d05
de24
06d2
ec27
ecb3
2947
1975
ef8c
04b4
f2a5
02c4
1501
02d7
05e6
077a
1148
0b88
06a4
1b98
eb6a
1543
10b3
f641
f011
05e5
e502
0e8e
03ef
fcc3
f760
0e76
ed8c
ef57
ec37
fd8a
f0f3
2e94
0df8
ee85
25c7
0f13
df80
e992
fe66
ec8f
1b43
f32b
f70d
14d7
eae5
09e7
e8ff
1615
e120
f87e
dee0
f494
e41c
0a5f
feed
115b
1c63
1053
0474
1171
e0e4
ed82
1b35
0f93
29fa
f72d
0500
17b9
1536
224f
fbf8
196c
e6aa
051e
2b06
f29e
0d7f
feb4
0b65
e6f9
0ca0
06de
f5cd
fd8d
0994
01f0
1834
11e9
10fd
1928
f499
0161
fb12
ea1b
0789
2779
0304
1688
0ccb
faa4
02f0
2b5a
c36b
000a
0e22
0af6
f1b8
2667
069b
232f
f126
1db6
df0a
06e0
cca1
dfa5
ecd2
e9c1
0558
03aa
f3cb
1e7e
33a5
0d19
dc74
2978
f9a2
e5f2
413d
17ec
eda2
e243
cca4
0f6e
1c50
0425
2950
e55e
2ed2
cafe
2da5
13e8
0566
1f7e
eaa5
023c
1c36
fd1e
f63e
25b9
4142
10f5
1dcc
2b30
f889
00cd
f0b2
0e1a
3372
17b8
3ecd
06fb
2340
f890
055f
088a
cc02
fa6f
17ea
fab1
1b11
e400
149b
2114
f5ab
1cbe
ee2a
2390
db37
e2a8
26d7
f383
02e3
12c1
ef4f
1259
20bc
3722
f6d9
0f63
e9b9
ee21
1ce2
1aab
fb5d
2178
1315
deba
2b4b
10d1
f8a9
eafb
2ef4
d82f
32e9
2ac0
db44
e911
14b4
185d
ed67
f099
08a5
0db5
04f8
0814
0764
fba3
18c8
2675
e1f9
f2c2
f5f3
1ff0
16e0
f5c4
e736
2241
1f71
1275
e387
f0fc
0f21
01f7
12d9
0149
1ae7
1b3e
124a
1249
fd7f
04c0
dfea
2462
1abf
d1b5
f368
08c1
ed13
004b
f76d
f203
0fcc
08ce
1212
f52d
f6e0
dce5
e1c9
0ff8
268a
4117
d5c2
e543
dd36
0abd
1568
da98
0936
c466
fff4
fe86
f85e
d6cd
fe98
0cdf
12a9
d32d
0db8
08db
04d7
2567
3c8f
13ef
e598
e090
ee89
ece4
073a
0177
26e2
bf09
fd11
e1dd
d1a5
f615
e618
e08b
daf5
fc31
0729
246d
193a
d689
dc0d
cf55
d9b6
dc10
f7cc
f7a2
de26
0a60
2a59
f88c
eff7
f1c9
0cfe
e272
0f60
f831
e41e
11d9
f99e
2719
eefb
fd3b
121b
fa4b
07e0
d917
f64a
e7eb
1854
f35d
01ca
f608
f0af
2094
0136
f255
fd4f
e6df
1c78
f853
e0bd
1273
d4a6
f908
05af
f7d0
100a
1fcc
1100
f0d6
dcc1
1ad3
eb5f
1408
fed8
e8ff
ed67
ff87
0a07
1965
ece6
04e1
d4b0
0a45
1340
f5ef
f76c
ef96
edef
e129
edc8
0ab3
fbb6
f539
1dfb
dbcf
3c93
02d0
dc37
02be
e22c
0c3d
fc51
41a6
ba99
e4aa
002c
eece
1ff7
fa62
01af
ec14
19b6
2649
2091
2009
fba8
3c27
f537
0ed9
0758
427f
01ee
f820
f995
0671
c168
f8cc
08cf
f70e
3180
1512
fe89
ee16
dbf0
3fb2
eca2
1248
18bc
3d74
3b60
21b5
073a
f746
fed5
0d62
0400
fe9e
397c
eb36
3892
da85
f692
60d2
16f5
0b2b
071f
e2f3
1709
f392
ec5d
27d9
1075
05f8
0edc
24f1
dca4
ff30
1a9b
1428
f8e6
f171
eb64
0b07
fa48
da19
ea51
fa60
fffe
04b6
0017
f86d
1e4e
e8f2
f1b0
1939
3bc2
2805
310e
f0d2
fa11
ef04
e6b5
dbee
f7c5
26a3
fd2d
2df7
12db
ed2b
1556
dfdc
06ec
12fd
1be9
ff35
dd82
edcf
f2d8
203b
deec
fb3a
05b3
13a4
f735
e6bf
0f63
c87e
d904
f674
24e6
e51d
2dc9
2ebd
ef4a
32d1
ef43
002d
17e0
fdb2
e579
079e
e981
15a6
f350
07ea
018e
0d46
f48a
13fb
176a
ff3e
07dc
034d
dbc6
fdf6
045c
d27f
fad2
0540
3ba1
21cb
1728
18d6
ea54
125f
20cf
007a
0f85
266f
f7fc
2075
2592
fa9d
1157
ecb5
e811
f133
f827
1425
e4fd
0b2b
f8a7
2e3b
c74a
fd51
d56e
10ec
07e6
12bf
1ccf
ca88
041d
f55e
0ed9
034a
18e2
330a
f7fb
f8b6
f74a
d5be
08b0
2cef
1a66
1cdc
0585
5d74
075e
eda2
01f0
f6cb
fd42
e243
f8e8
2864
ebd8
e367
00c1
3670
29ae
03e1
f848
fc3d
2884
f804
0956
1fd8
16e3
f687
feca
da9c
2517
3475
185e
3257
066c
16de
ff28
20c7
09e4
d942
f3c5
e6ee
fc17
073c
e1bb
1920
f10d
e41a
e3d8
202e
e589
0e73
2af9
06f9
169c
075e
2d57
0f85
043b
0d0d
1851
26d2
1d2a
f14f
433a
465a
138b
0b5a
0782
3a48
3cb4
e7b5
f990
10bd
33f9
f6c2
43a3
0c51
fb97
e372
e402
3d7c
fa7e
e3e6
0c29
24e9
2d3d
f11e
131c
3757
134f
23bc
2209
f04c
16ab
2805
2901
3710
fef3
1224
eb65
214e
fd20
f0d3
2ee5
f030
09a6
1397
ed39
0d7f
0567
028d
1bdf
24b3
e892
245d
282a
ef60
e5f3
0dfb
f98d
ec7a
2e79
dd12
ff77
f44b
1040
fd6c
1227
2891
e06c
1035
0d67
1287
2780
fce7
fe4e
d3f0
ead6
d3bf
fd23
0302
db49
ec04
ea30
ed5a
f794
d225
f6c2
08a4
e8bb
ff91
0cb3
ed8c
ece5
fb9e
f2e2
f9b8
f23f
0b38
ed17
1631
e2eb
0b6c
1c70
01d8
0caf
00fa
ede3
dd98
f456
ef9f
1c47
09f9
ee49
f4fd
e637
f05c
f84d
ec37
0453
ca99
ffbe
01a1
0e06
f74f
160d
1275
dbe6
12f1
02c5
101f
0e28
1c82
01b5
2952
ebd4
1462
ff08
0455
3431
fc46
0f8d
ff81
2c3d
fa15
0b78
eb1b
e4e0
0be2
ed6a
1292
03be
0ed0
2787
de27
0c32
0d90
2a0e
1966
fd52
0897
1149
2c03
0b58
27a0
3810
e26c
f130
0d87
f9e9
e415
0d04
e0ad
f62d
d9ff
e437
2651
dafa
d949
ffce
fd07
034c
fcdc
f510
fa61
e5af
f490
fe37
ec66
e4df
01d1
f599
03c5
0123
15ac
18a4
296c
d2f5
e572
dfd9
6617
14c0
12b3
0706
e295
1894
0e70
f013
2249
de32
08b6
eb0d
ff57
1ed8
f219
09d6
fdb4
f6df
ea2f
0631
1f77
f88f
dd6d
11a8
e636
0be5
0787
18a9
1648
0135
13b6
0f27
03a2
156c
f310
fc54
1df6
e301
f36d
1065
28d5
01ce
e376
ff54
219d
cd94
f220
032f
3099
f415
18cb
2145
e95d
03ea
2ad5
055a
1c49
fc67
f465
f273
05c6
e874
ffcb
da36
015f
18d4
0e21
03f4
0039
fb3e
ef86
17bb
f5e0
d268
f436
fb0e
f8a2
e99d
f409
0bf8
1aba
31f2
32df
ea23
fb6d
f972
21f1
ecfa
e730
07b6
2354
1c9c
1d43
f20e
2da9
dbee
dd60
d265
ece7
fc30
0bae
e73e
1dc4
1302
1c24
370b
df02
2038
e6e2
feca
0d35
1c48
fbf3
0825
1a7e
0c7f
d9ae
fd69
1312
0f22
0b5b
108a
f0bf
283d
247f
e6fb
0efe
07c8
0b72
0ba2
055e
fe99
f53b
1bf6
ee68
fcbd
2289
0993
039b
ef81
26f2
0799
1abc
e932
e811
10b5
ed40
2802
24aa
067f
f324
0bf6
e41c
f52a
04a8
1a42
293a
0a8b
09a3
0708
1a00
c1a4
0be6
249a
006b
f30a
d743
05f4
0ff0
e748
fc4f
ec00
1e88
fd33
0d88
1a76
ec95
16a0
db4f
015b
17e4
f564
ff54
cfe0
2fc4
f638
f4d5
126e
2a0e
dbc0
1cc1
1f08
0e2c
06e2
0b66
edc2
f7d1
2dbb
01a3
fcdc
f860
e8f2
ef0f
1db0
fcc2
0ef0
e77b
f8dd
ec8d
f648
1ad2
0d65
f7fa
1e6e
1a73
07c8
fb3e
18a0
297e
0f29
31cf
11a8
1644
0236
20a0
e75e
e905
f19d
e60b
11ac
084a
04de
1dcf
e3a5
08f1
d56d
134c
0a9c
db7f
fc9e
ffa3
ffba
fdaf
1a23
0f0b
29b6
d811
0331
e689
003f
e68a
d3f3
f224
d9f6
294f
158b
e918
0dcf
1fa7
0aa5
124e
027b
00cf
0e94
f746
0d9b
232b
ff27
2413
d90d
f473
03bc
1b5d
fc6a
e041
e8ea
1c1e
f7fc
09a3
0ec2
1870
f3b9
f061
113d
196c
d899
ff46
0df0
feb3
0279
2fad
ee81
10c5
11f2
dfdb
dbee
e795
fce0
2125
f699
dd43
f399
fa2d
dbfc
07fe
e2a4
2b10
1f59
1812
15ed
0c8b
0300
0c37
d236
f3b0
e9dc
101b
e796
143d
e884
e3e8
1cbe
e8c1
0695
05ad
0ca1
2aeb
08dd
285a
e22e
e260
127d
0ba1
149e
1f71
dcf4
284d
f4d5
168c
1c81
1aff
0b72
2017
19b8
e106
1555
079a
124c
1764
fa38
08e2
ff5a
09ae
0779
eda5
2299
194c
f357
d780
f896
1dc2
e69d
1668
02e7
eb0a
16cc
e1dc
fc54
0153
1411
1814
2188
115b
07bb
246b
09fd
00cb
d74a
16c7
0585
0eb3
1a49
e9ec
176c
f5de
1a0c
e59c
1080
d995
f683
0a3f
2e9b
0935
da28
11cf
19a4
2bbd
1616
d9ba
ecc4
f97e
0cff
002d
1f67
f6bc
f8ec
f324
0b47
05a7
f884
306c
3591
f3f6
f170
1976
0f5f
092b
cb12
0450
0e7d
1864
2033
f241
eb33
0020
1483
e684
08c4
0b3a
da81
1913
273c
d4d3
0d95
1faa
49e8
2723
2178
1dca
e5b8
f842
0368
edb9
3536
fac8
fbf3
ef20
10bf
1842
0b74
1bb9
3c52
e6e9
219a
d793
f021
07d4
d6ef
f48e
00aa
283f
24bc
0919
fc27
2b74
20aa
f612
349d
14a9
24e7
f0ab
0948
e9dc
0c00
0439
09ba
1de1
204b
083e
04b0
2ec5
cff2
0cea
238f
098d
1976
eb1c
fb8c
3934
fa03
fcff
efa7
2644
ffd9
1a45
09e5
d92a
e336
db47
df8e
28c2
16fc
2b24
fede
2ed0
e0a4
18fa
1501
0f64
2361
e234
f961
0a38
fb08
1503
fd96
0918
3655
08a6
31a2
ecca
0580
ecb8
14bb
1ba2
1fcf
e1ea
ce57
2134
2488
26d8
223a
17cc
fefc
fc67
fd15
f511
318f
03bc
fc43
1f48
f832
1646
04b7
ec4f
db72
fabb
1ff4
041d
08ca
06e2
e5ec
0fad
0836
f4c7
f8f8
2a1b
f830
06e1
2933
f33f
fa51
2158
0d13
da78
ffec
295f
e391
fd1f
ee72
1d0a
2ebe
0796
e25e
fe86
f6c0
30fd
1c41
ed18
1ddf
0b15
073a
ec9e
2f70
1c92
f87c
1a3b
147b
ef7d
e7be
fbe3
0959
141a
0d9b
0a4b
2fce
ec92
289a
19f9
fe02
ee1c
183f
317d
2e0d
25c8
15d8
cf2e
09bb
f672
fbc0
e9e7
25aa
15c3
f058
04c6
15d4
11e7
1c4a
10b4
e062
0987
dfcf
0869
120a
ff60
fdd4
f8b9
e370
dadd
0bef
f232
02fd
0499
fd09
0231
d7cb
da12
1a92
00e3
21d9
eef0
cc7c
eb13
0683
0395
d4f8
037f
f8eb
dfbd
f3d3
f9c9
fa20
1383
f62c
dc6d
dd98
cdf7
f334
18af
e156
faf1
2250
ded1
fdf4
fea3
ec7e
f304
dc8b
e3a5
cdce
ea9a
0b11
e131
17ba
f55c
bdec
0c9b
0482
0fd6
f06f
d28b
bc0b
03c0
fb1f
fb3a
08ae
f108
fc03
15f2
0d14
d4d0
c94f
f08a
f2c7
2a91
e7fb
168b
edb8
220c
ff82
1b44
0961
e914
05ab
18ee
f86a
f59b
1b17
d339
34ee
0f6f
17d7
fb11
f865
19fc
e9dc
0850
043f
00af
1305
0dfd
13cd
f5bb
19b0
00b7
01f2
007e
e1c8
0d62
19cc
1ea6
35b7
1f54
300d
cb2a
135d
e528
f0e1
0afa
2887
0ef1
06d0
f97d
0786
259f
f589
f2c0
d708
fe7e
f884
d97f
3a15
1a93
fc43
f84f
2569
ea68
14c3
0650
0644
06a4
f7f5
e87f
e8f9
28f3
df98
fa60
f7f6
4bea
0b1f
fcdd
0af2
0b82
2296
03d5
2228
e04c
de26
eae5
f9b3
2239
232c
d429
f792
ebf8
19e3
e839
e257
e2a9
156a
1e3f
1209
ebab
f2eb
2997
0aa2
df0d
f55d
fbe1
0932
0e40
e06b
f43b
1724
eec0
09c0
2285
122d
1f1f
e8c0
e302
1f75
002a
dc06
0e72
ea32
f04b
1a3d
de2e
ebd4
04bf
11f9
2bbb
e5b4
1686
f382
2052
291d
f822
e087
00fc
27ac
166a
210c
1875
f5f6
1726
15ff
e7ef
1ad4
f899
ffef
10eb
195b
27ae
1a5b
1a6a
0c71
f299
12ad
0ba9
270e
2910
30b0
148e
15be
eb46
31fc
2c5b
2c20
1bb9
07d1
f738
0dcd
fba5
f4e2
f4c4
fbff
ff28
1e1b
0a34
16d3
3d03
e8e4
0247
f668
20eb
d4d6
0d9e
fd0b
de4d
0c6c
e1b4
281c
1d9b
2b57
f7a9
4aa1
0dac
f622
0f6c
e71e
138f
e73a
2ae7
ef55
356f
fbcf
e98b
f762
0980
fdae
1dda
2b1f
017c
f2b7
072e
f99c
f7e9
0e93
30f1
073f
f1d0
087e
0ec6
ebad
1aa7
e1b5
245f
f966
1092
2b7c
316b
1996
1486
e9b4
2317
155b
e6e6
0efb
19db
f2fb
fe67
ffe7
ed99
f01d
f544
03c8
dc5c
38e6
f525
130c
16f3
fbb3
4d1b
f980
e252
1ea6
1d4e
1319
0a52
edfb
0d8f
00ad
278e
2eab
0b6f
1462
fa77
db05
1592
fad6
21ed
1179
ff4f
277d
d08e
2fca
049d
0215
0068
f97a
2244
ff7c
e94f
246b
1e3b
2312
eb88
1dd6
ee3d
f818
15c1
0007
da52
3c75
2736
360e
f6bc
17c2
1b0a
f565
1165
c4af
e51d
27c8
19f5
f6a9
0554
11a9
19a5
1e83
e7c4
0097
27bc
130e
e44e
29bf
c1cc
f598
1c55
cccd
e208
e077
16dc
eaac
f6bc
fec3
11df
0f63
2cb3
dcc6
0f8b
ecb6
0b16
2643
edf9
f4e3
d75a
fdf9
0b10
2500
1123
f2b1
e501
dd3f
ecc6
189f
0e34
1be2
dcae
f67a
f4a7
2dbc
eedd
f8c3
de9a
01cd
04a2
09c6
16e9
1c66
1eca
027f
d2e1
d317
e9ab
ef88
1d40
f8bb
f28c
dd73
d0c0
27c7
1949
1076
0942
da73
1009
0e2e
0fe3
3313
de7a
e3c3
1359
ee7e
fee7
1d44
df4b
2180
f85c
2065
0a91
0328
f53e
15bc
13e8
2ec3
204e
f654
1013
1e60
e7ed
1e13
e9d7
1a59
0428
f1b6
1190
1ade
06d5
f9c2
f226
1acb
fd1c
1b8e
f37e
eaf9
0ab0
1d58
0478
dee5
ec08
0f0c
21cf
edfc
009c
1dfd
ee5a
e724
e5f6
f920
d47d
0974
fbcc
1515
104a
1204
e46c
1b0d
e967
d6a0
01c1
ed9b
19af
fbfb
e408
1b58
ef5a
e1ef
0fb1
db23
19d9
edc0
184e
0379
2a83
1170
03b3
f8a7
ed3b
1f8f
03d1
10f9
1259
25e7
fec2
1c64
ccc1
fa5f
0436
e6bd
fbbf
1312
fcbd
e858
dfc2
f995
eeb3
f791
fbe2
fe04
1c2c
0502
e95c
0390
0a56
f955
e4f9
0c89
0981
ff6b
faae
2450
fa2a
091f
e46c
f402
e408
e633
00df
0654
2f16
e44a
ff75
d0af
e14d
e8f7
e67f
14c6
e678
0a13
15a9
fcdb
ed38
2905
0265
44c6
fdf5
038f
fd79
cd76
13fa
18f9
2317
cbdb
fbb7
3420
fa91
1c17
dee0
28ca
ea28
23fe
ed57
3074
0152
ed22
0668
0c1f
f46d
12be
2278
e78c
d468
0b55
0a42
c0e0
05f6
cb4a
d9b0
f4e8
2073
e8e3
ea84
1543
0056
0c3c
0699
2ba3
02ac
0baa
1960
f08f
f384
e4f0
1216
2eb2
003b
0fd1
f5cb
0f35
e887
d48c
6e46
d5d1
ea1d
d271
036f
2431
14b8
1807
2fe2
0aca
e1a7
0fdb
0c88
16c1
1163
15b4
f357
1b82
0030
24cf
f4c6
1e07
0486
28cb
0f7f
fde1
e7fd
de8c
fef1
039c
d67e
ebbc
f95f
2157
0ac4
2d59
2618
013b
0657
fe9d
2a55
3488
2793
271c
2ae7
200a
0219
ef7d
1403
07fd
f744
f3d3
f98e
faa5
2302
2b49
4b6c
1d1a
ed88
fc92
145f
f2be
f848
1fa1
0435
09fd
df2f
293e
189c
f63a
3ac8
f10b
1e06
0da8
0999
3310
3b4f
c1b2
238b
e8e1
13d6
1902
0985
149d
005a
2320
077b
0acb
120d
d795
f96c
ec42
009e
0411
f928
2194
30ee
1a9a
ec8a
0a9d
ee6c
1393
ea73
00ee
df96
0020
20b7
21f6
2834
30f0
2823
11e8
1882
f621
151e
1fd0
dcaa
0ac7
1e24
2a71
06cc
e26c
e509
0db1
f984
ef30
fd4f
08c1
ef31
ef36
e015
c290
1510
169f
1082
ea6c
09f6
de62
dcff
fe95
2ed0
fc4e
1724
f77f
1dc9
2621
1c35
2d04
e344
10d6
f815
201c
1eee
0e32
0f50
fa29
204b
2994
2daa
e998
f974
0926
f476
0ead
28cd
21dd
0e46
00ca
198f
40d0
2b9c
0d75
2241
30ea
013d
13d5
ef1a
d181
097a
ea7b
e691
f897
0534
2b8d
0b1d
eb8b
e35f
e803
2cae
0783
061d
181c
f5f6
fc1a
d866
07d0
e010
3254
1573
14f4
26e6
0d5a
2493
dc0a
2f78
2bb5
24a8
dca4
3e7f
059d
0cb2
f4de
da3b
ff03
db46
19c7
0519
0671
ef1f
06ab
ef14
eb06
04ba
dc86
3504
0cf4
2e3e
dbd9
02f4
02b2
f441
0395
2074
f3b2
2109
2e1f
f355
dd86
4e2a
1f43
0530
feeb
fa37
0347
db54
1042
ff8f
16e7
e790
069a
0072
29f0
2099
e21e
e7e4
163b
06dc
db3c
e048
0b91
05ae
2c49
00b5
cb28
01f8
d8d9
fa6c
1551
2811
0a72
1cef
1460
b49d
ffb7
1247
ef45
05d3
f5fd
1d82
2a9a
26fc
e4cb
0fd4
09df
18d6
051f
1609
1f42
20d0
222a
191d
2a98
f674
1b24
2720
d72d
e7f1
0ca2
18a0
0986
06c4
1878
d544
045b
03ef
e014
ecbb
e6a5
0da7
0b48
dccb
e5f2
0d50
e5b4
0cf4
0aa3
2184
136b
f41c
235e
d2c4
1928
e467
d92f
e7a1
254b
1250
eeae
24d6
de73
1223
f240
fde5
0050
e004
0566
eee0
1774
180c
f09d
fb22
0118
ef5c
18b3
0a6b
0600
ecb7
0dff
f740
0f2a
ee3e
115e
ebb4
ef40
18a9
ee32
252a
2b59
03f2
dae1
ea4d
200c
253c
2ac5
f082
0e6d
e17f
0047
e63b
eab0
defe
e0bb
eda8
dacf
156b
03f9
0057
ff90
e871
e4d5
0e3c
eeec
1015
2fef
fba7
059c
d2a1
0db8
0bb5
1b50
1d19
14cd
fc7d
ce7a
dad7
2086
ff67
fd78
f222
e791
0843
f91d
fde4
0963
049f
36be
ee58
0f86
1dd1
d327
1660
e562
0bac
1a0e
f4c6
0ebd
1740
212e
18d8
189a
04a8
044f
e14d
ff69
d7ed
21c1
2366
14dc
f1df
1cb1
e854
ff24
cb83
092f
f889
0bd6
0d46
0601
e44d
1088
1199
0d63
0f47
e031
174b
f8e8
dd69
2b7d
042b
1477
1a85
d18a
ec0c
ef72
04b8
d41a
f0e1
ea91
ec49
2d2b
eab8
1f99
023c
0125
d98a
14a0
fffe
f5f7
0a6e
2b41
e5b6
10d6
2363
00b3
1232
0bb3
f6f5
fed3
23dd
db94
ef35
fa00
ddb2
2872
0b6a
0c2c
eb44
1340
fb5c
386c
0ad9
0b1f
fc3a
2d8d
e9a7
fa5a
d1ea
b1e5
f155
2f53
e471
1c44
11aa
0ab6
1655
0f21
01f4
1604
f576
fa10
ef4d
3a4a
f779
f228
1388
1fc8
0b57
f2cd
1551
f810
3085
056b
1805
28b2
ef75
07f8
0337
1497
eb65
1fda
f9d8
0a19
e8d7
043e
cb01
00f9
2aaf
0a91
f529
15f9
126c
e913
1e49
f5ce
e524
ff73
f432
0e18
efd7
facc
f988
0a49
0c4e
0448
f3bf
24b1
0a1f
f859
1649
099e
ec13
d9c8
e287
2ef8
e4c1
058d
0678
1888
0db7
260c
ea42
d9b3
27cb
e5e2
e22c
1138
e1ec
1f86
df72
eece
04b7
070c
20af
fc3e
1a9d
f7ed
0a57
2026
2b82
14fd
eb97
0ee8
fdd1
f881
e8a9
06f6
df9d
1f9b
eb6a
f6fb
12b1
0e94
ea24
02c0
024c
1b4a
d315
0532
eccd
15a9
1f64
0a4a
e25a
0874
e24c
e452
da18
fc5e
15a3
195f
015e
fc02
fd63
da94
01e2
e0fa
e023
13ce
16a0
e730
e7f9
0c26
3d22
0b58
108a
f31b
f839
d6eb
fabe
3dc6
f35d
df7f
f598
12b2
0e9a
2c00
11be
53c8
048a
f510
2133
d625
1a2e
f86f
119e
04b2
dcbf
128f
0c75
0585
df81
02fc
dbfa
f3ec
1e5e
2386
031d
1803
2524
fec7
ddd7
f03a
2b31
14c3
13b0
e8f7
106d
f3a0
1915
0817
fa17
1e18
3068
1859
0f97
e2d8
362d
f257
ea35
30ce
2fc0
11ea
1234
d6b8
0b3b
fcca
040b
2703
d352
3ca6
1e86
0e73
de23
1fa9
3d08
ea2a
ee09
f5cf
0d88
25f2
123c
eb9b
fbd4
ebc2
e937
0d9c
fd6d
f9ec
20db
182b
0ee0
145c
14e5
0d9c
dc93
08c8
f6dc
316e
0b46
0e57
05b8
ef5b
2d65
0f2c
ed38
023d
f721
077c
0540
0ea3
f30a
0cdd
ff06
0513
052d
2657
f7cf
0170
f231
3302
1291
0983
e710
de78
143e
1905
01ed
0711
15ba
15cb
0d39
f5ac
e159
014c
105b
f5dc
e954
2fc9
d80a
1b28
ede3
d38d
2959
353e
0dbb
0d86
04f9
e59e
20bf
1ed2
1923
19c6
124d
d72c
0c25
3899
ecbb
3433
db85
37c4
e34c
0339
28dd
cf96
e8cc
de77
27b6
0741
e812
df78
1a37
1eef
0044
07f8
0dbf
12e6
1e51
ee8b
2af7
315c
0f29
2c88
0a27
34cc
02eb
0334
e386
ea5a
0fe3
f50b
23c1
fd12
1760
08e2
0ea7
e6f0
f82d
1c8c
33a3
fab4
e9a8
492f
ebbc
0f2b
fee6
0e46
e213
0d88
2ede
dba0
30a1
f9a8
009d
2a26
2278
030a
eaa8
e11a
05c8
261e
fd80
196f
ea96
fcb2
0de4
0da7
0096
e514
0c05
f67e
346c
0497
1baa
0f05
ff1b
31f9
eafc
ff66
1ef9
2a6f
ea5b
e9a6
02ff
0577
184f
fb07
27a5
0183
f3c5
1c34
e71b
ff8c
ce29
191d
0d1e
1383
00e8
f6ce
3809
f9c1
1d4c
f151
f7fd
d298
db74
198d
b87f
da43
0b60
efb5
f93d
2075
fac9
fa4f
2b80
024d
e3e0
f976
fda3
0731
fb2e
0c0f
e5b4
253d
e8de
21d9
0102
ff4d
2f96
0daa
eb13
f998
ded2
10c8
0a9a
f5b9
dde2
111d
0c1a
194b
34f8
266f
fe97
f359
f9fb
d601
e1a1
2100
1e86
f5c6
0b23
fea7
d487
080f
db3e
fde3
0ea3
ffed
f6af
d671
ecb2
09ee
0e84
dc22
15da
f3de
27c2
f11e
1117
fd25
e0a3
0365
030f
f77d
f1d1
008c
1dd4
1696
218c
19e5
1e8f
e75b
1252
0cab
20e6
1c1f
e2a0
22bf
034c
f6af
e8ae
22c2
de9a
0c4c
0f66
08ee
15ac
0ea4
06ac
0e7e
ef13
dbd8
edcb
1412
1186
feb3
effd
fd78
f69a
0dd8
edd8
108e
0bec
3051
2956
1804
d37a
0ce2
ebcf
d60c
e902
ff12
0f2b
f752
df73
f7a7
fbfe
fbf6
df99
fe68
ed49
f820
e700
03d2
cff8
1a5c
fe83
dc9c
0c2f
05fc
03eb
dd05
f3b9
f55e
30eb
f395
2444
26a5
ed69
1b1c
08e8
2139
f453
0de4
17a4
f855
c325
04e6
efc0
ec53
fe03
1883
0b77
f8b1
e9f4
0322
0328
f934
0459
edef
1eb4
f8b9
e4f4
f47f
f371
03c9
1c2a
105f
1e13
fe8c
fef1
ee53
fb7b
d0ae
edb4
fcde
ffdb
f962
11b0
0a39
fb6e
28ae
09bd
1169
1d20
d1c2
fdd8
3062
1605
eeee
f4cd
fa56
150f
fe5a
0631
d0bc
fe0d
1745
fe38
fc72
28d9
f0fb
15f5
21a0
c70a
eedf
136e
e9c1
fd86
f7be
f11c
0f8a
1f8d
cd89
016f
0397
fa11
eb3f
f8b0
efbb
ffbf
23a6
1a4b
1f06
ff40
f446
0150
f851
fa8c
ec75
16db
069e
0da3
2189
1edc
01b6
dd87
f65c
e5c3
1919
e707
e15b
ebe7
eb58
fc00
26e4
2209
0f58
e3fb
da42
1742
2a7e
f8b1
f6d6
0ab6
ea80
f06f
e21a
18fd
c307
11de
f134
0f69
fb5f
1686
f0a0
e194
19ac
ffce
0c1a
f3c0
ef3f
df98
2cbc
fbd3
f4b0
f608
b343
ec0d
e6bb
fd43
045b
56d0
dd58
01fb
3548
21cb
282e
210e
2d4c
09b7
f986
d69e
fd96
03d7
f7c2
f4d8
2713
d535
da26
0eaa
de01
dd5b
f574
10dc
15bb
f222
fd3b
2121
f81f
de6a
0200
2c3f
d4f6
f3a4
0a2a
d1fe
e52c
fd83
2626
1b73
e6ca
099f
cd64
e9d6
14ee
08eb
e8dc
de03
e8e3
0749
0640
d2e5
1d83
0a12
0294
01cd
f830
0df7
edcf
0b70
ef92
124b
060a
f28e
0035
085a
24c2
e726
fbd6
e15e
0f16
19fb
1789
d829
1dbd
fa3a
e64b
e2d9
ea11
122d
e6c1
c25e
e4d2
e509
f555
f8d7
20e8
efef
f071
0e75
09d3
0f9e
132b
12a1
fd05
177b
005a
2183
0723
0ae4
f56c
16eb
148b
f8c2
004d
f825
c3b0
d35e
d4ef
11f7
227d
d23b
f1dc
0de2
ffeb
da49
e273
0a03
ed81
fbf9
e403
c628
e00f
f840
fa7e
1a41
f747
f353
e1fa
e78a
eba8
e582
247f
ec23
dcc3
dc1d
198f
ff34
0f59
f395
1177
0d4b
0804
05ff
d74f
e9c8
f4c3
ede6
1075
ea99
e4a3
fc9f
09b7
2a8c
fbd9
239e
e647
e8e9
066d
f69c
e5ee
0ef0
214c
dfb0
e7f1
d168
0c4a
f0f4
e23e
2e5c
09c2
f458
df1d
ff93
ebf7
18b2
c8d1
e2a4
e703
f999
fea2
267f
113f
1383
ef53
09b3
084c
f439
db1d
21c2
ee1b
04fe
fb64
1a8c
fa51
0ba2
346b
033b
2533
ef6a
efef
fc96
e696
04dd
2688
0dd6
0c8c
023d
01e6
daec
f2bb
df03
f309
24f7
29e4
ebc7
e4c8
13e5
f67a
38d2
0cbe
02f6
e5dd
2221
dc8c
11b9
fd78
d079
e728
e881
136b
e660
e742
171f
dc63
178c
056c
08b1
19a1
1f0d
e1a9
039f
01d8
0943
2092
e1a2
1e54
ebdb
0b0b
ff67
277a
1962
e317
02c9
02e6
f684
ff73
e99c
0108
ebb8
0218
eddb
0376
e8ee
f2b9
158a
022d
eabb
f22a
283c
f6d0
07a5
fb18
eb37
e704
0a5b
ebe5
f614
e86e
ea26
1672
0d8d
15d4
1c4f
fe77
0463
02e3
0bd6
e748
14a6
1c2b
ff87
121c
f316
142f
1efd
3010
35fa
ef8f
3049
0cdd
ebb5
0c77
016c
10ff
fd65
0687
dadd
21cf
fa58
25fc
fd0d
286b
e24b
1d8c
ebba
082a
117a
eab6
22f5
1b92
e2c0
059e
0cd5
3bed
f9e6
314c
fa7a
1243
003a
f269
f139
3de8
0396
3b7c
217b
386c
10f9
1eea
e945
d9f1
f127
30cb
f4ec
f0a8
2299
fc55
1680
1cba
0a93
042a
ffbb
f02d
e159
3895
ed4c
0654
e362
1980
09b2
174f
1ecf
17b0
f4b3
e745
f074
02e7
ff58
dce7
fbd9
0e8d
dd7f
2fc9
0537
0f50
0164
3082
0bfa
2810
1f05
dd7e
1d39
db79
f586
0906
ecf5
0512
1acd
0d65
1b30
1827
f7b8
004a
efb2
f791
ff13
13b6
0477
1af5
1eb7
f4b1
039d
04d3
e602
de60
f46a
037c
e9c0
0323
f189
dc89
042c
08cc
fa05
2074
18cb
e53c
f410
f816
fc0d
10f0
e662
3882
25a8
e666
2ca6
eb97
1f14
f41a
138a
f9a5
0476
dd75
0b17
e961
ce76
0114
1681
2020
eacc
2b5a
df46
0666
fcf2
efb3
1c87
0938
1a23
fa24
d2a9
35fe
2b6f
48cd
01b7
1f57
3206
0306
1253
0732
d4e6
febb
1bdd
2758
3131
fcfc
e1e0
03f9
f0c1
eafb
fe03
3c02
dcc9
f6c8
d75d
2659
0ee8
4596
17b0
f7e4
1213
effd
e980
0bbf
c6bd
df77
104f
0526
0a72
2c02
0524
092a
1b58
ebe7
03fb
2e8b
0056
e070
1c23
ef17
1f67
1b3e
f46e
1b5c
ea02
23e7
fed3
f981
0767
f9fb
f334
fd9d
ffd2
f107
0b86
0338
2bf2
f6d0
ef5e
0f63
1e2a
1dc0
f5b7
001b
e52a
2878
12d6
02ef
0c23
f74b
013b
0c32
01b6
0115
2e84
05e9
e7b7
ecc7
e932
0893
2c35
d870
00e5
daf3
122d
ff5b
edef
2414
0495
1cab
f9cd
09f8
f44c
dc98
27c9
c282
255d
200e
e0c7
1333
fc75
1787
ebe4
221b
e9f4
f62f
12c3
ff69
d7aa
fe2e
0240
0eac
1de1
f45c
e0be
0c7f
f71a
122d
3277
013a
16bc
2ac1
2712
fb30
06d0
1d5b
de8e
dc2a
c4c9
f55a
149a
190d
f346
26a9
cf23
019d
f336
df45
c822
eb87
ff8d
e9d5
e44d
0ff3
08ba
d846
e6c6
03c2
07ea
e21b
f432
fafd
d0a2
01e8
f8e1
0a96
f62b
22af
081d
fe22
07ce
ef73
e458
37cf
382b
e146
1c2e
d51e
ea8d
285e
efe4
22fa
ef31
3b2a
043d
3170
ec34
f075
ff6d
e7fc
261e
e7ba
f037
1c59
fc80
18bf
2286
f4bb
171f
f91e
db99
dfb2
e654
1a29
f4ee
27d4
fdb3
1696
d9bf
e8e9
c71e
cfd9
f1c5
1ed5
d957
ddc7
ed11
f812
f98e
12d9
0a09
d92a
1a37
ee64
0494
f7be
f65f
ff1f
1673
ec24
11dc
ec1e
2f44
00a7
2566
10e1
f20b
10bc
0342
fbd9
e2ab
f9bc
e854
0b16
f427
1449
1879
08fc
fca1
292d
0e61
e06e
033a
15bb
f4d8
ffcc
12f4
e69f
e8b7
f9a6
0a86
2257
0274
f0a3
f156
e883
ef7a
29e1
2302
3237
327a
32a0
f973
040a
eb4b
da72
041e
2aa8
039e
fc47
ef94
07d7
24df
efaa
0bb1
fe94
2518
0874
e953
febe
d158
e72a
0853
df56
1e29
e801
1a74
0263
ea13
feb3
f848
ec9c
0cf6
16f8
12f5
0b55
0690
0639
ffa5
ea89
1318
19cc
dd9f
13a1
00e3
f18c
fb97
d87f
2297
1e88
12e8
16db
eb24
1b36
0ea5
f049
032d
10f3
0f29
efc1
d0ec
1aec
212f
1235
2376
e95a
c548
fe88
fe5d
e97f
e04d
01f0
1c16
e5ba
d8e5
1388
0eb5
d8da
fb71
e77e
e83d
f752
1045
2639
e532
19ab
1743
f811
1557
1da1
132c
d3a6
2cc9
06e5
008e
26fe
0607
ea8e
0bd7
0ba6
c5bc
ea2c
1613
f3ef
0ea2
f2d8
042d
f22c
0cce
e45e
e24b
e8cd
2657
15f9
0dfa
cb48
0ed1
207d
2e66
fb7c
0b70
04a7
eae3
f46f
1350
f6f4
2d07
34a9
0f53
ff43
d105
09f6
fd16
fca9
f888
1c4d
daa9
d591
0414
0004
21d3
056d
de6a
eac1
f0c3
14b9
046a
2555
00d0
21c2
f59d
e6ff
03a0
1cf6
1504
db5b
223a
f572
0317
1261
0819
1723
0c97
2298
dda3
edd9
f45a
fe86
0c2f
0c74
002f
2485
e636
e3e9
d94b
08bf
2519
1552
172c
ec54
001d
171b
12db
20ef
11b0
22b7
1c4f
0728
fc86
0579
06c5
1176
0be1
deef
bbb8
f569
ec0f
ed53
f44a
da61
d6a5
04f8
f7fb
0aa3
2bc2
d4c4
1886
eed2
1fbd
c245
0e0a
15ae
d2b2
e25e
1e90
017e
f257
f261
02c8
0c37
fa55
f4a4
f16d
ff06
0241
0113
e363
f53e
eac0
2a30
1d10
073d
1303
15ef
01c0
f9ab
2188
c888
216a
1373
2fda
f1df
f715
046b
28af
0a73
065a
3581
face
14e9
2051
edce
d068
3f8b
2243
0f30
f81e
2980
e15c
157e
e7c5
f9c6
02fa
3650
dfd1
032b
19fd
05e2
1d93
309c
eda9
0674
239b
0272
e23a
3472
ddfc
00df
def3
ec07
05b5
0fb1
1f46
c613
0d8a
1392
e994
ebd4
058d
03fd
2613
1b30
d12f
231d
1f76
1f61
0e9f
1756
ec9a
2f2f
fbf8
e357
1eb4
16a3
033f
f23e
2058
04fa
219d
f4a3
f778
09d1
1d5a
f150
f8bc
d9ce
24ba
f63b
1b35
0fa0
1641
0cbd
1cb9
157d
048b
1398
10cd
1f83
eb76
f00d
224e
f93b
32b7
f35e
1723
3627
07d5
e663
0116
1384
c3ca
000d
0fb3
f2c6
e683
e98b
f925
af4c
f12c
f465
f0c0
199f
14e4
114f
08e9
1b02
ef39
db58
f3b2
d39a
df2c
1ab5
eefb
1151
dd4c
058a
eb6e
d9cf
ee5d
f68a
26cf
d9f8
eaa7
eb33
0534
dd14
fbfa
054b
e92f
f316
020f
ecb6
f542
d721
fef9
eaef
d486
e4bf
e8ba
bbdb
c50a
e0cd
f92e
e9e7
e07d
060f
fe5c
eb72
0500
e563
efd7
eb36
e3dd
db5e
d1ab
d9ff
1c19
fa23
ff72
e1e0
dfa5
fa3a
1363
f0d0
ec89
fb63
f0b3
066c
0464
2374
e24b
1af0
f399
132e
f0f8
f263
de2a
fcc3
de69
e377
044e
f982
e597
0817
fc98
01c2
fd5f
eec3
1a5a
1d42
f453
fbc5
efff
d338
ffed
e88d
1fbb
1344
1abe
f039
02c9
22c2
ffa5
07b8
d5e5
de59
ff1d
ec63
e273
1919
f16e
c5a6
00d7
0d97
f6b5
02ea
f012
f615
bfb5
1321
ef45
fee0
0c81
4473
cf99
5322
252f
00b9
e9c1
d319
25e4
e8e3
3f35
b42a
d9c9
ff1a
e9d8
1074
12b9
3728
fef7
3027
2f85
28fd
1ce6
1179
3552
1196
fd39
0729
3bd7
2cdb
ea7c
cfde
17e3
c30c
0bd5
f2b9
fb15
1446
2115
0716
f329
f61d
2003
0b58
034d
3b92
3969
1b59
e708
eae8
1d07
05bd
d9cd
ae73
da36
18b7
fc24
3950
11cf
f72d
3605
1e9c
0f9a
db79
16d0
e6a2
f6c4
fdda
2281
1663
132a
1a49
2e7e
e2a5
1975
05e9
af7f
f29a
e372
290a
eb13
1902
1763
f4c3
f41c
fe04
1dad
ee40
059d
01ef
eff5
faaa
faa8
129b
25c2
229f
1a54
2026
e86b
fc08
027f
06fc
f203
10ce
2eea
1736
efe1
e24c
e945
f0c1
f7cb
ebbe
f2ea
0126
1213
1e53
320f
ef78
ff63
1734
1658
0062
0510
1dd8
e88a
f78c
dc02
ed6a
1411
14c2
fb29
fded
fa67
17e5
035b
efab
114d
f57b
e681
f36d
05e2
f4aa
d4ac
f57e
0d35
f763
13a7
f383
21a9
fc14
128a
ebec
f9b8
e792
daed
d41d
0463
fa22
1392
382c
14b3
edcf
1a95
049c
f92b
1476
2379
27d0
1c52
33ac
eb53
0f9c
d7e3
0bd2
18a8
0b19
0e90
1312
d5d4
15de
353a
cde6
03c6
cc20
2b66
f55e
d98d
2ae6
ddc9
036f
1577
e0ee
f4e6
fe5e
fb9d
e044
1c2f
e1b2
0cb7
000e
2699
e954
e221
0664
03e3
05d0
fba8
f005
fcca
0af9
0226
2244
f4de
0e6f
1d00
df39
284b
02f7
0fa1
1809
ee6a
0f39
0ac3
116b
fa41
0a07
0fd3
19a4
ce3f
24ce
f665
fd7f
1f9c
1ee6
12cc
1288
f3b3
cf3b
e057
1f03
ec95
0008
e71b
fb2d
1655
1596
e11d
186c
0575
1a47
e6b5
fa25
daca
0098
115f
fdb6
1ac0
1252
0e9c
1473
20ce
f46a
1a93
2a1c
095c
ee31
23b6
e08f
d0e8
21f4
03c1
184c
dfa0
3547
fdce
07af
098a
0d57
f41a
1c20
1fdb
1682
ebdb
18d6
365f
28d9
002d
1b10
fe50
0510
f8c1
cedd
e947
fee6
35a8
2415
f770
2975
da3e
18d1
025b
04eb
0589
ed49
0e74
fb26
2a73
e9e3
207b
f655
f7e8
fa4a
089b
f527
067f
35b7
c138
e81c
10b7
f852
1d72
fd78
1416
0ab3
0924
f246
2382
e3be
fe9c
0ff3
1d6d
e2c8
dba2
1d14
0edf
03e8
0456
151b
2109
002e
15a3
dbaa
040d
d237
e9ad
05a2
03ec
ed43
0fc6
205b
e7ca
07be
e71a
ebc1
f666
e19c
12ab
1fbd
2995
0115
f9fc
1b80
f641
f109
db02
fbb7
f907
f07b
e2cd
fa7e
1b16
171b
f2bd
1925
06f2
0519
e78f
cdc2
1c8a
154f
dbcc
ed87
f6b6
01d4
0d7f
fa6a
3790
cf50
1d12
fc1c
ea12
2a3d
0b7e
0c01
febc
03cc
10b2
0047
fa3e
2122
d69c
0363
016b
19dd
11d9
e64e
0ab8
dcd7
f75a
1279
efb6
eed9
079e
ea9a
171e
f514
1617
efe2
07d5
0096
0f83
36f4
359c
fac7
1c88
1399
d28f
eec9
ed92
fbf5
f61f
2a9d
0090
fc70
e068
1342
343c
12fc
f079
d16c
3008
e374
ddcd
f9e1
092f
0b8a
09bf
db1a
1cea
0c43
378d
074d
1835
de20
1601
30cf
f673
fef7
e35e
ea77
fe7b
361e
e70f
fd0f
dd3c
29de
04ea
1254
0916
d798
e4ac
05e1
1177
0ed1
19c8
d57f
d8d4
107a
e9cc
180a
f603
1ba1
f016
e9ff
bf74
008c
1e91
3609
fe88
fbd4
f456
d9b9
045d
0e8a
018a
35b1
e7c4
db33
d38e
0024
1039
f668
e73a
ec31
1203
d72f
0fd9
192e
11bf
df6e
f8d7
381e
1225
ebe8
1ea7
0731
1fe2
f72a
029a
028e
06b1
ec1e
134c
fcf4
0bf1
1bb8
0586
fc75
0be4
f396
df0a
20d3
067f
d2f1
1967
ea82
1c68
f041
d025
0b3e
05fa
1019
3379
0874
0c58
fd55
1eea
f038
c097
f2af
ee14
15e7
fa9a
0869
0f4c
070c
098c
dc89
ebed
1f1e
dc75
17a3
ffb0
1892
2b98
e809
f8e0
f29c
0384
fb39
088c
e11d
10d9
df57
0969
d6d6
196e
feab
e681
ed3b
19b5
134c
00fd
1495
f4bf
d559
14f9
2120
0a27
f1a3
f1b6
0b19
f800
1253
f94f
045f
07b7
f8ff
1d15
eba3
0ab3
0ec5
142c
02c4
f068
1beb
13de
0410
1ddd
15a7
fac1
0651
0216
ef42
1b65
0e9f
e524
1947
e47c
18f9
dc16
ecef
0ce8
e2ad
fb7d
e42d
1512
ed36
10e2
0555
045d
bec3
f51e
d539
02e0
f494
bbd0
f293
f226
cdcb
01ed
f36a
0714
ed51
2cae
1831
1d66
00f1
0f7f
05ce
1ef0
de42
d763
f569
1509
0324
fb0a
f8bb
e625
0710
0904
fee1
032b
16d0
073e
2680
f172
087a
1a30
031d
f8a1
3671
f4bf
fbc2
08d3
09db
1057
fab2
0a0a
fb32
144c
126f
d3f2
fcf4
f797
0935
dc6f
e676
e110
fd1b
edaf
1472
210d
cb8c
e6a9
dc25
2b7f
d8ab
0d70
363c
ea32
0aae
d1fe
f82a
e25f
1bf6
f8d0
f450
18bf
e189
1c5a
0a6e
fba8
16af
26a1
20c7
bcf2
0061
0f28
10bf
f06e
1a9b
16db
17ab
ed6f
fb92
01cd
dc53
0f93
edb8
0994
018c
0f84
0f52
e588
d2cd
13e2
e4e9
012a
d80b
0bf4
0a1b
125b
f3ef
1cb5
ef23
f1b1
0578
d199
fac2
0dd4
d393
f58d
daa1
0bce
0105
11d4
cc0a
dd91
1064
0d22
f8f3
1553
e0f9
d702
e0f1
ecd2
0d42
07b3
31df
f336
0ccf
2bf9
fb8c
1640
09e5
11d4
d256
eda2
110d
e7d9
f9a7
0416
e322
ef39
2502
2371
f26d
ff90
00f9
ed5c
daa6
073e
f0ff
fc39
013d
ed02
1c33
feb5
f07c
1372
e719
e2f7
e7de
eb70
ee63
fa21
250c
1e1b
1d9c
ea66
03a5
fb00
f0f7
1a35
025c
fc3c
f627
122d
ee11
f6be
0010
192d
f426
023d
ea79
0b88
ebcb
effe
0d9d
1a3a
0c18
fc7e
0d16
0a91
e6c2
04dd
e6b4
0d67
1d7f
2c7f
ff4d
0444
1e37
d350
1e30
f718
ff6b
ee05
fe06
e73f
efa3
0b6f
0019
1085
0e07
0bde
e56e
0a58
15ec
22f1
1259
f362
192a
18c2
0273
e69f
e572
fb29
1d62
2188
2edd
0000
0621
ed73
f6c0
f9e8
e5d2
f7db
3302
eaeb
041b
edf3
fb86
ffed
ef94
dae0
fa3c
f241
012c
da5f
fe04
c690
d79f
ecf2
0d74
071b
f32e
1564
15f0
29b1
d1a2
09eb
3ee5
3046
000d
ed92
ea1a
e9e0
160f
fcc5
1035
fc70
3239
ff4c
3443
fdc8
d8f6
f6bb
e554
105b
2fea
da22
e766
1f55
2b0f
2778
0ed1
1558
1095
0e22
df0c
14d3
252c
15c0
2af4
2d93
0d85
dbb5
09f4
ed15
0fa8
f61d
14ff
fca2
ee52
0f1e
0aa9
268f
0450
e2b4
e9b9
1714
d2ab
f3d8
3518
e58c
04b4
d94a
34cb
0d67
05e8
1a63
ec46
32c2
cf6b
fffb
2f69
0037
0952
ea32
d718
fb68
f6f6
eda7
f8ff
f743
2480
f2a7
f10a
0ff0
dff8
e308
ea7e
2e83
07f9
d3cf
f1b0
e096
2c0a
21bb
f7a6
0861
05fe
ece6
d08d
077d
258f
f704
26ca
1159
336e
0fea
e251
cac9
f1c8
1198
07fb
ff7c
eba5
0fd6
05f0
3773
3d5b
07b8
1428
fe54
d7a6
d7a8
083d
c5cf
df13
f0de
e8c8
17c7
1a3c
0c24
dea2
0405
eff4
1703
fac4
f42b
ff01
fd3c
23c3
de0f
1371
1d78
171b
daa2
fdf3
f4f5
25ed
05f6
f30c
f31d
21f4
2ab3
15f3
0406
07a7
fab9
19b9
1000
182d
edf0
1039
fa7d
fcdc
dc95
1c44
2724
f0cb
edcc
23aa
f333
e345
e58a
ee83
2032
f2fa
f4cc
1536
026c
f7ad
1b39
ca00
dea0
f0d1
1b42
c69f
eb76
0352
df80
e967
efab
c632
010a
fd95
e3ef
f614
e0f5
0cd3
143c
f685
f378
e27c
e05c
2d94
d12b
dc40
0494
e4e0
de63
df21
fd02
0dcf
df14
02da
136b
e1cb
11ec
f884
00bc
d7a6
ca01
db23
0c45
f49b
eb58
3761
e441
d5f8
cdd4
de7d
dd5a
cd23
01b7
f508
f855
ef43
f4b6
0cc4
e27d
db91
d897
0a7a
efb1
e61f
f38a
0198
fa53
d95e
faca
f291
e699
d926
caa3
0094
cf8d
0b27
1dd7
13d0
293d
04d0
f350
0c52
ecde
274a
2dd8
160b
f624
f41e
ddce
f7a6
e92d
132d
d4d2
2abd
0dea
1070
ef89
13e1
176c
eb62
2da2
f9df
d68b
ff38
fe77
0a35
ec15
0183
269b
ec94
12bd
0612
cdaa
f780
27bc
1f8f
0722
20fd
cb7d
01a4
0613
f018
d979
08bd
05a8
0428
e789
0f66
0899
1f7a
e635
feff
f060
0d19
1bff
3fd8
e0fa
08e3
e244
cf40
0130
1493
e2b7
ef70
1cdb
f9a2
fd5d
d9bd
f3f1
08c1
043e
f52d
dea3
06be
f5cf
10d9
f802
0211
1919
f27f
12bb
db5f
efbe
1cf2
12b2
e6e2
fe02
df8c
0018
04ac
efbb
ecc9
e355
07c5
0e51
d6d1
e3ac
054c
1be8
f300
1641
0dd2
ec5e
249a
f1ce
0644
dea6
0755
f297
e568
e530
07f5
edfd
ca8b
df95
e6ee
084c
d8b2
e87a
10f1
df2e
06a2
ff12
0a0f
1280
26bf
23a7
eda8
2a32
1a9a
1150
2426
0f6a
dd5f
0e69
ed28
e7fd
0042
1d5d
033e
efdd
35ee
d96e
ffba
1a9d
ed54
f6e9
1a15
0a53
eb22
f593
e942
f3a2
37dc
f2e5
0ffc
08c1
1f31
1ec7
08df
e948
0be9
23e0
2fad
2ee7
06ea
e667
e6c6
e344
cbb6
fdac
fff3
ff5c
0260
1b89
f2de
1ca1
25e5
0582
d6bf
15fe
05d5
fb98
173b
005a
fa73
e7a1
f28e
f57d
4542
f9f3
168a
00f3
e920
f807
ddb6
e9b5
d8ca
4250
bd96
0204
148e
f351
278f
10cd
fb49
0f6b
0b3e
05ff
2904
138b
efdf
2b13
0ed8
0567
1755
fce6
0489
0d70
0d5a
1c65
e0d6
0a8e
c7d5
e92e
2501
f00a
0908
0960
f9ae
563c
ea80
190d
2d3c
3866
2ae2
1538
05fe
dd0f
24fd
f358
e637
e442
260d
2e3d
14a6
d593
0433
34a9
17f8
d3a4
e979
f4d2
f356
2028
ee41
16ff
f0b8
01ae
2ca6
05e9
0193
f210
f07e
0f3b
0e8b
e2a0
275b
f69a
09de
d201
189d
0b0f
d184
1a64
db9b
11d4
e8cf
d576
eeb2
e49e
1097
20b9
36e2
12a5
e74e
1298
dfa4
01ae
1bc2
2263
fb00
f54a
0536
e2c2
1981
e342
030c
1d83
209b
0838
ea45
09fe
1127
1277
00d3
e4d4
e447
f7b3
fffb
df54
2729
bdd3
099e
0e78
0806
f273
fcc4
166d
d734
eb16
d815
1c9e
1978
0273
1f15
eac4
195e
b430
0144
0283
f787
f4d7
0980
0ace
0dca
0177
e56d
149d
ddf4
e485
1f1b
f623
fc8c
1226
3670
200a
1bb1
f8c9
2da7
d516
f842
eaaf
016d
00fb
fb46
2910
229c
c5fc
e73f
d44f
cf9b
d7a1
ee64
0ba5
e8e2
e6b4
f575
10b9
cea0
0ab5
0793
eee0
151f
f3f5
311a
e9ca
04ae
04c3
f3d5
ea57
0496
01d6
e616
f78b
18d6
f5a4
1507
fa05
dbd7
04ae
fb42
e5d0
fe38
e238
f233
01b7
1889
01b0
123c
e9e9
e8d0
f9fa
fd98
0dbc
f4f4
f99b
fd17
f3ec
0192
0e56
e6f1
0a98
1646
0310
dd25
c6ca
1517
fdc3
0f4b
eb6e
12b3
ea1e
ee68
1494
e34f
d2ab
f6b7
f96b
e429
2285
fb6b
19ef
f616
eb23
eae3
e7d0
108d
1732
c854
0505
ee47
f661
16a4
28cb
d8ee
0968
ee13
0b60
e2a1
16be
f206
131f
267a
e63c
0c40
b633
fe69
ee4c
e573
dbef
1236
fce9
0822
f79b
11da
1cef
0754
0012
0ca7
f9d5
1ac1
cb0a
09af
0b27
1a5a
18d4
e60a
df7d
f198
fc21
e934
eb58
178f
0440
f323
f9ca
ef8a
d24e
ea86
ddb9
ed5d
09e9
e41f
19d7
1169
35a5
3eff
de5a
f8ba
ff90
f429
01e9
275e
e1e4
186d
f4ab
16e6
0115
3a92
ed8f
1de4
2f17
e2a6
fc4e
ff72
0677
efc0
21bf
e23b
f92e
f66e
1c2f
fc9b
e931
2163
ed66
1a89
1375
1e58
16fa
0171
1198
e153
0f5c
e259
10ae
fe27
d06c
001f
fd61
c5b1
2992
fd04
f79a
277c
2ed4
eba4
e3b2
02e5
03fe
f0a5
0a37
1bb1
1c08
07c1
e45c
e62f
14a8
184b
193b
cfd9
01d9
490a
fb3d
f6a9
09d0
db13
1aa2
0efa
db25
30e4
10c2
0e79
1b98
f7b6
1b50
180e
1f9e
2694
2306
0e74
2229
040b
c4e2
0073
fd41
fae9
10e3
2f1f
e386
0b87
fa93
e488
1dc7
f01b
fa0f
0ea0
f62d
2496
2d0d
006b
2751
2bcb
02e8
0c4a
0a8e
d65f
dd1c
1948
2c0a
3024
12ff
26e5
04bc
da43
d160
cd23
0c96
0468
fd94
fcad
ef57
12c3
1d03
18f3
12a9
e92b
1648
effc
f07d
0f79
bd0e
ec7d
027b
f2f2
08a9
2c74
1922
0b2a
127e
f605
198e
1d76
f9c9
f015
0f74
edac
edd6
38c7
f268
0285
0004
2518
195a
07c3
ef44
0e02
1168
065f
0b39
11eb
31c5
08c8
f4f1
2ddf
e1f1
3826
0ae2
21c0
109f
ff13
0e47
f778
f8ab
0b11
2972
0a55
e53a
1b63
ee0c
dabb
fb5c
25cd
e2f2
149e
1f30
0466
3b7d
e398
0cb5
e38a
f691
cfa5
0c18
2a64
104f
0c1c
02fc
f17a
0f20
2199
1de5
0653
2a90
d479
141c
3871
f8a8
e9f1
11e8
d003
e3db
fffb
07fc
0088
d4a2
21e8
0dd7
2e20
03b9
e1a1
0fc5
f20d
1321
256d
1799
f49c
056c
17d4
1762
20c9
f01b
2092
16f2
0230
cad4
2ae5
03e9
2303
162d
f7f1
cd0f
dca8
d8ca
e43f
db12
333f
ff0d
084b
fb9f
1c1e
3c59
099d
dae5
e67f
2a6c
0bab
ef28
0f23
cb55
da26
e54d
2e65
f59c
f0ce
e001
fe06
0a61
0f62
fa58
e650
1151
f1fb
33a7
fb1d
e188
20b2
197b
12d0
0c93
1655
ff38
f507
fd67
e499
00a1
fe3a
2b3e
10b4
2dfb
1c06
209b
2f69
0f68
fab4
fec4
fd87
277d
da0f
11da
f18d
2a00
fe75
f4dc
e926
05a8
fb78
ece0
e47d
202a
f3e0
176c
144c
dfc5
1c10
d813
1386
e1b1
3c8b
fa2d
e8a3
0351
0819
075a
db9f
e28a
0e03
04af
0eed
f15a
f40b
1673
d9a6
11b5
1b77
0403
12c6
18d8
f0bd
fab4
040f
e38f
e9eb
0514
1864
2a5e
fb3d
0603
ecb2
dbed
eff4
f89d
f5e2
1a00
d3b4
f2eb
f359
1397
245d
0d88
2077
f9b8
0c67
f50f
f702
25a0
efc3
19b8
2573
e9b7
ffe9
ca83
e7c2
eb5e
15c0
e43f
f614
ea79
f863
133b
ea5e
ee6b
f449
f240
ea3e
0614
20b2
f38f
15c8
d86f
0655
e51d
e3dc
20bd
0c98
19fe
e23b
0ac3
17f6
266c
df83
0752
1967
cdeb
1596
f71e
0a5d
0230
2338
01e1
21c3
0bfd
01ac
f710
f4df
0350
13f1
111a
dfc6
f2d5
1301
0f9f
f972
eddb
1f3d
04ed
f04d
cf84
2909
0fef
0069
faaf
ed88
f329
d846
cf73
f334
e00e
ff2e
db96
e558
061a
f9d0
0238
f273
e665
0b68
056d
dbe8
1808
122f
d05a
d639
fdc2
fd11
fe58
f65a
f66f
f846
effa
ff50
22bc
f8c3
22fb
d56e
dcb9
1dfb
01b1
0aea
0854
ffe3
e456
2a25
1839
02fe
28d4
e15c
05e0
fb72
06dd
f168
0e16
e8d5
f5d7
2f9b
15dd
3320
fa6f
f257
f295
fc19
e189
2f45
2880
f4d4
f504
f42e
e401
fee7
dba9
f4e4
16ec
fc3d
f45a
061e
e829
f2e2
08d7
10e4
eaa2
0a9e
0707
d37e
ea2b
11ad
efe1
e7cb
152e
0a9e
fd2b
130f
f2f9
f8dd
f8fd
d52c
f92d
3156
18a1
fb0d
f724
0358
d43a
3e06
17f7
0893
f98b
1109
08e9
f02c
1fd6
16af
fa8f
0637
1703
06c2
0276
0f7a
1074
114e
115d
f7a7
e7b5
05cf
f555
015d
e4e2
155c
0c72
2c9c
114c
fba6
d1f2
f968
02a0
b4db
ec80
1263
08c2
e61c
0b4e
0718
26e1
2a0f
f297
dbef
f14e
d524
0070
f505
e163
0240
ea71
fcfa
1116
0958
f1e2
e29b
08e6
f780
efc9
009b
f851
de2f
ff84
dbff
df32
0f58
11c4
14b3
e4c3
0031
17b7
2638
24a3
db04
16fe
162f
2984
f56e
e863
21a8
e7be
068c
086c
0c7b
eb97
2507
fcbf
e111
cbcf
f773
fede
fe5a
11af
e968
d8c3
f733
0786
ec82
0af1
0e80
1c49
fc4f
1619
fd70
02fe
e7a4
e708
053b
1b1c
0462
f245
1202
f49f
f45d
1cfa
f374
0dc1
0583
1a09
1390
1594
126b
08c1
3283
028a
037a
ef2d
1368
bbb2
0894
0fae
2e73
f0d4
fd16
1166
e862
f6a3
1799
e761
17b0
1a26
23b5
edbe
dc4b
1501
12f0
1c5f
2a83
f2b0
ffdd
1453
f056
eb66
f648
223f
2ba6
1d2d
110d
efb6
d4dd
016a
eb2e
ed7e
f095
0e21
f95c
0670
1eda
127d
eb44
ef65
fce6
e99b
cd2e
ee93
2850
d967
faae
05d6
0cd9
f1b2
2ac8
e6c8
2996
27b5
edc9
138d
d087
0a96
fdfc
057d
c959
f311
0d1e
f8d6
2bd1
e94c
015b
d8b6
2837
27cf
285e
14b6
01db
0b04
f62e
07d8
f4f2
f9c3
fff6
1478
e9fe
2238
fa32
f90f
dcd2
e4ce
2dc0
156c
1571
ed31
07d4
3a0c
1608
da55
1081
21dd
f4c9
0c5c
d6fa
dc67
02d0
e483
2282
df85
4617
107e
1861
0920
106a
4e27
087a
d66c
12ad
fd57
f637
0654
d903
14e9
fe6f
192c
ec47
f545
2526
1542
1926
d5a0
0b2f
1579
fe2d
ea21
3068
13a8
12ba
14b4
f78e
e4e2
0332
1e10
23bb
0f0a
e271
fef1
059b
f286
2ef4
2d52
0169
f098
f15c
f8ee
1880
0e9f
283c
f7bb
27ee
fd85
152d
f89a
e76a
fb20
067a
0cc1
118c
ff36
1fa7
035a
0bc3
f727
fd1a
fe16
ccb8
dca8
faf8
efb4
ef32
cc44
02bb
eaf6
f7c7
1aa1
f3be
2f70
f823
2966
0fce
083f
083c
1059
d89a
05be
31e1
f0e7
1b48
f94f
278e
c385
244b
f6b0
0930
ed72
fff4
3208
08d3
eedc
fe77
f2e8
0b3f
1f64
fe65
fc7e
077e
0482
cb9b
f66c
2c53
fc90
1611
fb7e
0bc7
042b
fc08
f71e
fa88
f99c
37e7
0d01
e6b4
fffa
fbe4
3779
1cc0
d976
ebf9
fe92
0496
ec0d
3ab0
e8be
0bc1
e4a9
fea1
23ab
0944
f633
f558
1fe1
de8a
0c3d
2cc7
33f7
0be2
07ab
0963
d70c
f1c3
f8a1
0ad7
d8b2
fad7
ce9e
3265
17f8
f0bc
f6f1
f63b
1165
042a
562b
e67a
162c
2719
1ec1
0719
fe05
463a
1e8d
fda6
e7f9
0131
fdce
30dd
22e0
f26b
f335
e651
ce3f
b980
dcf6
271c
1844
04b1
218d
e61a
171b
0759
fefd
e5fa
1a81
002e
06e4
37e5
db1b
116e
0f2a
00ce
fb2c
ea67
2591
0db7
029f
1423
f848
28c2
0d9a
d31f
1770
1d1f
d97e
ec48
e02e
2eac
f409
2caa
f1c8
2b7d
f540
fd8f
f8ce
ebce
2931
f022
0d0d
15a2
1192
fce9
20dd
2e75
1ebc
f01d
db43
d2ed
0004
27b6
100d
f3d6
2741
