// HAR Model  INT16 quantized weights (symmetric)

// conv2d_1/kernel  shape=(3x3x1x16)  count=144  scale=2.0826026962e-05
286b
a38c
8460
4cf6
2fe7
adff
2d76
cfcb
2fd7
5a48
295d
37ef
ee6a
2b9f
51a2
9fc2
e25c
fac9
34e4
4799
37e7
f419
c576
46d9
33f8
ee2b
bbe9
0fdb
488d
bf5a
f55a
2a04
49cd
a868
e386
18f5
506c
df9b
6250
349c
2502
168b
3e2b
43ff
a988
63b0
e8f1
339d
03c9
bcf9
9feb
4467
4e1f
8eaa
2d2d
e162
2193
3228
5650
4a59
d9e4
5daf
5c93
939a
d9fc
2817
f9e4
4cfa
3a12
df28
f9b3
609b
59ea
e857
d24a
4187
51e8
b656
006a
f9d6
4762
a434
0f73
ed06
febf
f195
fb3b
1cb2
6216
fe3f
3c6b
fc05
b91b
323a
fd57
f628
f8b1
9abc
8001
53ef
354f
cb25
52fc
ecf9
0a7a
40d6
4ccd
425e
11db
4c27
5397
9132
ea7a
fe0c
de6e
6a03
0e1d
1398
2962
56b6
5bee
0eab
af3c
2705
3905
d768
e577
0ad9
56c8
a797
03c9
06a7
cac5
3894
aa11
3fe6
4452
e353
dc85
fe95
b2c4
2551
0894
e8ed

// conv2d_1/bias  shape=(16)  count=16  scale=1.4621333876e-05
672e
fadc
bf2a
fae6
f98e
ea90
fbc8
9ab1
1c4f
7fff
e60a
036c
dde2
b20e
fca2
fff0

// conv2d_2/kernel  shape=(3x3x16x32)  count=4608  scale=2.8395756820e-05
29b2
2bb1
14b0
017d
0346
2ff3
2bf7
e4a3
1721
1eb7
f9d0
0820
1cb1
eb74
189b
1731
0e5d
eeed
e15c
dd0b
2987
098d
f574
d345
15ff
f6bc
e252
d4ea
2314
0cfa
1eab
fd9f
fe53
2e6e
f66a
19ab
048f
2074
0a1b
1353
f6e9
0120
0bd3
f3d8
03e4
0746
1055
1ced
f0aa
0b7a
0a7b
0c0a
f954
2598
0922
1f61
053d
0a14
2204
34e8
158e
00d6
120d
1430
a283
efed
f126
2fad
e346
f535
d745
2455
2911
c29e
1032
147a
0274
1f17
dc8d
ee2c
ed5d
0bf4
0ce4
ef89
e8b2
3889
f887
e8b7
c9d0
219a
3de5
35d4
eecb
0c1c
0f0b
f1c4
ee73
eae7
0ff4
f562
1b8a
16dd
0978
0af6
fc79
0fe4
f498
20c7
d6c4
02b1
e2b9
0144
2485
fc95
1094
1604
2a8b
f779
f929
2014
15ec
dfc3
c7a5
e774
f90a
0353
0897
e8d3
de10
f76d
167e
0473
17bf
fbee
081c
0845
f14b
0833
e91b
1c06
dfa5
f938
d15c
0929
294f
f7b6
0766
0c71
2705
d873
1374
0801
2a9c
eaea
cd5f
d428
e8ba
fef9
03fc
e68d
bbc7
f60f
fe67
2694
fde8
ee44
c7bd
17e7
07d0
d5f3
00ed
1751
fc55
1d4f
ce6e
f095
f9c0
09e9
f7fb
fc12
f5db
14a0
f20f
08a7
f43b
15b4
29ca
2dfa
f365
0669
fbe8
0275
e1f8
1710
22de
fe82
1e16
05ca
edff
1024
ef00
07c9
0977
2eeb
cac3
1b8a
e656
f64b
335c
efe2
159b
f859
3d36
fd75
1284
e9ff
3b01
f64d
f08c
ddd3
d8bc
04de
099e
f03b
dfc5
f3aa
05ee
0fdc
f9d1
ecc3
ef21
06c5
2d15
ddac
3111
f042
20b6
fd98
da44
f4e5
fe1d
1928
13ff
09e8
e7e0
33e4
0bec
f42d
f681
2998
25b9
19c1
0ddd
07ee
039e
dc5e
0507
e3e9
1006
14ae
07e3
1bac
1b67
fe1e
104c
f830
fc20
25b7
0005
104b
ffb6
18fe
0179
0657
fb35
0621
31f8
008f
fe35
fad5
06ba
1158
f5fa
f471
fb61
f952
1014
f833
1840
0f28
13af
03da
2dfc
3986
353c
ff77
1581
1474
df07
362e
fa75
f746
02a0
26ad
1156
d2fd
fdb5
01b9
42e6
d6bd
fc82
f7e0
29af
ceb9
d9b8
e6b2
0c7c
fd8c
1fa6
03f4
0353
3402
1e53
f376
3272
04f2
dcd3
f6fc
ff16
1b33
f713
1ef0
f015
f2f2
e000
e68c
2afb
fbd4
0078
e750
3eb2
01c8
1387
ec0d
2cc1
e3b9
aeba
b10f
08ad
16a7
e4b6
e7e8
0140
0c18
25e3
11c7
2a63
1cab
1060
0c5d
f5c1
138b
de70
332f
c78c
ff84
d6bc
0407
18aa
ec16
1ab9
046b
2f6e
cf7f
fca3
0ac0
2917
d068
e9f9
db7a
fcb3
13dc
1dab
fca6
0be9
ee2d
0e58
11b7
004b
f168
0699
13ce
0acd
2391
1b15
ff5b
222e
ed30
12d0
ed8d
f6de
0e64
fef7
16de
e8e5
21b1
10b4
18f9
0239
204d
2dbf
229a
175a
ffbb
f2ee
0499
0b59
2a85
2bcf
fae4
1864
f452
e36f
f6c0
f538
03db
1e73
096b
0f90
ffc8
0682
e3ea
1edc
081d
1199
f8c2
19af
1f6f
1a0a
eddf
2ca7
d182
e1a4
0633
ff32
1209
dd33
075f
0845
29ab
0f57
f64b
1940
0c5d
151a
0603
f612
22a5
e83b
20c1
caac
048d
e7a2
fffd
1cd7
ffb8
00f0
e3a3
3820
e024
090e
ecf5
25fb
f160
f8fa
eb8a
fc31
0158
0195
e53f
c3b3
012d
e71a
18ec
e6b9
ed71
e574
1a92
2321
f30e
1e46
124f
1e8c
238b
e02f
fed4
ec71
01cc
ff79
e394
de8e
209b
f4be
e52e
f0d5
1ce5
46d7
2d9a
eed2
00ef
1539
dd84
16c2
f363
f8b4
087d
0a1f
252e
1f17
e51e
e852
1f6f
f9c8
fba0
15c4
fc13
1c13
3440
01fa
ef62
ff6f
027a
15cc
fdda
f286
19a3
08df
0992
184d
18a0
1907
0dfa
196b
16b9
1603
1742
085d
f7e0
1787
1892
f90d
094a
fb4b
1bec
0399
f23c
07af
f6db
f434
0cf1
09aa
0fe7
f3e9
1415
012e
076b
11d2
0a1e
15dd
f37b
e5ed
da4e
0872
f2bf
fcf3
042f
ff9a
2a03
048e
0a58
025f
fa47
d8d2
f117
f394
f5cc
1cdc
fb80
1401
02cb
fc98
ca38
ff30
17e6
fa38
1d17
137f
11b9
0f3f
0dda
0a3d
0a38
e5db
d8da
0ddc
1589
c3cc
fd10
e714
f081
0a63
1258
0986
113f
0ce0
17cd
20aa
f15d
0de3
fd1c
1e9f
fc9f
e86c
14d2
08f8
0068
fb15
fed3
fdd2
0b5b
0724
0de3
0a9b
236e
1d34
0541
0783
f454
fabc
e3fc
e29d
07c0
18e4
ffba
1674
f0bb
1a2a
128a
22c4
ea88
0aae
0dc8
fdd5
1c77
ded7
f8ad
0e37
139f
1ce6
1013
08d1
1027
14dd
fe19
1986
227d
1945
145b
0b1f
f833
028e
e3a2
eb5d
2175
0637
1821
0fba
045d
e55d
01df
0098
f399
0a9f
0242
f030
ffe7
fa40
d528
fb1a
0729
0f69
1779
24f8
0d6b
fcea
1e29
fae2
242f
fdd3
051b
048f
0ef3
e841
0ded
e9d0
ceaa
2487
01b6
0e35
e66f
dde7
1449
1a43
02c4
0cd9
133e
e7e6
0ae3
d387
e031
2db7
0ba8
ffe1
fcfd
2197
f595
0db0
1b3d
2366
fe77
f989
faf8
ec0c
ffdd
00bd
faa3
fd9a
ea1b
f91f
0250
0253
f330
e704
f9a4
f82c
d0bc
2c56
fb8d
1718
05a3
0288
f26f
d933
1ca2
11e0
10eb
0663
137a
1ae1
1503
e298
43fa
f55c
f269
1d7b
f3fe
0259
fbaa
f3c3
cbd8
e986
13bb
ee22
06e8
19e9
1266
300c
e8c0
1da0
0da7
1d10
15be
0f8a
1344
ef41
16d5
1193
f4bb
fdc7
291e
0413
0acf
ea38
2d03
10c7
f7a6
129c
fa1d
0b8b
0703
1adc
f4c8
f6f6
0b58
115f
25cd
3000
0792
1dff
11b0
e0be
24fc
142b
f8fb
1b3c
3494
0b68
efac
ff5f
e768
0523
f80c
e559
f59a
f9dd
f31a
0060
f852
1f74
0ba6
1864
0ad1
fdc5
bf80
09f8
fa73
0219
f9fb
e420
0c63
f3c8
0715
0561
fbb5
0ccb
f629
09c8
f145
106b
0a4f
1bd9
2211
1220
194a
095a
1204
1df9
350e
21ce
2978
15b9
042e
e5bd
feec
f361
f013
0426
ff3f
0496
1283
07a4
fc9a
2ddd
ed23
102a
08f8
03e9
fc6d
fd46
f6fa
0f48
0ef7
10f5
166d
006e
0773
f90c
0f98
1575
1a24
0096
017e
0589
008b
0014
efde
19ce
cb5c
ef74
0314
f1e4
eea9
f1cc
f26b
2db5
fa22
1832
f5af
1777
049d
061c
f1dc
fd4b
0fc4
10c2
06e9
ef14
138a
1184
f098
ff5c
1c48
2e53
07d8
1fd9
fb49
0725
18ef
1364
ce53
02f7
f95c
ff0e
eb8a
d9a0
0315
f3b4
f12d
1b55
efcd
11cd
f29f
05a3
e4c5
0cb9
19a6
0eb4
1ed5
0bbd
1067
1926
13af
07fb
3441
3269
2a74
fbf3
0528
ce7d
08c7
1324
c8a1
0c49
fe78
1290
fcd5
f86d
0d1c
18af
1dc3
fac0
fc8e
0750
f1bd
f325
047c
06a0
0da6
0e74
048e
114c
fa4f
0927
03d5
1935
10a3
f66a
f7f7
036c
f727
fdca
e3ba
fb95
2800
1add
fdb1
1694
e7dc
e2ca
feef
03d0
1653
1a23
1295
0232
02aa
f01c
d059
1835
00fd
f911
059b
1311
17a3
0e33
0dde
0a9c
1144
c7bd
bccf
019e
0a4f
ea53
f74f
27a0
0e7d
f948
f7a1
f44a
2f37
1764
da30
f2b8
118b
eef7
0ca6
12ec
fad4
1ce9
1d6d
fa2e
0003
009d
f7fc
f0e5
fad8
0861
0b3e
0f38
9c11
e1d8
05cf
0be2
08fe
1107
1646
1172
ffe5
0fb5
fe19
0cc5
0b31
e4f0
06e2
dd32
1b6c
0ca2
e7f4
0895
1206
0e90
f31f
f952
05e8
fa31
df68
ecf9
11fa
1214
0106
fd90
d908
df84
19af
2731
093f
d771
0c14
056d
d8f2
0903
07fa
16ab
f394
dea2
1041
d4c3
fc52
174f
fb01
0883
0998
0215
d266
102b
fbb5
05f5
0f90
07cd
026e
0ef6
12b1
fbc4
b9b4
d758
f7bb
fadc
fcdc
e1be
0f4c
0437
e1da
0570
0bf0
f991
06c0
1df0
fcf4
da6a
0004
07f0
f653
1359
f641
1944
199b
f933
1647
0e61
f952
057d
1c94
0b35
f50f
ec32
cf7c
def4
e1c7
0e8f
f457
103e
0541
04be
d658
1551
1042
fdbd
eebe
124c
06f0
d2d4
e92e
1581
1765
0a99
1467
1282
0f52
10cc
10bb
fb45
089f
0c1d
18ba
0694
fe7a
10de
f0f9
d82a
e490
09bd
04da
1844
fe1b
10fe
f73b
0f32
1471
07b4
f685
f52f
09a7
0a5f
005e
fae4
1380
feb6
0ff8
10b6
eae1
f5fb
0571
0c52
0504
f8c5
07b4
0f1d
f56e
0983
b6ab
d6a9
fd3b
fbfd
fd8d
fe10
f345
f710
cb66
068e
0c22
158f
ffc9
e002
f7aa
d260
09c1
02d3
255c
e7e9
f543
e39c
e1df
2443
f3a1
0e97
f69d
222e
0e2b
14e0
da84
1322
d333
e799
060a
e751
0bcf
e342
f189
142d
f6fc
e5f8
00a0
f49e
eaf7
1523
17b3
f24a
cfc8
2cf3
f20e
1aad
0dbe
1bd8
0573
dcb9
16e4
0c5c
1f10
d038
2e59
0fda
1b53
d093
ccfa
20a0
1775
1b63
f25d
0553
1e5c
fb40
0490
f295
0bb2
f127
12fe
2adc
fed5
e1b9
d2db
19ec
ed6c
12ee
0e1a
2ada
18d2
fc43
1b81
f411
0d0f
f699
2554
f902
02a4
e924
d87a
0dd1
1449
1d2e
faa6
2bc4
13a8
22df
e092
f2ae
0c2b
f392
28fc
10ec
0733
fb93
1480
fa50
0e2c
1fb9
02a8
26e8
242a
06d2
e3ac
f5d5
e412
0d2e
f5d5
de89
f091
0d0d
b1db
f327
0491
192a
0ebf
147f
0e9e
0abd
de88
05d1
fce6
05fa
e836
db92
025c
e917
f57f
0ba8
0338
f8c8
f33d
0c55
e96c
01d2
119a
fe60
ebd0
f524
eafd
19d0
eb89
0d9f
cd4c
07a8
0e11
fb8d
fe2b
fa8a
14ec
0cfa
e932
10f7
16f1
0d50
1620
095b
f640
d4a9
f52d
166b
1477
0881
f443
12b4
0fa7
15a9
f84a
157c
0963
054b
1a2d
11e4
ff7c
0fca
ea2e
d1ad
e110
fbc4
0487
0f12
ffed
2e16
e663
e91b
f576
e1e2
f770
de0b
f8eb
f440
0de0
1d11
f4eb
256e
fb7a
1c45
ef1d
d2e1
1eac
fe04
fec8
e6b4
1284
1be3
1da3
fa0e
d9df
0d1b
2108
2177
f041
da8d
1675
1dc5
e634
f993
ea89
e9b3
e82a
c507
e299
dceb
026d
107e
fe7b
0d4f
efe0
0e35
e032
fee5
1681
1ca5
0186
ed36
ecf0
1191
0b21
0aa5
d0b1
f87b
e9a5
0e1f
f605
de37
0f6d
0359
c274
093a
ecf5
0ab8
0e44
0085
00e8
d562
1d37
0f9d
0686
fda2
051f
0673
ef0c
148d
118c
fc55
fab0
0f44
0c21
0106
df78
1982
e29e
f731
1291
14ea
0f1b
f067
eb20
080f
0e2c
1e18
073b
039f
e9c9
d24d
fee7
cb67
0771
f91a
1304
f703
0625
0f69
d340
1db5
08d3
12a4
137a
059e
1ad9
115a
13f7
07a0
aa8a
eae6
0a27
03fa
0aba
dc69
fe41
0fc3
3438
fc2b
0c29
1511
22c6
1bb1
009b
10eb
17ff
00ba
ff68
12f7
e811
2597
120e
152d
ec2d
f2d0
e91c
10da
05d8
f085
d71a
ffd6
f930
cd34
d7dc
2251
078b
19e6
0e86
0ce6
290e
fb9b
0c77
04a6
18e7
0f0a
11b8
f628
0710
02cb
17b0
095e
0aa8
05fd
1ff1
f03a
1634
fdbe
0e0c
eefd
189b
0a54
1a65
0859
0968
337d
22f0
0b09
0527
0bbe
05af
a822
021d
e0be
37f9
f77a
eec6
d4c5
2945
2184
c63c
1fa1
18b6
12f4
2d74
df32
fd25
e828
02d7
faf5
e708
e206
22bc
1170
deae
e077
2340
3a58
2b88
ef3f
0cc8
fe23
0174
ef89
f67b
28f2
fcc8
227c
0f17
0752
fd07
f938
0290
0644
161e
e04e
054e
db17
ed56
2c40
f9b3
fd92
11cf
1c67
dce1
00d7
1bd4
271f
e78a
c9f7
d535
fcf4
0be8
fb02
f5bf
dd91
f175
2f8b
f361
17bc
0c04
04c8
080c
eeea
04e6
00ce
22ec
e5f0
1712
c5f1
fa6a
33dc
f5aa
09d0
1319
25ce
d50f
0d13
104b
1f44
ed2e
e5f7
d79f
d732
1ec0
f4f9
f5ba
c3d1
f3b9
f51f
2229
ed46
ed7b
c26f
1bc1
1494
d1b9
1b11
098e
f397
0be9
c83d
f1e3
e22b
1006
f6ae
ff18
f93c
23ec
0d59
00a0
dba0
17ee
3229
225b
e418
1471
0575
ed46
f40e
2eef
28ac
1305
20cc
01f9
eb99
0f50
ef78
092e
04c5
1e2c
bc30
1bd8
dd31
f4a9
3344
f392
1a4c
e207
3702
e234
15fd
e8ad
2317
df53
eef8
f1c0
d40c
1582
f5cd
f8ad
f16c
f06b
fe1c
1b5e
f65f
f201
e222
16a8
20d7
ee33
1d84
ee01
22da
0f02
e74a
f0a5
ece7
221c
00f6
fa21
d201
2a0e
1c92
f43a
e6a8
2790
1a52
124b
163d
007a
f1ed
e2a9
fb39
da0f
118f
0dfa
185c
11db
208c
0ba4
156b
f8b9
f818
2682
f859
1481
03d2
0ea0
fee8
ecc5
06e3
f710
2ba5
fe45
fe0b
0769
02ce
fb6f
f8f6
fbe5
067a
1273
1690
0f96
2b5e
0d0c
11dc
f513
23bd
39f6
2b19
fa6e
1584
246e
dc52
2833
1153
fb84
0d8d
2898
2ca0
d6bf
efa2
eaeb
448c
cdf0
e8c3
fa38
230c
d202
f476
de9c
16a7
0a27
33b5
f7ca
0408
20cf
2efb
03be
26fb
f0f9
d7fd
089a
edb3
1607
0777
271b
ecb2
0979
e62b
ec40
2eea
f522
fe62
f66c
2229
024d
046d
e71e
2e88
deec
babb
db91
10b0
f816
e2a9
e79e
0012
f5e8
30de
fb3a
370e
00f3
1210
10fc
f572
09ce
fc00
1f5f
cc49
0734
d8f5
0ccf
35ff
0479
1a1c
ee78
3321
d3ff
1430
eec6
2cf5
cfc7
e515
d8c6
ec1c
1d0f
feb5
f31f
0752
ee03
107d
058b
fa5c
0288
f3a9
098e
fa4a
1493
0bf2
f12a
1146
e790
0969
f610
12dd
0a84
00b3
0d52
016e
1624
0a35
22b9
19d2
26c4
2cac
2b7b
0d9e
f838
fca8
0fab
1663
2c26
238b
f14c
29a7
e079
c996
076e
04ef
0342
0e83
167f
0c6d
e8f9
efde
ec22
29f5
03d3
0fdb
e385
0a0f
10bf
0939
f729
3104
f633
024c
ef52
fc98
f290
e230
08d4
f8f5
23e8
1641
f830
2df7
20e5
15bc
fc13
f3a6
0765
f203
1ae5
d33f
16c6
efb6
06dd
1aa9
ed19
f7c1
f6d0
335a
f47b
0f1f
e297
2166
e29c
11f9
05da
ef17
0639
0397
0098
c456
f53d
f890
17d6
f760
f228
d993
267c
2631
e9c1
01db
0dea
0050
21c2
e659
0d58
e21a
f59f
10e3
fdcb
d8d8
1951
01ad
ee71
ec27
14d1
2af3
2d19
00bb
04fe
1624
e9f4
1b43
08a4
0218
fe52
08a7
2728
2eae
ed98
e8fd
1768
09ca
1195
26c7
f78d
2003
2257
fe37
fcaa
e7de
1428
149b
02a9
049f
0eb9
06f3
08c0
0474
ff50
0aad
0eea
143c
10e5
0ec2
138b
1002
08ac
036b
1a5e
0cc5
0813
0c62
024a
0f6d
09db
024a
0233
018d
fda1
1462
f89b
ff25
1515
0386
f053
1106
0aef
1137
03de
f127
ca92
1942
0bfd
0164
0617
ed11
30ef
1e2a
18c8
0685
feac
c034
0d22
f255
f899
0ca3
fd66
fd92
f960
f044
ccba
1872
06e4
036f
1de9
1f31
1745
1445
2569
09b1
08f5
e421
dd2a
fbae
f4fe
df09
efa6
efe2
ddcf
fa01
ff53
fb02
fd23
1b0c
0ad2
1695
fa4c
0e85
eb31
0ed9
0b5f
f0b8
0ccf
f460
09c0
f686
05b4
10cd
0e7e
146d
094f
02e6
2041
1bb8
1b17
0bd6
02a8
f706
f699
f9ca
fb2d
0b7c
093c
0a8f
f3d4
fbb9
1230
1982
f637
0823
079e
0d7d
1caf
da0e
ea77
1981
fe90
18f5
0eff
1831
0f51
1736
025a
079c
2d66
06b6
00dc
f2d6
0f81
ffc7
e50e
e889
2616
02fd
136d
02c7
03fd
e6b1
049c
f698
f055
0852
0bfc
0d29
010a
eee0
df99
0339
0744
fc0b
1928
1b1b
f953
178c
10cb
f8bf
15cc
0262
0254
0031
fb87
e796
eefb
fbba
862c
14ea
f0d2
14d6
da60
e9fb
02fa
1544
0294
0e1e
1833
d913
f4a0
d843
ea9d
2e8e
fe39
044c
15cb
1fd1
fc9d
0205
08c9
164c
00f6
ee96
05fe
da69
03a1
fecb
ee47
0078
e292
deb8
fe59
fca0
d4ae
f386
1a02
ffa7
e795
1a61
e80d
255c
e77b
03b5
f183
dbd1
181b
0aad
f9f1
dfd1
1930
2bb3
17d7
e7c3
3f9c
f886
030f
0b83
fc63
ecb1
0631
f756
d94e
fc11
202d
eb1d
0055
1f79
145d
1e0a
ee13
1212
ee1b
0da3
19f7
f3d3
20c5
da92
19e7
03b4
fd9b
ea02
228b
f727
f72c
f332
285f
09dd
0b93
11dc
11dd
14a6
10e7
16a2
d335
fa1c
18a5
0b04
1d83
354e
f24a
2431
0a0c
e18b
0a59
1903
146d
249c
27f3
02de
ebfc
f1e1
ffa2
172d
e3a3
fa2e
01bc
fe3e
fc75
f0c9
0665
21a6
1910
2479
01a1
fcc4
a94d
174c
053e
f57b
0233
e933
052d
e773
fe12
1854
f156
0562
fe58
0cbf
f71b
062c
19ad
1ccd
0941
0c25
1d12
1a9c
0dba
1ed8
36a5
1464
2845
0a13
f7da
de04
0947
f50d
d6d4
03ab
01cf
0b71
026c
062c
0f0b
1337
0a70
1141
fed5
0601
131d
facc
f909
15cf
0e43
053a
0c4f
0716
0247
fdb1
12e7
0a07
0dcf
0dcf
ecc0
0735
00b7
eec4
eaa1
0ad7
bb8b
ef36
0d05
000c
ee36
fa05
fc35
1ff7
0704
1710
e26e
1b10
0804
0ec6
006c
ffd2
02dd
0e74
0483
e7ad
0e21
09f5
f06a
0b82
2546
3001
f946
04c2
0998
f217
fca1
0179
d072
fe41
0747
f908
d121
d719
08da
edb0
fd1d
1f51
f433
13f4
f6af
fee0
e212
0bf3
2138
02e9
1289
ff23
1f49
2372
2a64
0c80
3829
1c95
1976
0153
f4c9
e86d
07c0
0501
9209
102e
f779
1b8d
04d6
06c7
0171
2005
1315
084e
fe9b
04a1
0d24
ef05
f88a
12c0
f7ed
0c7b
f937
0550
0587
0f38
07ee
1c5d
0124
09bf
0700
073d
15af
fde2
ed2b
f972
1eaf
0a29
fb2a
1f70
ee8c
d216
0dcb
0358
0ffa
0de5
1ae0
07ec
f86e
fcc9
ea1c
1437
0f78
09bb
00fa
0e46
0e1e
0333
2182
1f62
12f2
b51d
d1c6
f747
0e2e
d5a7
f2ab
23dc
1369
fd3a
f43a
08c1
24b4
270d
f928
f379
0fa4
e9f0
ff89
2374
fb9a
2aee
0d7c
f3c7
021a
ed05
ffd8
02e2
ff29
f165
f82c
fef4
9248
f4b1
f5a6
272a
ef6a
108e
1557
17cb
fa26
09f5
0144
fcb9
139d
e870
04c0
e0a6
1d25
08a8
ff7a
f57f
0092
01a5
f4ee
0a33
04da
f7c5
dd56
0633
fea9
fe28
13e1
0b46
decd
e594
0af3
165f
fb64
e8ee
f934
1826
d479
1c69
0585
0076
dae4
cc22
f811
d13f
0eee
09f7
15e0
13cf
ff9c
149b
d434
20d1
feec
1b93
1128
1d6f
08bb
00dd
1333
103a
b863
df5b
fe1c
fa0a
fe70
d985
05c0
0c46
e24d
0d61
fcc3
0704
10ba
18e9
f57c
c608
fd06
040d
f695
1bea
09eb
13e7
1a90
039a
0598
ff40
1327
eb15
0d99
1119
029d
fa21
ca79
eb58
dcb7
17b5
0646
0ed9
ffcd
0aab
d9e6
14de
fbb2
0cfc
fe7e
1081
01c7
c672
e4ad
1e8b
f24b
fade
0606
0fa8
0051
f855
01af
15d6
faa4
fbb1
029d
0c00
0a62
0320
ce8e
de82
dfe6
fca2
0e99
0356
fdb5
fe7c
dc6f
18a5
f96b
021c
eccb
f95c
0c04
f83d
0701
17cb
09e7
02ed
1a11
fb00
efdd
1326
0995
0363
f700
fcbf
0b53
1368
03c5
1023
cede
d7bb
f18a
faae
0425
ee95
f708
f90d
c8e5
097c
00e8
0d62
fb72
e66d
0e8c
e9ab
053f
1359
0722
ce5f
05c6
db49
f123
1734
f7ca
1a24
f2ad
fb12
1181
0622
cb23
0ceb
d5f0
d97d
edb6
f48b
032e
f14d
f39e
fde0
06a9
fec0
0c6d
f213
eab2
05c5
0a83
e74d
dc05
2ebf
f5cc
1387
0e7d
170c
0035
eefd
1d25
0011
27a3
dd6a
230a
298a
2be7
d2d6
dd2e
21cb
1b24
12ba
ece0
00f8
0bae
0a4c
1781
f429
2536
e497
2306
28a2
0981
c9e5
d9ad
264b
f67f
2201
0347
2441
1d52
ed53
0a5a
0235
169a
d3f0
195b
f9cc
0e48
d2db
c8cd
0f3d
007a
07cb
f66d
28de
1154
0ccb
dd16
f839
0f0e
f918
2571
2458
f224
e7c4
17ae
fc4d
171d
22e4
014d
1fb3
2450
f36e
f31a
e740
e049
ef44
f14a
dc55
06db
0dab
c1fc
dfb0
fecc
252d
0cae
2e89
0a0d
0e7c
ca2a
03b5
0832
0c8d
f0d3
eaec
eaaf
018a
0673
0603
f8cf
0096
fe48
0b27
e41f
10d3
1236
1f0a
f31c
fc69
ebaa
1f32
d717
19f2
aefd
0df5
0a86
0c35
0e92
dff9
0a6c
13a6
d02c
13d4
02e8
105b
fd9a
1260
07cf
c5f8
f0c2
1170
ff2e
0411
11f0
0d9e
0359
f308
06c9
10f9
0d97
fc8f
1d21
147d
e813
0bb9
d6e9
dd50
e27e
0117
0e25
00cf
ebfb
1a33
e086
e081
0c0f
e621
f888
d612
0807
05ad
131e
100f
f68c
1bdf
e8d8
1422
f9dc
e9e1
1dc3
0c30
fa83
d493
1fb5
234e
24b2
0531
f7ad
0fd9
19f6
2670
0158
e156
0c25
15cf
de7c
000d
0985
014c
c8cf
ca81
fef3
d0ae
f01b
1ad7
ebf2
fca3
f74f
071c
d4b9
107f
1ca2
1365
fc09
e095
0b93
27f2
f702
fe17
ddb2
f71b
ff5f
fcef
edb2
dd03
12a1
2235
bdbb
171e
f935
13b3
0860
eb46
159b
d054
0da0
fcad
0675
ed41
ed87
0e20
ec87
fd25
08be
086a
e52f
0d95
0439
0742
d676
17b1
c0b1
f27b
f9d0
fd10
006c
02dd
ffe0
1088
0f54
1ee9
0316
1982
ec5d
cc26
f79a
e22e
0265
12d3
fee8
fb61
f522
facc
d9fb
18ec
fe44
09cd
1455
1cf8
185e
0afb
ffe9
26f4
b54a
f3d0
fa67
11c0
13d1
e1ca
0752
27aa
2fa4
1306
11f5
0939
2e90
186d
ea85
0e18
1e58
fed4
02a3
2305
06ea
26eb
1a77
14e2
f249
ed76
f11f
1d84
04b5
f6ad
e44d
1292
032b
d40a
cd7c
1e4c
ffdb
2b7e
fc89
0cb4
3db3
0a0c
0960
f8f3
0b04
ff3a
0d12
fdac
f3f9
10a2
0be1
18d8
00f8
023e
2169
ffb3
125e
0d99
1ac9
050b
1c65
fc76
182c
040e
1a74
2c45
39d6
126f
fa67
2112
185a
b1d9
f6af
f5fc
1ee7
f826
f522
d70d
29e5
1e04
cefb
181d
200a
1c2a
2cf9
c5e0
ebf4
fb14
fe51
fe05
e8f5
0d74
3b58
0788
e8e6
de62
22f2
3b89
2fd2
e719
1dee
06b1
e529
f8f2
f6c9
1a94
f7ce
273e
0a84
15c9
02f9
fce7
0f38
e87a
1410
ec1c
0b04
e024
0e41
0a81
0c9d
0fb6
0867
2936
de00
f61b
0b1c
1f10
f168
cf91
c40b
fa81
1209
0410
fb74
e4f9
f932
1602
fc53
1f22
f90a
0ac1
132f
01a9
f7ea
fabd
140b
cdfd
1972
c724
eef2
1364
0d03
1c08
003c
3ee0
db6c
1531
fef2
2256
d393
d309
d694
ddf5
1da7
0c2f
eb68
b8e9
0500
0667
1f32
0805
ea9a
b972
0d58
0dd8
d44f
02ea
26d9
fdb3
1c6e
e5cb
092c
02f7
0410
0985
1231
1180
1423
11f2
fc8c
e43a
0d7b
19a8
25da
ea23
1711
f897
f3fb
f44d
2189
1971
f9c9
3099
fb96
e7b9
0bb4
0147
0c1c
016a
327a
c02a
104c
d19f
dae8
3158
fe01
132b
dbed
40ff
e9ad
0125
e837
28ec
f2cd
f656
ef82
e885
19aa
f765
f9a0
f0b1
de63
ef6d
0ec8
eb9a
dca3
fe88
12d0
27da
dd65
3213
debd
0f97
05df
e0fd
fef9
f567
0b1a
fc4c
1084
ec28
27f3
0dcd
1282
e35b
304f
1f98
1be2
03ec
004a
05a5
d8d8
f3c9
eeb4
06c3
1180
1716
21a4
13ba
07d7
16a4
f3dc
fc88
1296
edb2
0326
f9bd
096d
0fb3
0990
f1e3
fd3c
1982
09e4
ff33
fcb8
1152
f577
f661
f762
f07e
180c
0438
eecc
1f32
219a
0f02
fca6
2513
3c64
2f1e
eb13
0717
2a00
d739
3892
f9f9
fa4b
17af
32f6
1f16
dd43
e534
f44b
37a6
cf03
f1a3
f977
2431
dbf0
d841
e8ef
2200
0344
37ad
ff4a
0803
3465
2415
f341
1ba6
0956
d3c0
0d15
e440
1338
f5a5
2155
ef33
ef04
f805
f237
21d1
f75b
1c42
f6ec
2a5d
fa1d
0378
e539
25e9
d91b
a8e4
c741
fe02
0d8b
e682
e591
ebcc
0c57
26ac
043e
1ba9
0c17
14a6
0272
0739
0fb7
dfb4
1646
d054
127d
c8db
fe04
2c56
f807
02d0
07ad
2d9e
dccb
0b7a
fc46
2929
d0d4
cfb9
e2fa
ece5
1aca
0444
f853
0367
e787
134c
0177
0d35
feb7
fa22
f498
0738
259e
22da
ed82
245c
ff72
0dc5
e9cf
1134
06d9
03e3
2ace
037f
15a6
09ef
1abd
0cde
3317
3094
281c
042d
02ca
e5c6
0305
084d
2eea
0c24
e7d2
0af4
db6a
cf4c
08e7
fd65
07a8
0c78
f9ef
fa43
f68e
f2f3
d64c
1b5c
0aab
0368
f951
13e1
0cee
0b7c
f2f3
308b
f1a6
f8b8
fa9d
f8a4
fcbc
d868
f3da
0ee5
26c6
2181
f4d5
317e
090e
0cb8
1078
ea80
1f24
e61a
223c
d031
1901
e48f
f345
34a7
0bd0
0ac1
e8c3
37bf
ed76
fc26
f941
1897
f743
f2c8
f188
ef71
11a6
003a
f169
b67f
f4e5
e648
148e
00fc
f72d
ec12
240e
24c8
ea73
089c
10b0
05bd
0d4d
dc88
eddc
ea8a
f836
f21f
e295
f552
1e36
0c66
ea82
d930
2470
4194
2356
f0de
0641
14c1
e957
0d3e
0920
0e02
f862
ff6b
16d1
1c70
e7fb
e127
0d25
f3ba
fac7
15ac
fdef
25cb
34ba
095f
ec5b
f77a
1c67
0823
0410
fd49
05f7
fc9e
1158
1401
13a9
27a8
fe25
29e2
119f
178c
1320
044e
0f6f
182c
fab6
0fe5
06b7
1086
0957
04e2
0d3e
034e
0479
fca4
ff69
2062
1052
1471
0abd
1033
ed1b
09aa
25a8
195d
09af
f378
dc3d
02c8
f5a0
01b1
078b
040a
2775
1c7f
0a21
0279
e964
c4cd
fed0
0bc7
ee7f
0fc8
114f
fa5a
f9cb
f07c
d85c
1b77
1366
07b7
2654
1ae8
0439
0691
24de
02f7
1af5
d88f
d330
fb55
0a16
dd55
0894
f0a3
e9e5
035b
1218
f923
10df
09f7
08e6
29f2
f130
0a57
e8fc
00e0
0c5a
e2ff
0fd6
e7a2
ff5a
f21b
0339
0260
1e49
1302
003e
e3a1
2bf3
0847
108f
1373
f6b2
00ed
e42a
e27f
f21c
f8fc
05aa
012a
ebed
fc5b
0616
28a5
ed0c
1170
ff0c
0fa5
0fa3
db48
ee52
f1bc
129c
fb49
ffb1
17ea
148e
0400
0449
f06c
2b37
14c6
fb24
f2f6
0c9d
ef39
dbcf
e75d
1d19
1169
199e
11f5
0b5d
f3db
0c8a
f239
e301
1ed6
ff5e
f720
0333
e98a
e45c
04de
00e4
13d5
2481
10a9
0ce5
1347
09bd
fbf4
161c
fb0a
f31b
0711
122b
d756
0b30
e394
b6f0
1ec4
fbd6
240e
ec33
ea1a
fdbf
210e
05ee
0ecf
10e6
daa6
0688
d367
f0b1
1b88
ff4f
0200
ff31
2477
f9a9
1f31
08ba
2b34
1aa5
fa33
eaf7
efe4
10ca
ff20
e3f9
f5d9
f0a1
e46d
fc5c
e1a8
e46f
eb1d
1664
0c3a
e2a7
1c07
eba2
1748
eaea
0c4d
ef31
efd4
2742
108f
f621
ee5e
2a40
1302
01a1
d6bf
2871
f6ca
052b
0f8b
f63e
0108
053f
f76b
c991
d9a6
18cf
e727
1324
20f9
1f21
38d0
def6
2014
e8b4
2042
04ce
07a4
1853
ee9d
1b73
0550
f61e
df3f
17dd
056e
1000
df21
1be2
0494
faa7
0a86
0289
030b
01c7
2569
e065
fa6f
1243
0f19
32ed
2545
edd7
1e90
1968
e272
06ab
2320
fbf0
122d
2aba
06f6
eab3
e3b6
0225
204f
e218
e7f1
eda9
fc5b
fa94
fe91
fe1f
1005
0f07
2ac9
f8f0
1420
bfac
fe88
f1b9
1564
ed49
e4be
fe22
ec0a
066f
1344
f6c8
1018
df88
0648
e3ce
0485
12a2
fcf3
2334
15a0
1540
051b
192a
01ce
2633
28ac
2da7
08a7
0b22
d65e
0303
ec4e
be64
06bc
0a02
0e67
0bfb
0f92
083a
2b36
f946
0d7e
f431
0da3
10a0
f027
fb62
0795
117e
f102
0d63
ff10
084d
0e9e
0864
fcc2
23d1
ff7c
ee28
fd43
060c
ef18
f361
0d76
b8b8
f960
0440
f36f
fb8a
0036
02eb
166a
0296
2263
e247
27aa
f1e4
064b
0431
f45f
1ec2
0f0d
0d8e
e8ae
0c22
14cf
0566
0b31
238a
2361
f916
11b1
f02d
f444
16a0
fdc2
d669
03d5
01eb
f144
da81
e0c3
ebbf
ff14
fa22
1a88
e723
1c62
d4d5
0b5f
da42
03f4
23ec
0696
228f
0824
1dee
1b48
31c7
1c65
2840
2f55
2a81
14c1
fdd4
d384
0426
17bc
8001
18a2
02ad
ff6f
0270
eb48
fe5d
25cd
08fa
00fe
0c1b
0432
0625
e437
f102
216d
073d
0e2e
00d0
0ef9
f60b
06f2
13e0
08fe
0513
f821
0706
fa42
121d
0368
f86d
ff95
31e9
1eb6
f6d2
121a
fdf9
c6cb
0437
0e2e
ffeb
153c
1080
06e8
f339
f2c8
c7c5
26bb
1257
1644
0c81
2ffe
17df
fabc
2513
09df
03d1
c400
d31c
0c18
106a
d13a
f920
16d0
fddd
f100
0a3c
f20b
284a
1658
e73e
db22
20ea
e929
f5fc
21d8
ee88
1670
26a7
f8d2
f094
061c
09e5
09b0
f524
ecfd
f6b1
0b1d
99a0
ffe4
efdc
157b
0d51
1a27
1913
250c
fedc
0a38
014b
099e
091a
dba4
f8b6
f0f5
129f
f8ea
fc5a
f62a
faad
11ad
dada
fba0
0f6d
f2e2
ddd6
0ad8
0eaa
1675
1222
0b9a
cdfd
f276
0f88
18c5
f1b5
d81a
ff0d
076c
eeaf
0368
ebd1
fd1d
dcac
bd2a
fb4f
cd31
fcd1
0c22
1ae9
0b79
0c52
0384
c0ab
1c7c
13e3
09d6
14b3
16c7
1ba4
05b4
0a09
0cca
d294
eef6
0f79
0a35
0c90
e216
12e5
15b9
e08a
0a17
0989
f13e
13ac
0af5
12df
dedf
f326
1bd3
eae3
0fb2
0260
0a51
06d3
050f
0cfc
0d3b
1413
d55e
1e69
0846
f5f1
efbb
c88a
e84d
cef1
17e6
f557
185f
0066
f96a
dd5a
fc4b
0fb3
05dc
f374
1442
08eb
c203
e44f
06c8
00a2
fa6c
06d5
fb3a
0197
0759
192f
15b6
0543
fa28
19d9
073c
0c15
f0a3
db10
dc2b
cf00
05d2
f06f
0f86
fc00
09f7
dc54
1602
065a
10c6
f82a
d697
0280
0b41
feb3
1d22
1a22
017c
08e2
16fd
ef47
ffb9
0597
162d
0581
1cae
07f7
18dd
01b0
1130
c821
d72d
f41e
02ee
fe94
e595
f2d0
f383
d3cb
1fbc
0694
0643
ee5c
f2f9
0b18
f001
05fc
fbca
fc5a
ce67
0445
dd14
e949
13b9
00f7
0970
eb9d
101a
fedb
09c4
c7cb
1535
d898
ce85
ef87
e7e6
00d7
f1f1
ec1f
126b
f29e
ec42
1394
e128
e6af
16c6
16b0
f512
dce1
15d4
df2c
3173
09db
20d9
08a1
e481
1884
1f36
1dc4
d01e
2688
2a52
2bbe
e7f9
d904
20b9
1812
15d8
f58d
0d1d
1c59
0927
19b4
efbe
288c
d9ec
26f8
2b69
fdb9
e54a
e891
1d51
f290
2e83
206a
170a
2ccd
fd84
fe12
0728
1048
cca2
15d8
f6ff
191e
dea9
c2af
0c2a
0f1f
189a
f1fa
2258
0a1f
22d2
d374
feb1
033e
fd47
3802
21f7
fc95
ef01
1c06
e8bf
02d2
0be7
f68f
1a0d
2b38
0926
f9b1
dee5
e268
0532
f9a3
fc88
f2a1
f1ce
aa8d
f687
f16c
1f2a
0542
1d54
f508
118a
cb9f
1139
013f
ed93
e408
df21
ebfd
e9f0
0fd3
1ad9
013b
fcd1
fbc0
0eef
e326
0dd8
0582
1b67
eb22
ed74
eb80
0fab
e8df
1333
b21e
fd9c
fbed
168c
08c6
efca
0c5f
f9c5
e7fb
f6fc
0af6
fb7b
15dd
0dba
0be4
e0aa
ec34
147d
ff52
14f9
0bee
061a
0321
0428
105c
095d
0819
fbb2
11be
0276
061c
03e6
d839
d2ae
cb19
0f5a
f9e9
0806
01de
1e92
e1e7
ddd7
00fd
e24a
fe0f
f3d6
eea6
fc2c
0941
1aa1
ebe6
310d
f2a7
2034
f225
d402
2499
04b6
f1fd
d297
1e9a
29d4
0f0f
f7ca
dc61
1bd8
192d
1172
f0b6
e286
1d37
1795
f1c7
0ae4
0693
054c
d30a
cf74
e658
ebbf
05fb
0e7a
fd46
08ed
de51
fd28
c540
0282
1fdf
03bd
f8a8
fa6f
04d7
10f5
fa12
0618
c31f
0671
f0f5
0f67
f232
d82e
151f
1804
cb00
fd11
0abf
f766
fce4
03f8
0d80
d5db
0b71
feb2
ffef
f934
05d1
fbbc
fc10
02f5
0b1c
f79c
ec7e
effa
0bc3
f4c7
eeaa
fb89
b809
dd02
fb57
ff5b
144d
f2eb
f462
017f
ff32
2083
eb41
137b
dc8c
e019
0de3
d0f3
1374
02a7
1f34
f648
f06c
077e
d30c
25de
fa7a
1912
14dc
0e01
05b4
0c90
151e
244e
c008
eac4
fb71
05f0
0f7e
e4c2
0ea9

// conv2d_2/bias  shape=(32)  count=32  scale=1.0116472779e-05
438d
2858
e99e
0fe1
084b
5a64
740f
e0d3
2533
4d60
ae1e
3f70
4591
06ca
4b2f
7fff
f2a9
cb65
bbaa
c8fe
3d42
c8c6
ac49
add4
0494
ab04
f349
fdec
3b37
0eee
7b22
0ddf

// dense_output/kernel  shape=(32x5)  count=160  scale=3.9243234627e-05
d746
0e60
3652
27eb
efc7
fbc8
cbf2
6295
afc1
20a2
30a4
c9ec
2e1a
d29e
1261
1381
1fb8
e116
0493
e247
20f3
f723
2c6d
d4df
f099
f92b
13ed
0b9a
f2ff
e49f
b5ce
416c
0dcd
b25e
e006
3037
217e
d0b9
0c19
f897
df84
1565
b432
2f1c
ff82
c9f6
fbe1
363b
ee0a
d75c
1718
f2cd
bbc9
2fcd
f45c
31d4
1c13
0bcf
b2f4
f573
e14e
180f
fd63
2899
d496
26ab
25ee
d3dd
ef03
03ee
c183
254a
1027
310d
d287
b436
1c23
fa2f
ca82
e79f
28a9
cd09
3c61
d516
edf0
13a0
07bf
019c
21d2
e820
1dbc
d061
d249
0624
e821
ed0e
bf43
fc37
3653
2081
1b4f
022a
1d74
a453
0a59
18d4
2513
bc44
31ef
f2c0
1c36
ca8b
d8c5
1ecd
0662
edf6
c5ef
012a
2b53
1f95
f718
cc58
0f03
cfb1
ceec
be34
be2e
ba3e
38ab
fbe2
db3b
594a
8001
4645
13d6
f85d
5691
b1d7
37b2
20f8
eff6
2260
2640
2957
d52d
1a5c
0744
f970
e0b5
cebe
c9d9
3513
098e
c169
0c27
c944
025e
eaa9
2813
05d2

// dense_output/bias  shape=(5)  count=5  scale=6.7805826971e-06
c012
7fff
3c91
c56e
d157
