// HAR Model  FP16 quantized weights

// conv1d_1/kernel  shape=(5x9x64)  count=2880
3143
2818
2eec
2fa6
adf8
a113
3247
b0c5
ac0e
b01f
aaf5
333f
2b11
27a9
b252
af7f
212c
a3c1
1dda
b163
1985
2b14
2991
2cf5
acdd
b364
abf3
2f44
b0aa
b008
2983
3083
3048
b013
2e8b
ac77
b18b
b0ef
a528
9d84
2fd5
3070
a829
ae74
3009
2bfe
2faf
a68a
af84
288e
b2f5
b412
320b
2481
32ae
af46
26cf
30ff
b1eb
acd6
b459
ad2f
24d2
afcd
29be
b012
a88c
2129
27ff
ae20
2e75
3047
ac0d
97e9
b0bc
b156
309d
26ba
2c4d
2d36
a913
9c41
2c1c
2abd
2fb3
ad38
2e97
abdc
2cb3
ace2
318d
a8a8
2fce
9ee9
9ec3
3038
283b
ab99
2d07
9e38
2a5b
3114
2b00
b22a
1d8e
a830
1976
25ad
2da3
ae60
a927
b0cc
2d2d
2bf2
11ac
30d4
2c51
2534
2d00
a752
abe2
2c9d
a4e2
2941
b1f4
b153
adf3
b07c
a809
a530
a60a
2afe
affe
2b85
2534
ae95
2502
a924
2201
a9fc
aa1f
2ead
addf
b022
aa12
ad55
a947
ae3e
2b6b
2a62
2d5c
2ae9
2fde
a83a
b0bb
2d38
1618
117e
b043
2976
2c4d
2dc6
270e
ae78
a1cb
a9aa
2429
2707
1baa
ab23
23bb
af69
a612
19bb
adbe
aa21
a67a
2d4f
b001
15c7
aa5a
af52
293b
aed8
ac8a
a871
1ebb
1877
a03a
2e55
a266
284a
a2fb
b040
a83c
27d1
31df
b07c
2ad8
26c4
acab
acb3
2fbe
b052
ad80
a91d
b28e
1869
a68d
a8dd
33c4
a5eb
b0c6
2ee3
2fc0
3225
acb5
b0d4
b165
a9e7
2922
aa00
30b5
acc0
22d3
a651
2de8
178a
31c8
2d11
a998
2d55
2eeb
3143
2fba
9854
a1a0
a637
28c7
1d1f
aa6a
b432
2add
b3bb
2a4c
29e1
ae7c
2df5
2899
25bb
ac1f
a33c
2865
3161
9e9c
280f
2a24
2e85
2ddb
2a74
3034
aced
2c21
32c1
3008
2bb7
287d
9bdc
2ddc
b2bd
304d
aef1
a9fb
312e
29fc
a90d
2deb
2d0e
ac1d
a9ee
2e5c
a2d0
2692
ac67
313b
ac2a
ada2
ae8e
ad78
3252
9ef3
310c
a90e
b068
ade3
ad30
2ba4
30c0
16d3
b109
30b7
a161
3105
99c3
298f
2fd3
2eb5
ae63
ac5c
2d3e
2cf9
3200
31d6
2307
a294
ab65
1e64
297c
302f
adde
2b47
249e
adf1
a421
302f
adc4
26f5
a8fb
aed0
a457
aa59
2dce
acac
28d8
1997
2997
ad5b
a6c1
2c0d
2d26
b154
2a24
a365
a6a1
9bc2
a8f3
2da1
b28c
2c23
adb1
b02b
3075
b0cd
b381
a19e
af04
2aba
2be7
aecf
30e2
303f
ac70
2d30
ada0
af93
2714
abb9
2c2a
31cf
acf8
28e9
2886
b072
af6b
b080
29f3
2599
2ded
a6d9
ae39
a0ae
b255
ae3e
31cd
b152
adcc
b262
2b34
b188
ac70
ae92
b0e7
ab0f
ac1c
2851
2ab0
2fa4
b06b
b00a
2042
2e9a
a18d
29dc
1b3d
a94c
b081
a9d9
2b41
29dc
b1a7
2719
253c
a63e
adf8
b032
ad17
a9e8
2c4c
a845
ad93
af1e
b1cc
2429
2e15
a8b3
1de9
a744
2c51
2dc6
af72
2967
aefc
b152
a763
2032
2d47
b008
adeb
2b5e
2bfe
ab27
b2d1
313d
243e
ac38
b12f
a3c4
2dca
a636
ac13
add5
a83d
a173
b004
a80b
ade3
2912
31a9
306f
a989
b292
9b28
aff9
2d78
317d
2853
23d5
a13a
2844
b461
2d73
2fe2
af4f
a8f9
274b
b0fb
26af
ae45
b002
ac95
2eab
2dcc
2f79
2cb3
aece
aef3
acdc
3189
9d74
2ac1
ace4
301f
3144
a8a8
2d69
b001
2c3a
af34
af71
a91f
2c7c
9ffe
2d21
aef6
b1d0
a7d4
ad14
34b6
3124
265e
250c
31f8
2773
283c
2e55
2dfe
2eeb
2ac9
3003
ac46
2446
b15d
a642
1cd7
2941
a94f
9ec4
b08a
a6a6
2f78
ae02
2e31
ab20
a760
acfe
aecb
2e01
ac0f
ac77
ac92
2ffa
b174
ac5b
2f36
b000
2957
2522
31fc
ae04
2238
342b
2c82
26a5
2d73
ab91
2e96
ae4f
aff4
ac44
ac5e
ac60
a49d
2247
2aa7
a364
2d4e
2783
2c27
a546
28dd
3276
274c
aa2e
aaad
acd7
2ef2
2efa
ae0a
a580
33e2
a9da
327c
33a6
adeb
277a
a5dd
adb8
34a9
1e69
300c
ad74
b3b6
a8c5
b26f
309e
b34b
338c
af87
2d81
2141
b2a9
b1d4
1532
3013
afb3
2536
2c47
347f
31c0
aa20
2b80
1b08
b417
1fe1
a51e
2cb4
21a8
3210
9c54
b429
2eb3
a9f7
31bf
ab1e
b316
243f
aa1a
b3c4
302d
a8f9
3204
b2e0
288d
2b88
b0fc
2fac
ae88
ac9c
b183
26e0
ac23
2590
ab8f
aaab
a8db
2fc7
260f
acdd
a58e
ae5a
afe6
b0d0
272c
2e49
291b
2ce5
307a
ac04
a4c1
2e59
a6bf
2c90
a243
b04d
2c92
3034
2e2c
a922
9f98
ad68
acda
230f
b0ca
29da
28e2
31ba
ae5c
3269
2fa9
acd1
2d55
b032
ad62
ab10
29de
200f
2e02
b193
300e
a0d8
1545
2a05
b0bd
29d9
97a6
2d43
3048
aa1d
a020
acbf
b267
2a46
b035
af7f
a6dc
b081
2947
a7f0
ae06
a9be
a426
ae03
2fe2
af05
2cc8
ae97
26ec
2854
9a81
23ed
21ce
a9e0
2e69
20c3
308a
2c8f
aaeb
2425
23c5
ac3f
b11e
2775
ae2d
288b
acd2
2c30
a98b
1fcf
ad4d
2470
2e58
2c3d
2ede
ac89
b01e
ad51
ae9d
2a68
a4b4
2b4e
ac2b
a4a0
b00f
aef8
aefa
a8c9
2b87
2ffc
2c8e
2cba
3189
9d10
a85e
2c48
ab97
afb3
ac05
ac07
2e79
b1a3
2ade
af2c
1926
b343
a811
a4b0
2870
afe1
3156
3015
2e4f
22c3
af25
aa10
a76b
2651
349a
3092
1ab6
300b
aff4
3307
1e4f
297b
afc9
1c2e
1da8
ad56
2f38
2df0
2f75
2c47
3014
2fcc
3375
3009
28d0
2e54
abfd
338d
ad38
19ef
a9f5
2ee7
a6b7
2745
16af
b48d
2c1a
b40a
324c
28e9
28b6
2e35
295b
9aa9
adb6
acb7
26e4
ad03
ac53
a1f0
a7fa
2c03
2753
2c11
2e62
2d53
2b50
2feb
314e
2eb7
2867
a5e0
ad07
b379
a8ee
abf0
b1e0
3031
305e
2f67
2eb3
b09d
2a8f
25a2
29aa
8ba1
ae06
9e15
3022
acfb
2bd3
2f91
30b5
302c
31c0
3111
a81e
b044
aea5
ac27
256d
add0
acbf
a09f
32af
a40b
32e7
30a7
290c
2df9
2416
aa73
a180
307d
2c73
a909
2b21
a98c
1da1
a133
a7c3
b173
3250
b19c
2978
311d
aa18
2ef3
2869
2a09
a944
af6c
b1b9
b317
9524
ad96
3000
af88
a549
3049
aabd
a71f
26a0
2ef7
2dbe
ad16
2b34
28b2
a723
3021
3223
aee1
af69
a865
af6a
ad33
ab84
ad70
b026
9e54
2d54
24c5
2c88
2ea3
30af
2639
1b98
b1fb
af32
abe8
282b
acbe
316a
a13a
ae32
2d97
b0e7
a98a
a8c9
26d2
abbd
ae49
accb
20da
292c
a368
af03
a630
b361
3114
b068
ab86
b06d
ab43
a386
b183
a273
b068
2dd1
ab75
2d60
b02c
2d2f
aea9
a971
26de
9563
2add
2dd0
adb5
b0f8
21b8
2c26
ac8c
2c4d
a705
2aad
ac52
af5a
2bf3
acd9
a252
2c2e
a1fd
2e9e
b0e3
afb3
2b9a
3023
2cea
b18c
ae10
2680
b182
2d77
2f79
b0d8
9aea
b258
b03b
2056
264f
ad92
2fc5
2f25
b0ec
2d15
24c6
2391
b0a0
afbd
aca5
2d38
2cee
a25f
27ec
2c64
b0a6
2bf2
aa51
2d43
3236
addf
aee7
b0ba
2b1e
a7ea
a24d
a7c1
b0ec
b16d
adea
2fac
ab9c
2a42
ae8d
26f7
2c2a
aad5
b0bd
aef7
ad05
ac6c
2f52
a4fd
2077
ae1d
1a84
2dfd
2f5d
2982
2d3a
322f
2999
2c82
adf9
2b51
a70c
2b8b
a092
a834
afcc
2d7d
ac29
aa27
2922
249c
b12a
9a3c
2ea7
271d
323d
30f2
a43f
300c
31c1
b079
2d09
2a2e
a2c8
ac07
aba7
ad94
263f
a804
a65e
1636
a8f8
2b10
2734
2e34
2503
af97
2bb5
280b
2d65
2cfa
a973
2e6a
2db4
3085
ad22
a97b
add3
af85
a6d4
ae03
2c16
2243
2dbb
ab4e
33af
2b5a
a957
31c1
2e2f
26bb
225c
a2b9
add1
a529
2cfd
303a
b00a
26c2
2d79
a8c0
2de6
2d9c
abde
2eb5
94fd
ae01
2818
2eaa
3058
b0e9
aafc
ab7b
3130
26f9
b180
3050
32a2
9a35
31f2
342e
a956
b01e
b12b
265a
3100
3108
3377
26df
aeee
2e64
b206
25f5
b456
328c
b091
2e6f
256e
ac89
b487
b27f
3083
23a5
ae30
aa3f
340f
1d7c
a441
a8ca
ac8a
b354
33ac
a80f
abe5
3153
320f
2a6d
ae97
a9d1
ae1b
316a
b136
a8bc
a86c
b21b
b110
33d0
20af
341a
a4fb
a63d
2de9
b3ad
9c45
b071
b26a
2430
a86d
b021
aa3a
29f8
2443
285a
ad12
2356
2825
ad86
ac78
b14c
b162
a8ae
a916
b04c
1a32
2d05
2c4a
aca3
aebb
a833
9d4a
a48c
29c5
ac1e
adc4
ad9a
a817
ad67
2cfb
ae47
2a30
adf9
19f5
b16b
29b1
2a98
3138
a220
2d90
aadb
a508
b03d
2a30
2dcd
26a4
aa54
b253
28f5
2a52
a886
2c0d
b083
a6ed
b13e
b008
2d26
aba1
282d
ada3
283e
2dea
ad2a
9a11
2ebe
a480
9c48
2757
b0e2
ac95
aa46
aa3d
a334
271d
ab4a
2d52
2e80
23f9
27eb
ab77
aaf8
301c
2555
2897
3008
ae73
a177
aca1
a887
1976
2e21
b049
2900
2fca
2c3f
1eb2
ac36
ad52
ae82
9995
a639
2dc1
3001
2a99
a826
2e18
2ab6
29ae
a1cf
1de4
29cc
30c5
2f3c
aacf
2bef
22a1
20a5
2a51
aaed
2db7
aa9b
2aba
2682
279f
a79d
96f5
aa25
aec4
a48f
adf8
150f
1308
a82b
b21a
ae3d
aaf4
1a1a
975b
348a
3213
2937
2fa5
a153
21a7
2e0e
a5fd
3452
2ebb
2bc6
ab27
2e0f
3089
aed3
b0b9
afa0
2f47
ad8c
2824
abac
26ac
ad2b
2c2d
ae46
1ef2
340c
a913
1ff5
1fbb
aaaf
34bb
305c
2066
29a9
2d39
2b4d
349d
b08e
b162
abda
b05c
3289
ad13
2eeb
2c0e
af4a
aee2
aa7d
aa28
9d81
2fa9
acf2
a9bb
304e
28aa
a81c
2a37
2eaf
204c
253b
2718
1c53
ad55
a982
2f89
2ede
b346
2e26
adba
b1ab
255b
2fee
295c
aea3
a6e8
25d9
3133
9869
2e20
ab56
a689
a9d8
aac2
9c73
2c57
2aaa
338c
30cc
314b
2c32
ac8b
2838
2a0f
301a
a7af
a489
b030
340d
99e6
313b
9e34
30b9
aead
25d4
2c4f
20c1
31c1
2c11
a9f5
30cc
a437
94e2
acba
b246
aed9
3277
2b00
284f
ae0e
261e
b0a5
2e4e
a4e2
a304
25ce
ac75
ae11
2e21
2d28
2913
2d6b
aeed
301a
2a06
2dc5
b0d8
2ba6
aa7f
282d
ac0a
a85e
a6a8
2cee
2cac
ac27
a962
2db8
2e9a
a5f0
2a91
b0ed
ac46
af28
23e0
2bee
af45
2e60
3299
b0a4
2d9d
b1e0
ab76
ad64
2b81
ac23
2a3a
2661
2d7d
2f02
b094
af11
2cb9
b0b7
b0c2
a11a
2c65
ad27
1df4
aca2
b035
304e
ae32
2fcf
b0d7
1c66
adec
a7a2
ac28
2895
a89d
2a7e
a4da
2cf6
aa0f
aec2
2eec
ac1e
af51
2d8d
af32
aca8
2e91
2bed
b315
ac85
2e6c
acee
b119
aece
a70a
b046
b2af
1ea7
aaa8
2fd6
b08b
2deb
2d87
ad6a
9eeb
a418
2fa3
b0ae
b28f
27ef
a1f9
b258
2a51
29d4
a417
30d7
b08f
9b97
abcd
a710
ab6a
203a
2da9
a312
2fa1
b05e
2e00
18a0
a9ff
29d7
2c52
a02f
2f6d
af11
af91
adc0
2d2a
a580
ad42
32c4
ac0a
2eea
b41e
b06f
a50d
272e
2ec6
2a6a
a9cd
aed6
a630
b441
2f48
aea8
b05c
a6c2
28a9
1e39
b05d
a8fb
a7f5
2d82
28bc
2a2f
ab2b
b046
2713
992a
248c
2521
304c
a84b
ab5d
227b
2f42
aa2f
2e1a
a489
b01a
ae66
9efb
2d6d
adde
27b7
a7b4
a17a
b1f2
ac94
afb0
3426
2f06
9d40
ae97
2f22
b051
2e7d
ab7a
2963
a981
2c35
284c
2492
aba5
2774
aa17
2e7d
2dc0
ae02
acae
29ab
acba
3194
94fa
298b
2bea
a3a1
2e29
2e3b
31b5
2ecb
a9ae
2d41
aec9
b1a6
ac11
af55
2d5c
30a8
ac67
33a3
ac5c
ae2c
32bb
30f3
0674
b0d5
a759
2a68
2d82
2cd3
ac56
2cc4
2960
a4c7
aee7
9df2
2c1e
afe6
ab33
2d5b
a4ac
2d4b
3349
305e
28e9
ae0a
2cff
3078
a9a1
a819
ade0
3222
25bd
318d
2ca7
b0aa
2865
25a6
acf4
2f61
a38d
3406
2d07
9593
3201
b2d1
b066
b2f3
30b8
95a4
aa45
1cb0
b452
b403
b1fd
2d09
a071
af1c
28a8
303a
327c
acf1
a31a
2b80
a97c
33a7
ac44
acb9
2810
2877
b1c0
b23d
321d
acce
acd2
a014
b2f0
b09e
af81
b41f
28ca
27d0
302d
b442
adb3
a6d2
b18e
3007
a9c4
afbc
a839
b1a3
acd7
aeba
2874
af10
a1d1
206d
2d80
a83c
3098
2ae1
ac8e
28ae
30ee
2c0f
b08a
2d6c
b013
aadb
ac9c
aa51
a80d
2786
2d01
9ad2
a0fd
2cff
3038
af03
2c76
a5d2
a5d7
a9fd
9f7a
a04b
aee8
2635
2fc1
a895
22f7
ae9f
2b2a
ae82
aa24
303f
2e00
22d6
ad70
a9dc
aea0
2d8f
af21
a715
af75
1f51
b42e
2479
ac3e
2c00
ad69
2d28
a67b
2fe6
ac27
aa47
a8b7
2476
a045
2a95
a814
af24
2be7
a78e
aa70
2a96
2fd8
ab53
ae3c
302c
25c5
2f7d
2ab1
a8ed
2875
2d5c
2ae5
a6ba
27f5
2c0d
1429
2edc
2d85
acef
2dbc
2e2a
ac3d
b09e
2f2b
2e95
b114
a7e7
3162
ab04
2e83
a689
ae89
af0d
aedc
ae7d
b0f7
acf2
9763
2d51
29a4
28af
b0f5
a61d
b081
abac
20d9
256c
a349
a14c
b046
2b07
b02d
2de6
aa89
a3cf
2f3e
b0d0
9ebd
2bc1
a6b9
260c
a09e
3014
1292
1914
309b
2e3a
1c3e
2f06
b168
2948
2b8d
a538
30da
21c9
299d
af4a
aafa
3555
a1b3
b0be
b37c
3365
b09a
2de4
258d
a38e
2d51
aa7f
2c60
aeba
3153
247e
2bd5
ab6a
ab70
33a5
aab1
2f26
ab2d
2c13
ada9
346b
a0b8
ae48
2d07
b295
2c11
a60d
af5c
3137
2e5e
288f
2a44
2ee6
26a3
283a
a185
2071
a1bf
ada6
a8a5
aab4
2997
ae29
af40
325d
aa04
ad5c
3067
2224
2eca
b1c1
2e1e
a6b0
a988
a99a
ace7
2a45
b08c
a669
a823
2854
1ff8
a0a3
ac22
ac91
2ee0
2bd5
3053
29a7
ab96
338e
3236
2616
2ce6
af98
13fb
acfb
2a37
2c5a
9818
266b
3379
29fb
304a
2a40
a844
2d3c
3129
3004
b092
2e75
acd3
ab2c
2e85
a5ac
ad7c
b15d
b3fb
b201
3347
b041
b1ed
a244
ac46
a739
a6e2
2864
3119
ad74
b43a
af21
b06b
a958
ad4e
a878
2cbe
0f36
ad9c
2825
b1c4
a32c
24e6
add4
22c5
b1bd
2e00
2f18
2d1a
a3b5
b136
ab5a
2929
ac04
a996
b3fc
93fc
25a7
aa56
92db
ac4b
3143
2fb9
b27d
2aeb
b06a
add1
1a1a
2837
a83e
2acd
2ad7
247a
30cc
2a91
2e0b
aebb
9eaf
aefe
aa45
2c8d
b036
2aac
b011
201c
2c5b
af96
195c
abc9
ab07
b05c
247d
a531
a3f6
aada
26ce
a97b
b045
2ed1
ae25
ab2d
b049
abbe
2c94
ad2d
8b7f
2ecf
b182
ae63
a1d6
2f1b
2a2a
266b
a915
2fc2
9c14
aaac
a62d
aca0
24e7
b0b8
286d
a663
2493
2d0c
3017
a8b9
a84c
261e
ab16
23af
a80f
2e8e
aceb
ab21
2f8b
ae5b
2d1d
26c8
289c
b183
278d
2fab
b290
2c67
2d2c
0ff8
b15d
b066
302b
aa96
9a86
a48c
ad23
a6e6
a89c
ad61
24c3
281e
2cd1
ac21
ac01
ae98
a55d
2c6c
ad33
315b
b103
ae4b
a828
2ce4
b349
a955
a937
2c5c
9061
2756
b14b
2937
b191
2d3f
aecb
165c
2f3a
29f4
2943
ae65
ad62
a4a1
30d4
2ca3
9902
302d
2700
2f33
2e8f
aadf
ac1e
24b4
ac21
2eae
afbe
1821
ab3c
2d90
b180
af81
afe9
2609
35ed
318c
2891
adec
2641
2e97
2e94
2a46
2cda
a892
ac1b
3080
2808
ad9e
acef
9c2d
2aeb
2c6c
a4c6
ae2f
b06c
2f29
2f7a
2cc8
aedb
2d6e
a5f6
2aee
af08
3079
2889
2434
a9ba
2c25
b19b
2f47
2ab9
2e8b
2f46
a592
307e
ab2f
aada
3444
316d
adec
b0b1
ad06
ab81
a5e0
ae02
2fd0
a62f
2af9
2f6b
ae2e
ac24
ab99
1d27
abe1
a5b6
ae55
a041
2c9c
2040
23d0
298e
2e57
1fc8
b0ce
26df
306e
3010
a002
3132
342b
aa13
2a40
ae7f
a97e
30b5
a8ce
285e
2d97
b0d0
3188
b0e7
29b1
b2c8
3423
a6bd
2aff
3222
b205
b2e6
b069
ab23
2a31
ac9d
ae5b
3307
3274
2b70
2942
ad6a
b48e
2d77
1e94
ac4c
ac9f
3365
b06b
b2b7
31dd
a421
acd4
b12f
b25f
ad23
2c03
b15c
312b
31fb
305e
b027
160b
2d25
aede
ad6e
b0a2
2660
ae23
a83e
ac4e
ab6f
abb9
afef
b256
a8a4
b00d
a65f
2dd4
a590
ae3a
3080
1a50
28aa
abac
2f7c
ad80
2daf
a9b1
a2f0
a7df
ae40
af07
2515
a16a
2e59
af97
a8b3
301a
af96
ada3
afc5
b113
2db7
ab3f
2bcd
303e
ad14
a5f8
aa92
a724
a73b
270b
a37a
ad5d
ae46
2fe3
a036
b076
3009
1c0f
ab75
2ea6
2d45
b1c4
301c
30f0
2a7c
285e
b02f
28b3
2d25
ae78
99ec
afbb
afdf
2dff
ad73
2c45
93db
a8aa
abfe
2bb2
301b
ac58
1d8f
2b15
2e86
2b66
2d11
9e0f
296f
9fc7
2641
b1d5
2b01
a699
286e
a88b
2820
2dec
2c01
a724
28fc
2c13
a877
2b94
aa02
a5ba
ac73
3229
2f70
ae88
ad4e
b07e
2fad
2135
ac94
b077
b1fb
abbd
315e
2d34
284f
afef
2f00
b157
ada7
a98f
2d67
aa40
26b8
2e66
2d51
2d86
b17f
ae66
abac
acc3
2aba
a89a
273f
aab5
9f5d
2c41
ac8d
2cc2
a7de
328b
a334
b058
2e1d
aaf7
2fff
262c
a6f9
30a4
2824
a8dd
1c86
2bd6
345d
968e
b0eb
b332
3243
2b8b
23b3
271c
ad8b
2fa5
aafb
ad91
2ca4
30dc
2c3d
2b13
9b7f
ae03
31b2
2f67
af60
a7b0
a768
afaa
3207
add2
a744
2af2
b1fa
311d
b15a
2fc5
2c32
aa5b
2b55
2e89
a624
aee1
a4b4
2896
2e26
2990
ac43
a56a
2051
27e7
2e71
2cca
33bf
2dfc
29c7
2428
2cbe
2068
b18d
ad3c
a50e
a943
ad43
a70a
27bc
28a6
2392
3025
2d4b
3003
29db
a068
2b4c
a889
3050
a947
a9f1
ae15
2c62
32ee
344d
238e
2876
1d58
ac92
306e
a29c
2fe5
afc6
315b
2cf2
2116
3048
2c18
2ce4
2b6f
a904
2ae1
a8e3
2f00
21ae
1a09
2e2b
2e36
a9d8
b323
ada7
329f
ad16
aeea
28bc
2c7d
a660
ac0b
ad33
9fb2
a7a9
b2c5
b14b
a831
a5b4
aa2e
af7e
299e
2cff
2dde
29e1
2c90
2a2a
2df7
2eda
22a9
94dd
2b12
29fb
ae9e
2dc5
b054
2ad1
ae31
2753
2dc7
ab1e
ae9b
af6e
1f39
ad94
a84c
a6a9
2ac1
ab79
2910
2422
aa0d
25f9
a593
a8e2
a713
aa2e
2d0d
a3ac
2574
a3c8
2f5b
a552
2913
1db4
9d2b
2691
ad69
2c64
2bfa
3209
b22d
2286
afc3
ac7d
b0c9
2c36
2b5a
b039
2bca
29e8
af2b
a9ff
2a97
2b38
202a
af1d
2f0f
2c48
23fa
a8b7
2f20
9101
b030
2b6b
2864
b1a5
ad5f
abeb
2cfb
a6cf
af7c
aa71
b146
a512
b177
aa32
ab00
a9cf
af1c
aaa6
a572
2c82
b2d3
2e17
2fbb
b27b
ae52
2d73
2153
a957
b0ad
2469
af38
24da
b13f
a56e
3026
b2a6
a8ec
acdd
abf6
ad26
b24d
86bb
ae24
aa87
27cc
aaab
23ab
b09b
a9c8
2d53
3023
31af
304a
2e09
a9f9
a6ad
b00d
2ef3
28c6
ab6d
acad
299a
ac86
b263
2ded
305f
b02e
a8af
27eb
af29
b0e5
2801
2f81
a86e
ae61
3083
a5ef
afba
af32
a9cb
aa5a
2e6a
30d6
a8ff
acdb
171a
a79f
aeac
1dfc
2d07
ae59
b1bd
ae83
2938
24dc
b001
b0b0
b156
ae7c
2e97
a98b
3534
2e04
ac41
2264
a90d
255a
a6e6
a85f
964b
ac43
1a88
adab
28f2
a45a
ad0d
2d70
2524
9a0d
2c3b
28da
ac7a
ad86
2c9c
a1b8
aa4e
2a2c
26c7
2ac4
25b4
3008
aafc
3123
2985
ac0f
ae0a
280b
29b1
acd8
315f
2ec8
24c4
af92
2b7b
2d03
2082
ad6b
2cbb
ad1e
2c69
2a68
29f8
3005
ad1e
a149
20fb
a337
a105
ae4a
aaaf
ad1d
2385
260b
abf8
a29c
a886
b2b4
218a
a90a
2182

// conv1d_1/bias  shape=(64)  count=64
997a
9ccb
ab66
aa12
a845
aa17
ac96
a842
aa77
a740
a850
ab2e
9e82
9984
a498
aaa6
a966
24c2
a684
aab9
aa6f
aa30
a09d
a9a1
251b
a90a
a896
a966
9cbe
a4f1
a695
ade6
aa1a
29ac
a621
227a
a114
a834
295a
2bc8
ab12
a993
25c3
aae0
a5e7
a178
a611
a7da
ac20
24d2
aa09
a779
a87d
aa67
ac21
9c59
20a2
9d21
1cd6
a485
a552
a9fd
a84e
2a07

// conv1d_2/kernel  shape=(5x64x64)  count=20480
2c8a
2fe2
2440
ac89
ae95
2fb5
996a
a927
b208
224d
aafe
a926
ac64
0690
a505
a786
ac3e
b058
ae44
2d39
2d0b
a42a
2b91
abbc
2226
a98c
22be
9bdc
ae56
2e0d
25ef
ac67
a6bf
1112
315f
ab90
af6d
a8d7
acd3
ad2f
2a4b
25a9
30e1
ae00
2c09
1e24
a275
3168
ad38
b02d
2d3d
b004
b06e
2583
9813
adbe
ac85
24a7
ae34
2e75
ad40
9eac
ada9
a739
a3ee
8204
aa1b
a787
1a53
9ff5
ac83
a668
2c24
2ea6
a60a
aa4d
ac85
2d3a
1ed9
2e7c
2c40
2978
340e
9bf1
abb3
a13f
a4c5
297a
2b1d
2ce3
aaac
ae1e
1dd0
ac5e
2e01
215d
972c
2078
ac0d
a832
25e4
304b
266c
2f04
9f2c
2958
2300
1adc
2b36
3135
2d9d
288e
2ec6
1796
aa5f
290e
262b
b017
260e
29d4
a583
2532
2849
2e4c
30d9
2d6f
2880
297b
a703
a0ce
2470
a939
a742
295b
b008
ad4e
a5c4
af20
af74
a865
29ed
abaf
a8fc
2a10
a50d
a4c5
aa56
b033
2622
ad45
2047
b057
aadf
ae13
2a70
2b32
29fe
a7c7
9cc3
ad82
a15a
2c3b
3043
1eff
addc
a784
253b
ae77
2847
1e08
1af7
abb8
2cd9
a81a
2682
290e
afdb
1637
1a27
b09c
ad95
2d72
2ac7
2c53
2978
26c3
ac81
2c3f
b008
2bb8
ad7b
2cb2
ad70
2d73
2990
a8e4
aac1
a8c6
2af8
2562
af26
2fd2
a2d5
ac5d
adf6
3132
2455
a47a
2eab
a1cd
3076
3001
2f4a
af66
a8ae
a761
ab78
2c37
2adb
2a12
29cc
2335
a8b1
a8d6
1ebf
abaf
2cb8
185a
aeec
137c
2740
a8e7
2ccf
2d21
a33e
2d42
a340
2fd9
2d0c
aa0a
244e
2957
2977
24aa
2cd9
2e40
24bf
ae12
2f2f
2c89
a65d
a9e5
a1d2
1fd3
2785
24e6
2ad0
3008
aae7
b189
1f66
9e23
a5ba
2773
b0ee
a6d2
a0e2
19f6
a63e
abcb
3119
2495
29a0
a8a2
2d28
2c54
306c
b186
ad3f
b15b
ae53
ac50
300c
31f9
a573
21a7
2941
9fc5
a93f
260e
2d55
2010
28b4
a8fb
b029
2298
1af6
2c03
3126
af6e
271b
2984
2816
3092
2ce3
a854
2aa9
ad2e
acb1
2732
2db0
aa54
2a89
2be3
af00
3078
ac21
aaaf
b06d
2ab0
abab
b046
ae4b
2dbc
a339
a02e
a7ec
aa56
af02
aa95
aea3
2d94
ae25
2eeb
a019
aa6b
2c6d
a449
a3c6
2977
a719
218a
27b0
2ca1
22fb
aaa9
a941
afde
9f04
2c67
28ea
26b5
a5b3
21d3
296b
2da4
b0cc
2ba8
314e
296c
a260
b084
b0ce
2a9f
2aa1
29db
aa7b
acc8
a9f4
b062
2591
b1a3
28e5
a94b
2c6c
296a
a9cf
b0bf
aded
aee3
a532
2c5d
aff3
ac6b
2822
2a3b
a3ad
a8a6
2c25
26ef
2b71
aacd
940a
9c0d
ac8d
9ed7
2d46
2e29
199e
ad00
2fac
1f8a
2f5f
2ff3
2405
9e74
ac80
b0ec
2bbf
ac22
2f6f
a557
3092
2925
2b24
2fbd
a702
2ac4
2e0e
2fc8
ad41
275e
2a8b
2493
2bf0
22a1
2647
2c44
a717
a637
a62b
24bc
2820
27b8
2665
aa6f
30ab
2a86
2beb
a75e
a80e
2b48
af0e
adf5
25ca
2e73
2b35
23ac
2cc3
2f55
2efc
ac88
b412
3123
1f69
2c7a
2db1
1fa2
aa55
a993
1f52
2d67
2fe5
ae42
2ed3
a61c
ad6d
b05b
3043
acd3
2abc
1fcb
ab52
2942
a941
a134
aa5d
3131
295b
a074
2ee9
a9e0
28a2
a590
266a
b426
ae72
312b
ac99
2cc8
297d
aff2
2e2b
abf7
adb9
2e05
9746
2cfa
2f90
2f3f
1efc
2fc5
a840
a89d
b045
a9a0
9b9b
a9fc
ada3
ae2d
abee
22c6
2fda
2c79
28e2
2e36
20dc
2db3
9b30
a8ba
2ac8
afbb
aba0
2c69
a8ef
2c5e
9a63
1ef1
2f64
af25
b0ab
a7b9
2959
2cb3
ab57
2ce0
2bdd
294d
a8d2
29ba
1e64
2bbe
aabb
ab00
2257
2b00
ae6b
a8c2
2a26
2497
aef7
2694
a979
a716
2e1d
ac5f
a93e
afbd
a80e
25c2
a2f1
2ada
2f6b
2e12
25b0
2cae
ab8b
256f
ad09
aa4a
3082
28e4
25c1
2b89
2e2c
ada3
a85a
2b5c
a7db
aac7
ab8b
2989
9d46
31d8
2f72
acab
a8a3
2e1d
af1b
a8df
ae68
b0cc
28a0
a4fa
204a
a4f1
a881
2a02
2906
2d0c
2ca8
1b16
1fd5
a827
abf7
27a5
ac4f
2fe3
1a09
95d6
2753
acb3
2a99
ae48
b066
2ee3
ae03
29e7
aaf1
aaa3
1d43
b047
adc7
9934
2e85
2e1b
ab6e
a177
9158
29fa
b1eb
b05c
a9d5
2fe6
2928
2dcb
21a5
a745
a663
208b
ada9
1ddb
a96a
ace7
a792
ad0e
2ef6
9fec
b1d9
2173
21c1
26c9
2498
a724
2d8a
9e8e
2990
2763
a5c4
a190
a128
aa4e
2872
b21c
281a
2a24
2e16
2c16
2c4f
add7
ac4b
a819
a844
306b
98dc
2ae3
287e
9e89
ae8d
a6f1
2e97
a8cd
26e3
adac
1a1a
a6ff
2464
2483
2c13
a0b7
ad10
ac1d
28b5
a600
28c9
a420
2fd9
a875
b188
28ee
2951
2be0
0dd1
a7c1
292f
2c8e
2670
a707
acc4
2d31
2c06
2edc
b0d6
305e
aef7
2d15
aff3
301d
287e
2cbe
2871
b014
3147
30c2
2f17
af32
ab1c
b1e7
97be
2d63
3063
260a
a81a
ac96
2680
2ccb
a75a
305e
28de
2259
a933
241f
28eb
a57c
aa64
a82b
2c7f
2c24
2cca
2f28
8cd6
2c6c
2bab
a135
278b
18ec
2f73
ab1c
aafb
256d
306d
9bc0
b405
ad1d
275b
2ff5
ad9b
ad42
a822
ab4c
27e7
2a9b
305c
a0af
2cb4
2d84
1688
ac58
acd8
a5a1
ad8d
add9
a072
abb2
ac1a
3116
30ef
297d
2609
a5f5
b18a
a7e0
a381
2b61
298d
a92c
1ead
2e6a
2584
2e59
ab97
aec6
acee
1de0
af92
27dc
1d8d
ad03
278d
b3d2
2bcf
2e9b
ac77
245a
22d5
2c69
a445
b26b
a3a3
ab4f
9cd8
2991
a3cf
a94f
2b4d
b472
13d8
b22d
2821
a581
a349
a32b
a406
2dd1
22a1
acf8
b181
aa85
2164
aa6e
a56b
b0c5
ae42
23b6
2235
2e2e
1457
af2a
ac7c
ae70
b017
acff
2dd6
aca8
215b
ad38
adc3
aeef
241a
262a
a800
9dec
2971
a09f
2ba6
ad6a
a348
ac70
2ed0
b4b3
ac83
1f75
af0c
29b9
a34c
a6a9
a60a
b07c
abfd
a7a3
aed1
a8fb
23c6
2b03
ac8f
9430
a8b6
b2ea
a996
a610
ad6a
2f3d
aa29
a8b9
2559
246f
23e7
ac2b
acd1
2f4d
2e75
279c
abe8
a47f
ac6c
2c1c
27da
ad12
2cbc
2ae6
ac14
acb4
a4b2
2d7e
2e9d
aafe
a4b5
2ba1
b00d
1f31
ab83
2c8c
25d9
1c21
9dde
256a
ad1f
a547
2cc9
252d
ad33
a8aa
2e2d
2d5d
2c8a
aae8
a8eb
2c6a
29c8
aab0
aa20
a9f3
25d2
9d43
2d94
ae83
2013
20d5
2055
a643
aa91
287c
ad01
b1e1
a874
b018
2f24
ac80
2254
2c11
a9fa
a329
9f89
2920
b21e
2fb2
2702
a8a7
a761
29ea
93b1
2cf1
a7be
ad0b
2ac5
b2bf
ac38
aa6e
2ed1
23d2
3067
a8a7
2cea
b0af
2563
29d1
2a86
aa1a
24a3
2f41
a905
aee7
2ca2
ab09
29a0
2eac
2e91
b189
adb9
a9e2
ac5f
307c
3107
a08d
a414
ac5c
2cee
291d
1a39
1ebb
a3b3
2b16
2a8f
abb3
ae89
ada3
afb2
2c4e
a8d1
a986
2c9a
acff
a142
2cd2
a2cd
a4b7
25ea
aa34
aded
2383
ae96
293e
2f76
a98b
29ef
2ae1
acba
a8f4
2cdb
2c1b
a2ba
b0b2
220d
180b
280c
1deb
279e
abf0
2655
29ad
abcf
abb4
2f1c
2ff5
2470
3007
aea0
2cda
a8f1
2fd5
a902
af10
1ea8
ab12
af3f
9d7f
2930
23fc
a12a
ad6a
aaf7
2d7b
2f71
2734
b002
a6d3
a21e
aa5a
1f32
af41
219b
30d0
2ba2
2c77
a9ba
2910
2c20
26a3
0034
2cae
235b
a8ff
2eda
ad55
1d57
2f8f
2eef
25d7
2e9e
2813
99a1
afa7
a7f4
26a2
269c
309b
316e
2cac
2fc7
2957
9cf4
2f51
a5d5
9ef7
216b
3179
2cf6
ac10
a991
2c55
a812
2d89
2c88
2054
26df
aae0
a68a
2b26
2d02
2223
2c45
254b
238f
22d0
a7a5
2b42
2c38
aab6
aa35
2d2c
2ddf
a540
2d53
2f3c
3026
266e
2c0e
ada8
2cea
ad65
3021
26a4
9f26
2e1a
a47e
278c
2d84
aefc
a8f4
2dc3
b14a
30cf
a6d3
1fcb
24b1
aa74
9d86
a669
2bb2
2cbb
a582
2a10
2ef2
a9f3
a46a
ad49
aa9c
301e
a34d
2760
1eef
a8af
a336
2a0d
ae2b
2d03
a937
a383
ac07
2e8e
2c3f
b10e
2f7f
295f
1abd
2ae5
a693
30e5
2c65
2d09
aaf8
ab46
a9dc
ad4c
aa4b
a936
a943
2ab6
95e1
a041
a2bb
ae7a
3108
2988
b180
a8ed
2450
2e2b
a91e
11b1
2ec3
a8d7
121a
2cfb
a5d8
256c
274a
a191
abba
aced
ab61
aaef
ac82
2ad5
2b1c
2ef8
ad3c
2c13
b00b
2648
1c2a
2d4b
263a
22c2
284d
2e41
2c35
acd7
2ca7
2a64
a4d0
a411
3055
a45a
ac31
a630
2c66
aaa2
a07d
ab62
2a20
1ac3
adb3
2ee5
249e
ab50
af40
3036
2606
2d96
a90a
25e6
285a
a430
a68b
99d9
2cc9
ac25
25c2
a1ea
a5b1
ac27
9be6
2ac0
8be8
ac81
a2bb
2ac7
2f33
2ee1
2e12
2cae
ac02
2eb5
2ee9
2def
212c
a01e
21ac
2944
adf3
ac0b
2b25
2d92
255a
a140
29d5
2d7f
300b
a9aa
2902
3145
aa78
aa7f
a079
2a5a
b16f
2e92
1f2e
ac60
aec1
2c79
ae56
2809
af6e
2cae
aa8d
ae57
2b54
a4f6
20b6
a35b
25b0
2a13
3198
ad5a
28b0
acbc
301a
1caf
2db0
2d68
2d60
2c4c
abf9
a90f
ad95
a859
30ee
aef2
ac3d
9f3f
adf5
2dd7
b27b
a93e
2dd6
abed
a9fc
31aa
2a89
2f5a
26be
1fd1
2a6d
a6ad
24a1
2621
aa8a
30c4
affc
2d78
ae7d
b064
aaae
a58e
ad96
aa8d
2a7d
ab1a
234f
2d1a
327e
aa32
306d
9cdb
a948
afe3
a949
309c
ae6d
20d3
aacc
a70d
2eb6
b0be
2e4f
aaf7
24ec
31f4
31f4
a97d
210f
9d67
31ba
9d0e
b044
aac5
2348
a94b
a787
2141
a31d
2eed
b059
b07f
ad93
22b2
2bcd
adfc
ac53
af15
2c49
28d3
ad43
a1ea
aa60
b215
2d40
235e
ab9f
b04a
b09e
2ca6
accd
2f9f
aea2
a666
a19d
aa95
ab01
aecc
918e
af1a
ad59
a709
2849
a96e
abaa
aab1
25b8
ac7e
2a46
a488
a107
abf7
b0d1
26a7
2c5d
9ff1
a00e
aa1f
ade5
a1b2
1af2
2ad2
18c4
ad21
2c16
acea
2b53
accf
305d
9f3a
2c96
2c70
2faf
afc1
26e2
a2fb
2ced
2a36
9df6
2681
29b7
a50d
acb4
2eb1
2897
1da5
a4a2
26fd
2173
2227
aabe
aba5
a5bb
2dda
a24a
afca
a46a
23a8
2c3d
a969
a1b6
1e0f
2e4a
2f69
acff
254b
ac8b
ad62
2922
b363
a11d
a5ff
2ac2
27b1
2d2c
28a4
2933
af7d
24ec
a04d
2b85
aee5
2de2
2e0a
2f65
b09d
adfc
b3e1
2d50
2f63
2b23
a5c4
a45c
a8e3
29ea
a1de
292d
a859
a4d1
3047
a01f
2da2
2d3b
a799
a50d
b01c
2afc
2f6b
a928
2f69
324d
3081
252b
a9d3
251c
2496
2f9c
2da9
a49d
2d78
a8d1
ac44
a291
2ccb
2922
a804
ac9e
1f13
2a7e
2541
3089
2052
302b
2b76
2d2a
ad39
a915
2fd8
a442
af47
3096
1a7e
27ee
2be5
2da0
2497
3406
2c83
31ab
b01b
309e
aff3
2fc6
2d62
2a25
ac26
2a98
2c0e
2fda
ac3b
2c1b
9c30
28c0
aa11
b125
2358
a8f5
2585
ae4e
af78
99d0
2a0a
2501
ab8b
2da1
307a
2e79
ad37
aed9
1a67
a499
2e38
a79c
2a85
27ed
1e88
a787
1d16
282f
a264
29e7
2480
2f54
abc5
9817
ae41
9fcd
301c
2a30
9f8f
a48e
2e93
219c
aa0b
2907
24db
2ba3
2f44
2513
2ff2
2911
2d22
a92e
2b6b
abfb
9e97
a903
2eee
abef
2ffa
a15e
2c4b
22cc
af41
a63e
a6f3
a5a0
19f1
af5e
3032
ac0d
2e1f
2c2d
2920
2c4a
3130
247a
a72b
315e
2cc8
28ca
ae56
24af
b055
a925
2821
2976
b099
a0fc
aff7
288a
27af
b05b
30d5
2fc0
231f
a4d2
3037
1c52
aa8e
a44d
2c3c
1143
abe4
2c01
2cac
2850
adc0
2ee1
af22
2959
2d39
3140
aae8
a9d6
a414
3145
2920
2a16
2690
287b
25e1
2945
a9e9
a90b
28d8
a675
2bdd
315b
a8fc
ab66
292e
2469
a0db
aee9
a56b
ae7e
2890
acb0
3001
a84c
28d8
ad14
2d70
2e12
2bba
ad8e
2eac
2ccf
a0b5
2dcd
2032
aa62
2cd0
a890
2a97
28be
ac86
a0af
a54d
b038
2d74
2f15
af58
306e
a462
2c03
ac3e
22f8
309f
1d1b
a641
afc8
9f5c
2aa6
b163
acc1
a2fe
ab7c
2e75
2ca6
264f
adc5
ae7f
311a
2449
2a67
26ed
2e15
2abb
ad58
2e90
1f30
9a31
22c4
af40
ae45
1ee7
2cc0
a60f
ac51
2fdc
9feb
a536
24ac
9df3
a637
a80e
b01e
aca3
b0ea
ae34
a516
2b94
291f
b205
aaad
2a06
acd0
a046
acda
a625
2363
2001
2ddb
ac6a
2c3d
2a82
2ce6
aa2c
adb1
21df
ae4c
ae77
ad6e
a495
2b75
b25a
2126
24ab
2440
ad89
adaf
a69c
91db
af93
ac4c
b0fa
a60f
a7c6
a15a
9b13
2969
ad8c
253b
aeee
210f
2ea4
afa1
ad4c
b0df
ad78
a3a9
21b6
2dac
a164
a8fe
ac30
acbb
acba
b4a9
a9c6
aaac
a8a4
a875
2d1d
a9e8
a2db
aefb
2d8a
a90c
a492
968b
9c40
2d3f
2d81
ac4e
a457
2e88
ab92
2a1e
2e70
2f20
2ece
99c2
9c8b
1d21
a553
28cd
ac3e
af60
b084
2fe7
2b3d
adf4
28d7
ad4b
2df1
9c11
aeea
222e
b4e6
a2e4
27cb
a9ae
2858
aeea
a918
99aa
abe9
2674
2b06
a9e4
af4a
b28f
1b37
a7e8
ae17
2aaf
ac91
2881
281a
acda
aa69
95d0
28aa
2cfd
aeef
ad75
9db8
a2f7
241f
abf3
30d4
283d
2d38
9d90
278e
236b
2ca5
2b09
acdd
a431
aed6
2882
ac24
2d73
2f73
2b78
a6a9
30ad
20cf
aa65
3143
27aa
acd3
309d
210a
2b7a
2d83
abd1
1ed5
28af
a1ac
b07d
a85c
b016
2c40
ac77
2159
2f7b
ad36
a3b2
aa4f
2dc6
a551
282d
2fbc
ad9f
1f0d
2b53
3072
2b20
2cd8
2e15
abe1
24ab
2997
2fcb
2883
2384
245f
adff
26e7
aa2f
2e0b
3031
a583
3075
9fdb
2ff1
2454
a40a
2da9
2f1c
309f
ac3f
a8c8
abe0
2a75
aa63
2eec
aa70
29b6
ab08
311f
28ef
2a0b
3178
1f91
a8c6
a72e
29cc
ae45
3090
ae65
a43e
ae22
2e18
1828
1c22
2dc3
aad2
9bd7
aa44
940e
2e8f
9bb7
ac18
2ae1
274a
23c7
b217
9b8f
9c86
2427
a3d5
96a5
25ce
b021
2cb4
a862
aa78
25e1
2f15
b1c1
afab
b1d6
a9ed
ab6b
ac57
a705
a836
a6ff
2e1d
a588
ad9f
2c27
2c83
2b82
adac
adf7
2c68
aacc
9d44
305d
3135
2f03
2f5e
251d
ad66
9c4f
2b1a
1972
a329
ab6d
a8a1
98b1
2d17
a400
222f
2ca0
afae
ab87
aedf
2ecf
29ae
294a
2df4
ab3e
a506
201f
aba0
30e1
219c
ab94
3009
ad0d
3033
a72a
a375
2756
acf2
b1a7
2b01
a255
a896
1c80
a92e
3022
aa97
3009
2839
a552
a2c2
28d0
a71b
2f3b
298e
a802
1916
acdb
ad9c
9eed
2ed0
a9b4
ae5a
2dc9
adb9
2d14
a691
a380
2365
af81
ad3a
22ae
aff4
98e4
ac98
2cd9
b054
a9fc
a47b
b1d3
b122
2dc7
3114
2b7a
9627
ab19
9f1e
a437
aa72
258d
2e85
ae22
b19f
2ede
2956
a566
abc5
ad62
9d10
a678
ae85
30b7
31c5
ac2c
2e0e
a8d5
a799
a7f3
30e5
a344
2a26
afdc
2097
a1b8
2ed9
2604
2a1f
31d7
aa70
acff
2890
219d
2bf2
3006
a9a5
a70e
aeb0
2ef5
2342
2db1
24f1
a807
2654
af63
ae76
2b5b
29aa
a720
2663
a1ee
2e5f
303a
1a59
acad
aebb
2c24
b139
2bf0
b272
aae2
a5e2
2c13
a294
2904
2bcf
2e28
26eb
2ce5
a4cc
aee0
a119
201b
2a1a
a83e
adfb
a32e
2d86
b2c9
9cff
2a20
a869
acab
2713
2cc1
2c36
2820
a68a
b05b
ac6e
a44c
ac2e
3102
ae41
a99b
27bf
28d1
a67c
27ca
aa25
b0a3
2417
3131
b053
28f1
ac5f
25a9
2d6c
aefb
a7b2
a138
af98
2e93
2cbc
2895
aecb
2d1d
aa7a
ae65
acfd
2ca9
33a7
22e4
ae39
af37
3055
a665
2e7c
a923
a7d5
a56c
a9ad
ad42
27e9
29f9
b40a
2ff4
24b6
a806
aae8
acf3
a207
ac99
a4ef
240b
a362
aabb
292a
b474
131c
b2b1
29bf
2cd4
a104
b37c
2b89
af0e
2012
2502
22a1
2ec7
2d96
241d
2d12
2c59
20fe
a72e
280d
2efc
3099
ad05
accd
9e52
acbd
a5cd
2990
a6b3
2da5
26ea
a602
a601
a5b7
2177
2bf2
b011
b641
b204
2e5d
a1a1
9e1c
ac6f
27eb
2a92
a95c
b00a
b01f
2ebe
ad24
2c98
2a71
a520
ac7c
a15e
a85d
a79f
294a
aa6a
2c82
afee
a943
29bb
18b3
b0c3
aba0
a846
9d63
ab3a
2f15
2ede
2513
26a0
9e45
a16f
aca3
2870
3008
9be7
a6dc
ae96
acdf
2995
a8d5
314b
2e30
2c06
2aab
ac83
28ce
a4b5
2c8e
ae77
aba7
ab54
23b1
aa3a
acf5
2b80
23ea
1faf
2506
a809
a8dc
285b
ae42
2fc3
ac2e
a95a
a4a5
abe7
a772
2517
a9fb
aa1f
1c05
ac92
2d5a
aba9
2dd8
ad03
297a
b167
a63d
a31d
af9b
b12f
ac38
2f02
2d3e
9d85
acbb
b0b1
aeab
3013
a71f
2d54
ada0
2a00
a92a
ac3c
2e74
a5c6
ad2d
ad1f
adad
2fc3
ad26
3017
a502
a849
9562
b169
29be
aadb
b077
2bc8
2d39
acd9
b074
ad2e
a98f
ab95
b1e5
3053
3423
a567
b049
a637
2bef
a72d
a877
90c5
aed3
247a
29f9
2c15
ac97
b09a
2e9e
a96e
a39e
a615
aaf2
a73c
2a18
b0bd
ad32
1e6e
af5a
ac92
2a34
2948
301c
28ef
2c79
af9e
af14
2c85
2ac2
30d5
2a0c
98e0
2a6b
a46f
280c
a9bc
b090
ac70
ad98
3059
b059
a85f
acf3
a5a2
aaf6
ab2f
a5a3
a8bf
9e41
31eb
2bd2
2805
a8ff
22a6
ad8c
af14
aff0
312d
285a
2cc1
2b39
ad33
2f29
2c8c
2c89
ae61
a5d2
302a
aecf
a76a
2db4
311b
a9fa
2f0e
2a42
305f
a932
a6bb
ac13
2ace
2c75
a9cb
280c
3086
285d
2d1c
276c
a6bf
a551
ad6e
1d1f
b11f
3124
9ece
2f72
2ad3
af58
aba4
aba4
3086
ac7f
a6cf
ad4e
ac68
b2d0
abdc
1caa
2d7e
ab41
208a
2c6a
a0b5
2e96
2c17
ac74
afd1
ad09
246a
2a5a
193c
2eb0
a701
9c66
301e
2d67
aab7
2b6f
aa1f
2abf
2602
2e9f
a8b3
2de5
2d01
a82a
a25b
afbd
314b
ade7
2f35
9dfc
a83c
25c4
26cb
1b26
ac5a
ab4e
2f4e
29ef
a1cb
ae98
afda
2857
2cfd
a84c
a7d9
aefa
9ecd
2533
aa9c
21dc
2eae
a65e
2fe6
abd7
ab3d
ab62
a5c9
23f7
ac22
281b
2a81
aa3a
306c
2ba2
2ebb
2e5c
a81c
a611
ae2a
3066
2b28
ae13
18d3
2c03
1a83
b306
acbe
9e9f
ac2d
a840
21d6
253b
249c
a0de
2975
a7ed
30be
ac6b
28b6
ac48
af85
ad36
2c2b
2710
2d51
2f8d
ae93
a538
acb9
2ec7
aba9
a728
27ee
aef4
b058
ae18
a56c
2f44
2dd7
29e1
2b80
2e13
afde
2db4
289d
a269
2ad7
9acc
af7e
adc7
259d
aede
311c
2844
2a42
2c91
2b18
ad1c
2b21
22e3
a774
a70c
ac17
aed1
a391
2886
a993
a462
97d8
9716
2f3b
ac84
a1cb
ad35
2450
a7b9
2d7d
2ac5
2472
99e6
2e01
a6f1
2af9
303a
295f
2ee2
ac25
99d3
a8c3
a266
a520
a163
2860
2e9d
2cbd
2c0d
2be4
2824
a29a
2d4a
2734
281c
26c1
2e41
20b6
a9ea
2ef9
a3dc
2a7c
2543
26f6
2e1e
ad79
ac4f
23ac
acb0
22ed
2d09
ab97
298e
28e9
2882
a852
2e3d
a4cb
b05b
2cad
aa25
2762
1a09
afdc
2762
ab42
3169
2da4
2e3e
2e36
2e74
a236
2e01
26d0
a7c2
318c
aa77
a431
296c
2d17
a0bb
2970
2f62
22f7
ae72
2655
2e3a
a601
2b31
2cc5
ab7d
ab2a
af16
2a16
a4af
2e84
9468
ad66
2c31
ae3a
2a28
2902
2d97
3070
af6a
acbc
b0b5
296a
2445
ad15
a455
2d60
b255
aefa
b053
2f41
b004
2ed7
ae9c
260d
2bf3
2a76
216b
a7a6
23ba
ac88
2df0
ad2d
2e3c
9a42
b357
a7cf
ad67
a2e1
2511
ac00
ae06
304e
2b13
aec2
2943
2917
ae95
28b8
b0ae
ad80
b086
a80d
1c13
ae12
2f69
2c1e
adbf
ad1e
1f32
2525
2fea
b19b
ab0a
a2e4
2838
26ab
2752
24b9
1fd7
2972
ac34
2964
2ba1
949b
28be
a96e
2c06
ab5a
b019
a00d
1f79
3085
2f22
ace4
2fa8
2e07
2b19
280b
adb3
29a7
2e17
29f6
2bd4
300f
ad5a
a60c
ad0f
2c2f
ac6e
2a72
a754
2a8a
ae1b
2eed
2490
9ab8
2cc9
27c1
aaa2
2aba
259f
ac24
2d82
a3c7
2bcb
2cd8
2973
2f3b
a9c0
26bc
2bdb
a9cc
2cef
286b
2758
3008
2a19
2d9a
2e34
2a26
232e
a780
2f9d
2d59
9774
2b05
28b0
280b
aceb
aa42
a95d
a948
2d98
2d40
b091
2c61
2a9a
ac52
a8b5
2b1f
245b
26f5
27b0
a8d3
1975
28a3
a0c5
28ff
25f9
1f33
2cb2
2a06
2e79
ac82
adcd
acb7
314a
a529
269f
242d
25d5
2fa2
2c2f
256c
1a9b
2a7a
b2c6
299a
24bc
2bc7
af35
21bc
2afd
2d4a
acd1
2d2a
1cbd
ac2a
ab04
acf4
affd
b213
200b
285b
2b4a
b1cb
2de6
269b
adda
2e5a
2c48
2c18
2223
2ae6
2c9c
2c39
216b
9f2f
ac09
a981
28b7
2704
1833
2e09
2984
a83f
229a
af75
ac89
2d0c
2dfa
29f2
2699
a902
ad54
b0ca
b197
ab28
2ba7
ac52
ad4a
2b30
ab7d
1e0a
2ef5
ad2a
2405
a17f
3081
29b3
add8
abc0
2dcf
2ed7
29b6
a71e
2ca4
acf4
292d
ad64
2afa
2b0b
2deb
ad6e
a749
1c13
a27a
2ccc
2c6b
238d
22a1
23dc
ade6
a8c0
2069
2e70
2f74
2e61
310c
a068
2742
a740
2ab8
2dac
a15c
af26
a870
2927
aa05
2ed5
2bba
af75
2c49
2bac
2f08
281d
2d0d
283f
2c86
abdb
26b5
a26a
ac57
2951
2757
2d3a
aadf
2506
ac62
29b7
30b5
aeed
2feb
2880
2c9e
24e5
a847
2954
a588
ad12
a045
2d5a
2a0c
29f4
2969
ac42
ac17
28e4
aef2
a652
2b50
2b74
aa08
2e2d
142f
a4de
9d66
adc5
27e2
29d1
9f97
a600
2c1c
2ef3
3073
aae9
2d3b
b36b
a948
aef1
29ac
294a
ae67
1fa0
2a30
ad3d
ae4c
2cff
a9d7
ac14
ab3e
26aa
2c41
b425
9c43
b2f1
a2b3
2a33
209a
b003
a9a0
9ce4
28a9
b18b
a9af
2dab
2778
ab48
b1c4
9554
284a
a2c6
ac94
a6d8
a582
a872
23c3
ac10
3014
a160
2c7e
ace6
2d9a
aac3
acd4
a2a2
2842
311a
2d9a
a585
2ff9
2d22
a919
2b16
2ebd
2d62
a881
a52d
283d
21e1
24d6
300c
28fe
ae43
3048
293d
a4f3
2dde
2900
a818
2d60
2e27
295f
3013
2570
a098
aed6
2c62
b06e
2699
a0f6
2d2c
202b
3118
ab8f
2814
9f11
a1cd
280a
2706
30c7
2de3
a5d0
3068
2feb
2d64
a9cf
a99f
abf8
a1ce
1df0
2bd1
302a
3176
2f82
a8ce
9ef9
a484
28c0
987b
1fb7
aaf7
a0ef
a036
aabf
2c28
ad11
2989
1283
315e
3017
254d
272d
b17d
a84b
a108
adac
29e1
a847
31b1
adaf
2ce6
2fcc
aa56
ac1e
2efb
2ca4
2cad
adb9
2c62
26dc
b072
240c
adfc
3269
a373
a7bd
a77d
2971
1cd3
a9f3
aab6
2c7e
9ad1
1739
2cf6
ac47
a7ff
aebd
a9bd
a45c
2bce
2bf3
2f9a
2b03
a930
2ede
1db1
317a
af68
26bd
9d62
20f0
2f93
2da7
2c05
24f5
a59f
2dd0
2529
2329
9e98
244b
30d8
ad0e
2839
29d5
aa4c
a6f2
2c55
2155
251b
2c27
a601
9240
2ca1
ab4c
ae5f
2d9c
2320
2d6f
a825
2d1f
29ca
a9a6
2fb4
a90b
29b8
10c0
1ce8
ac60
2829
2a90
2432
2c8e
3018
2a91
29b5
ab06
b0a5
a12d
aa7e
2e9d
287e
96c2
29cd
2932
2b3a
29c3
a446
b125
2853
9e78
9f51
aeae
a2f0
ad2e
2971
ad09
a66a
2557
2ffb
29ba
a8d6
2b02
27a2
20c2
9c89
283b
2bcd
2af9
2d40
28f7
2bdd
27bf
1d55
b036
aa86
94bd
294b
a7d3
b0a0
2807
a499
a5e2
ac76
ab73
280d
219a
adbe
a45a
a83c
adea
2681
2e48
a899
2b7a
a89f
302c
ac41
afcb
2cae
a926
a508
abc9
2dd3
ab99
2d80
2cb6
2aab
2d17
aaa9
30f9
aff3
2f20
27e0
300c
b00d
a9c8
aceb
aa2d
acb9
aac5
315e
2632
2e90
3002
2a2f
2b16
2e5e
a57c
2fae
a946
b0f8
b0b9
a774
af16
28be
2e6c
2d41
25d1
a663
2c05
2500
ac35
aca3
31fa
af6f
a16f
263d
2dc1
ac8c
a8af
a31f
29fa
a14a
a5c8
a573
acde
2692
983d
a54b
a3f0
a5e9
3119
ae88
28ea
2d1e
2b4b
a966
2bf5
2bb6
ad88
9f4a
2d24
ab66
2403
a537
2f01
2c80
290d
ab8a
2aff
a363
a4d3
ac7e
a6c5
20b8
20bc
ac51
ac0b
94db
a877
a046
2bc1
2d0c
2c80
a2ff
a584
2cf0
2961
b18f
2c4f
ad3a
2472
227b
2d8e
ac7a
2d72
22ea
b0f2
ac6f
a63f
1a4b
a548
a639
2ac5
ad2b
9f52
b04a
2910
1770
acbd
2c2e
986a
aca1
aceb
2915
2db2
ac37
a2ca
aa0f
b0f9
ac22
a51d
ad78
aeae
2c12
ac81
2c7b
2ce3
2f0e
adf9
2516
a9ef
a465
a952
a69b
2800
ab20
af5d
aeea
a344
ac9e
ac73
26fc
a90d
a3e9
af4f
2b02
2c00
2ba9
a884
ac4b
a3f1
0bfd
3044
a284
9837
28e1
a1c0
ab0f
aa4f
b321
22d9
ad0e
290b
286d
2dee
979b
228c
b223
b07d
b1e7
ad56
aa32
aa99
adc2
2cea
a31b
b08d
a413
adeb
99a5
a9db
b18c
b0dd
ab1f
ad67
aef4
a483
ab72
2dc8
adde
2b74
ab2c
af24
adfc
3070
a03d
af53
a9e9
a837
a94b
af23
2cb3
a78b
3062
b04b
a93d
2da6
a23d
2efa
afeb
a81b
a83c
adb0
2942
ac73
308b
2978
ac8f
2707
ab53
adf8
0db9
b180
aa47
28ef
b13d
ae05
9b9a
aab7
ae09
a416
23c3
b068
2e36
aa23
afa6
a2a8
2f85
add1
acff
a413
ac20
2fc2
aaed
2a91
30a5
2bdb
21f9
1cd5
a19d
2b25
a9b7
2efe
2a3f
afe8
2ec6
312d
a665
2f86
301b
279d
2820
ac90
2d07
ad9f
3090
2b1a
abb7
9a60
2cc7
ae4e
9a58
afda
2e81
ab36
2f41
a7a5
a0a9
ab81
298c
2ca0
9e49
a0ef
3191
277b
ad7b
324b
18f1
1acd
2587
2509
ad44
2944
271a
243c
2bf2
2d40
2996
2e67
2f57
3008
2f22
ae89
ad20
abc6
301f
b1cb
30f2
a15d
a7e7
3095
afec
28d4
ac62
2c15
30c8
1eaf
ad2c
1e6e
1ee8
ae55
b17a
a8b0
31d9
30e4
284d
266a
2bf4
2615
a837
b030
31a3
a52a
ad2a
ae33
ac50
17ed
a8fd
ab49
8f50
af0b
995b
28a0
306d
2c30
2b28
a8d8
b0f3
ae83
304c
b2fc
338d
2a2d
abfc
aeae
28e5
af83
2ac0
a2bf
2f3a
aaeb
2d54
29cf
9e02
284a
2eb0
2edc
ad4a
ac34
2cbb
b26f
2cd2
a844
2fd8
2eb1
ac3d
27e6
2cd4
9e56
2493
2d61
a73b
9c78
a144
af03
319e
a710
24b3
2e01
a940
a62b
acbe
99fa
ae1c
ac68
2e66
a95a
a0df
2dc3
2da0
2747
2f05
a6c9
b184
ad4f
2984
a1b0
309d
2b05
acfd
2871
a6d7
2a00
295e
2e58
2c51
2bfb
a48a
22a8
2c7f
ad64
ae38
2d7f
24c2
212e
30ec
2cf3
2d62
a5e1
2e23
2e6e
a58c
2a9b
a951
2046
1faa
2cf3
a94f
29f2
96df
a47f
a920
a755
07a5
2c7f
a9c8
a952
a4e3
a40c
a938
29d8
aa4f
2d70
239b
2ee1
24ce
0d8a
2cd3
2cdb
2dc7
ac8a
ac55
2f9c
2f3d
2f9e
2e0e
1b92
2a7e
ac82
257b
2082
3019
312b
25f2
3186
204d
ae32
296d
2de7
2a21
2eda
9d85
20da
2691
ade5
abeb
ad09
2ec9
2852
a114
23a5
a5fc
ac0c
2a20
2bd8
a8d5
2e7b
1cb6
a023
2d02
26a8
2d9d
2230
ab57
aa30
2b35
2540
9cff
a368
11a9
2a00
ac96
a45d
289a
2c42
2e4e
257e
a7ec
2af4
ad78
2f6f
3099
a56f
3110
28b2
2a69
aa72
2981
2eb1
2c1e
28da
afae
a9a0
2f1d
2da1
266e
2e32
2dd8
2e6e
2cb0
2556
21c6
af55
a8b8
3054
2fb7
aa55
9fa6
2de5
a8ec
a7af
a8d2
ae07
9591
b022
adee
ad33
ab3a
9c83
ad6c
addd
a772
20f0
ac11
aaa7
b04a
2f6d
a85c
2ecd
a104
a97b
2f53
189a
b0bc
a8f2
a851
b085
ad82
ab8a
3004
2d68
a86c
a699
ac04
24d9
ad66
ab55
2fbf
2c0e
add1
9952
a173
ad22
2b06
28f5
ad58
17bc
2ab4
a9b8
3019
24c7
2835
ac4e
aabf
adc1
aae1
ad85
3172
b086
9355
a509
a456
ab6e
ab69
80ca
2fb4
2d1d
3057
ac7a
a9bc
30f2
2df4
275e
2548
a999
b0f5
a85e
312b
afd9
acf1
ae47
262e
afd2
9b2d
2a3d
2c57
a719
26e2
aa21
225a
ad90
ac48
3194
b125
a7db
931e
994c
a865
2b76
2658
2c03
2ff8
9e81
ae0c
3058
a6c0
2b80
ac84
aea7
ae5f
addd
aa8a
2891
3158
296f
ab7b
2504
ac10
ac3c
a309
a696
af76
301a
ad8f
27c4
2f14
af29
a3ac
1df1
2da6
a8d5
9e37
b020
ac6c
afe0
a20e
2663
2b79
a0e6
ac12
2bec
a745
9471
a92d
a9b4
a48b
2b3a
2a7a
2b2f
ab6c
a2c5
a91c
2b0d
2af5
3212
2deb
20a8
a55e
2fe8
2d19
2a46
199e
a8ec
a976
a87d
26b7
2c29
2841
ade4
26f0
a5e9
a49a
2a0c
2eaf
3033
a11a
a552
2bd3
21ad
ac7c
aaea
308e
9d1d
2a62
2c8a
2e64
ad47
a578
2d71
ae7c
a119
a853
2f36
a6c9
2965
2c4e
1b85
a599
19ed
af0a
2d29
2ca5
a778
1a99
af66
2e9f
a725
afc3
b035
a68b
9b12
aa42
a212
a9d3
ac86
24b8
99aa
292a
abaf
ac88
1d30
2b1f
2978
9407
a85d
ac71
2b25
2c67
2d7a
2d57
2268
2b17
ad41
2cd0
2439
ade2
ae62
ad67
2d2e
af39
ad68
2516
2c60
ab8b
3088
a39d
172e
2e7c
af0f
2bed
9e77
b118
1474
2fd1
ad05
ad26
2b8f
2c25
ae29
2b3c
1ff0
9b4b
2525
2e0c
2ae0
2d8b
2d14
acde
2f24
2a86
24fe
a92b
aa13
2fac
a414
2db1
223e
2d0d
2de1
28ed
2daf
2769
2645
a699
a407
a3e7
2c48
00b8
a8c5
aec1
2c2f
9a3a
aa71
afa2
2bd5
24e0
a52a
a9ac
2c77
2791
a067
2b1a
2f5f
ac2b
284f
259b
a8f3
3053
abe1
2953
2c8f
2edf
2f4e
24cb
ac2d
a308
918e
1cee
2590
ab99
a790
ac12
1f31
ae9b
1a7e
2d3a
2bc0
1dfa
9031
2ce9
ad2d
b047
a563
2b13
ada8
aed2
a53e
2990
b096
ab11
2ad1
a62a
2d15
1733
2dae
aeea
2a67
19a7
310a
b14f
24b0
a116
2bd4
200c
2c68
3108
28ba
2857
2710
ac21
1b23
2ce2
2db7
2143
2867
afec
abe3
a80f
2c3b
2b2b
307b
ac0d
30d2
a972
2674
2d15
acf3
230c
301a
1705
a4e4
2ebb
a209
a75e
296b
2cdf
afc6
305e
2630
241d
b06d
a314
ad1d
afb0
28e8
281b
2d83
aa77
2db8
23b8
2c30
300b
acb1
9ebe
2be7
a8b0
adf7
9dc3
2ca0
2357
2ace
2f0b
2f19
2149
9c5f
25d6
a985
21b9
194b
b02f
a8b6
a299
2ef0
2d7b
2af3
a0cb
2953
a2ca
adb1
2d44
30b4
a899
aa20
acd1
ad3b
28e0
aa2e
2f99
adf4
ad93
291c
af55
2845
b136
2c09
9453
16f3
20e5
2e3b
ae47
1e02
29f1
3088
2db5
1cf0
a47f
2b9b
2f3e
a26e
287a
a292
249f
a238
a895
aeb3
2a35
2c27
2e9b
a84f
2cb2
ab16
204b
2c2a
245c
a741
2e00
a601
a880
22ea
9d43
a744
ac01
30e9
2f24
2807
ad81
2e44
2783
ae05
1d2b
2380
a2b6
2c12
a86a
a41e
b0ae
a806
ab39
29f2
2f90
2562
a4ae
9dd7
aa1e
202c
b008
2ede
aa43
2e7d
a54d
2eb9
a8dc
2b73
ac42
ac7f
af14
2e7f
18db
185b
aec7
240a
2d7b
aa56
2ce3
b169
2f0a
acfc
2cc3
256e
af7d
acf5
9839
ae4a
1b5e
2a4d
aba4
3099
af1f
2df5
adf6
a989
2548
abfe
2566
2de2
a830
2ec9
2c2c
acc2
2c53
a709
abed
2d55
a8fd
2422
ac04
31e4
b1d1
aebb
2aaa
9afc
2dca
92f9
1986
2b45
b022
2a8f
a8df
ae6a
ae58
26c2
289b
2559
9aee
a737
a92a
b0b4
2dde
948b
2cfe
ab17
2880
ae07
a40f
9eff
acd3
1e38
291c
af5f
2828
28ed
ae09
2506
af69
2f8f
adbd
a86a
242b
aae2
2937
2f63
a419
24f1
2218
2c7c
2038
ad50
2fb7
2bf9
a3c2
ad99
30d1
a22e
2f1f
2a7b
a602
2a2d
a977
ad1c
afbd
2ce7
aab0
a801
a938
917f
a167
aa65
aedb
aafe
adf0
2bdc
aaae
acfe
a828
a508
abb9
ae15
ad40
a2c2
2b49
aa3d
2156
2300
adf4
296b
2cf9
2950
ad59
a790
2afd
2aae
2c6b
b1ee
28f1
b09c
32d6
28e3
b087
2e5b
2799
2955
2c7b
aca1
259a
2e60
9430
253c
287b
a16e
28dd
a498
28cc
2ddd
ac4e
ae4d
acd8
ae63
2ac6
ae82
2e84
a5b8
ac18
ad1e
24af
ac1f
a806
b0e0
a9c6
aa5d
2ba9
aea9
217b
2c9d
ab8e
a3d4
aafc
2f45
32e2
9ca7
292a
a697
2ae7
ac09
a34f
ad9e
3238
2edc
281c
a3fc
a436
2cb6
1a79
2daa
2a3f
2262
2d0c
2494
a911
98d7
25f0
b455
a9ec
ab49
ab4c
1a1c
abc8
2ae7
2c22
a5a3
a29d
a361
1fd8
1baf
adef
afe0
b2d1
acc7
2e90
2c30
ad0f
2598
a256
2cb2
2a04
2acf
aa25
2a44
2ea6
ac22
aa26
2b53
a88d
3050
9c3c
2d4f
2b3d
ac08
2dcd
22e0
1a6f
980e
aabd
ac32
2cfc
a616
24a9
aa1d
abbf
28c6
a9fd
b06f
ac30
a1e4
28fd
a889
a82e
24d2
2c7f
2e80
2aea
2c9f
ad1c
a415
304e
b499
2483
a809
24f8
a6cf
2d89
23a6
a91b
a767
ac00
3189
30c5
30cd
b189
ae58
b269
2c62
2eeb
a9f9
29cc
2c95
202c
0bf3
2e42
aca9
307a
ac5a
3147
abcb
2dca
abeb
b0b4
2e2e
a622
adab
3002
a505
9a32
ad90
a61e
2fa8
b059
ab1c
241d
290a
2978
2bcd
ad61
2d9a
ae59
b4b7
afa3
305f
2ed2
2243
ac97
a760
2de4
aa31
2fb2
2eb5
ae74
2cdd
2ca9
a831
983f
acb4
9f7e
adbc
ade2
addd
2829
af01
305e
2c44
2821
2c6e
aae2
b0c9
a96e
a426
ad1c
2788
284e
a86d
21e5
a158
2d8d
a902
1a8e
a8e1
27d1
adda
24df
2939
18ea
ab55
b222
2947
2adc
281d
2de1
ae77
aace
2dc9
b21d
a8ac
22bd
af4c
9f35
2b14
ab71
2817
b263
2e15
b2ed
ab93
ad3f
ac49
b0b6
2f29
2d24
2df0
220d
b357
2d8e
217a
2675
a74f
a0f7
ac4a
ab5d
2cc0
3032
2f98
ad31
aa55
afe6
a78b
1fdd
2edd
1c73
3009
a230
22ed
acf8
adb3
2db5
2d6b
30f4
ab3a
2841
a93e
2d37
2eaf
2c34
2dc5
b474
2086
acdd
2721
3023
2e9a
2a6b
a212
ada6
2d31
a9d1
aaca
2050
2ce9
22bc
2470
2cca
af3d
a862
aca0
a926
24b8
a64a
ad76
a9cd
a8d6
295c
a9a2
1938
2bc8
2cba
3006
ab16
2d11
a7da
a63b
2c1e
2d17
a10b
2aef
2dfc
a833
a62b
2a18
2c91
2caf
24ca
a987
29a2
ab6d
ab90
2b86
2ea9
2af9
26e6
ab6a
94b6
26eb
a1f6
9f82
2730
2a50
ac33
2ec4
2f99
2bdc
2bed
29ad
2b3d
29cf
9b35
ade3
23b0
2adf
9de6
29cd
ab42
226d
2d3b
aa8b
ad8f
2650
2d86
ac18
b192
af92
a9a1
2785
297c
299a
23d2
a99d
2cb2
2813
2c71
ac87
a248
2878
2ab4
ac6f
2c72
9966
a77e
2b56
ad23
a7b6
b0bd
ad1f
b147
ac03
ad0b
2e84
2900
a08e
1ecb
2ccc
2252
a0a0
acfa
a869
a6d1
ab9e
ad62
2562
2dba
a9da
24ab
2f7c
af65
ac4a
27a7
adb3
27ab
9d00
98e5
a5c2
b005
ad66
2d52
abfd
ad95
ab26
9e5e
aac4
2693
2a0e
aed3
288e
a986
aee7
28f8
22ba
1ca9
1fa7
212f
2e62
2a92
2884
ad63
af34
2b6c
a831
2a9b
2580
ad15
26c2
2e70
2c69
ab04
a245
aa6d
2660
ad09
a01b
a86f
2a1f
3027
2d8d
2902
27f7
aee3
2e2c
a107
2d61
9f5e
26e7
9ff0
9fd1
a9ad
2da3
206c
af42
ac66
20be
a4f0
9446
2814
ac9f
8d8d
a285
ac73
a8e7
ac6e
a51f
23a4
28f9
abdd
2c64
ad2a
a9e9
ac61
2ddb
a006
21a7
2730
2d3c
a38a
2cab
ac6f
aedf
2e77
2888
ad76
29fa
a2c4
2d33
2b16
a40a
aa61
ad56
9d9a
25c1
afd8
3065
2a91
adb6
2cfa
310f
2e72
2f60
2c26
a8f4
2ac3
2a56
2223
2c10
2fdf
a9b8
28e2
ac4f
ac40
2ae7
2d7d
2c6b
a9c9
1d3c
2d51
a18b
aa19
a8af
2873
2fc7
a91c
a436
319a
2a8f
ad8b
3249
a940
ab37
2638
295b
2b73
30cf
2d4e
2f3d
1f2b
2de0
aef2
2546
ab83
a9d5
a8b2
a917
2978
a9cd
24e0
30b8
29ef
a14d
3040
afb1
a273
ae16
a85a
a80c
ae6e
a8a2
a722
2a92
9c1f
2a0f
2fca
2c59
a3c0
1baf
99f1
06ad
2da8
2f07
aa47
ac3c
2766
ab15
2579
ad4a
a9c5
a6ac
2cf3
ae77
307c
2d06
b0c4
27b9
a854
2a04
207e
a738
26f8
ae74
aaf0
ae28
b179
ac3b
ae57
241a
ad4e
ac58
a8b2
313c
a477
aa46
b015
22a4
abd3
2469
acdc
af9f
284a
2dff
2e1c
a9c2
ac4d
974f
2df1
a462
ac0d
1fe2
2939
ac00
a6c2
9723
ac64
a62f
2deb
2407
931e
2814
a969
ac90
9ff3
271f
a865
9dcd
adb4
2dec
9fb1
ac7b
a72c
ac50
2cf4
1ca6
231d
1f17
2c79
242c
2d21
2597
2c0b
29d7
1d85
2ca5
aaf1
aa28
2dfa
2a7b
2844
ac65
2654
ab37
aacf
9ec6
a996
2799
ac9c
ad63
2157
308d
aeed
ae1c
a084
24f4
ad2d
9770
a432
275b
2b12
a029
ae05
a888
2d00
a8e8
a68a
277b
2a5c
2ad0
ad8f
a7f3
a93f
29c2
24ea
ae5a
2b95
2bf8
304a
2e6c
aad1
2ee1
abaf
2df9
2a89
2b87
282c
27fd
159e
a413
ac70
adc3
a913
a59b
2dbb
a68c
2d5f
b02e
1ea5
abf8
2f7a
ad58
a9fc
a6ac
2a56
ab4d
2c9e
2bda
1d85
3125
ace1
2dfb
2a45
aa71
2835
25d2
3064
30f3
a4f3
b0b5
aca7
28f4
1423
312b
ad1b
a2a8
ae40
a8f4
945d
b090
a6df
2d5f
ae52
28ee
3167
a66d
3116
ac21
2db6
3001
b023
9181
b0ee
2807
310e
28ef
285d
1dea
9779
aaad
2b72
ae7a
2ba4
299d
25f4
b13a
2f52
329a
af37
329e
29be
ab2c
ab97
2b08
2e61
a69c
2d0a
2820
afcb
2d33
a495
3013
2775
af42
2e1c
2d08
97e5
27a0
2d29
2ceb
ab37
b07c
29ef
ad9e
adc8
a893
9806
24ce
2cf6
ac3f
b005
28a6
aa86
1e21
a1e4
2882
af6b
a848
26eb
adfa
2b0c
ab24
b206
a2ec
ae45
ac7c
af24
ae11
2891
220a
2a67
23cc
262c
2456
aaa6
aa14
aa26
2dfd
b074
ad58
a6e5
a9fc
2bdd
aec7
a8e1
2b3c
ac9f
2de9
ac56
a91e
2cc5
b1a5
2799
2e95
b10a
a7f4
2dc0
2179
2973
acd7
a723
adcd
2ec9
af4b
ac5e
9c2e
adb8
305c
a8cc
1fc6
2e69
304d
23f7
2d99
2981
ad6b
3073
ae77
a402
2ce1
2beb
2033
1842
af41
2cde
242b
2ff4
2f8a
aeb1
b0f3
ad9a
a0ef
a40e
a9fc
ae63
281c
aad2
2c1e
2c5d
a4d6
2e34
a9a1
28a8
b0e5
a64e
2d89
ac76
2682
b219
adfe
2c5a
a96f
3131
2b66
a842
2c1a
aacf
afa2
a3c7
2458
24e4
2f2c
acf1
2e74
b276
b2e8
b4f5
30e9
2953
ad98
243a
afc2
aefe
20db
22af
294a
ae20
2bf4
2d09
2799
30d6
a906
a505
27e5
a5b4
247d
305b
2bfb
28c0
2e0e
30ff
a4ad
3085
2841
290d
ac18
1806
acfc
306d
aafd
232c
ac04
1884
9b73
2b29
ac65
2c05
27f8
30ad
3016
23b3
2a7c
abbc
ac84
ad76
ac10
2c64
2b25
b0df
3109
aa0b
add1
2cc6
aacc
aeed
3046
2bb5
253e
a4cc
2eb1
aa3e
a490
2cea
2e13
a5f4
9a47
2e16
2680
2167
2774
a854
2e65
2f27
a9fb
2660
adf7
2d34
aceb
2953
2f9d
abcc
3030
19da
2c70
1ad3
316e
a8b1
2c2e
17fb
25df
30ca
300b
2a5b
2933
2d10
248f
a8b2
aaa4
2e30
2f84
30e9
2d58
20d1
b07a
ae17
2f47
1c94
2a6d
aec7
2906
a989
ac92
2ba3
2219
af31
2d10
2cfb
2d8d
2c3c
2c20
2c36
2899
2285
a8d4
ab3f
2f8a
ac4b
25d2
2f21
24a7
2140
9ede
ad4e
a890
a51d
2bf2
a73e
b298
2d15
ac41
a0f5
a981
a5aa
2ed8
2f34
1b26
2871
314b
2f95
3090
ab50
a505
acc6
2aee
2c12
2e2a
ae9e
9811
ad63
2f1e
28da
aeca
318a
23d1
2f84
30da
3042
ae02
ad35
a5a3
2ad1
2f96
aa6b
2956
2e5d
acf7
aafb
2c52
24c5
adbe
a8ee
2d9c
2ad3
299f
2f13
31c5
22de
a6b3
a2e1
311c
acfe
2a91
ae7b
25a5
9c33
207d
29e4
31cb
af24
aa87
2628
a389
3091
a51a
a316
ad7f
2f4f
2d46
2f52
9dec
28c5
2766
2daf
2d10
acd3
2868
2290
a383
a6e6
ac42
aedf
ac2a
ac73
27ed
a5ad
2d89
aa21
2cd2
a86b
af12
a70c
2fae
ad9f
2cea
2d89
ae4f
2dfd
2f44
2504
2723
ad7a
9ba8
22f9
2ff1
b14f
2d73
299e
2a4c
a69c
3003
1c28
ac1d
9e9e
2d78
2d88
2227
2cb0
28b0
178a
24a2
261a
a715
ad02
aada
b09d
ac26
21dd
27b6
279a
0262
acb6
a7a8
2e05
2a80
2825
aa22
2b5a
2ad2
ad09
a85e
a805
a8d6
2ae1
adad
a612
ae06
aaef
ae33
1991
aedc
2940
1f85
a2e6
28fd
aa19
2f25
3048
ab48
a808
228d
2aa9
1f38
ad81
a8ca
2b6e
a4c0
b006
9723
ac35
ad46
ad7c
2ca5
2cb1
2472
ac6b
af2c
a214
a508
a9df
ac17
9de1
afb5
a8f5
2b36
a9b4
a956
a49f
a65b
b123
a6ac
a9d4
2d2c
a9ce
ad8c
29b0
a8f9
2c2c
aa3a
b01e
b23a
2dbf
2c22
ae31
b0ec
ac94
a77c
29c2
ae51
305a
28ac
2a69
b059
b10e
2cab
a6d4
ad36
ad3d
2af1
273b
24ed
2fc5
a590
2f87
3170
250a
ab3f
a9b9
28d6
a25c
b060
b046
a7f2
2cdc
2bc6
aa2b
b09d
1947
a6f1
b06a
2d0c
b18f
ae5d
1c82
a903
2c82
2574
259b
a6db
9d04
a8d7
2f88
263b
a7d6
adca
adbd
af30
ad7b
aae8
a035
2f95
ac81
acb6
abab
a3de
a52b
2dc3
abb1
ace5
b1ea
aae5
a28f
2d33
3049
a77b
2e8e
ad07
ad8b
2c39
a862
3154
aa2c
2935
a4e1
2bd1
acf6
ab85
2dce
2f3f
b02c
2b38
adda
1d5d
2add
2957
b046
3151
a157
2b90
2f52
282a
aae0
284f
a790
b033
2764
180d
abb7
ad84
2d07
a071
a82f
193c
acb7
ac55
a483
2ff7
2fbb
b0f8
29b8
adf1
2f4a
2bdd
2d24
a7ef
a66c
3009
95ce
2c02
2d4b
2d68
9c37
aac6
ab85
2f54
2be2
2b80
9c1c
2ffb
ab9e
30d3
297c
a936
29f3
2e17
2dbd
2c5f
acb3
29cc
a9fc
190e
2d5d
abf4
2b6e
2adf
1a31
a07b
2861
2761
b08e
2e97
2bde
24fb
2c4d
29b3
2d3e
2d8a
ac7c
2312
adc7
2c87
2e44
283e
a909
2d55
290c
2edb
ad60
aff9
2979
2042
2860
b144
9c01
b003
24b1
2a79
28a5
2c36
a67d
9f68
a401
ad75
9baf
2fb4
b190
28cc
afaa
1a10
2c6f
2b51
2fc9
a8c3
2df0
2b84
28fd
2b9a
2a36
30f4
a3eb
abf6
2b7a
af9b
26a5
ac69
a723
312f
2d78
30b0
2920
aa1e
2d8a
ad15
98b5
3035
a877
2a61
2d92
2771
2dac
a54d
8d63
26b5
2433
2392
30ce
abd2
2d3a
a810
ad6e
2332
2eef
2a4e
2db5
a8c0
ae47
2fc3
aea9
2d42
b093
24cb
2908
a9be
b302
2e81
ad7c
29a5
b142
aedc
2923
ad14
2f33
2d4e
b14e
2295
28bf
180b
2cd8
2915
2c8a
9ceb
288a
281d
ad86
ab64
ac8a
2bf8
30ec
b21c
aa1f
a4d9
9d1a
2bac
22e9
ad36
2ce0
a623
28d6
2bbf
2846
b194
ab00
acb7
ae77
ad61
25be
2cd8
2091
b00c
2748
2cad
a864
2bdf
2da7
2982
ac31
af8f
32a6
ac64
14d4
af5e
ab20
aa40
2d22
a774
3108
2f56
ad1c
30e8
b02e
a8f7
20f4
3046
9ccd
2ae8
2ab3
ac8a
ac26
a688
2f95
a173
266c
2cb3
2687
2f11
a63b
2df1
a4fb
303a
a7f9
b0d4
3122
ad3e
a0e3
2ff5
2f2f
209e
968f
af20
30d1
af59
ad24
31eb
ae61
2a45
2dcc
2ddc
a850
a566
278c
b1a3
a146
b08e
2a65
aa13
2724
a899
a5ca
2085
3020
b070
a070
acb9
aed4
2f00
a9e1
30a0
b017
2836
ac34
2958
b190
acf3
ade3
acf3
2401
29b0
2d59
2b6f
2f14
af2a
b0c8
2c9d
9e99
a87a
2878
249e
2896
a9a0
ae17
2f6c
af40
ac84
b010
ac42
2ea4
ae70
a93c
ab2d
ae7a
a956
aba2
ad1d
2d29
1127
27b2
2487
a896
b1a8
2ba3
ae91
ad38
b167
281c
33fb
a945
af5f
ad19
303d
af1b
2c7b
29cc
ae7d
2d0e
2b48
0e52
2bce
2c4f
b21e
28a0
220d
2294
2b96
20ba
af23
ad88
aba0
adf6
a584
2a1a
2602
b4a6
182f
b237
aedf
2aa0
2aa2
b37a
27d4
b074
26f6
a985
a932
ab58
ad9b
a80e
2ca5
1acc
a9c4
ae90
2dce
2adb
2ece
9c23
9dab
ab19
adfe
230f
9eb2
adf2
2601
95d7
2444
27b3
b0b9
a396
279a
b0fe
b4bb
af91
abc7
2c65
a862
9bf2
2aa5
2b49
2b8e
b0dc
ada1
2f49
a60f
a95d
a587
a6a7
ac65
2c88
2b3e
9e86
2cfc
a66f
ad0a
ae5b
2738
2cef
3046
b076
2c13
af18
ad19
9707
2ccb
2dac
2e44
aba1
a6fd
2c7f
2dc8
2ada
94f3
2703
a73a
ab7a
ad2d
2c4b
a993
30af
2586
9c6b
2d5a
ac98
2ae4
9eb7
2d6f
afba
ac95
aa3e
a059
2c56
26e5
ad1c
abe2
2e58
ae55
a92e
2ca7
aa9b
2229
a166
aab2
adf6
b041
a20f
a298
a7c6
ae85
b0a3
1b82
a5be
2cfb
b03d
acbf
2717
29a4
b15a
27d0
994f
addf
aaa8
29e2
3019
2672
2d3b
aa58
ad9f
a140
3097
aeb5
2ee0
2b04
aed4
af36
acff
ac29
a2b8
b00d
b124
acd4
304a
b239
2d26
28f6
af8e
a644
b143
a0ab
2d7e
b1e8
2ff3
2c96
aed6
a687
a4ec
a809
b273
b1b8
a540
321d
2ba9
aa0c
293f
2c1f
21bc
aef7
2524
ad50
2fb7
2f50
9cb3
a9ec
26f0
29db
2d7a
22cf
b0d4
aa46
2605
a833
b2c1
aa0b
a023
b0a4
a934
24bb
2c59
1e8e
2cfe
a865
aea0
2269
2e2f
a4c9
2a58
ad69
25a6
9ca2
a0c3
981b
ad7d
ae46
abf8
a524
2c4c
ac02
2c15
a921
995a
a5da
af01
2ca1
2e33
aee8
28ff
af7f
b0d8
92a7
9f74
af3d
b303
afb9
30cf
2e33
2afb
22b1
ae80
a494
2397
ada8
ad10
2945
21fe
a507
aaaa
2e0d
2a37
2935
26c4
2d40
3061
2d4e
2ac7
2c53
acae
a396
2790
24fc
2c5a
2c23
2764
2e41
2561
a51f
ac5b
2601
ac1e
2a11
a9e7
2eea
2bd9
1fa5
27f3
b06c
2868
a973
a9e4
1d99
a4ed
a836
adef
1e04
a8a7
a1ce
a2b4
28e7
a6c9
a797
2b9e
b004
ab3d
ab38
93e8
264b
ae19
2996
3077
adc4
2ff9
2a2b
2bd7
2dbe
2497
2f81
276e
29f1
adfe
2d44
a63a
acba
a545
ae39
2a1b
2be9
ab84
ab0b
2c45
2c9c
2d6b
2dbe
aa0b
2a11
2dd2
3036
9d38
a43c
afb9
a94b
2a52
2c03
2426
288a
2b15
aa9d
2db2
ac64
2f81
2ccc
a6ef
9f43
ac26
ac01
283d
3124
a66a
ae86
2df3
a706
2f6a
1a56
2808
2bef
2b3a
a8b2
a63a
2e5e
a421
a8d9
2f4d
30b3
8d27
b378
ac4e
2a28
2e31
a892
aad0
adac
aaba
aa79
ac11
b005
2c9e
a526
2885
a279
a77c
252c
a219
2ab6
ad57
290b
ae5f
2df2
2a2e
a84d
acde
2962
ad17
2aff
ac28
a4ac
28ce
24e2
2f81
1520
aa04
acec
afd6
1b1c
aba3
2f67
a706
a8cd
2341
255f
19fe
aa54
282b
2a05
a275
2f8c
2990
a65d
2d45
1d04
2705
2a0b
2bc8
ac26
20fa
ae23
aea6
ae2c
272a
af36
2ce5
ae57
28c5
2536
3119
2aff
2b7b
ac75
2932
2c52
277f
2df3
2a11
2d7e
a47c
28bb
2e8d
a793
2f44
2af0
adf0
20ba
a874
2a09
2aed
ac08
a45c
a85d
a992
a279
ae5d
294f
aeb6
2a8e
2058
ac4c
2ce7
16c6
ade2
acf1
294e
ab4d
2af2
ae8f
28c5
204b
2f82
a2ad
b04a
acf8
2dd1
acc1
1a25
ac6c
9757
1790
ac55
a40b
1e8a
a103
a878
a9e7
ab0d
ac16
2df8
ac02
2ca7
30ac
ac81
2d4f
aa67
2cf8
3044
adeb
2952
a2af
a807
a9b4
28c8
2ca9
2604
2c20
a848
a5ff
a981
315c
2918
2da1
2c74
b0f8
a738
2877
a667
2cf4
ad1e
27ee
ae60
30df
30a5
2688
2e4b
a13f
aaed
b162
aa81
263c
ae64
1ca5
a21f
aa39
b043
b31d
aa0c
a1e4
2e54
aba7
acff
2a6f
9c7f
a869
2c9b
a60f
abe8
2ca2
af71
29cd
0916
b340
ac31
af80
a8b3
204e
ad7c
aa45
2dda
ad8b
ad73
add1
2d7d
ad03
18b2
b0fb
ac88
af37
2217
2078
a878
2cb9
2676
1d03
1f49
2944
a668
2c44
2172
ac0b
a69a
affc
2c68
2cfc
2f33
a43f
276c
2b26
287c
aa99
24db
29b0
22e3
a68e
ac6e
2667
a5c7
abb2
2e71
307b
acae
2a8f
267d
294b
2e52
a953
a3fb
2ee8
2a51
acc3
308c
2187
2c25
239c
2ea2
abd5
a651
a9ac
af9d
aed7
3051
aba5
ae48
278b
3030
a33d
2dd4
1961
2ebd
2b30
2c9e
307e
a577
2533
2954
245a
b0b7
25e3
2977
2aa4
a697
aed2
2dd6
ad0d
258a
2e39
a6ca
3007
aff1
aa0b
28bc
a0e1
2af1
a82b
a495
ac3e
2cc7
2a0d
20ca
2c07
2800
ad23
ac87
a950
a8e5
b001
a541
9a57
a93f
2db1
aded
283b
2ed2
ae6c
b07b
2f6c
a72e
2d34
2cbf
a311
281a
acad
aab0
2e81
a6d9
a92d
ac23
a9d0
a902
2e36
2cb0
27d9
27ef
b27f
269a
aa39
ac9d
af05
ad5e
28e6
17e8
234e
217a
aed8
acca
9ea0
b28c
b153
b228
28ee
2837
2a3f
af20
a70b
2606
2a7d
27b5
28ea
2bad
acb7
1c44
ac41
2ac1
a907
1f98
2de7
aa04
29de
24f7
ac70
2b18
ae32
2304
ac5b
ae4a
a38f
214a
2c66
25b2
a459
2c50
2ed0
b113
b59e
a038
2e91
a6e3
ada0
ac1e
ac42
2dfd
3054
aa4c
b138
23a5
27f6
30d4
afaa
2cfa
29a7
a45e
96af
2635
2f3d
a664
2ca4
a8d2
31c7
2d5d
2f0a
af86
2afa
afb1
2c18
3078
307b
a8c2
2d68
ab03
2cbe
25f9
23f8
1b61
2933
a244
2e26
b03f
aeca
257a
23a3
22f6
270f
aca7
2eb1
2335
241a
9c0c
2ae3
aeb4
2ccf
3108
2e34
2815
2920
aa4e
256b
2c68
b0fe
2003
2d47
abea
af92
2de9
ad01
ab72
258a
2f3d
2e58
ab0c
3042
a352
298d
29ec
2d93
a6f3
1b6e
ad49
24ae
2e34
a330
30e6
2eda
1e7c
1dbf
a815
ab35
2064
2ca0
2525
2b36
2cc8
a74d
2cd2
2d80
ab3f
a624
2827
2ab5
2c61
2004
2ae1
1e8b
256f
2ecd
b3b5
acb2
ae6c
2b56
aa86
ad67
29a1
28bf
aee9
2866
1c8e
2cc2
2766
286a
ad7d
2d5a
b156
8d29
b43e
2d2e
a7b0
2bf0
b0d7
ad17
269f
a869
afc1
a66f
2e2a
ab92
18a8
aa55
adf6
2972
2d60
abb9
282a
2bb2
281b
8f64
ae95
2f3a
ab90
2c03
ad76
a5ad
b073
2dee
acd4
a2c7
3188
2e80
a531
2f89
8e9d
2b85
aba9
2a65
2e3b
a255
a8a0
aa3c
2432
acf7
2dfc
2c50
af0a
2fa7
a1a8
2459
3002
2c3a
a840
2c60
2b66
a317
2dfe
a7d3
a910
223c
2dbd
add7
2eab
b081
9f1e
2525
2ed0
2a5c
2d89
2c77
2a25
20c5
2c33
2f7d
a519
aaa0
3204
2dab
3072
2a59
2e25
8328
1c45
2cab
a35d
2cfd
a4b5
a61d
b177
25db
2a56
2d0d
31ab
a59e
aa9e
a8f8
2877
21b5
25ce
ad12
9f68
ac49
306e
2ce1
2e8e
9d65
ae74
22a1
1fa2
a700
ae90
a802
25ca
281e
ad78
2c0e
22ad
aab6
2dad
2088
2d52
a0bd
90b9
2720
a618
9f92
b032
2fb6
a201
ac8d
a7fe
295d
27ae
2e4a
ab2c
a410
2d07
a8d8
a8c3
a7a4
2bec
ac88
2d6e
27ea
261b
a88e
2d46
2e58
aab1
2ee1
a9c5
2bc2
b085
264f
24ab
22b8
2ddb
18af
2598
a9ee
9104
2980
2ffc
abd3
21c3
31e5
2f1d
242d
a3de
a7ec
9e69
2c63
251b
a8c6
2b5f
2e3c
310b
2d42
9997
ab6b
acff
a393
a97e
2857
9aac
2882
2133
2cd7
aa94
2ffe
9e42
aa3d
294a
b09f
2db3
aa17
a9f5
a7bf
307e
2ab8
abe1
2e09
ae23
2d0a
ab09
2e01
2d1b
2bcf
3033
a42a
aaf9
a745
2df3
b025
a290
a922
a8e2
a922
2fab
2c22
2937
a8c3
2fab
2744
22b7
1987
2b85
2a0b
aa99
ad01
2603
2671
2b3f
27a6
27ee
25b8
2f4e
aa5d
ab2e
2839
acff
234c
2e6c
a0f7
a473
a430
2c69
2657
a3e8
a784
a099
29f7
b122
2b52
b09d
277c
2c03
1fbb
a942
2d0f
2fc6
2e58
af2a
ac1b
31ed
ad32
a6ad
aef2
2871
2aac
2bb0
2415
27ce
2cc5
afab
3098
aa65
a678
a4bd
25e0
afa0
af23
1e02
2bbc
ab2d
2da6
2efe
31a4
29f9
2fc5
a911
2c01
2eff
28d9
2e0a
b083
b006
ad0c
2f01
adec
99b8
993d
2eed
2a85
acf0
915b
3037
a948
a985
2ecc
9717
a541
2d6c
aa33
a402
a2c1
a833
a14d
2986
b102
2bde
ad9e
1b35
ada1
283b
ad85
a859
2c0f
ad5e
a84d
3069
a98a
27c6
2928
2c3b
a91f
b102
ac76
28f2
af40
2df7
283f
aca1
2d20
2637
9d4b
2f99
a89a
2e6f
2895
29a4
aee6
22ff
ae9a
2d96
2c61
2bdd
28e7
295f
1e24
2558
1cef
a977
2eaf
b15a
2ac3
242d
24d5
28a5
ac0a
a868
a62f
9cbe
b014
a1b0
2d94
2a2b
2e3c
28fa
246f
b429
2ca3
b10e
301f
aafb
af6c
2691
add8
ad61
ad1d
302d
2fc2
abfb
1576
2870
a7f2
aca9
2d31
a88b
2596
a882
afae
2dcb
2995
30ac
abb9
2c48
a106
ad38
b17d
ae60
a600
ac3c
282d
b0a9
a871
a2ee
af7f
ac75
aeb7
2a0e
27b3
ad4e
20fd
2642
aa26
accf
ad06
292a
2a8d
288c
a6d2
adb3
2b63
1d92
ad87
b2db
2e7d
a4f5
2a6d
acb4
ac0e
2c87
a938
af11
b176
a875
2c88
a973
20b3
aa74
a96f
2d23
af4e
2cb3
aa7a
a873
a8d7
a8eb
b03d
afaa
aeb6
ac76
295e
af44
1317
25f3
ada4
292c
a97d
a72e
9c25
b05e
27a2
ae04
af03
9e54
b038
2a06
aa40
a412
af1d
b0c4
a6c8
ac35
26c2
b086
aa76
2c1e
2a15
ac71
ab53
302c
3157
2206
2c0c
adf1
256c
2d10
af13
a56e
300a
b222
a028
2f90
ab74
ae24
a951
a17d
aca2
a3e1
a9a1
adfc
a912
2c18
9d8b
2b14
2db1
2d4b
3028
a3a2
2b32
2c5d
2ac9
3060
2d03
ac93
ab5d
287a
26ac
2ee9
908e
3091
3311
a844
a33f
2d6c
2b0a
2e99
a509
86df
a75c
290b
a77d
acd8
2e06
a53d
a481
2a92
afd6
284a
a824
990d
a339
9e60
2932
226a
ac2e
2770
adf0
2b04
2429
af94
3207
2d02
a935
2cc8
a9ea
28b7
3177
2dfe
2edd
2bb6
25d6
add6
a6b7
2805
313e
a6ec
1870
a57f
af65
2c32
a8b8
30ca
a33d
b15b
301d
acd9
a607
262f
2aaa
304c
ad5f
2d65
a981
2ae2
af12
ad52
1531
1976
2f7e
24fd
2871
2b80
ad1d
a14e
ac3c
2bc0
ad76
8d3e
9ed8
2c8f
25d1
a93e
adac
2631
2a5c
2eb8
af27
2c05
29fe
af5e
a167
af23
2ce4
226f
adbe
330e
a48c
299c
af78
2439
2610
0f8f
ab99
2d32
ad9f
344a
274d
afb8
24f1
2503
2cf2
2a80
a67c
a88c
ab26
2afd
2c3e
2b7e
2aac
2d3f
2af8
30c6
2dae
2c01
2a6a
2cc4
28a2
ac26
aca0
3170
2f44
1fe9
2ffe
2e7a
2885
29cb
198e
aea4
ad98
2d34
ad45
2f32
ac8e
a6c5
2771
2f6c
2a4e
af55
ac26
299e
2daa
2cc6
9e23
ac52
2b4a
275e
abaa
a98c
2f03
3192
234c
289d
2805
ac49
aa09
2b08
2ee5
302f
aee2
2a03
2c09
2963
2ab9
2012
ad11
2f79
ab39
af83
a8e9
2fb7
2cdd
2d36
a7ea
2ffa
a86b
a9d4
2902
a793
3009
2b58
270a
a514
aa1e
2a6d
2bf9
b0ce
2e77
1874
2f04
259e
90dc
2f13
a9b7
2e64
2b61
9b14
2c5f
292f
2db9
3096
2d57
a69d
29b1
9d48
2cac
20d4
2ff4
b088
8b66
2d0a
a6c6
2bfb
1afe
af41
a405
2a6d
2a95
2e01
b0bb
23b0
8e31
3017
af4d
9f55
303a
2e76
2b56
25b2
27a5
a99e
2d67
a407
afdb
315c
aae1
ae28
a34b
aa1b
a69e
abf6
ae91
a446
2c60
a4f4
2ffd
ad03
9399
25c3
2e6b
a009
af1b
afc4
269d
289d
9c1c
9b8c
a153
26ab
2f20
971d
2b9f
2b91
3038
2f56
2f7d
2c45
26cf
1a70
a741
2b17
2880
a967
2c75
ab04
a53b
3033
2898
b125
3142
a12c
2d48
2562
10a5
ac6f
b0e4
2b49
afb7
2f98
af3f
2be1
a52f
2de3
a954
ad0a
2ac6
2c30
2497
2d02
2b94
af9f
2ef7
2453
980b
26b1
a2fa
2e72
ae86
b202
a777
ac49
af19
ac96
a8db
2e57
1c00
29b0
aad0
a80f
9d91
2adf
a9e4
288d
a8c7
ad23
aa23
20d0
25e6
aee8
ac12
23b5
284f
2641
b12c
29c1
adaa
afb2
a552
2b63
ac09
a94b
a5ce
303a
ae8a
ad27
a4de
ac01
24e9
ab8d
a932
1c92
2c0c
30c9
2e53
ac45
a86e
25a1
a82c
3071
95c9
b12e
b007
a1d8
b0d3
a160
b052
b07d
ab6a
afa5
aa3c
2c3b
2e69
acf4
ac89
b0d0
add3
ad8c
31d2
a18c
242d
ad56
2a7c
2b8b
a972
2ad0
26b3
29e4
ae1b
adaf
27a0
ac44
1d6e
176a
aaee
b192
b0a4
0241
2ad7
3056
318f
246d
303d
a917
29c3
289b
2480
a84c
2e42
b104
a991
2961
a496
af49
ae02
3068
aa95
2fef
a908
a657
1d22
2f8f
2d39
2159
ad76
2f1e
2f51
a2c1
2fd0
a914
a130
2aa0
2d3e
acf2
a84d
acbf
2cf9
2242
aade
2e98
2aa6
2ef4
2dc2
28d2
ac2d
a83a
1cad
2ecd
2df4
2c36
9e15
2e08
ab7f
2c71
2d87
a900
2d90
2020
aa59
3020
2dce
2ed7
21b4
a961
2c4e
1efc
2502
304a
abdb
a73d
311d
2d50
a9bf
2ff9
1b64
acc4
308e
aa5b
2f4d
243b
2cb6
28b3
2860
ae5c
2feb
280f
ac30
2d25
ab52
adac
af41
29b9
aaa5
aaab
a9ac
2441
b00e
ace5
2d82
ab41
2e30
2b23
2e40
2bcf
ad9a
b06d
9f4e
ae3e
aded
2868
aec2
ae2d
a81b
3030
991c
ac13
25c9
aa92
a8e7
a5b0
2f32
ad27
aa31
a92f
ad38
a2e0
a63a
2778
2fb7
adb3
2a93
a9f8
94f6
2b0b
a916
2a4a
2c97
b061
240f
28f8
a655
2bc9
2349
2c6c
af7d
2048
ae8b
ad2e
9677
25a1
2fc7
a839
2380
ae58
a5e5
191c
2136
a81d
ac8a
aa7a
ab3b
2f87
2cd1
1e14
2b57
2c2b
2166
2c8a
2fc9
2ca1
ab37
23b4
a4cf
957a
a291
2640
ac79
a629
2dc8
b001
a83e
302e
addb
14dc
2d8b
a4a3
2445
2439
2835
293c
1d40
2d9b
a9ff
2d43
2d97
2c7e
980f
a8bf
a8b4
a5e2
2e43
288f
23f7
2c9d
2435
acdc
2518
ae0a
2031
aea1
a69e
2ce4
a314
ac59
2909
3061
1cfe
a8dc
ada6
30bb
a615
ad96
a89a
ac79
b066
2e35
a3e7
ac32
3070
a6c1
308e
aeb4
2c49
ad81
2d3f
b027
1f85
2327
a99d
2e33
2b5a
2bfe
2cbf
2cfd
2c79
a32a
2ff8
a561
2a8a
3081
2a11
afee
19ee
a4a8
a417
2103
2e5f
2025
24f7
aa37
ad60
a05d
ad2d
23f0
2f8e
9e64
29bb
a2b1
2dfc
226c
adfa
2fb0
ac1f
2ee0
aa7c
2cad
adaf
301f
2e28
b0c1
2cd1
25d9
24d7
aa7d
2c63
9888
28d2
2944
2628
203f
abd0
2aae
a906
2fdc
a401
2834
a22f
3001
2e64
acaf
af1d
25bc
ac23
2e23
ab7b
168f
28a7
aa6b
ac58
abd2
ae95
2cf8
a87b
2e11
b0d3
209a
2c6c
a76f
2f44
ac7c
b0ac
2e6d
2860
28a3
a8ad
adb2
a873
acad
a856
b031
2a94
ae32
2c11
a00c
a692
aba7
2d73
abc2
2f8d
2e21
265e
a8b8
2557
282a
a120
2650
a257
aa5e
a46c
ae04
a677
3023
ad8f
2e94
a88d
2949
2f2c
2341
2f2d
aec1
303d
27fc
2f2b
afaa
a64d
ae78
2b94
29d8
9916
3078
30b3
2c46
260d
2ec4
1f62
2f5c
29e3
27af
abb3
a9b3
2c15
a81a
aafe
a234
a72e
3237
1daa
2679
acdf
1a39
a028
add2
3017
ace4
2df2
2146
a930
1f4d
28a2
2bf5
adb5
b050
ac7d
309a
2a77
af59
af8d
25f7
2725
acb5
b408
2ef2
af66
2a07
a92a
9533
8f0c
2ba3
2a58
269f
28c0
a5d4
a543
2464
a3a1
a6ac
2c88
2d68
afd0
298d
ad18
20a6
2ea8
2790
2390
31fb
299b
2c19
2e50
ab52
2137
2842
2ad8
b0dc
ad2b
a4ef
af58
250a
2db4
14ce
ab68
a7a8
2b90
2922
a9f7
ae5e
2c03
2f8d
a7ca
2d61
2910
abe4
aaae
a7ec
b173
2e7f
2a3a
2aae
9fee
2da3
2dbc
1fef
a234
299f
a5d6
2900
91f6
25ac
a98d
ae41
2b39
adb8
2d64
2b8c
a8c4
22dc
1893
b269
2682
ac50
acf3
2884
a9cc
a8ff
2944
aa15
a911
29a2
a92f
3004
25a0
ad34
ab9c
aa03
a8a9
ac9c
a8f3
a7fc
a671
3010
a29b
a85b
2647
93c9
2624
acb3
202f
2c97
2986
2af6
2c12
218b
280f
ac0b
af1f
2df0
279d
2d19
2cfa
2c59
a2f3
2ac2
2ae4
2c48
2aaa
ab59
ae22
2e42
b1b4
312c
a80b
2b95
3049
ad37
2d60
ab4d
ae42
2e9f
1750
afda
2e76
b023
b052
2a8a
19dc
291b
303a
9818
2418
a6a2
2b38
2c61
acdd
2814
2c72
2bd3
a01d
26cb
2af7
23bf
ae7e
b007
b0e5
aa7a
16e3
2b14
a901
ad43
a54f
ac7a
aa8c
a2b5
29b7
3165
ab18
292d
a7f3
28f1
9a91
ad28
aed8
3189
2b2b
2b40
adf9
ab0a
a7cb
9cda
2c42
a524
2dc0
accd
a953
24f5
996f
2b80
b30f
aaf4
8fd6
a9a3
ab49
a136
ada9
2730
2d54
aa39
2e9d
ac4f
28c8
af1b
ad09
b292
ae3c
2da6
28d7
1cf3
abce
2c51
a324
2d69
2c53
a575
1f96
2b05
ad3a
2cc6
a119
af6b
2e6d
25a1
a479
aa56
ab29
225d
2b12
aadc
232c
b113
27d8
2c76
aa1a
1740
2c2d
0e1a
2e1b
aa8a
b15c
adf6
a9bd
ad2a
afbf
2ad5
2908
9ffe
aab9
a95c
2dd5
a4d3
2cec
2d69
b42c
2c8d
acb3
2d2a
1da9
26ee
2d1c
9ca0
2507
ac99
32fa
2f18
2538
b181
a82d
b1d2
a2b9
2a6d
aa7a
b083
3060
b028
a26a
2ddc
a88d
3018
2e81
2d7f
aca2
2eb3
289d
ad43
a3ef
264b
acf1
308a
a5af
3026
17a4
2d13
2e90
b037
a8b6
2759
2b58
ad4d
2ed7
291d
25b4
282b
b4a6
ac7b
a40c
997e
b073
a967
a86b
a55c
2309
2a8b
2c0c
26f6
2db7
a8cc
2907
291b
2d4f
1ab0
addf
25d6
26e3
aadc
ac02
2477
2cef
27e2
26bd
a58f
adc4
a19e
2c2a
2cc7
ad8c
2c5e
ae37
29eb
2a5b
aa93
2678
9f99
af8a
9f7a
ae7a
2508
9ca3
2d2a
28b7
b0c3
acc6
ad84
2ce9
26fa
ad28
a2a7
239f
af08
a9e6
af1c
abe0
ae3e
2fc7
932f
201b
b251
2fa6
b4d0
ac13
1ecb
2ba5
ae40
2ff5
215b
a0ea
ac56
b0a7
2e7a
a629
1e4b
a797
2266
a8e1
2726
a8d1
26db
24f3
a2a0
abe2
ac5e
b1ae
a983
197f
2b35
9da5
274d
a854
a0c7
a3a6
2753
2b00
238e
2918
ac4b
2790
aa2c
2ba2
a047
9ffd
b22e
b0c3
a643
aeda
2e7a
30ee
29ed
a6ab
acba
a990
aa59
ac56
88ec
2c06
2e88
b059
2d34
a973
aa40
b105
289e
2b1f
2f88
a876
2dfd
afc7
1c9a
2c6a
2b4d
2dd9
a723
2e09
2708
a59f
a82f
ad0b
2f0d
275f
accb
27ed
240f
263f
2996
28cb
aa8b
a923
2f09
a4f3
aee5
ae9c
2cb6
2767
1bb6
ac12
aff5
2e19
a9db
2dd4
add6
2cde
ab60
a1f9
a837
26fa
aad5
2fef
2839
2e21
9bbc
26d7
2b4b
2740
2ea5
286b
2dc3
29a9
b0fc
2c60
2f2e
9e3e
af47
aa07
ab73
2ca0
b0ff
ace8
af60
2e74
a028
a441
ad3b
214b
a4a5
2b8b
28f2
afd4
0ba4
1b81
a724
2122
ae70
ac1b
2995
2b5d
2a6c
2bf3
ae67
ad71
205b
2921
a9cd
a9d7
a73a
ae05
a62b
a857
ac18
2f6a
29bf
2ce8
a4ba
a428
ab95
17f5
a66a
2ced
2bbe
2c2e
a676
afc3
1897
2318
3131
30cf
2ad7
2cf9
1f34
2882
2b18
1e50
ad05
ade4
2bbe
2424
28a1
2d44
ae32
a87c
2cf2
ae9b
a1e9
2e80
2d97
ad5d
2f22
2a88
ab7f
a822
28df
afb6
28e0
add6
3181
2dd0
a18a
2406
2d58
1f93
2f4d
2a93
acee
a99f
ac2a
ad51
25ed
2c07
a525
2f22
290e
2d35
ab89
2ac7
a8f5
a85a
301f
2dd9
2e6b
1dd7
1f91
a51e
26e4
a68b
a2a5
a676
ad10
abee
2c45
2947
ac36
2544
29c6
2aa0
ad3d
2bba
2b31
a8c3
2946
ab3c
aa6f
2a5b
27bd
23af
2d6b
2c2e
2ce0
2d77
9adf
2cf2
2adf
ae87
a915
2dca
95e7
2e51
2dd6
ab55
310b
30c4
2af7
2a27
a8d9
281b
ab69
a9ab
2e7f
1de4
a73c
264d
30de
a52c
2e8d
9e65
2eb6
abbd
2cac
a25b
2c45
accf
a86f
294a
a70f
2e55
2ea4
ac39
2fc4
302d
26ca
2f46
2c97
2b4e
a87b
2dea
2096
a740
2fbf
ad42
ad1d
2cc0
aaf2
209a
2c28
2d57
29d2
a197
2f86
2d4e
aad7
19ec
11da
2996
aec2
a706
af5c
2c5e
a48e
2d68
ae72
2592
afe6
2a90
2a11
b055
2fe3
a4ae
291f
20d2
ab08
2764
28d2
2ca0
2a15
28b9
2656
a20c
afb0
b10c
b01d
a965
2ef0
ab96
28c4
aba4
ac93
2ae4
ad70
29f1
2d22
aa7c
2f81
a909
2dfc
272a
93e2
3246
2cc4
2e1c
99e3
2a74
a81b
aaa3
2931
2d00
aa58
ac60
ae7e
2b93
2d22
9c2b
2651
2c72
ad7d
a958
a284
3117
2cc0
ad73
a825
1e1f
2e5b
ace5
2001
2c2a
2d5e
26f2
30f4
2d1a
28ca
2e78
285d
a55f
a971
ac89
a94f
abba
21fa
2e2c
2a79
a5ee
29d2
2832
2e43
233a
2529
a0d9
a8c3
28c9
2a6f
9321
a989
2e1e
2689
a81c
a599
305f
1e40
ad3b
2c7c
2ab9
2c48
a503
b02c
ac4e
185e
2d12
aaf7
ac95
2d5d
9d0a
a29e
2e01
aab0
2f62
2278
2e21
af0b
a4e6
aed5
2a81
aeef
2966
28db
2fd5
a762
a3e3
30dd
9bab
a21a
3076
aeeb
a626
2d0b
3084
2ac9
ac50
2120
248b
ae15
2a04
15b7
3115
26c2
ac99
2d5b
a5a3
2900
a65f
ad71
acc7
ad1e
3146
2e17
3153
a436
2bba
a84f
aa28
2fa0
a179
19af
2e11
aa5f
2540
304c
a8a9
204e
b0fc
268e
a597
2baf
2919
26f4
b1ee
2af4
2ae9
aabb
2db3
29b8
2fce
adaf
271c
2cc2
307d
2dc1
311f
2c8d
9e78
a154
adad
27a4
331a
24de
acac
abaa
a2e1
319e
ae91
ac33
a929
ac3b
2e53
31c0
2971
2057
9fda
3108
2418
a94e
2d2f
259f
af33
2784
ad3d
a412
adcd
28e1
22dd
acb5
a4fb
a372
a823
a61d
afca
31ed
30d0
a356
3292
ac1c
a0c3
247d
2c3a
3143
2cc6
acc0
17bd
a907
308d
b163
ab21
aef4
2828
2d98
263b
a8ae
ac5b
23bc
2da1
afe5
b01a
2dd3
a870
2cca
1714
aa85
2dbf
2e15
af8d
aece
aba8
a879
a06f
af21
26e3
ae4f
2d2d
25ca
a49f
2966
2562
a5a2
062a
2dd3
a11b
a7df
b06d
29a1
b0d4
2e07
ac62
2e48
afcb
ae09
1e10
a114
20c8
1364
2acb
2e4f
2b22
a84f
a5ed
2e6b
2962
aa0f
2eaf
af80
268e
2f31
b28b
a647
2a24
a1c0
a8d6
22d8
aad3
abaf
ac85
3005
20d3
253a
aaa0
aac7
a18c
2d5e
a916
252b
a925
aaa8
2338
ae3c
9eda
2f05
2e41
3014
adad
2dbc
2a1d
aa69
acc4
a84d
297f
281f
2171
209e
2b88
abaa
b043
abd5
aeaa
ac81
ac1a
a91a
2ab8
2d70
2e4c
15f8
9c03
2b94
2e87
2556
a2db
a9a0
2eba
ac6b
2ccf
a7bb
a87d
a969
a95f
1a0e
aa5c
a811
2aff
aab8
2c44
27c6
2dc9
9dda
18e5
ad9c
25a5
ae41
ab30
b3b1
a833
a92e
ae84
2836
a6ad
2c1f
25a2
2d31
2b96
aa24
2b27
2d16
2f17
25a4
2e01
2949
2b30
26c1
9a87
2fd9
2a5e
30ea
30ea
3111
2798
2ec5
adb5
2d53
9880
2525
2877
3033
2ce6
288f
2999
29f7
2b0a
2814
2cdc
a88d
ac94
2fd7
a0fb
2ee2
19cc
2e61
2c29
2c65
2dc3
28f5
2da7
a653
2f95
aeb1
216f
aa30
2f5e
9cb2
2c1a
2dce
2dd1
aa97
25a5
ae54
a609
27a5
3027
ae65
ac33
aaae
247d
af28
af06
2bc1
300e
30ad
b060
a156
adf0
243f
a028
ae0b
2534
abdf
2d79
ad4d
83b8
2d37
30d8
b120
a554
ad88
a430
2c66
a5ca
1728
2cea
aae6
a056
2cb5
a88c
2e6a
a814
2bcd
2de0
aba2
a6c4
aee4
2e5e
2a15
2c99
ac4e
2fb9
2f2b
98fd
2826
2e6c
afd7
a3d2
2e9a
2c33
a95c
2d0c
2ee8
2a91
1d4e
a2da
9f1e
28f5
a685
a346
163f
1cca
8bfb
26e1
b01a
a88e
aa90
2f61
2f3a
a66d
3060
2b48
30b2
a44a
2de0
2a06
2e23
2d0d
a572
30f3
3081
2fdc
ad9d
b023
b0fe
acc1
309f
2ef9
ac6f
a0d2
ac38
219c
2b7d
27fa
3024
a86b
2e3e
2ddf
2ebe
a9b3
af5b
a8c6
29ee
2c96
2d84
a9f0
1eb8
2d36
a04f
303a
2a56
2878
a621
2f2a
9e3e
2d90
a161
2e5e
2a64
a7ca
a94e
294a
a96e
abf3
287a
2862
aa05
ae14
2e6f
30f2
291e
26f9
b0f2
2d56
a8ea
a454
2ca1
2a7a
3052
2c85
2e9b
a0b8
11a0
b020
2666
2dc9
adc7
1e64
278b
aca3
2962
a859
abbd
26de
2930
2d26
2c6d
1767
a20b
2ff1
2b80
af14
3029
a134
2532
293f
a4c4
1dee
2d50
2d20
2ff0
ac10
abfd
9970
aa0c
2d4d
b08f
ab98
af08
2483
92a4
2d48
a81c
adea
abce
a371
ad35
a0ef
9d48
2b3a
a9bf
265a
3087
2c52
200e
2d0a
adc8
2c13
ab56
aadf
2915
2271
a508
2c16
2c7d
91a3
29bd
ad59
2cc3
a51a
1bf5
b095
ad02
28db
ac7d
2091
a4e3
aa71
941a
ad6d
a91f
aef0
ad7a
2a14
a6ca
2e42
2de7
a91e
a48d
2870
ab65
a9df
ad7e
b004
2308
a4c7
26b9
a400
b184
a529
2b6e
2380
b061
2a26
aaab
2b8a
b318
ad7b
b203
ab75
aa60
26d4
a090
ac9f
a88a
2d2b
a158
248e
2ee7
2a96
b0b0
a708
a417
2d50
2027
a18d
2942
28f6
24b1
adee
23ce
b056
216e
a433
b090
aee7
295f
ab6c
913b
2834
a4b8
abcd
2951
a6cd
288b
2b43
2968
2b08
ac74
2d88
a446
29b1
2909
a809
2ef8
2d73
b086
29fd
ac84
2ade
add2
af63
aa13
2f03
a847
aa45
2c79
b334
a740
a4f0
b011
2777
b29d
2747
a530
a9e3
299b
aa3b
29e7
2adf
b118
a9b6
2596
afbe
b077
b199
2a79
a9ec
ae53
a383
a7a4
2ede
2c71
29a9
a843
a491
218d
2a44
ae36
af77
16b7
aa32
2593
ad46
1a9e
aeff
28e2
2200
2790
2a67
2a58
303f
2c62
a949
a416
ad6a
2770
275b
3006
3015
29a1
2cbf
2394
24ad
2abe
29f4
ad37
24e4
b0c4
2c6f
2b7c
acf4
ad29
aa16
a850
af9f
2f18
b028
ac27
ad9b
271f
31c2
2e12
2a28
2c09
a036
aced
a40d
9ee6
af5f
250d
2c56
23b9
aa05
28d0
acb2
a5c6
2d1a
af0f
2f32
2f91
2e97
0f0a
9d48
a6f6
2d10
2d5c
2ceb
ac94
a31b
a9b9
2f9f
2ecd
a78b
3013
303f
2ebb
a727
28e1
a487
a98b
af04
300f
2d1f
2cd8
2e23
265c
aa95
aa95
2dca
ac0b
ac05
ad7d
283d
a6d2
2c41
2d4d
2974
ab9f
2953
18a9
9c71
2130
2952
a8e8
239c
2baa
a948
ad48
1de7
20b3
ac62
2a71
a93f
a9d4
ad9e
a578
2c8a
a828
2e25
2b47
2ead
1cb7
a6fb
a8e4
2c2d
25eb
ac31
afdf
2c50
a854
2bc3
aaba
a21c
270e
9ec6
2b47
add7
2c9e
2e66
a9c4
2653
ad73
a6ac
25d4
ad09
2e5e
2952
2002
309d
ad7c
ae84
2f3f
27cd
27ba
2b5b
2167
2b21
aac5
218d
2d70
acb6
2e95
26ca
1459
af22
2fa4
2260
a3bb
aaae
29b7
ae3d
302a
29f4
2aed
2a88
25c5
25b3
22ff
2ccc
b101
abf7
ab8d
a676
aa34
a4d9
a0a0
aca3
aa9f
a74a
2f8c
ac46
3001
9c72
b070
aa12
a9be
aea3
30bd
adad
a899
a713
1ce2
166c
ac0f
2d16
af33
a6ac
2c02
b04c
2b59
a020
ac8c
af1d
aa8d
2730
9cfd
2d65
2d3a
a745
2d72
ada8
a2c6
a41d
aa17
a7e1
2e22
28ee
aba9
2c3a
2ca7
2e34
aa3d
ac6e
a8e9
a6f3
2630
b208
3004
aa71
a17d
2ae2
a375
2d92
aa95
2bb7
2def
2a83
9e74
3101
ae67
2c1e
ac34
29ad
ae01
a7d9
ad70
aa69
aa91
aa2d
2e34
2dc0
3050
2f79
2d22
305b
2e79
2def
a63e
2ca5
b145
b066
3203
a140
130b
a319
2c12
a66c
2598
ae13
99ad
1fbf
acae
2d2f
2cc3
a38d
ab19
ac56
2d7d
ac6b
2bd0
abd4
a789
b1dd
a2b4
242b
2a57
ab5d
abd7
a322
2ecf
25a5
274b
ad4b
abd5
2942
b077
2f68
a9c8
a5b9
a8c5
2547
b0d1
2928
a2bd
2445
9f35
b03d
2db1
ac53
2e81
ac67
9e54
ade8
3057
ad60
318f
28c1
b051
a3ae
2a8a
acfb
25c9
a551
b08e
af46
2c75
b068
a83a
2925
a76f
2ad5
aeb2
9653
2c16
aef1
27cc
abdb
2ab4
b369
ad0e
28a9
b216
a72f
a71b
32f8
2f46
b07e
ad6e
2242
2935
108e
a9fc
2b86
2886
2209
a410
ad7c
2e6b
b250
2d5b
2885
2e2d
a621
29f5
ac1a
acc5
a9f6
2967
ab39
9d21
2e90
ae4e
282b
affd
acc6
a807
2b43
b1f9
adf2
ace5
ab4a
aa5d
ac1c
2a1b
a9ce
2c4c
1f56
a30b
2f37
ab96
2eab
2a06
2e90
aec1
2788
9774
ad45
a669
a667
ac7f
2bf5
2436
2283
ab2c
a520
2a3c
2ae9
1c0e
b19f
ae3c
ab56
2da3
ae3a
ac35
a6fd
3061
a5a1
ab2c
989e
2db7
ac06
2771
ab26
ab64
2723
2a9e
a735
2d26
2aad
221a
2cda
adcd
acf6
aa27
2e4a
ad94
2e27
af4c
aae7
aa29
2bb4
2cca
247d
1e24
2877
2b08
28f6
ac5f
a8f9
29c2
ab3f
ac73
b060
a934
2c8e
20a0
2cb3
9164
2ca7
accc
a4ab
2df3
2d20
a845
2de0
2449
2623
2c7f
2aa9
ab46
281c
a809
ac87
a93e
2fc4
a9d9
2c27
2cf7
a957
2238
ae0e
a0fa
ad86
a248
aadc
b249
2d72
b1bf
2b5d
ab8a
a980
ae63
a144
ad25
a918
ac6c
af6f
b0a6
2a3f
3166
acb1
2d6c
a562
ad36
24a9
a4f5
ac84
284d
2893
a8c1
2cac
afb1
277c
ad27
248f
abba
ad28
30a4
af17
a417
ac57
aa19
a795
ac8a
a65d
246a
a5ea
2c1c
278a
afb8
a824
aaa6
aa92
acae
a52a
2c98
2f7f
ac1f
b050
a266
2c2b
a72a
ab07
2b54
ad06
2d7f
2c74
9b66
278b
26e6
254f
adf7
a809
b021
ab78
2989
9b6d
ac5f
ab09
a94d
ae8e
ada7
ac9b
2cbf
2c24
2b60
289c
aa77
283c
ae57
a4ac
304b
ad3c
ad28
b042
aed9
1f51
ad59
aa3e
adb3
a6f9
21bd
a8db
2f03
9cd3
adae
afe5
ad76
ad2b
a7b5
26cc
2f97
29e6
acee
995f
a586
2721
b209
afbc
30b2
a89d
1ade
2cc2
a49e
2b5c
25b6
1801
adad
ac07
a19b
a925
adaa
aa07
2b8d
9da2
2c18
2eb4
a47b
2494
2e98
269c
aaf9
27a1
aa8e
2cd9
3066
2cbb
26ff
29a1
2c5e
ac51
af8f
a8ba
ad56
2c3e
2540
2e05
2e4c
28a0
a4b0
29b0
2cab
a3c9
afd2
aff9
28ca
b07d
ad0e
aed8
3010
b017
9e7e
2c54
296a
a8d5
31a3
aaf1
a9e4
2525
a9d3
ac26
b140
2ae9
a2d2
ab25
2bbe
1c75
a92a
aa56
2c89
2837
2168
a38a
ad46
3036
2bad
a2ac
28ca
b10f
312b
2785
2d21
a8b1
2fdd
2444
2ae3
2b19
2639
2f25
2a77
3046
ae37
add3
adec
2b22
2ae2
2cc7
2953
2926
2dd4
2fbd
a86e
2ba9
2e35
2fd6
2da3
27f7
2b66
a899
249d
2a2a
a473
ac34
1c5c
28ea
2541
aa1b
2ae7
abae
adcf
0dd1
b085
2c66
ac2d
25c7
259b
300d
addc
b400
252b
28fe
a7e6
adc0
28e6
1c95
2b57
2d64
a8d1
afbc
306d
2c0b
aea8
ac28
a63e
a8d3
2dcc
282d
2a28
a84f
ae6f
a2c3
2418
aa59
23d3
3024
aeda
a3cf
b057
a782
ad76
2661
a2ba
25a6
2a88
18a8
ae04
9e74
2ed5
2d5c
a496
2953
ae53
ac11
2f25
adac
2ec4
30e7
af9c
30a4
a70b
2075
a12c
2007
291c
a3bf
ad61
2b83
2847
2bc5
b034
a4b8
294c
b0d0
a6bd
ab19
2740
affb
0b00
ac03
9506
a87e
302a
ac5b
1c5e
2c82
2ee1
29ab
300e
29cb
ad28
2c11
28cc
2c6f
218e
ab98
ad63
ab6e
ac59
ae20
a604
a5a3
2b38
3042
ab1c
1aac
acc3
25a5
284b
2e01
2c1a
ab31
ae4f
af78
1889
2c46
28ff
ad7a
2df6
9e97
aa95
a436
1dc4
a8c9
26a7
ab15
adff
2cc4
9c5b
a608
2e99
297e
2cae
a46e
af83
9ac1
a176
9f8f
a5a2
2844
1c56
a1a9
a900
22fe
24b8
a8f1
2c47
ae35
2c9d
2f10
2c47
2e93
ac2a
2301
18f6
a33f
2d43
2822
aadd
20ba
253d
aa3e
2caa
a086
a83b
a0b0
2ec0
a6e9
b051
2d75
b021
301a
2706
a073
2f0c
2c11
aecb
afc9
a0cc
9e33
a7b6
a8a4
2ab0
a984
b19e
b213
ac1b
ac16
ac2e
ad6b
a209
22c9
29dc
2b6a
2026
afb7
0b74
243c
b079
2b5b
aa1c
b29c
2b22
19f4
2717
2b0d
af47
aeba
2dad
aebb
aaa5
aacc
305d
af33
a416
abe4
ac9b
ae94
2bd5
227c
ae9e
2d60
1c9a
ae6f
aec2
2d23
ac85
306c
a7f2
a2b7
ab64
27c7
ac96
acbe
a502
2a05
2cd5
ae5b
9999
2f85
2d86
3233
26e7
ae01
a954
a826
27af
293f
2d95
313a
afb6
31a6
a42f
a944
a4f0
9d2a
28ff
30bd
a48c
1c86
20cf
ac9d
2b42
af26
2c8c
afac
2ee3
9f34
add0
adb3
2cd9
aa95
2cf4
abcd
2d6b
acf9
acc4
2a72
2cfd
28d6
2200
212d
2a1f
a5d2
87a4
a724
adcc
2f8d
2b1c
29e5
2a62
a6d7
a812
27bb
2cad
ab48
2596
2038
ad1c
2d9e
2a7b
27ad
27d2
a80b
a996
aecd
ab5d
2c1d
2a44
a5e1
2a9e
ad04
ae0b
b018
a8df
2898
9d81
2818
2dd6
2c22
a6f5
a233
a951
a848
a3ce
2d0c
2094
aa3d
add0
a975
2abe
abe4
2c3a
2db0
2998
2912
ab9c
a901
2c1e
a743
acff
2cf2
acd1
afa7
2ce3
256c
2686
2c79
ab46
af3f
2dbd
a3f4
ab0f
253f
ade9
a869
af3f
aaf4
ab79
ad4e
2cab
ac7f
b2f8
281e
aef5
2c20
ad9a
ab5b
a608
ad68
271c
2d6c
2d7d
ac0b
2bdc
2f93
25ba
2c06
aaf9
aecf
a30f
2987
29a1
28d8
ad09
a8af
24e7
2dbf
af6e
afcd
2096
2674
ab1d
b32d
a051
26e3
ae68
b0ed
a9d9
ad7c
a891
a4e9
ab2f
b075
2df2
2d82
30fb
ad2c
2707
2400
2fe3
a4dc
ace0
2d67
b036
2ee4
af13
2b80
a0b3
26a4
a82f
af22
aecd
30a9
2c36
1f8d
a842
a762
a557
a361
2ade
2699
2b09
2e09
2a9c
2f00
aeb5
ad05
aca1
201f
a731
2c76
af0d
2f2a
a4b3
2abd
2ca9
22d6
291f
ac5b
2edd
2ddf
917a
a4f9
a28d
2cd6
252b
b166
2a61
2cef
a623
a8a4
a5c2
aca5
2a9a
9511
a857
30d2
acd3
2d2e
a923
ae03
2e79
ad6e
a53e
a342
a2fa
2627
1a78
2dbf
302d
30e6
26f4
9d52
a486
b22d
aa2c
aba8
9866
2afc
21a9
a554
9c04
ac91
a550
aeac
a6b5
2899
9eb2
2b6d
2965
a13f
a0b4
a113
b322
2931
ab54
a8b1
2911
2bc2
a938
2832
ad39
2ba5
a198
2db1
a748
a9f3
a793
19d1
b1f4
2425
b17d
2d8b
aaac
acda
ad33
aa07
2de3
0c9b
adb3
ab0d
2fca
949d
26b2
adce
2c29
2767
2e25
9e29
26ad
2fde
aff4
9c3c
ab82
21f6
aace
302a
ac93
2cb5
ae06
a96a
ac35
2fe3
2994
2b9d
246d
9819
acc9
a489
2d89
2e32
a0aa
a048
ad6e
a69d
296a
217c
2707
2ef1
a242
2c63
acda
a84c
2f9a
2dec
ad99
2ad8
aa9f
9661
3163
2ff3
ad15
ad91
2d85
b080
30f3
2832
197f
2703
2762
2cdb
2e6f
30ad
2ab0
aa57
a9b2
30dc
2515
af4e
2bea
aaaa
308b
a59f
0b84
287c
2894
3019
a996
304f
2ea0
2c16
b1bf
284e
2b23
3004
3082
306a
ad55
a704
a8c9
2c0c
26eb
aafc
2f45
2b64
30f4
20ab
24b9
aa3c
ae91
3067
aa3d
9c8f
2ab2
ac6d
2dd9
a164
2d73
2bc3
a89c
ad4b
a0c9
2f87
2896
a16f
2b23
2f62
a1f5
a445
a41f
2bd2
2e4b
2d5a
2a5f
243f
a450
2e85
b043
a872
2ae9
2ef0
28f5
aca2
29b4
af69
2f8a
a31e
2ebb
a10f
2533
2c38
2ab0
2e10
2610
321d
b095
2a51
ae03
2cdc
a3d8
2f20
2e99
25f1
2ed0
30d6
2c8b
2f65
2d39
29ab
2e85
af3a
2502
2d1e
aeae
a8d5
19d2
2e48
2739
2ef7
a565
2c1f
8ddf
2880
afc9
2a6c
27d4
2a28
291c
9ab8
2c41
2d97
2e43
aa02
2c6d
2d4a
30ad
a5eb
2e7c
2d35
99a4
20dc
a87b
2d4a
a7a0
2da5
924a
a737
2d28
2e6b
17e2
a9ee
2a88
a703
a993
2ede
a7b8
b13c
29f1
281e
2cc0
2879
2ca4
a81c
aacc
2a6d
8c41
2afa
1931
203d
2be2
a95c
277a
aff8
ac9d
9f68
2cd7
a9e7
302a
2653
2a9a
155d
2a79
ab45
1e3e
2cae
296f
2098
ae3c
299a
2477
a327
acdb
ae06
2814
2bf1
b040
292a
1747
225d
2e77
9a8d
ab2f
30f9
2849
2db1
25f6
a7b4
2222
a9f6
1db9
922f
ad1d
a879
2cc2
2ba8
3125
30e2
af2a
2fc9
a4a8
a848
ac24
200d
b005
ae06
aa5f
2c50
a5fe
a901
ab84
2f57
998a
2c6e
2038
25ed
a375
2c0a
9d40
2057
b254
ac8d
a808
ad3c
3168
9e19
3100
290d
a9e2
2837
3184
28ad
a25c
2e3c
a1e5
aa2b
2998
2ebe
b1c3
a6e9
2b7e
af7b
9c42
aeda
3058
ad32
a498
ae7a
a937
2c33
2c4a
2da6
acae
a33e
1c74
2827
2d0e
ae8f
a86c
a972
afca
8a48
a5a8
afc9
2c07
a980
2103
2a52
27bf
aeb1
a933
acb4
2cfc
2d6f
2d5e
2a35
aaa3
a57a
acb6
ace6
aa2c
a90f
ad37
a826
a51c
2b1d
27d0
a763
acd2
2d5a
ae6d
26ac
2f82
9fca
9fbc
a8c0
a334
a3d0
28b9
24ef
a9ce
acb1
a4d1
2e2d
b40d
2c10
b249
29ed
af75
adb1
add2
ad61
2c37
a4b5
2da0
2a87
28bd
2bbd
b03a
9612
a53d
250d
acaa
aec8
20ff
ad21
288b
ae1b
2fc8
8845
2890
afff
a6b0
b2af
ab29
a33c
a831
ad95
b059
2a2f
a8c4
ae6f
aa4b
28c2
acbc
ac7e
ac1e
2c71
2ee0
a13f
aae4
ac9b
a528
2ddc
2c76
aeca
2ef0
ac64
a6f3
2c61
afbe
a414
ad6f
a413
ace3
2cff
2195
ac67
b3b2
adc5
ada1
2f0d
239c
970e
aa3a
2bc2
26ac
a8d0
2672
2adc
2596
ada0
b0fc
aac0
b048
217c
b266
ad66
ada4
2ac6
adce
2c71
ac88
9e2b
ad08
2ea9
23c7
ad35
adc8
a557
a07c
ade3
2095
b045
a7d7
ad57
ad3d
2aa0
a650
9bd6
afad
b007
a97d
ac7c
240e
1eb2
2ec9
2ca2
b06d
2e91
a600
a3a4
22de
a8f0
ad47
2f07
b01b
a6d4
3061
a366
acda
a965
3029
2480
2e0b
a910
a49d
26dc
2da2
aaa0
aaac
2e14
9564
2d58
2322
2c21
30b8
2d11
3010
2913
a8cb
2bde
ae90
2e68
2812
af00
2f2b
2dfe
2a7c
2d88
a9f3
2df3
28f1
1c26
a201
ac45
28ab
adb6
2853
ac59
3051
a674
27de
ae28
300c
ac19
28e1
3018
2aff
2a24
2892
2113
afec
2a85
3134
ae3e
a79a
32a3
a703
288b
ae57
2f12
ad25
275a
3034
2d3c
ad6c
27ad
2dff
a690
ad1b
309c
28db
abbe
acbc
ab8d
29c2
a753
2e74
afbb
b0b4
302a
a862
2ccc
a8b5
a949
ab15
ad64
ab91
2497
ab7d
b0dc
aaec
aca4
a072
2877
2a22
a888
2d6a
a7cd
aa23
2548
294c
b06a
acbc
a6f4
285b
a039
2c49
aded
2849
a65b
a92e
2c54
2deb
2a8a
ac9f
2e5e
b195
ac04
9c17
b1c1
308a
2cde
1ef2
a521
ae83
b06e
a9d7
b05d
2dd3
27b4
33ec
2c72
a500
299c
2617
a2dd
ad39
a9eb
2281
ad99
a957
a9ba
32bd
2ca1
ac39
28a7
305b
ac0d
a9a1
2ba8
2ebf
25f5
aa44
b00f
2eba
2d28
9e39
2ff7
20cf
acc2
ac31
2d54
aa4a
a98b
2806
acde
a760
ad27
11ae
ac0a
9c2d
23eb
1fda
ad43
aed8
aa9b
a852
aca5
a8e6
2c78
2837
2c3c
acfb
31ef
3047
2850
a8b0
2e98
ac0a
b018
a69d
3042
19ad
a8a1
2ff9
a91d
a71a
2d4e
2cad
2d11
23b3
a55f
b02f
a862
2875
ab09
2834
29f9
225e
23e9
a137
9f25
a8b6
a531
9f75
20ca
b152
a8e6
2e24
3059
ad5b
a331
af6c
ab4d
a52c
2c6f
a91a
981e
a9a4
aac8
269d
2b8f
2aec
24ff
3096
266b
2c85
1d5e
2b9c
2a5d
2e21
2e06
aeaa
3122
272a
ac04
a8c3
2b18
ad02
abaf
ac4b
2d9f
2d37
acfc
a5c6
253b
2fe4
a9a1
2e78
a2b5
2ed0
ad79
2a48
a066
a451
a9ce
ac57
afd3
3214
2d28
aeaa
a929
ab14
2da6
2f46
a9e7
a769
a55c
aa3e
a798
acba
a589
2c63
2e57
a9eb
aeb1
ad0d
2850
ad30
2495
2db9
ac2c
28f7
292a
a880
abb2
2537
2eba
2e2f
306d
2556
258b
2f09
2694
2a00
2049
24ac
2fd2
ad7e
2d19
3125
a700
b0fe
2e24
2882
2cd3
2c7d
a7ca
afa5
b115
24c0
add4
2f16
ae96
ac50
2c39
2ba0
b033
ae85
a1f9
3032
290f
a499
a81c
adae
3087
2be8
a893
a95a
acff
aa94
1f68
b0cd
abf2
2030
ac35
2230
2a0b
27ed
2b60
2ef2
a0c7
9d53
ad16
1b53
b075
a00b
aa2b
a365
2951
a255
a42e
9a71
a98f
2e53
27ce
301c
b0bc
2dc4
a9da
a1cd
a977
ae5f
269a
adcc
a481
31cd
aad6
aa38
ae39
2443
ad0c
af0f
afba
3132
abbf
2e51
2db8
acfd
29dc
a941
2867
a358
ac66
ac82
b089
2989
241b
28eb
a6b9
27b7
a376
ac4e
2cd7
a869
309c
2b10
2ef6
aea6
2598
1e8f
2d6a
2767
a39a
b020
2a08
9c39
ac2a
2e03
2774
2c47
2aec
2935
2547
21d5
30ad
23d7
a6e7
afe8
b0c8
288e
234e
30b3
313e
acf7
2c3b
27a5
a43e
30ff
acfb
aad6
2d28
aa2f
aca2
24e6
a962
ae1d
abb6
3103
1478
2fef
a9ab
2c59
adcd
2604
ad62
2ab4
2bb2
a4a6
2818
2ed9
a280
2a7d
296b
2ec1
ab2b
24c7
29dd
a46f
2278
2b06
a99d
a5fc
2dfa
a682
a6de
25ba
299d
2b68
2f92
a66b
2755
21d5
ab3d
2f33
2133
2de8
2866
2cfd
ac79
2f4e
adc7
a4c6
2d09
a45e
1cee
aae3
2803
281a
28d2
2eb2
2cc8
a60d
2c2b
2b98
acc0
2cdb
a6f5
ae11
2ced
2137
03a3
9008
2908
302e
2d48
26a7
2c2f
ada4
a9b3
2c0a
aed5
2db5
a3fa
2cce
ac60
adfb
2808
b03b
2bc6
b09c
ad45
af4b
2ab5
2115
aa4c
2d3b
9b62
a680
2c09
af36
af63
ae02
ab67
2550
2c10
ad20
a4e6
2de6
ae6a
ab5a
2d64
a889
2c23
aede
9f52
ab0f
a92b
afb0
2d91
a415
2c17
a854
2574
28f5
aeae
9d0c
a5a2
a6db
279e
acb2
affb
2eea
adc4
2d07
1657
a988
b118
2850
ab63
a99c
accb
223b
2dc0
29a2
2e1c
2b62
2822
28d9
2ea1
2899
af87
ab49
ae53
2b58
29d5
3072
abd7
2499
aa34
afa7
257f
2e82
a44c
aaca
a8f5
25dc
24c3
239a
2e57
2bbf
2e54
2a64
a11f
2b8a
ae84
298f
9eb8
2c7e
b11f
a08e
9e23
2819
2bcc
2b63
a861
2e36
2b8a
2f8d
aa8e
a435
2d6c
2404
25e1
2ca9
a7ea
2c33
2c9c
9464
28ac
ae0a
2b4f
9f74
2f39
3017
a04e
ad49
a4e8
2db4
a80f
b170
af5e
a90e
29b7
2c50
b02c
2d18
acf7
a4c8
abc2
ad7e
2d34
ae04
a4a5
b0fc
2bb2
ab60
2a72
a460
abac
b027
1e98
2cd3
a847
2acb
2d1f
9953
2b86
2c4c
a1e4
26c2
2662
2d7f
2f85
af53
b0b0
a7f3
a8c2
2ddd
2be2
2d47
2f8d
ad7c
2c91
30f6
aac3
acf0
2f20
ac2b
a949
2e22
254b
a236
2c63
2996
2449
a899
a46d
a9fa
aeec
2815
2802
a891
ab0e
2649
3062
adde
a25b
a8e8
2a55
3014
13d0
2deb
a956
9b52
2c79
2fca
27e0
24c6
a80f
ab52
2909
a660
abd0
2a8a
2bc4
2ce6
2203
b086
299a
2789
a18c
2cfd
aba6
aa75
a041
22b0
1fb5
30a7
1c52
2b39
1832
acc5
b015
abbe
2c99
2c91
2c5b
ac46
2bc8
2f73
2ca9
b023
22ae
2a5c
2614
2a68
2c7c
af31
2826
a1e8
3040
2a39
ab61
acdc
2fb4
2c3f
a697
ac8c
ab9d
a8df
2c63
a2ea
b02a
1182
ae01
30b5
aadb
2edb
2d42
a8b8
2f65
adca
3033
28d4
8306
ab8a
ad9e
1601
2921
2f2b
2c95
ad9b
2c6d
255c
2e10
aa44
2836
2415
2bb3
2b13
a856
1871
a9bd
abee
2c64
2aa2
2c29
207f
2fcf
2fb4
a9e9
2779
a387
b042
2b23
21eb
2cd9
2d8a
0e07
a91a
28ea
a83c
b015
a600
9fa2
2e78
a415
a975
adce
2fe4
2c16
a9d1
af1a
2de1
ac50
2f15
2b68
ab1f
2d68
acf2
22aa
28d3
2cdd
aab8
3107
a31d
a83e
2b0b
2fce
a4f6
2137
af99
ada7
2026
2f12
21cf
2e1d
292f
ace5
a5d6
29a7
a788
a3cf
1dfb
3158
b21b
a680
2ece
b002
2ec4
2c72
ac4f
a40a
27a1
ac8b
2979
a1f8
b052
1fe6
a990
a33a
2e91
213a
ae31
20fa
2e5c
accf
20d3
281b
a4a2
ae2c
2d0e
1d61
2afb
2478
295e
ae45
2e9c
2a4d
ad34
30b8
2bbf
2b60
2d60
a45d
2ede
a5e3
2c87
a87b
abee
a855
a823
2c8c
2e79
2429
2da2
241d
aabe
2b05
2b27
284e
a8a8
1e8c
aec7
ae65
a89f
20c2
a8f7
acb4
24d8
b045
2daf
9f64
acdd
2bab
9991
2e0c
a946
a375
24b3
a621
9c81
2f17
a9c1
2b35
2af8
2862
ac33
207b
abec
abcd
ae95
25a6
ac45
28f9
ab96
ab0e
a75c
2bf0
a3c9
b17d
3101
252f
30b5
3123
2af7
ac14
28ba
2c0e
ab2f
b05d
aeef
a546
b094
adb3
257a
ae46
2cb4
30e7
a612
9b06
a464
211d
a8e1
ae93
29ff
ae5c
2e93
ac52
2af3
aab5
2c3e
ac1b
ae4e
b1c3
2f49
a490
adff
24fd
ac0a
1af7
a9b9
2c19
2a67
292f
3255
a202
a015
adec
2bb1
b0a1
aa3d
2869
2f4b
28bd
2e2c
ab48
aea8
ab1a
ac8e
2da8
2c88
295e
287d
a55d
22b5
a79f
a806
b2ba
a2bb
ae45
aa1d
9640
2389
a2d6
2d75
ac27
2bcd
2ada
a066
a6a6
b102
ac93
b1bf
24cb
aa83
2905
acb8
a629
a9c5
2769
a512
ad52
2e57
23e1
aa87
a8f9
9b34
2702
aec7
2b0f
a852
a964
ac2b
1e8b
a853
2240
2ca7
ae2b
af12
2c6f
9afb
26d2
a5c2
222a
add0
a886
a7c6
b0f9
2b18
a4f1
2b69
2997
a996
241d
ac1c
2eab
ad52
ae31
aceb
2ec8
a2fa
ae82
28e8
28e5
2c60
2905
3168
ab6e
a8a8
a809
ac32
2c59
29e1
28bf
adc2
2782
b4d1
2da9
a1f0
a6b3
aa8e
2dbd
ab3b
3079
2577
adb1
2cfa
aa88
2f35
1e76
a06d
a90c
2468
2a54
20d3
a5f6
a956
2e94
0591
ad83
2b48
2c79
aaf0
a853
28a1
2ca8
af12
1d20
a811
a91b
1cc0
2426
afcd
a211
2cda
ad23
2605
2d01
ad1a
202a
2c39
2668
afae
294f
ad1e
aa95
25bf
2780
a47f
a775
ab21
2adb
18ab
a876
2ffa
2c5f
2d17
29af
9c23
b2cd
acca
adb7
abc5
1ada
a448
2969
2fd1
adcd
2c9f
acbb
ae31
ae44
a943
a223
2ea1
2856
ad01
ac06
b3b2
af21
2922
ad0f
2f38
1eee
24c7
abbe
b083
203a
a979
ada4
ab2f
a1ad
a5f6
24c5
b10b
2d57
b0f0
a6a7
aa15
2a68
aafe
2d0d
2b47
2270
ad8e
b425
2659
2c09
a955
2b19
ac5b
aa43
a902
a3f4
a536
285a
aa87
25c6
af06
a4f3
2404
29fb
a58b
a043
260d
a9f4
0eed
ac5e
a924
ac85
2d38
aff7
ab35
2ad9
2c63
2d77
acc0
2ee1
b120
ab04
2c2e
28d1
1cfe
30d2
294f
2a6b
b1b9
a32f
a9f0
2666
0e1d
2d97
3022
a95e
aa91
adb5
a6e1
b04a
2ac0
289b
a9c4
9c7c
28aa
ac30
2b32
ad5b
aa49
9c5a
9f09
1f26
a67c
17ad
af80
ab28
a8e3
2f80
a69d
2c4d
2e71
2c63
2c64
28a9
20aa
a917
a10c
2bc1
a802
1ff4
ac06
2383
2ce2
a3ed
a8e1
2d56
a807
a543
a754
ac7c
2d24
ac5c
2cd5
ac7a
a979
2c3c
ab4f
3007
ae7f
aee3
ac2a
ad1d
ab43
2638
ac2d
2e2b
ae39
2479
a1c9
a84b
2ab4
29b8
2d02
ab0c
b146
ae0d
207d
2f75
299d
29d6
2ab2
2605
2d2d
2f03
acdf
afa9
a2cc
ac9d
2e4e
2e40
0dc6
25cc
a942
aa60
2563
ab5e
ac52
abbe
a985
a071
a82e
301e
a7b9
ad95
aebf
2d63
2bf6
2d85
a3fe
2a22
2d0a
94bf
2860
858b
21a8
23b7
306f
2e2d
b00a
b056
2b7e
2e40
2392
2d27
a816
29fc
a067
a9cc
a710
a806
a436
24d7
a8c1
2200
a872
272d
a696
ad06
a8b9
2916
2a00
a7e9
a419
ab5b
2934
2d4b
24df
2d20
aadc
295e
2bee
a887
2f89
aae0
abdb
a3e0
2249
2cd7
295f
2bb6
2a80
2adc
a547
a6f5
2de8
2e14
2ff3
2d21
2bf5
1c6a
ad85
27a1
2e62
ac2b
95c0
2ce1
2f34
aa04
22c0
aced
a969
a7c9
b02c
a99a
2853
aea6
2af1
2e79
22dd
2e7c
acd8
2d31
2c5f
2db0
2cc6
2091
9e6a
a4b3
ae8b
2c7e
ab0e
a449
253c
ac36
2bc6
a666
2cc7
a850
3003
ace7
2c41
a8a8
aa3e
ab4e
aa18
2736
a5b8
2cc1
2761
23fc
24b2
26ff
b068
2442
2a03
a40b
9c17
2fb1
2dbb
a489
2d6c
add2
3163
2f3b
27fa
1d1e
31b0
1e16
ab08
20be
2182
2d3d
ac99
2dc2
27a5
a89c
a8dc
a9f6
9f91
2a96
a4c4
a170
29f9
aa61
2cc2
a094
2547
2ea2
af33
a5ae
2cca
2a2a
ac62
3047
98a0
2bad
2a21
267a
aeef
30a4
a9c2
2277
a86c
a898
a953
291e
9a96
28c2
2908
2b6c
a0c4
b0c8
169d
ab43
2ad7
a287
a4cc
12f2
2b00
a101
2b42
a759
2988
a613
add0
26fa
af10
aaa0
a606
2189
a979
2a15
aec6
2882
a0de
a9f2
a683
2b47
2cdf
ac6a
3042
ac5c
adab
2503
28f1
1c0d
ae54
2e19
283d
aa74
ad52
ac36
b17e
2c62
27d5
a3ee
a908
a87a
a189
2c74
adb2
ad86
ae51
2fa3
a28f
ac90
23ab
1914
ad1d
2e9b
a604
28a8
2d87
aa9f
2f0e
a72e
2013
2836
1983
ad09
a910
2827
29e8
aa52
2e29
2dc2
2cac
2e93
2977
291c
1eac
abd7
28a2
2ced
ac5d
21e0
2b2e
25ae
a9b1
a91b
2d90
29cc
301b
31d7
ac0f
2c95
2d0f
a709
2e52
af55
a709
a635
a647
ac7d
2749
a9c6
2cf9
acf4
aade
ab73
2ad3
9a26
acd1
ac10
ae5e
a297
aa86
2931
ae8d
a7a4
a8b4
3090
ad8e
2c2b
30de
2d17
2b2c
2e65
aef0
24c5
2947
2e56
a445
2ae8
297f
24f7
a93f
25df
2bab
2ab9
aa00
acbc
225c
2fad
1cdf
2fb8
ad11
acee
aaa2
280b
2c5b
301b
2740
2b17
2cb3
b0e6
2968
20e4
2994
aca3
a809
976a
1764
aca1
2f3b
af8e
25c3
2b8f
af90
2ddc
a473
ac6e
2e4f
ac7b
28a1
2ef4
a584
29b8
ab20
28b6
2a9e
2e5a
2cb8
2c98
1e7b
ac17
259a
a92f
2cda
2cc0
28c7
ab14
2c41
a500
307a
b1c3
2a28
2c0f
2d7b
24fa
2a54
ad18
a20f
ab95
288b
2afc
aab1
2e39
af37
960b
2d40
ae8c
2e59
adc3
1a4d
29c5
b039
ad66
29c0
a3cf
a8ce
2836
3170
2bd5
a60f
31f5
2f10
a7ed
aeda
2c01
3060
aea2
ad64
a82c
2837
2d7e
1745
1cf0
87e2
a91d
23d1
3039
2a95
a367
a065
2d92
2a30
aa2a
2d9b
ab5e
271e
b0aa
ac2c
abf1
a5a6
adba
b05a
acc0
1cfc
adb1
ac02
ad07
aae1
ad68
215c
ae93
a9b3
aff4
ad23
2afd
2dd0
9aa7
b003
aceb
9aea
ac26
a24c
ade7
23a5
ad8d
af11
a736
b01b
2878
ac63
afc6
2d68
a2ee
2642
1a13
29dd
a03d
b011
a157
2811
a591
2b35
af03
ac0e
2c6c
b040
aeb3
2d73
2b43
98c5
a876
235a
abc3
2d12
ae78
b068
a44e
9841
3001
ad03
2cdc
2cd7
2b21
af3e
1ca5
ab01
a23a
2887
2c6c
2d4e
283a
ae57
a7df
9eef
2bdd
a7a1
165d
2694
2ee0
acd5
b11b
20ec
28dd
2a7c
a5aa
ae55
a66e
2a89
2319
ad06
1aee
29f0
2eb6
2e0e
ae7e
ab38
2c4f
1e87
2f48
b1a3
aef1
2744
2d30
2c94
2ae4
25fe
298d
ad46
ad92
acdd
2db5
9999
2989
2f27
2a4e
b260
acbc
b358
2119
25f7
ae83
b01f
ad76
af3b
a9aa
a779
2e80
ac70
2d34
a564
9c22
2c5b
a817
2abd
aa21
aef2
2ce8
289f
2d51
2e5d
2f62
8346
1d3f
2a6c
ae25
2f1f
aac8
ac1f
2dfd
2cac
ad85
a857
a8f6
29ef
2be5
2b85
1eda
a755
1b58
2b05
249f
aac7
2e77
a9b6
2f5a
2aa1
a393
304e
ad2d
b044
32b2
aad4
233f
9eca
1f2e
aa76
3143
3097
203d
ace9
1f46
a839
2a23
2dd5
2f96
29d8
af83
aa14
24b9
ac51
ac64
29f8
2e5a
211b
14e6
2f63
ac85
3009
ad4f
ac81
1db6
a058
30ed
b168
9fe2
2ac5
3012
aacd
a704
b093
2f08
2d80
3070
267f
2885
adb1
ac17
a73d
a85e
2284
2d07
2f4b
30b7
ad00
26d1
acbd
2d29
2a47
3047
aca3
2f66
a618
aacd
2d54
a75e
1c1f
1134
a338
238a
2ee9
a6f2
2abe
a49e
2b48
a56d
2c22
2d33
2ed3
ace8
1b98
1cdf
2713
300e
af50
221e
2c91
2d92
2f38
ac8d
2cea
90b6
2ffa
a155
2dd9
a733
3066
2f22
ac71
3114
317e
2812
a571
ab47
b254
a5e6
299a
30d0
b160
2e83
2672
a1fa
ab96
afe7
313c
14c1
2eba
30a4
2866
2449
aec4
2a37
2b28
1c02
28e6
3022
30b6
29e9
2d2c
2db9
af0a
1d75
a719
2849
2200
2b3f
26d1
2d19
ada6
b024
ad45
2dd8
acf7
af91
acd0
2ca9
ad0b
ab27
2d9f
311a
ae65
2dcd
ae10
2e84
23e2
2518
a92b
a934
2ba3
2a42
a54a
2d5e
3015
2947
2bb4
2984
ae1c
2e62
2cb2
28fe
28d7
a466
a9dd
a4a7
19dd
2d93
a3ee
aac4
2bb2
2f01
181a
ac12
a518
2d31
256f
2cd1
8e96
aa8f
aa3b
2cc2
26c9
2bf0
2c63
af82
2903
259d
aab6
2e3b
28cc
2548
3003
a59b
a7f2
121d
2d3a
30d7
2dbb
2bf1
1459
2725
2434
2c9d
260a
2a93
2c6a
a439
a30d
20f9
abc6
2b6d
9311
243c
acba
ae86
2421
a8e0
a402
abef
ac13
a16d
ae0e
ad2a
ade9
a735
2e55
a8c6
aabe
29c3
a4c4
a3af
2a64
276f
29ff
26ef
ad85
ab2d
a8ed
2863
2d3f
270b
a312
a0a8
a5fb
a145
2c53
2057
a845
8c14
b12c
a5be
0c40
2ca2
a890
adac
9dd8
acc8
b24d
b110
a573
2560
2cf8
a8c2
ad38
1617
98e9
2ada
a9b1
29aa
2e65
2940
aeed
acb7
2add
add8
2d65
245e
2da1
1b82
2c05
2c9f
aa99
aa3e
2b1e
a435
ad85
accd
a28b
2a07
2ef2
a5e1
2946
a153
a396
b08f
a492
2834
28ad
9572
adb4
2fca
292e
2cc2
1a32
2fda
21bb
a537
addb
2345
2e03
a9a5
b0f0
2860
aaa8
a9e9
2dd5
a8de
a95b
b200
2cc4
2c63
a698
ae85
b004
2e69
29d8
2b57
2da9
aa5b
2cc2
26ec
27e9
af36
2fb6
a477
9dda
addb
2802
a9ed
ae0f
a903
ace6
2f2d
178d
2811
28f3
2bd4
243a
2b9d
a5c3
2177
adc5
2acc
24e0
2b85
a0b1
aed8
ac0a
a604
2a58
a84b
a541
2c4c
2cdd
2cc7
2d0f
aeaf
2ed1
9d23
2f2f
301e
29d9
3107
a9b3
a9cd
30b8
ae21
ac39
312d
a571
ac58
a95a
aea5
21cf
a94b
2af4
ad3e
9a73
a84f
a468
acfd
3069
2e09
2eb1
a488
ac7b
ad3f
ab8e
2715
25f5
a8aa
2cad
ab7e
a46c
2d74
26fc
9477
a50b
a880
29e5
2df3
29a9
2c3f
aa88
a055
acb4
2ca3
1850
2d59
2178
3081
addd
2a7e
29d1
a83f
20e8
2ed1
3058
a934
25f1
abc0
b042
2ba4
3059
adc1
2df4
aa70
a4db
2c29
2a43
2e48
a2bc
ac62
29fc
2e08
2a27
2e1c
a977
2f92
1643
abbc
aca2
acc5
2d8b
ac78
ade3
295e
2e2a
2923
2aa3
aa4a
2bf0
29e1
278f
ae28
2dd7
288a
2ca7
28b8
2efe
2c37
9a54
2bf1
b0eb
ad69
2c8d
a6b4
28c9
aea1
ac1d
ac55
2dee
2b1f
2b86
2b61
1c62
2f47
abac
aad1
a6e2
3043
1ec5
9dd1
ac91
af9c
2bda
ac13
3082
2b63
2d79
2444
2abf
29ee
3010
2c2b
ae88
1f41
aaec
9ff8
a898
2dd0
27a7
aece
ab00
ae98
2c3e
ad28
3059
ad7e
2f00
261b
ace9
aa00
29b9
2a63
311e
a989
ae76
2de6
ad57
3003
a957
2be5
ad10
2438
b22d
2f47
262e
9a8a
ac78
a84e
272a
289b
26d4
a5cb
b100
2a14
ae52
15e8
2b05
a41f
a9fd
1d93
224d
9590
a7f2
2bb0
a7f7
a633
2d33
b1ea
ad4a
a5db
1219
9cf5
aeb8
a36d
2f4c
ae33
a59e
a8b8
2d8b
b163
aee5
b03e
b057
ad9b
2afc
9fac
2825
2954
a2b7
3062
adc1
acf3
a5f8
a242
2401
b000
319d
aeb0
2c03
1a09
2af7
28c5
2a40
21db
2eac
1ebb
28a5
2d4b
af46
2131
2450
28bb
2c53
af96
b019
2d3d
ade0
ac2b
2af3
28ad
2e36
a289
29e0
203c
2fbb
a75e
a498
a916
9d0c
ac0d
9d55
1815
a8ba
2ac9
aa2e
2c53
b062
aa8b
2694
ace9
a6f9
267b
2bb9
ad0a
18ad
2c30
a470
ad54
2456
b038
a803
ab41
a7e9
afc7
2c24
aa73
27fc
ae05
a63b
aca8
2e00
a9f9
ac9f
294b
abf1
2ff7
ae21
2c09
2111
2b5f
adad
aa73
a4f9
9dda
a024
ad07
30cd
a89a
2e02
251b
af6c
ae83
2e7f
aca3
2e3f
b0bb
ac4d
a97f
268b
1d00
a9ea
ab07
207c
2c4b
2347
afcb
2e30
294d
a9f8
299f
a8f0
9e83
2fb5
b18d
a23c
20ec
a7c9
b0de
adb0
2359
ad78
a886
23ea
3198
abfc
a579
aa2a
3021
ad7c
a85b
23f6
2d5b
2e15
2644
2bcc
2766
2cfa
ac43
a5b0
af61
2f0b
2947
aecc
aab0
2a24
a820
ad9f
2a08
2a20
a845
b37d
aa80
ab9d
26f7
a739
2c92
b1c1
aade
b05b
ae5a
290b
aebc
29bd
2433
a563
3026
2c32
2a3d
2925
2f88
15c0
2d34
a0da
2714
2d42
9de8
91cb
2af6
b05d
a80e
26ad
2daf
2bc2
a9af
2f00
a435
aea8
a76f
ae2d
2f9d
2044
aeb0
2b4d
23e7
2ecb
ada1
a2ec
1ee5
a5ac
2239
ab1f
abd2
264d
2d48
abc3
2a18
2c5f
9e40
aee0
2e77
24e6
2b55
2b27
95c7
ab3d
2c2c
aae8
ad3e
297f
2967
1d3c
2a14
ac1e
ad42
2a03
2e3c
a9e7
a852
2f87
2d5a
aecf
ae94
a999
26df
3099
2adb
af7b
219d
9823
975c
2ab3
a930
ae73
299e
2b52
29df
2c06
2aea
ae57
1c44
1e07
acba
2dbd
2576
2c51
1c09
2eab
a6a9
adb9
ae46
a8fb
aa11
a4e3
9868
b162
2c61
b0de
2985
ad2b
a9ca
ac40
29e5
b376
2a0a
2882
aa72
a8e8
ad21
25f6
aa3d
2770
1384
9f0b
1d52
a8c0
acde
2db7
29ff
ae78
28ee
9998
2a50
ad10
2aa7
a82e
2a36
30c4
acbd
98a2
1f05
b086
2cd4
ac0a
ad70
a9d0
a6c9
ac1f
ab05
a383
aaca
ace3
a717
afae
b034
2ec3
2cd3
16b2
2890
a848
a24d
2c39
9e33
20aa
abfe
29a4
a535
ad35
2ce2
8a54
2763
a8e0
2e62
948f
2695
a79d
adaf
adeb
2cca
20a8
215c
a9c7
acc2
2fd8
2e58
26c4
29a4
b078
20d4
a726
accb
2bd4
a87f
adc8
a8fc
ad07
ae4f
2790
ac2d
a8e8
a9ee
2e91
af10
2cec
adc3
a608
acf9
2c27
9d1f
2add
a7da
21e9
2aed
af53
b067
b007
af98
adc1
26c1
2f08
2add
2e52
2d03
1d23
a2e5
acda
2d88
2ca2
ac82
2c79
9d07
a863
2cbd
15d4
2e25
2d1d
2e42
2d0c
2b10
a4ec
a2a4
af1d
2ce3
af61
1faf
a919
2139
205f
a7a0
28ff
ae54
ac15
2d56
9d7e
25a0
2ea0
2ee6
2e72
a6d4
aa00
b098
2a4b
ad97
b0cb
275b
24e3
b03a
a810
aa63
2ea1
ad50
2c1b
ae9c
2afd
a98b
281a
ae0d
295c
27df
211d
ab79
1fc2
2eac
2805
21c2
2d8a
9fd9
2dcf
2eb6
27c3
2d95
2c31
ac98
adeb
2d46
a2df
2f30
2ab8
ad84
3064
1f87
28eb
a8dd
294b
a8dc
3068
1c4c
2d1f
2d40
2de8
2dde
b056
ad46
af0b
291c
2a88
2c15
a80c
2d42
14b3
2f35
22a7
ace0
2a72
2e45
2475
2486
a868
2507
2ca2
2a9a
2fd2
1938
a986
2f1e
31ff
23e2
2ba9
a82f
24ea
2199
af53
2c91
ae6d
a953
2f63
2f09
ae72
aaa8
2a30
2379
24f0
b0b5
a8f2
297f
ac38
a9ef
aebb
b09e
2d54
a969
a587
a4b4
2ce1
29ae
233f
abde
a922
aa18
ac5c
208d
2a85
238a
2a22
2ec3
ae0a
2580
aba6
a1d5
afb7
9fd9
a980
aa1e
a325
29fd
a93b
269b
2618
3062
2d30
2f3c
adfe
aa4c
29ac
9401
316e
3117
28d6
2b1e
a559
af05
a9a2
ab00
9b7c
2d63
ab2c
2cea
2fdd
a5d9
a639
a528
2dec
1fc9
1e5a
2354
2b0e
a4f2
30c4
aa3b
2ce0
247a
1b6c
0387
2bba
2c40
2e13
2ba0
a182
2017
2aa4
257a
2ecd
28e7
aefb
18a9
a62e
ab7d
2d96
2d1f
9872
a4b8
23b9
2642
a08d
2cfa
b06c
2d23
2d7a
2a5e
20b3
2e76
a95f
addf
a288
2cf6
aad6
2b5c
2c37
2555
2f2a
a5fc
2438
ad8d
1c26
ac8c
ac38
2cca
2ca3
a7eb
2745
2bc0
ac06
1c96
b0d7
a717
adb0
29c4
2962
abfe
26b3
a552
a668
307a
abe6
2c7b
235f
25fc
2ae4
234a
2ef6
a90c
988c
307c
9f90
26a6
2b10
ad1b
b062
30cb
a8b1
9f48
2452
ad5e
a71c
a9c0
a0fd
2c29
b00c
1f6e
ac7f
a73a
2be8
ab84
2e2d
ac70
aa28
b140
a945
b026
aec4
b029
2b15
b0be
b09a
b2a9
2e93
af83
a403
adde
2d90
288e
a694
ab46
aae4
272d
aa06
a145
ab88
ad32
a5ec
abd3
9f89
ad37
2dcb
2c81
b0da
af00
2bfc
a4fc
ac89
228a
a95b
a5f4
25cc
a8b8
2722
af3b
aded
a9cf
ad9d
2cdc
2836
2b70
2ac2
ad9c
a85c
2f03
1c39
acb2
af08
2b03
2860
268a
2ab4
21ff
2ea3
a837
1e99
a64e
29f8
3143
aadb
272d
a827
aa7b
9f40
2dd8
2d31
2d74
ad5c
2e11
2477
298f
2794
af71
a8c3
2998
ad82
a8e4
2906
a987
20db
ad85
308e
22a4
299e
ad84
aee8
aca6
3054
2ab3
aebf
2e1f
26d7
2b9d
2dd4
303a
2dc5
283d
a474
a55d
acbd
ad64
a4f2
2d36
ab15
2839
2755
2ebc
2aa8
aeab
2df4
1b25
a921
2eac
272e
aa90
a780
1ad3
2f93
2cf7
3063
a8d8
abf9
aec4
2112
acd4
2add
2e26
2e15
addf
a551
2a36
2f2a
ac2c
2f64
2c2e
95be
a1bb
2633
96aa
a515
a302
28bc
27ef
ae2f
2fbb
a91b
abf7
2bee
28f3
2218
30ef
23c0
a96e
2dc2
298a
28b8
2d33
1e4e
ac15
2d02
b13f
2f0f
a0f4
2954
2c42
2dee
a8d0
2dd8
a982
ab57
a90a
a5a6
ad17
b03d
acd6
aefa
2a37
254b
a610
ac3a
2343
ac3d
aa61
2be4
aae8
2795
a585
a5e5
aa67
28d4
2c28
9f0e
269c
2ff4
aa2c
28fe
acdb
24f3
a53d
a982
264a
b14b
1fe2
2429
ac3e
236d
29c3
abc3
ab43
ae85
b275
a487
1f5d
ae9e
b146
280e
a26c
a616
3103
2215
b1d3
2d78
2241
1c8a
af07
27de
ad15
2bea
ac52
902f
aa4a
a5e2
3026
a369
305e
9fce
317e
27a7
a551
b060
a535
310e
a279
211b
138c
ad47
a8b7
1c56
2f58
2599
a562
3019
3036
aef4
ac6d
2890
2f75
2d38
2337
29df
2acd
2836
a6d2
258e
2e4e
ac18
2821
2b2b
a906
2b2d
aa8b
2961
a905
26db
b0b1
2b98
2e3b
a132
2a6e
2e5c
2c91
ae8a
2e3d
9824
1c9e
a86e
2c9d
1c4c
ab72
3004
2098
16e6
2886
247c
2ac2
aa48
2612
2dcb
30ae
2cd4
aba3
aa3e
b25c
2523
ad71
29b6
2bb5
2d2c
adf0
ad74
9657
2441
a8f2
ace8
ad27
2e0d
a994
2fd4
2970
ad59
291f
b1dd
20f8
a101
a7ae
1c13
aacc
29d6
2cc8
b3e5
2b9b
2762
289c
ab39
2f4c
2df9
2c24
b160
2c1b
b3f1
2fe3
2c93
2588
ae69
27e6
2722
23ad
a868
a666
2ea2
2911
290f
a495
23d8
2488
a76e
acc2
a936
2d9f
2798
26b0
ac8f
2b8f
ab2d
2c55
a33d
2cee
acc0
92cd
a98e
a8dd
9f29
3034
2ba6
2eca
a85b
3056
2a46
1ba7
a812
3052
b014
a153
3015
2615
2cfd
3033
a0bc
a12b
ac5a
2d07
2e45
aaeb
ae7a
2cc8
a989
a9d8
2ee1
0e21
2c8c
2a15
2b47
af93
2cdd
2469
ab6c
a811
2ac8
aa8c
286a
2fc3
213e
abf5
a4ee
3045
248a
b070
2c68
2886
2d86
28cb
2786
1a37
307a
2f3c
2b3e
1c0f
1fa5
2c19
af85
2734
aec8
25c2
3088
2d4b
b11e
22bb
adf0
2dc2
ace3
28b4
2c88
9c74
29bc
2da5
a8bd
2cd0
b09a
a3c0
2260
27f4
a6d2
2e3c
309b
a21c
af49
2416
2f89
a9d1
9e49
2a58
a322
a745
2564
2673
acb2
b074
aff4
326b
2d70
ab4e
adc6
2d98
29bf
a556
9473
aa6b
ad0b
a962
ab69
b149
2882
2ce6
26b8
28d0
2e28
23d5
2cd7
1a9b
aa63
3057
ab5b
2c2f
ae98
aaaa
b14e
2da9
2e10
3032
2c3d
12fa
aca3
2988
2ef3
99c9
2496
214b
a036
aab1
2b55
aafe
a93e
2e4f
a8df
a907
a838
2867
2411
ad36
a51a
2f4c
b004
2f98
a0e8
ab74
aad2
29ea
28f7
2c43
2923
2c46
2f76
ab09
aa8c
a691
a912
1c0a
9f6c
ae3c
2d2c
2a6c
999c
ad04
afd0
2d34
2abb
28ad
1607
2a1a
2f52
a42a
ad30
a5e8
2574
acd3
ab62
ad39
1667
28d0
ac39
2b1b
2007
a96d
acd3
2726
aa53
ace1
21ea
2a93
ab43
9b20
27c6
9f91
2c33
2529
2e2e
a496
ac1a
afdf
ad6e
1e8d
a6d3
9bad
ac59
a8a6
acb7
2bf2
29ac
acee
aec7
b100
a265
ac9c
ac5f
a532
a8b3
1930
9f85
1960
ae60
31c9
2c9a
2ca8
afde
adc4
28ad
a85f
b02b
a61a
a2be
29f5
ac33
a996
3046
2f56
0e5f
2c00
9e3a
2e91
adec
a005
a081
2a79
acdc
27df
2bd6
2f4e
a723
1e32
a545
2fab
2e15
29fd
2c88
27f2
288b
ad32
accb
ae82
26ce
b081
a289
2fbf
30aa
2ab7
acc4
2c82
2f4f
aace
254c
21bd
a973
2e0d
288b
2999
ae1a
2386
2b0f
ad02
2c0e
adc6
2729
ada1
212b
aa07
a8dc
291b
9769
28a9
2814
a9f5
2c10
28c9
2bd2
271a
2b44
a2ad
ac47
9db7
2f35
1e2e
2ec4
28dd
ab12
2c31
2cde
a848
2036
aed3
2308
a55d
308c
ad08
ade6
2c2d
2c01
ad77
a727
ad04
a76c
2d6f
2b91
29e6
a65c
2303
b09f
2d9d
20e0
2d3b
a851
aa4e
ae73
a281
ac06
ac43
afc9
a760
2c9c
1eeb
aae3
2f64
b1b6
ab47
b112
2a65
299b
2c4f
acdb
2ccc
af9e
26fd
2d28
2f4f
2a91
2c3e
2a16
ab3f
2b46
ac19
ac8e
a95d
aca2
adf5
abc0
2774
9642
2c02
2922
2541
ab00
1d40
285c
a9a5
2d3d
29f7
b05e
ae83
2e02
2b4c
a555
260a
a9e5
2b8d
ac94
ac6f
ac86
2dfc
291a
286a
a434
a57c
acff
ad5e
2cd0
adaa
269f
ad45
b041
aca9
ac58
13b3
208f
2c84
2ded
2cb8
ae07
a9c3
af82
a7d1
adf2
ac9e
ad03
ae2e
3027
ae15
2173
a89c
aba2
b01d
b0a8
27ba
b25f
9f00
b20b
abdb
b005
22fe
ae04
ae6c
acaf
2aec
b1c9
24e0
2c53
2750
b112
26dc
928d
b018
a105
a6e0
2a85
afcd
a9e7
2bd5
1f09
2eaf
ad48
abac
2606
2534
2cae
a829
3047
2fc7
b08b
2856
b0d4
a492
2bb2
ad7a
adf4
2b19
aa27
b040
a64b
ad80
a927
ae35
3054
ad8c
21c0
24bb
afd7
ad07
2d7c
ae14
a45c
2cd5
2eea
2bd0
2bc1
2e23
a704
2d63
3101
2ff2
a89e
af05
ac53
2d8c
30a1
acef
2db2
2b00
2efb
a348
3008
a8f2
2bae
2c8a
25ce
ace1
2d45
20eb
a019
a271
aa6b
2461
2af7
afa4
ac1d
2cce
2967
2edd
2ae1
2f5c
30fc
2b87
b095
2b86
2c31
a192
aced
321d
259d
aecc
a5cd
2da2
294a
30e3
2af6
30b2
ae57
2df5
ab18
2d20
ac94
280d
ad1a
286d
ad6d
ae91
2b3d
ad69
a657
ad62
b041
aad4
b05e
aa17
a986
a94a
2c05
a8a3
251e
2e1e
af2f
b089
b187
a4d3
31b3
2c3a
2497
ae7a
2cb2
a8a4
9de5
b066
291c
aff4
b240
2cc2
297c
2a3c
2988
9ab6
ac9b
a863
2c8b
2aff
3081
2c73
a363
291e
b1d5
aef0
2cf3
abd9
315d
2b82
2ba0
a864
a817
ad41
a956
b181
2b19
aba6
2de6
1def
a924
2911
28a4
aa86
2d47
2b12
2960
b0b5
28b7
a71c
3024
a57c
a9e7
1cad
83b0
ac58
a605
293a
2b4e
ab1a
2ccc
1eb6
2c94
2e17
2e6e
268d
24a5
1f72
2c07
a651
afbb
ad1d
2c1f
21a8
a67e
aa78
24fb
a2e9
29b4
ac4d
ad9f
2676
2ad3
9c5f
2bcf
aa78
acba
ad40
2e8d
adeb
adae
3135
303e
a749
2042
ac14
292d
b145
ac13
30d4
293d
2ada
302a
2ee7
28e7
a219
2a88
ad79
2672
2c30
ae20
2e30
2bb3
a212
2c68
af66
9b55
ab9e
1aa9
adcb
29ad
278e
2389
2332
a3f2
aad5
2f1c
29dd
aac5
274c
ada9
ad1a
283e
26f9
aa88
a838
ac13
274a
ac66
2cff
2f01
20ba
2af6
9dcb
2b53
ac56
aac6
3098
a473
1e0c
28cd
24e0
2f37
28b9
2d73
a421
2a3c
a727
2610
a509
25dd
996a
2adc
a6ae
2eea
9b45
aaf4
2dfa
a8b4
24ef
2f92
a55c
aca4
2cf0
24d4
ac4b
2f5d
ae8a
283b
2da5
ac45
ab1d
2a4b
ad88
2e55
2a58
ae37
2efb
20d1
2fbe
ae58
2e36
2d93
25dc
2694
acab
ac42
2f36
2cd0
2a8e
28d8
2d76
ac36
9e5a
a8d8
2e3b
234d
2ac5
2c75
a9c4
2e68
adc2
aa45
acfa
2a8e
1dd3
ab6f
ae8d
301c
ae63
ad0a
2e1d
a79f
2434
2634
2c20
2b51
212d
2c1a
aa23
25e7
b01a
2847
26f9
2a63
aa65
acd3
29a2
30d1
2a40
2992
ac4a
ad84
2e43
abc0
2e7c
b045
25d0
aaa1
ac67
a852
9a35
98c3
b02e
ab4b
b033
317b
2c7c
a86d
26f2
2437
a960
af48
af76
23f3
a963
aea1
ad7e
af14
2a52
ae95
a7c3
2b6a
ab26
ab71
b015
23f3
2c47
2a30
2af2
aee5
2c07
a977
add3
31e3
1a5b
af85
9ad2
b016
a440
b039
ae55
30f0
ac67
2e41
29bb
af76
1440
260b
ade8
2de4
28ed
afc1
b136
2d9a
ab4b
ac2b
b0a6
aa2e
a582
2310
a97f
a8fc
3036
ace1
a4ed
af06
2c99
acd8
2ec6
ac2b
afaa
b00d
a399
ab51
a4ab
ac11
2c63
2cf9
26b5
a6fa
abc3
29d7
3116
28e9
a5c0
ae74
ae66
2c13
a647
30b7
29d9
a9ca
2a26
26ff
a5c5
3081
af29
acbd
2f3b
a52d
afc7
2c8c
ae29
a142
aeb7
30a2
2845
266e
aa15
2ce3
aa4b
2711
ac46
ab76
1d86
2c29
3005
2bf2
98ab
aa30
2e10
2eb6
2d0d
acb8
2ce1
ac31
a5ed
a74b
1d0a
aa35
2cc6
2e88
ac4d
2908
2658
9f77
2d0d
2854
2daf
ad45
a834
ab03
2c64
ae20
ab19
acae
aa79
2b9a
2a04
2f44
2d9e
259f
2253
2edf
2726
ad45
2aa9
2e99
aac1
acc6
2585
2d19
a8ea
a826
2aa3
abbc
3036
3039
2c45
a386
2c30
2ba0
2a00
ac36
2e59
a365
2ee9
2e1e
2477
ab51
25c7
a4fa
ad88
1ed1
246a
ae09
2197
aa57
abd5
a904
2d96
2d1b
2c18
aa4e
2dfb
9af8
a823
ae8b
2ad0
ad27
acba
2c84
a1b8
2ca5
acae
27eb
ac56
240d
2e5a
aeca
a55f
a00e
aeea
2367
2c0c
ad2d
adec
aa85
2e14
a558
20d7
a1cb
a7d7
2e06
adbc
a4e6
a629
2999
ade8
97f4
ade3
ad62
a2ab
2af7
af9a
a0a1
ae3c
a888
9d03
2df0
2eec
2bdb
acf8
aee4
28a9
ad67
2f14
a804
ac35
1ce7
2d0f
2bb7
23c3
2c9b
2ebb
ac9d
2f93
2bec
240c
24f3
2992
214a
ac98
a973
2e8a
a6b3
accb
2e02
29aa
aa04
2463
ac56
277d
2fa3
ab4e
a7dc
b006
a9af
299d
b071
a80d
2c95
aac7
1e2b
a5c5
2e17
a942
2619
a92d
2afb
29fe
a801
28c6
ac7f
a09a
2d8c
2f06
2d12
299f
aac8
289b
2cc0
adce
27d6
acf0
2909
1dd9
19af
aae5
2b36
acc6
21f8
1f91
2798
a7d5
a054
ac95
2505
2bdc
a7ad
30ff
ac52
2c68
2c2e
2c92
ad3b
9c94
ad12
a5cb
a71b
a90f
aa02
2ea4
ac89
a8f7
2dae
2f6d
aa59
14ad
2f50
2ca0
ae84
b0a2
2c66
a9e7
2e90
2c8b
2e18
992a
2aed
a7b2
2a41
aa05
a940
2cea
2915
ae34
2b55
2cdc
aba4
a8a1
a547
a893
2d96
acc8
283b
26c8
2fa6
a1f9
259f
a801
2f47
287c
ad71
ab14
10c5
a0f4
a92d
a956
2ddf
ac39
a568
2c54
2a09
a858
2b5d
ac25
a5f0
a169
2c2f
1ffb
2c2a
ab3c
1f98
ad47
a881
2d5f
248d
9e70
266d
2a1a
1a9e
24dc
a393
a84f
2bf8
2c9a
2c07
28e6
1b2e
adc0
23fd
2c08
2e6f
2d39
ae46
a951
2674
9b07
8db1
a5b5
ab91
2be2
a873
3098
a76a
28e6
aa26
3166
ac5b
ae0b
ab9f
89f0
2d85
a561
1ed1
abc0
a7d3
2ef3
a65f
a7ea
2e62
a99e
2c89
2ead
3148
24fb
abd6
3012
b0f1
a637
2b08
3071
a221
22bc
20b1
2afb
29ed
2f3a
ae60
2a2c
2084
30f2
2fc3
ad54
3024
aca2
229c
af1d
2a58
ade9
b032
ae10
2eaa
2f32
3036
2196
2b40
2d34
2c22
301e
acb2
ab27
ab61
2df9
282b
2ff9
27f8
2f4d
abd6
ae05
22c8
1ede
3070
adb4
295c
27d1
ac6a
285f
2d51
b2fb
2e6f
aaed
a6f6
a725
21b5
29fb
a28a
a9eb
a984
26d8
20cc
a039
a8a1
acfa
2465
1f91
a445
20d9
a895
a99c
aa4f
25cd
acd9
2c69
3137
ad35
aec4
26f2
a964
2c29
2d14
2f39
b118
aedf
3038
a2e7
2c24
a909
a405
2270
ae4e
2c7a
2704
1c7b
9d3e
3040
0dcf
a42b
a1d6
2c4e
a764
b156
aa45
a66d
a35f
2996
acb6
ac58
a534
25a1
2c74
2c1a
acb3
2b0f
307a
aebb
a95a
2df9
ae90
2ea4
a940
aa81
1c11
2c0e
2ada
a669
ae65
af5c
ae13
25f0
2840
a61f
a943
acce
2229
ae6f
aed9
a19f
a1c7
2d16
2535
2185
20ff
a4b6
2723
2d66
aa3a
2571
3030
ad6e
a42f
2cf9
ac09
2c60
ad71
aa52
a9b2
a1b5
abb2
2875
ad8f
afbe
265e
922d
2d6a
240b
26ee
acd1
abea
1a1b
2581
aefe
2af7
29e3
acd3
2a43
2f75
ac7c
305a
ae71
2e69
2692
295b
2c8f
2e3b
23dd
2e97
2444
a060
2efe
1f4b
aa40
28a6
2ae9
2def
1df5
ac2f
ac47
aa67
1eab
abc1
aca7
a475
2c03
ac90
24bf
298d
a79e
ada8
2b49
b12e
b003
2d02
aef5
ac2a
29ec
286d
2963
acd2
2b50
ad35
2991
2fca
aceb
ae67
ac6b
27cb
b018
a448
28d8
20d9
aa04
2d46
ac17
