// har_1dcnn Model Weights — FPGA .mem export
// Total parameters: 389

// kernel  shape=(19x1x12)  count=228
3c328260
bd9c283c
be19df73
3e6ea40b
be498fa1
bdc67a78
3bddc0fd
3e4f2687
bd2a9052
be99cbe9
bcccbded
bdee017f
3d89b2e0
3e2aff6a
be695703
be0eb2b3
bdcefe0d
3d9951ae
3c9e21d0
3e816bbc
bdbfcdf7
3d1f45dc
3d608f98
3dd1196d
bd32bb57
bc4d2ac6
3d393be8
3ca5ffe5
3d60aa13
bcdb355c
3d75d3a8
bc8a09b0
3dd8edd3
bdb3fbc8
bd25274d
bd4d4b6f
bec0de67
beb8e4bc
bdbdf216
3c8782eb
bd8e3169
3e531133
3dfb8243
bec45b2e
3e4a0721
3c39865a
3d84d2d2
3e994fd5
be2e049b
bee86baa
3d9943ad
bd8e6726
beb83abb
3e4faf0b
3dfa0a4c
beaf2eca
3e48c419
be6275d9
bc55760d
3eb82d15
be816339
be65984a
bd915592
bd5fb82d
be21cbc4
3d143bab
3e50811b
be5aa8bb
3e329a31
bac242f1
3d40bea7
3e3770a6
3f5a9ed0
3f4727d7
3d28372e
3e626c3c
bf156f6f
3dd8879e
3e42c23c
bf4fe84b
3e81fddf
bf1f4d77
3eca3981
3e02b806
beb17f18
3d216518
bf77d0db
bf80d6d2
3f7612df
be2bc4dd
bde8c766
3e8b2a5e
be81ca01
3f39b2e3
3e75ec50
bec557ef
3dc3b6f7
bd9723b2
3e3c14f4
be0a5bd2
3e49b839
3d94083c
bdbc6a39
3e5088cf
be8ccadf
3c22d0dc
3e0b7e98
bdb955de
3e12c017
bda58322
3d62ae0f
bb52ed2d
3e9b4236
bd634776
bcb176df
bdf3be6f
bdc98a2a
3dd493e6
3cba2759
bcefcf79
3dc9a358
3d8aadae
bd692a64
be257de1
3d8d54cb
be242e48
bd7f1481
bd65e637
3d4d1b36
3de30438
bd829605
bd9455bd
3e012266
3dee6558
3e4263f0
bd520d51
3d5e9cd8
bdb3cbe4
be74196e
3de134ef
bcf4a220
3d8794fd
bd474bf5
be41b2ad
be5a4ca5
be6f3c31
bd926490
bd26b466
be9ec49f
3e86c0b7
3e9cfc75
bea9438b
3e02719c
bdb0aa5d
3cde7f0a
3da6d073
bea8934b
beaee998
be148464
3d5b2aa9
bdacabdc
3e4a7da4
bc70381c
be5f0e99
3d8c1f3a
3df70042
3ccbc4b4
3bb90ed0
bd9f23f1
be46140f
be66016a
bdd8c3fc
bde91f69
3d8daa39
3e52782d
bda7a70b
3dcfb5e1
bd4ca7a7
be2c7548
3ead6366
bea0172f
be9696a8
3d1c5ede
3c4bbdeb
bde5d24a
3de4883e
3e7e11a7
beb6fc92
3d4ba23c
be2353ff
bd7ba92d
3c62234a
be65e5e2
be5a6bf9
bd2a8d9c
bd9b807a
bdf80942
3e67c05a
3c5823e3
be846f34
3e47def9
bdeb7d4b
bd50d5d8
3e5e807b
bdb8da6d
be41ad5e
bd153220
be1eb9c0
bea05edd
3e6e5075
3d581693
be922a20
bcb82c60
be727e6a
bdcce08a
3df79ea5
be65aaab
bedfae75
be1054b6
3d8432e3
becb28c4
3e6370df
3e0d6853
be499e08
3dc11751
be8138b0
bd83a81a
3da77129

// bias  shape=(12)  count=12
3e999664
3e829c8e
3bfb144d
3e9f7a3c
3e8dc94a
3e8d7092
3e6e4b34
3e8b0aa1
3e87fb8c
3c4da304
bd7d0020
3e9e44d4

// kernel  shape=(1x12x8)  count=96
3e24e88a
bf880ad5
3eea0974
3dccd6d3
3e9ba649
3e929077
3f7064d5
be94c85f
bde29735
bf87c055
bf0432c2
3f63cb39
3da601be
be3b2712
3f3b63d4
3e875479
bed0cd3a
3f377a54
3ea99db3
beaafd57
beefcba1
3b1485f8
3f6b70b3
bec175af
3e5140cc
3f686285
3f1f4918
be32326d
3e882823
be312cdb
3f609f10
3f378f84
3ec95bcc
3ec52623
be0842ab
3f871f5d
bea000d3
beff3645
befbb48f
3d0ee450
3ebee750
3e97ec4f
3edf3931
beb89bf5
3f1e21d7
be6ef0d0
3d46e646
3e70ac9b
3e9603d3
be2e538d
3f33b414
bf0bcd50
3f5c29f2
3d3f9731
be0ee2ec
be527f63
bee15bc7
3f5a83a8
becfdcc2
3f39773e
be9eac72
bf013b22
3e5cd9a2
bed8431d
3ef33c8d
be9f76ba
3efbb00b
3eb6483b
3f0834cb
beebaf49
bce441af
3ef70b60
bf201195
3f01991b
be66be21
3f25bdfc
3e1ca758
bed4b05d
bf868724
3b9f55e6
bd429596
bf4b561e
be903fd0
be2b1f75
bf027043
3ee59a99
be374cbd
3e940579
3bf00c0b
bd325ae1
3f361c29
be36eb52
3f79ec19
3e2a972d
3e1ab73a
3f0a18c3

// bias  shape=(8)  count=8
3e1f02e3
bd388634
3e24b06e
3e63180f
3e271b8a
bd44d9a9
bd520a23
3e296dc4

// kernel  shape=(8x5)  count=40
3f0b3b5f
bef8297f
bf739484
bdd6a4d3
be71ae98
bed6b809
bfbb24e1
beede239
3f95a86f
3de66db1
3f4bdfcb
bea91cbe
bf4a7bd9
bf47bd8f
bf285960
bf34a742
3f89e81a
bd9212e1
3eb20977
be90a5fc
3e8c3b0a
be37af90
bf23ec26
bece1562
becd3c01
3e685525
3ea92db3
3d00998f
3e3e4e0e
3f21824e
beb41604
be985ade
3f75bdad
bf309af0
bee3a924
3f263488
bcac9d97
bee2a724
bee4f954
3ea4852f

// bias  shape=(5)  count=5
3dde0e62
3e91710e
bd9cc9b0
be31e224
be388799
