// HAR 1D-CNN Model Weights Ś FPGA .mem export
// Total parameters: 305

// kernel  shape=(19x1x12)  count=228
3dd05f49
3d77ddc6
be48b8e2
be97225b
bd957ec1
3e545c83
bd96109e
bd494f79
3de5a206
bdb03112
3d78b2da
be19e6ff
bbf181d3
3dff42a4
3dcb08b6
3c2428a3
3d5d0fc4
bd8500a6
3de80af2
3e114cb6
bd51e794
3dec4b18
bc22d175
3eba5be7
3d994ad3
3dc584b9
3ddfe923
bdb90cce
3b2de0dc
3d8d68d7
38005488
be1b30d3
bc494bb4
3c8a6fa7
3d7871a7
3dfddcfd
3dc4e431
bef9a24d
3e05594f
be3f2313
3de2c7ff
3e018d01
be29e21a
3e2689c3
be73d7f8
be583c4b
3d34f7e3
be60046a
3e584875
be819765
3ea26410
bd56fdf5
3dab8f45
3e64c8cd
bdd78c6e
3e7b5af9
3a9a526a
beb171f2
bdb1facc
bccf0b55
3e37dd63
bf090833
3ec199b9
bdac90ca
3e75d786
3eae4e24
be3b3bbc
3e94873f
be1e6628
be9870d1
3e20becd
bbefc71d
3e7a1820
3f0dca7b
3ea7fe45
bf338391
3e4fe317
3ee19924
bf3cb78e
3ea51cd2
bf4b4dea
3f81ac6e
bf2542be
bed42ecd
be267c25
bf1b9242
bebfe2f0
3f4a6146
be3b05d1
becea9fe
3f9085c8
beb6f9bc
bf4bf181
3eeabf86
3eeb1b34
3f0ef147
bcf121eb
bde35d25
bc0ab051
3e4c134d
bd8a36d0
bdfae516
be9f4206
3d824719
be223bcb
3e08c55f
3e34ba71
3d816299
be387250
bcd0fe71
be2f9242
3ea467ca
bddc8644
3de4f32b
be2f678f
be128f6e
3d0decca
3d95d9e5
3d272012
3e3036b6
be42ac93
3daccefb
bc056137
3dacb832
be2ae301
be27838a
3def07a9
3d658cf3
bdb118ed
3e179ed4
bd4a0235
be8501b8
be00f46b
3d34831d
be07b12e
3c9ea8b3
be0e9897
bd3d61b6
3c5e5942
be240b91
bcf86855
3da22341
bc9f115e
be656af6
3e9ea5b9
bea9709b
3e0c7f28
be16c10a
3ea23d15
3e66a80d
be509864
3dff7e8a
be08d17c
be4178eb
3d9d04a4
be729cbd
3e47ae3e
be97310a
3e0d9ec4
bdf6c586
3e87f1c6
3e1ea9db
be233b30
3dc20e9c
bd52e0b5
bde8e47e
3d53009b
be16b172
3d8d8f16
bef3d7ff
3e86a5c6
bbcc747d
3dd3b1dd
3eb80bdc
3b900842
3eb9ab6c
be08c104
be42c54d
3e10d4ba
bdaf37d5
3e083eec
bed34b68
3dd1f1bb
be2d8756
3e7d4bd1
3e0e84bc
bd20bee6
3e6eac39
3ccc8f87
be63eb69
3dee99c5
bc896d7e
3e8bd118
beb3db89
3e958164
bd07f7de
3e08eef0
3e571b5d
be485874
3e92a9aa
bdadb5d2
be8937a0
3d8387f6
be37efb6
3cc10de3
bea72e43
3eb1525f
be85a455
3e457373
3e47810a
bdc9dec7
3d01395d
bd4a196e
beb8ce8e
3d03445f
bc9bba45
3e48d186
bec4267b
3e8b79e8
bda6f8eb
3e42e9a1
3d4e1266
be898d5e
3e041609
be153207
be955b9f
bd872f7d
be8945d5

// bias  shape=(12)  count=12
3e838be4
3eaae820
3ece4de6
3d77b725
3e9a7e9d
3eacf888
3d0fd132
3eb28803
3dc01f99
3e1c454a
bdd911b6
3c982617

// kernel  shape=(12x5)  count=60
3f53d756
bf2dce5f
bd0b1978
bee3155a
be0da4f8
bf608d31
3e9e1c55
3f8ccdc1
bf3612ab
bf23ca0b
3f40b516
be9ed827
bf75e66e
bd81054f
be114dec
bf2bd322
3f371218
bfb25183
3f86ea9b
bc002eb4
3f5d1dbf
beb065a7
3ddd587b
bc018868
3e5c18b1
3f2af36a
3e4b9c59
bf1e7992
bf618633
bf0aa362
bee78603
3d9736de
bff61a89
3f16dd26
bd84bf17
3f2c5298
bf26a85d
3e04e8bc
beddaac7
be2b33db
be451200
bf2dd6c0
3f1d97fc
3f9f8ac6
3d85ca82
bea9b66c
3f4ad8fd
3e79abdf
bf9585b1
bea70b24
be2524fb
bfad14e1
be916a30
3f7c423b
3dd536f3
bf4ecbe6
3ef072fe
beeabdc4
3f413895
bf12cfd6

// bias  shape=(5)  count=5
3e4e7571
3c80c354
3e757835
be3f3bf4
be7b4d1c
