// HAR Model  INT8 quantized weights (symmetric)

// dense_1/kernel  shape=(19x64)  count=1216  scale=6.1055830145e-03
05
08
f4
f9
0a
1b
d7
de
2e
0c
e0
22
30
1f
d5
fa
e1
15
f1
06
e4
fe
19
fd
eb
e0
14
03
f1
37
05
02
ed
0c
04
07
0d
0c
21
15
0f
09
15
0b
01
0e
e1
fb
13
fa
eb
20
0a
fd
f5
d7
fd
14
17
11
0c
de
fa
fd
01
fc
06
09
e6
16
dc
ff
dd
08
ed
0c
de
18
fb
03
db
1f
f3
fb
02
22
f5
f3
0d
0f
f6
08
f8
fd
ec
11
0f
fa
ea
df
04
10
11
ff
ff
19
fb
20
0c
0f
10
16
17
09
f7
ec
19
29
0b
e4
c6
df
fc
02
09
ee
02
e5
16
d2
f4
f9
00
f9
eb
f6
0b
ff
fe
12
18
c7
fb
11
0f
fb
23
14
06
09
fc
1d
ee
00
06
11
ec
0d
f9
0c
ea
e8
17
e0
0e
01
17
12
09
1d
20
28
0d
17
f9
1e
00
04
15
10
eb
f2
06
e6
2c
13
16
fb
00
1d
08
1b
ef
ed
d5
0c
04
f8
3e
1c
f4
14
e0
e5
e1
e7
24
40
2f
fa
08
15
04
d7
1a
df
49
e3
0c
2b
2d
ed
01
fd
f8
27
0f
2b
3a
de
0c
ff
16
23
e8
04
38
ff
34
f8
4d
d7
18
0b
e7
0c
3e
f1
14
04
39
0a
32
27
0f
1b
f0
23
eb
eb
07
f3
1c
e0
e1
04
eb
25
1a
1f
fb
3e
ed
fb
f0
06
fe
e6
14
de
37
d7
31
23
09
2a
36
e3
f3
e5
e7
17
44
e3
1d
30
17
06
de
16
27
01
26
f3
0b
e6
0c
fb
f4
f1
02
f6
e8
d9
0e
e3
26
00
18
35
f2
1f
df
1d
00
1f
16
f3
05
2a
19
fb
2c
18
23
1d
03
01
19
25
fa
22
e1
f2
1a
fc
dd
00
f6
00
e5
df
ef
f7
12
ea
2e
38
1c
f7
cf
1d
e6
34
06
0c
19
13
3a
22
f0
33
e2
eb
17
d6
fa
0f
24
fc
11
16
e6
fc
1f
a8
5d
39
f2
32
2b
c6
1a
40
f5
af
df
44
02
4b
23
bb
98
31
d7
28
21
2e
39
ff
32
a5
f7
2f
1e
5a
97
0d
1e
38
23
e9
9c
16
88
9f
4d
b6
4a
31
ee
2a
3f
57
47
37
b6
1c
35
3b
b1
81
22
c4
03
f9
fb
9f
9d
00
01
a7
84
c2
f9
68
d6
6a
91
16
24
98
cd
dc
0c
01
f3
03
71
13
83
ce
c4
55
99
25
e4
8f
f4
1b
fa
08
e9
01
e9
66
e3
b6
03
18
ff
55
f5
07
cd
e4
b0
13
0d
ce
29
15
07
e7
f5
03
e5
eb
c5
e3
54
28
fe
ea
1d
e1
05
14
1d
06
df
f2
01
f6
c1
10
1c
d8
0b
38
01
0a
f2
08
fd
cb
02
fd
0e
dd
14
0d
da
1a
f9
ff
e5
d8
29
fb
04
de
f9
ee
fc
4e
f8
06
cb
ff
10
01
fe
fc
fc
fa
dd
01
f9
fa
de
26
de
f0
44
f3
05
04
01
f2
03
e1
00
f8
22
1b
e7
f7
f0
d7
1b
09
27
01
f7
fc
ee
fa
f8
d7
d9
1c
e5
21
1e
f2
e7
f0
07
ef
14
0f
1c
04
04
04
0e
03
0d
0e
e3
ed
0a
18
db
05
13
0c
ed
f5
f9
df
12
0d
e2
ec
d8
24
1e
14
17
14
fa
16
00
0e
f8
1a
01
1e
fa
db
00
fe
01
ee
f3
c9
2b
e1
21
fe
e9
20
08
22
ef
e0
fa
17
e1
19
fb
fc
15
10
eb
f4
d2
12
04
f6
25
d2
0e
17
f8
0e
f3
e5
10
01
0f
0f
03
d6
ed
13
18
0b
1c
fa
fc
db
fb
e1
ee
e9
00
18
0e
09
1a
ee
1a
16
cc
df
dd
e5
df
0d
e1
f3
00
07
26
fd
da
ef
16
ea
f6
d7
0d
24
ec
ed
04
0c
19
0a
15
d7
0e
e6
f1
e5
ec
2d
e2
e7
ed
21
d9
cc
08
0f
ea
de
06
0b
da
09
ec
d3
e7
f6
07
11
fa
e7
21
f8
2b
f6
15
e3
f8
f8
dd
e0
02
f7
27
08
0d
21
ff
d9
28
e8
25
06
d9
2b
34
d7
20
19
19
0f
12
e4
f7
05
e4
f2
0a
fb
fd
e1
3b
dd
f9
e3
23
f1
e9
2e
12
10
28
00
f5
21
15
0b
40
da
ff
2a
f1
05
e3
0d
d8
27
1c
fd
e0
19
0e
2a
01
04
0d
02
07
f1
f9
17
df
1e
ed
23
f6
07
0c
fe
ef
06
29
de
1e
09
12
1b
1b
e0
d7
15
ec
f4
fd
20
32
df
0f
ed
11
db
e2
ed
f8
fc
13
23
e8
14
25
e6
ed
fe
e5
24
e6
ea
28
de
f6
0a
3a
ee
e9
ec
f3
21
e2
25
10
48
f0
e1
fe
e6
f0
d8
f4
1a
1c
eb
2c
f5
40
1f
16
fa
12
ec
f4
33
3a
fd
33
e0
21
34
d3
e2
21
e6
19
d0
05
06
d3
39
ff
d9
0d
eb
12
12
33
2c
40
02
22
1f
00
f7
e8
1e
e7
ed
ff
14
02
e7
e4
e7
22
12
14
e5
26
e2
fa
f6
e8
1a
dd
0f
25
15
03
d7
21
1a
0e
fe
2a
21
15
0c
25
0b
e1
f8
0c
f3
11
de
f4
1c
f2
e5
2f
dc
f6
ff
e4
08
0a
13
12
05
2c
07
23
01
f1
15
19
08
e8
2a
20
25
f2
01
eb
d5
17
10
30
19
e5
23
2d
1a
e6
42
19
16
e7
1e
0d
14
fe
33
05
fe
1c
db
e5
f7
ec
27
10
f4
25
ef
0f
20
d3
e0
0a
df
33
dc
f3
00
e0
34
27
16
13
d7
20
ec
29
35
18
14
de
e9
22
e7
05
e3
10
0e
f1
d3
eb
ec
18
01
03
14
24
19
ec
fe
17
06
e0
de
30
d5
0d
e3
ef
18
fe
fb
3c
26
ee
f7
f1
0d
e8
f9
31
e1
17
00
21
ed
2f
f1
0d
0a
01
e0
2a
ea
01
e2
0a
0f
27
02
27
0f
46
f6
ea
e5
35
f6
fd
22
28
0b
ee
d4
0b
04
18
2a
e5
fc
2b
37
28
1d
14
35
03
1e
18
fd
37
03
15
e1
1f
2a
40
ef
14
e3
27
df
2f
d3
ed
27
16
1b
d3
f5
1a
fb
e7
0c
41
00
e2
25
04
fd
10
d7
da
1c
3e
f6
01
2b
12
0d

// dense_1/bias  shape=(64)  count=64  scale=1.9876489958e-03
e8
cc
dc
57
65
37
5b
f3
db
d4
04
2b
3b
6d
4a
76
45
ef
cc
2e
04
ea
e7
ed
74
dc
12
0f
62
43
46
d6
e3
e7
f4
0f
2c
e7
47
f2
d5
3f
fa
e8
7f
e4
40
f4
67
dc
f4
71
17
d6
1d
f6
e8
bb
7a
de
53
c0
f9
fd

// dense_2/kernel  shape=(64x32)  count=2048  scale=4.4639730078e-03
13
f9
f1
c5
2d
ce
16
13
f4
41
07
11
06
2c
0f
fb
ca
e7
19
ee
31
26
d6
ab
12
f0
53
dd
1c
1f
cf
c8
48
c3
2f
d4
14
07
cf
13
22
ee
2f
c5
d4
1c
d2
0d
35
e4
e9
47
f8
ce
d4
d6
d4
32
30
f2
d9
d8
1c
51
d7
cd
03
ed
d0
b8
f7
fe
dd
07
ba
2f
3c
ce
00
d3
01
e4
f5
16
f4
29
11
f9
ff
c7
04
1c
f7
1b
f3
ca
eb
07
fd
d7
db
2c
3d
2d
dd
22
02
16
12
27
13
fc
ba
19
0c
be
3d
2f
c5
01
44
13
1b
dc
d8
12
fb
e3
2a
10
e8
fe
be
57
1f
00
51
42
e9
15
e8
33
58
20
3d
0e
70
f4
0f
11
a8
cc
23
08
33
cd
17
bd
ff
11
f6
0d
fb
18
db
fa
02
0a
bf
2d
fe
35
e9
0e
20
18
eb
e5
fd
f8
f7
cd
e9
d7
c1
bf
ef
ef
12
08
18
d1
09
1a
05
f5
f5
f4
14
c8
15
f5
00
20
c6
21
ff
18
ef
ea
cf
1d
29
04
ee
e2
d1
08
af
1f
ed
f7
23
1f
24
07
57
00
e9
ec
ca
d7
38
bc
eb
f5
1b
18
b0
e9
50
da
d0
43
fd
22
1c
ff
f6
0e
86
3b
ff
00
11
05
d9
bd
02
f7
03
f2
dc
0f
07
d8
0e
eb
2c
c3
10
dc
20
cc
25
df
d0
30
0a
e9
fc
f6
04
f6
b9
28
ff
fd
eb
c1
2c
1e
2b
fa
cc
17
c0
0f
f7
cd
ec
c6
b5
13
d2
1a
c3
07
d2
eb
54
52
d1
d4
b8
1a
e9
26
f7
dc
34
f1
eb
27
08
03
2e
1b
13
18
02
1c
ea
1d
3e
dd
0d
25
4d
d5
e0
ec
f0
a3
3a
36
3e
2d
17
19
bc
28
2a
1e
29
fd
03
3a
37
d3
32
f2
14
f7
ba
23
ec
4e
6c
35
e7
ed
e2
d1
a2
0f
08
3e
c3
e7
08
10
23
39
1f
22
53
c2
21
17
d3
d6
1b
f4
19
28
ad
fa
c1
23
29
48
ea
e2
1a
cd
e8
f6
f9
1a
94
ca
cc
cd
fb
47
0e
45
b2
e0
f5
33
ff
21
ed
34
dd
0d
f1
4b
4b
4e
03
44
10
d4
48
17
b8
af
0c
2c
28
e7
10
e9
e0
f0
15
0c
10
03
f7
15
0e
bd
fd
10
f1
ea
e0
13
fd
07
d7
ea
fc
f6
3d
ca
30
15
fb
11
b7
c3
da
d8
07
25
cb
67
f6
f8
fd
38
4c
e2
f2
35
d4
4b
d0
33
33
16
c5
5a
fc
14
35
e0
cc
09
de
15
05
dd
df
08
18
0f
0c
0b
30
10
d1
f6
1a
c8
ed
01
0f
1f
e2
09
0f
11
24
2c
b7
de
ec
f3
01
e4
00
04
ef
38
0c
e7
d1
1a
13
11
4d
31
bf
06
13
ff
15
df
2f
b8
f9
1a
b8
0e
27
e7
b7
5a
10
fb
24
f6
f0
00
b2
0c
f7
04
57
f9
32
ed
14
c9
cd
3e
fa
0e
22
d6
17
ce
17
d6
ea
30
49
02
d4
0f
e2
de
e2
bb
e0
2c
02
1a
c9
e2
1f
29
fe
40
0f
da
ed
05
ff
0b
03
33
d0
23
df
11
1f
1c
ff
44
fe
f0
0d
ef
ee
21
2f
10
0b
db
fa
e9
20
d9
ed
b4
51
0a
11
e8
c6
19
37
ae
ee
da
05
f9
a1
27
fe
21
81
61
cc
0b
36
50
17
fe
c1
f3
16
f8
62
1e
dc
de
fc
d9
0f
db
ed
30
c5
16
1c
09
45
1b
0e
d5
14
d5
ff
e5
d0
34
36
12
f9
bf
e8
e3
0a
2e
26
27
d2
1c
b9
23
26
e2
24
45
f2
5f
15
21
12
31
54
30
f9
07
4d
b4
f3
fa
bf
c3
27
29
57
25
f6
3b
b2
09
d4
de
ff
ee
3a
da
16
fa
ea
ee
fe
dd
e3
0c
fe
ec
ec
f0
f8
ce
11
16
d0
0a
47
d4
24
d9
e0
33
fd
c1
ee
0f
b4
05
e2
4a
13
b8
cf
12
d8
13
05
5a
21
11
e8
4d
c4
ec
4d
d8
c5
db
e8
04
d9
e7
d8
0a
37
c9
14
d3
26
31
15
f6
0b
1c
da
c5
25
d9
2e
fd
c1
f6
fb
e2
ce
39
c6
fb
27
31
b5
18
fa
29
cb
e3
21
e1
d9
3b
ee
08
34
31
2d
11
18
14
11
35
22
2a
38
e3
d2
df
4b
cc
30
1c
b1
cc
46
1a
4d
f8
ef
34
e6
0f
4e
d7
26
ff
c2
5b
0d
f4
4d
18
63
ef
b5
35
1b
5b
3b
40
2f
eb
ed
c1
cb
d3
0c
2b
00
20
31
d3
29
24
06
43
fe
cf
cd
0f
1c
04
d2
05
14
38
c8
f1
fe
d7
13
39
be
34
fb
e5
cf
f0
f0
37
ee
f2
24
d6
e1
1f
0f
26
de
ec
13
11
08
3b
db
1a
04
47
09
04
12
fe
0b
2f
2c
aa
11
12
d2
c3
2a
0c
39
f8
ea
e1
c6
23
d7
04
25
29
ce
01
3d
ec
25
24
d3
10
cb
35
00
32
17
0c
03
e0
34
13
d3
dc
2d
ee
dd
fd
f9
f9
18
05
c1
ff
0b
12
e9
de
f4
05
d2
f6
bf
0a
3a
fa
f0
de
10
d8
f6
19
1a
21
30
1a
27
bf
07
ec
1d
f5
d2
ba
0e
e2
f2
db
f3
4a
34
ce
1a
d5
48
db
de
f9
04
18
49
e2
18
1e
e2
fe
e8
d3
06
32
f9
0b
e4
cf
fa
60
d5
db
26
c7
f0
1d
01
2b
ec
ea
1a
1e
33
e9
07
07
d3
fc
0f
34
f0
15
ea
ff
36
f2
18
2a
29
1e
f0
e8
e0
f4
0c
1d
33
d1
1b
f3
dd
2c
35
29
13
da
11
ed
d9
25
de
18
16
fe
d3
23
05
d9
0c
2f
d2
17
1f
30
ec
e9
2b
e2
28
e9
21
d9
03
24
eb
ec
10
14
d1
00
ea
04
d1
f4
fb
df
0f
d0
d6
ff
db
01
e6
21
3a
d3
f2
e3
09
00
d1
2f
fa
ca
0a
fc
fa
fb
10
0d
f6
c6
c3
1c
e6
cf
06
d7
e6
fb
02
1f
b2
cd
ea
24
26
e3
29
17
03
1d
07
f9
aa
f1
02
f2
eb
c5
f6
e8
c8
34
1e
df
e6
44
d9
13
36
1a
c7
f2
bb
3a
cd
06
39
fa
4d
2e
13
15
14
39
30
21
2c
03
4b
26
bf
31
02
2c
39
34
34
16
08
b0
be
d6
1f
56
21
e3
d0
bf
04
3e
e6
fb
e8
17
f1
01
25
fd
1b
0f
cf
fa
3e
0f
14
de
da
0b
1d
b4
e5
2f
c5
e4
19
e4
08
d7
05
f5
db
f8
4a
01
31
ce
db
51
ce
dc
5c
e6
5d
f5
d5
12
f0
07
2c
ef
43
43
d6
ff
da
e3
d8
16
12
0f
19
ce
ff
4b
1f
1f
2f
ba
29
38
0f
d8
60
e5
51
e3
db
2a
e7
1d
38
2b
d0
e1
3d
e7
a2
b5
fe
35
12
c7
eb
b9
20
16
da
e5
f9
cf
e6
e2
04
08
de
f0
b7
21
4d
be
23
b1
cb
fa
0b
0b
cf
2c
10
28
fd
e0
fc
1b
1a
20
ef
ba
08
ca
4e
06
f3
21
f6
0c
fa
ae
09
b9
09
28
f2
fb
f9
23
bf
63
ec
fd
2d
22
a4
10
b8
45
ca
14
62
17
10
40
e5
ca
17
07
10
f0
f5
dd
cf
2c
e7
33
35
16
16
05
bb
de
60
19
2e
3e
ff
28
f1
11
ce
be
01
f7
e1
d2
00
14
ee
c7
fb
ef
e9
18
c2
fb
0e
b8
e6
ca
d3
d9
24
18
db
fc
f9
05
08
ee
17
f9
d4
38
16
ef
14
4a
10
f3
e0
31
dd
08
2f
0b
27
14
ec
f4
3c
24
24
36
cd
12
2c
cb
02
0e
f3
de
bc
27
cd
11
2d
e0
14
de
02
e4
f3
ce
24
31
c1
23
fa
f0
1c
c7
fa
e8
dc
f2
f0
d9
ce
2d
ef
eb
11
cf
ec
27
c1
24
0e
e3
e0
22
f7
e3
37
27
31
cf
e0
41
c4
4b
06
3d
21
f0
e3
1e
d6
00
23
11
e4
13
05
43
e1
ff
e9
ee
19
16
d1
1c
01
ff
bf
ce
ff
16
03
f0
bc
03
08
de
f8
ec
d1
e2
ef
00
d6
3d
09
29
11
cf
09
0a
ef
0c
ec
ce
c9
0a
02
29
14
17
1c
1f
da
27
cb
e3
4c
ef
0b
b7
c0
0b
0f
1c
cd
0b
f9
24
10
f4
06
01
fc
2e
29
eb
b1
51
d0
18
cf
20
15
cf
cc
30
1c
4b
d1
13
1e
49
e7
0c
ea
ec
20
bb
f3
20
f1
ff
af
f9
d6
c8
f4
06
02
db
54
eb
11
36
db
d7
28
e5
32
d8
0b
c7
e7
f4
ef
3f
ef
6b
20
01
14
07
b7
37
97
29
cc
e8
16
00
fb
d0
09
05
ce
00
17
34
0d
14
d2
f2
05
c3
e5
d1
e1
0d
1d
14
e5
22
ef
25
06
f6
00
15
df
29
17
ea
ce
35
bb
18
d1
41
36
16
f5
02
e8
27
05
f5
15
02
e4
44
9f
cd
29
d6
10
ca
0d
e4
1c
02
eb
02
d0
c4
19
1d
09
e0
e3
df
dd
1f
f7
0a
13
18
4e
fc
fd
d3
f3
c8
09
e1
f0
20
2c
fe
2a
28
fd
f8
21
37
03
ed
64
ff
0c
f4
11
f8
e5
24
5c
e7
6b
15
bb
1f
d1
58
3b
e8
e2
08
00
ed
cb
fe
19
20
3b
cf
1c
dc
16
2e
38
e8
03
1a
ee
3c
d5
13
35
d1
0d
0e
dd
fb
da
3b
12
f6
d9
38
e5
04
a0
04
c5
37
e1
1f
cc
00
fa
20
e9
3b
d4
22
22
3d
13
16
f3
f9
0c
1e
d4
1c
2d
e2
c4
02
be
1c
32
01
1d
fb
06
1f
b7
c4
e1
e6
f2
c4
64
30
0f
f7
cd
41
dc
e4
1d
d7
69
20
b0
ea
15
f6
09
39
22
3b
d1
bd
b0
8e
02
66
f0
00
d2
ae
18
1f
cb
1f
16
0c
f2
ee
47
c1
d7
f8
05
1c
f8
16
49
3b
13
29
ac
d9
3d
fd
d9
d1
27
2c
eb
bc
37
b9
db
07
e1
37
1d
ee
05
dd
26
f0
00
ca
37
1f
0c
fe
d6
e4
ff
28
0a
29
d7
f9
c4
0c
0d
25
e4
e5
1c
ff
09
04
f9
e8
34
f6
08
f2
02
e2
f9
ae
23
cb
f2
01
9d
14
e1
ff
c0
41
e7
f5
69
f9
ce
f2
a8
44
c7
23
63
1e
45
cc
0f
bf
c6
38
f6
1a
48
fe
4a
1c
cb
36
16
18
69
2f
ca
4f
1e
b5
e9
e1
fd
3f
13
31
e8
fc
10
14

// dense_2/bias  shape=(32)  count=32  scale=1.1884524362e-03
cc
38
e5
93
d7
1d
61
28
e3
7f
d4
6a
7d
4f
38
2e
f7
f1
f9
ef
7a
7b
3f
15
38
22
1a
3b
ec
42
34
e1

// dense_3/kernel  shape=(32x16)  count=512  scale=5.5986736703e-03
4a
cb
b3
a4
02
ea
13
b1
fb
37
16
69
fe
3e
2f
b7
06
36
fa
1d
da
b6
f0
4e
f1
c3
2a
f6
0a
e3
db
20
0d
db
26
d3
7f
f6
ea
c0
9c
09
18
fc
a8
0f
07
c6
c0
cd
06
c9
45
d0
eb
10
21
e3
ec
e8
fe
de
e6
f6
c3
e1
e6
15
3e
38
03
f8
f6
e7
02
22
e5
ee
32
12
30
f1
ad
36
e5
af
aa
fa
d6
15
56
13
05
ff
3a
2e
2a
0f
c4
d6
bb
c8
cb
48
0f
bf
1a
c1
0a
03
c1
20
d8
db
2b
b8
fa
55
3c
c5
19
18
06
c7
fc
f6
eb
da
24
f3
b1
c9
44
e2
d5
b3
36
28
28
5c
d1
4f
20
d6
e3
2a
f5
17
e8
24
41
fc
18
c4
16
d6
39
b9
bc
30
45
1d
c1
b6
14
fd
ea
d9
3e
25
1c
53
dc
41
33
eb
f0
31
e5
31
ba
dc
26
10
0a
fc
23
d7
24
cd
d6
47
d9
c6
46
da
00
51
38
06
fb
c9
bc
d0
07
01
b1
d3
4f
35
fc
45
01
01
e1
10
de
16
54
03
28
da
0b
56
33
19
c6
2e
b8
1d
14
29
2d
d6
06
d2
3b
c4
c3
05
2e
22
af
07
ed
dc
ab
11
d4
0f
48
3b
06
06
50
13
f3
b0
a3
ef
10
d5
d8
17
d0
5e
fa
37
eb
71
1a
f2
23
27
c1
31
da
ed
b9
3b
ec
25
1e
ea
26
fc
27
02
29
ad
bf
ca
bc
40
59
07
41
e7
e6
2b
01
ee
ef
c7
ff
d1
1e
10
67
fd
21
e4
f0
09
ec
26
c9
3f
26
cb
0d
3b
d7
37
c0
dc
c0
4f
e3
dd
00
da
41
03
c8
2a
0b
eb
27
f4
27
64
4c
0e
0e
b6
bf
d8
f9
fa
e2
c7
f5
d2
5b
df
6c
15
f7
ce
cf
f6
f4
e2
e4
30
ec
b2
e7
b8
5e
c8
1a
f0
30
f0
cc
ef
da
e3
c0
02
0e
fa
f0
f2
04
0c
e5
3f
3e
18
12
eb
02
d9
11
af
d2
01
13
08
f7
03
1e
d8
fe
39
de
16
2a
01
26
2a
63
1f
ff
0c
f9
db
d8
59
5e
42
40
21
d9
e1
2f
f1
c7
c9
fa
ce
2e
c3
41
26
18
15
02
08
00
2b
00
29
07
c7
36
30
2f
1e
f0
f6
e5
e3
36
fe
23
18
35
e4
35
d5
d4
bc
4f
c5
f5
65
3c
eb
fd
fb
cb
be
05
f7
c5
bf
06
1f
1b
1c
74
08
d9
01
d5
02
27
0b
bd
47
e7
f7
52
d4
fa
13
33
d3
b3
17
f9
42
28
30
d3
59
09
fe

// dense_3/bias  shape=(16)  count=16  scale=3.2325544226e-03
db
04
5d
eb
47
5f
7f
34
13
c9
db
e5
2c
14
db
16

// dense_output/kernel  shape=(16x5)  count=80  scale=9.7710401054e-03
2d
c7
f1
2f
13
2c
d3
d3
dc
00
b3
2c
23
01
b9
3b
17
d1
06
fa
cf
11
ec
0d
b5
c0
2b
2d
c1
cf
bc
15
1a
9f
ba
33
cc
18
fc
c1
bd
f1
41
e6
a1
fc
eb
01
42
d2
2b
e6
e3
24
d8
c8
f1
cf
20
e8
43
e1
3b
df
81
e2
29
b7
36
b8
f6
d2
c9
21
ec
2a
ff
e6
ed
bf

// dense_output/bias  shape=(5)  count=5  scale=4.6987383384e-03
df
56
3c
81
c2
