// HAR Model  INT8 quantized weights (symmetric)

// dense_1/kernel  shape=(19x64)  count=1216  scale=6.4335357486e-03
12
fe
d9
d6
20
fb
2e
f6
ff
fd
f7
e3
ee
06
0d
17
fd
03
f4
ef
02
e4
0c
12
1f
1a
1b
ff
f1
f6
14
ef
25
e6
01
dc
ef
e9
f2
1d
12
0a
1c
03
1a
11
f7
ff
f0
f6
16
f9
ec
1f
ff
f4
e4
0a
d2
0b
37
0d
0c
f2
12
22
dd
1e
ef
04
f6
1b
00
1f
17
00
e2
fe
0f
0c
fd
e2
24
3c
f2
e8
e6
1c
19
e9
05
00
04
20
fd
0f
04
0b
22
ec
13
0a
fa
fb
d9
ec
e6
16
f2
f1
01
1c
e2
0b
23
fc
c8
1a
da
eb
f2
f2
12
1b
01
fd
f8
13
15
d6
0d
00
f0
ef
28
e4
e9
eb
f3
db
1b
fe
ff
07
fb
e7
e1
10
14
ed
11
f8
ed
09
f6
f4
fd
fe
00
fd
26
13
12
1b
de
fc
0a
f0
39
05
f8
ee
10
fe
ff
0b
24
08
d3
ef
2c
df
ef
d3
e0
06
fa
00
fe
03
05
fe
ee
00
00
db
25
1b
d3
da
31
38
29
38
f1
0f
2b
d8
13
f2
e2
f9
21
32
16
2b
1b
ee
df
c9
3e
1b
07
fb
f4
21
fb
34
1c
d3
e8
11
20
fa
28
05
28
24
0c
2e
1f
2a
f5
dc
ec
2c
f7
f3
d8
f0
08
12
2b
dd
fd
db
fc
0c
33
eb
0c
e1
11
09
12
28
28
33
19
ea
e8
e8
26
ea
e2
d7
05
1d
08
18
2f
ea
dd
f4
2a
fc
d6
e6
fb
ee
e4
0b
e3
02
d4
27
16
41
0a
19
16
1d
26
f3
0b
31
14
ff
1b
ee
06
d5
0b
ce
f4
f5
f6
2a
fa
e0
01
e1
07
e2
1d
e2
05
f3
fb
0a
0f
fb
de
21
26
f0
f8
2b
f9
06
e0
eb
d8
e5
23
f8
20
fb
0f
d9
ed
d7
ef
fc
07
30
07
cf
e8
f6
05
f0
1a
25
22
0e
dd
14
0d
2e
e8
23
ee
f8
e6
1b
02
02
f4
e5
ed
ea
e5
02
11
c2
0f
e6
1a
41
30
f7
00
b0
36
0d
a2
fd
ae
58
20
1f
ba
eb
00
a5
2f
36
b2
0c
19
61
45
4c
55
4c
db
1d
b6
f5
1f
d4
3a
26
c8
1e
25
25
28
37
10
0c
30
39
25
00
d1
03
dd
cc
57
45
fa
0d
fd
e2
c9
2c
51
e9
11
54
01
eb
fc
3a
cc
f3
f3
b6
c9
05
f8
f6
9e
e8
4a
15
66
11
09
0f
26
f3
ab
f6
e5
2f
05
f4
17
f5
33
b2
0f
67
f7
03
0b
d9
dd
f8
05
9b
83
be
01
01
9b
00
34
0f
04
38
05
03
38
50
84
81
4c
49
4a
f6
de
56
0c
10
02
bc
e2
30
e7
03
f6
33
09
09
05
d8
0d
ff
f7
26
ee
11
0b
1d
ff
07
e6
1b
ff
fe
1c
00
0c
f3
f5
61
07
24
19
ea
10
e8
04
07
08
e9
de
e6
05
05
dd
ea
22
c5
0f
0c
d6
f9
06
01
fb
f3
18
0c
15
2a
ed
ea
e7
03
ff
e5
0e
d4
0a
f3
e4
0f
eb
fd
fc
f1
08
01
02
e5
de
15
20
14
de
03
0c
ed
ef
db
df
f4
f7
16
df
e5
fb
05
05
0a
1f
dc
ea
f1
d8
fc
f7
0a
29
15
22
0c
fb
fa
cf
19
0b
00
0e
eb
03
f3
fe
d5
08
f8
15
04
f3
ee
04
11
f1
22
ff
f9
f6
e9
fb
e0
e9
01
ec
ea
f9
29
f8
08
02
09
16
19
1a
ee
c7
fb
ea
fe
f7
06
11
00
f1
db
1a
e9
f0
05
d5
0c
f0
08
ca
fb
0d
27
f8
1f
1e
e2
0f
05
13
03
eb
f0
e7
ec
14
05
e5
11
07
0b
d7
e5
0f
ef
0c
04
07
d3
f1
ed
15
f7
1f
ef
01
09
06
09
ef
09
00
14
d5
05
0d
e9
f3
0e
ff
10
fe
d9
0c
0b
d8
24
21
0d
05
d8
da
21
f8
f1
1a
de
1c
02
1a
0e
e5
f5
ff
15
db
f5
e7
fe
01
f7
f3
ee
20
02
41
42
e8
03
1f
10
1e
13
f8
0a
ec
38
e0
f5
1e
05
07
d9
26
f2
15
e9
01
e8
07
e7
19
d1
dc
10
f2
36
21
26
f6
fb
e6
0b
11
2f
1f
00
fb
f8
e5
f1
f6
f4
f2
20
e2
31
11
e8
00
eb
1b
00
ff
d7
f4
19
0d
34
13
02
24
fb
fe
fe
0e
f0
0a
0c
f1
04
16
fa
eb
08
ec
f5
11
0c
fe
07
27
e1
18
06
f7
db
0a
09
0b
2a
2d
fa
1c
df
06
01
25
09
2c
f1
08
35
15
1a
01
1a
1a
fb
e4
dd
e5
27
11
f5
f2
1b
ed
1a
e1
26
3d
16
44
12
e2
e6
04
f0
ee
0e
f7
14
09
f7
f4
f6
15
f8
f6
de
37
e4
e3
d8
28
1b
fb
33
2d
20
0f
24
0d
15
1a
34
1e
02
0c
0d
0b
e5
f6
10
0d
0e
f7
23
f2
f5
e2
e8
f6
fb
0e
e8
fd
03
27
1b
fd
09
18
e0
f9
ef
eb
25
15
f2
e9
19
f9
1b
d9
fe
15
20
d5
f8
24
e9
07
d1
02
eb
17
08
fb
e3
d9
ff
0b
10
14
0e
15
25
e6
29
f2
fa
ed
e1
21
02
1a
2b
13
f7
06
ee
fb
e3
1f
df
26
05
ef
1b
20
18
2e
e0
28
05
d3
0a
2f
13
ff
21
ee
f2
f9
ea
f8
19
24
07
e1
1b
01
f6
00
15
f0
f3
fe
f8
e3
ec
06
e6
fd
1d
2a
16
13
e9
fb
ff
0e
14
3b
f7
12
14
ea
fe
e2
0f
21
36
18
e5
e0
dc
0e
09
ff
e7
03
23
ea
dc
37
11
e4
da
24
d9
1b
0c
21
01
e4
e6
0f
ce
e8
13
24
df
fa
e7
da
f6
13
01
16
06
0b
13
d2
ec
2e
18
fb
0a
f8
1b
e9
29
e4
2c
ef
f5
26
18
0d
01
11
2a
1f
1c
25
2c
18
f1
e7
0c
05
ff
2a
0b
07
1b
fa
03
fc
0c
0d
d7
eb
0f
13
ec
3b
02
12
fb
f0
df
1f
02
05
0a
ed
1d
1b
e8
09
f1
35
0b
fb
12
dd
fe
19
f4
0f
07
20
03
03
24
2c
14
00
07
0d
1c
35
1b
22
35
f2
ed
ef
36
28
0f
f2
f1
ce
01
14
19
d7
e8

// dense_1/bias  shape=(64)  count=64  scale=2.2924446215e-03
da
f2
22
f8
01
f3
08
dd
59
2e
7f
5c
09
e5
db
17
47
13
f9
ea
03
0d
10
e4
45
c7
de
07
64
dc
fa
01
30
ee
01
5f
28
fd
05
40
03
5a
08
38
48
3e
58
3c
48
46
2b
aa
f6
54
c8
07
f0
08
ed
e7
34
14
ff
e9

// dense_2/kernel  shape=(64x32)  count=2048  scale=5.4491734880e-03
17
13
13
f6
1d
ea
0e
f1
e5
af
f6
27
17
ea
ef
24
e3
fd
2b
54
d3
00
e6
02
16
ec
29
25
41
e5
cb
e8
1a
12
f4
fe
12
0c
1f
0e
20
d3
27
03
11
24
0a
26
2a
22
ff
03
f1
2d
16
fa
3c
f9
21
25
0a
0e
e9
0e
09
ff
ff
e4
d2
f2
19
d2
f1
30
28
d8
21
07
05
cc
00
ea
11
f4
f8
f3
e8
e5
39
2f
0a
e3
27
ea
04
1e
26
7f
ed
01
f1
fc
c9
04
15
e9
bc
ee
fa
26
d9
2d
f6
1d
53
35
bb
0f
a3
01
0f
ec
ed
2c
62
cd
9f
ea
e6
1b
fb
fa
1b
09
f4
d8
d5
24
11
fb
13
14
b9
fc
e0
1f
f8
12
09
e2
ff
03
f3
20
e2
ed
2b
df
00
ef
f4
f9
3c
0d
12
d7
06
2d
f6
18
02
0e
cb
c4
f8
ff
cb
d2
ea
17
08
e0
17
f1
ff
e5
4e
2e
0d
ee
0b
df
ba
ee
20
4d
de
e0
fa
29
e2
20
f9
c6
cd
08
fb
10
ea
b0
fb
f6
1a
bf
df
12
e3
10
0a
48
eb
1d
0f
f5
0b
37
d4
ed
f2
cd
c7
f5
f8
cd
ed
fa
22
2c
ef
0d
25
2c
0f
06
d0
39
fb
10
f0
ed
02
38
f6
e1
d3
e9
e4
02
fc
e9
fe
33
e4
e0
2d
47
3b
e9
d6
f9
d7
19
e6
e7
0c
e9
4e
ef
d4
f9
e9
2a
c4
13
ef
11
02
07
01
f9
f4
fd
14
2c
ec
c9
19
33
fc
3c
25
24
ce
ab
2b
ef
dd
32
2a
20
ef
04
34
27
ca
be
f1
cd
1b
1c
f8
e0
f0
d1
16
22
ef
eb
13
0f
3e
18
13
df
17
f4
f1
e1
39
d5
2e
07
a9
e6
f2
27
e4
d2
08
c5
2d
1c
ee
d8
19
ce
ef
33
da
01
66
3c
3d
0f
0f
00
08
f7
ff
09
38
d7
2c
f5
d2
10
05
16
da
cf
0c
d3
18
2c
12
d7
d5
f2
04
35
17
c3
1b
e5
21
5b
52
fb
26
bb
fd
16
d7
30
1f
45
5b
23
1e
ce
ef
0b
0f
23
fd
01
05
00
19
32
18
17
1e
22
27
f4
2b
06
20
13
1c
fb
15
f0
12
39
f6
fd
f5
07
f9
c8
21
fd
02
02
13
07
41
03
e5
d8
08
19
00
e5
34
cb
fa
3a
11
2d
f4
c2
38
41
fb
3e
f8
0a
f9
ea
11
09
e4
df
00
f1
f5
10
f5
04
43
1e
17
da
13
4b
cf
f1
16
cf
a9
bb
16
08
e5
b6
04
07
02
e5
eb
f8
19
1c
63
49
e8
02
04
c7
df
a8
09
d6
f7
2d
09
f5
63
2d
6b
ea
e5
e0
44
be
fe
d2
0c
e0
2e
03
4a
d3
1b
32
d7
10
e3
4e
47
20
12
20
f5
f4
ce
19
26
08
08
24
29
1d
d9
0f
33
ff
d9
f1
26
d0
4f
ef
30
ea
23
57
db
0c
d6
fd
0d
2b
14
2a
fb
f5
e2
01
fd
13
e1
07
06
f4
25
fa
c6
10
f5
1f
3a
47
ea
2b
c7
0f
f7
d1
f4
00
5e
e6
aa
38
20
12
12
13
17
ed
df
1d
fe
d9
03
f1
19
05
05
20
2e
0f
02
21
f4
ec
1a
19
f4
0c
17
0b
15
d3
ed
f6
0b
25
03
ff
ed
e8
c2
12
2b
08
c2
e6
23
04
eb
26
1f
07
09
2a
02
f5
ff
09
21
df
1a
dd
0e
d1
e8
10
42
18
be
e6
f2
36
e5
d7
52
ff
1f
f6
ff
18
04
c5
37
26
e3
03
0b
23
3c
d4
45
f0
ce
f1
00
e5
f2
30
d5
04
48
44
dc
ca
ed
1a
36
f5
09
1b
f0
f6
f7
f0
25
f5
0d
0b
2a
d9
f2
ed
08
f3
3e
30
f3
0e
06
d5
fc
06
3e
03
10
0a
0f
10
cf
0b
22
fc
c7
11
04
0e
fd
c2
18
e9
f1
e7
f0
08
cf
13
00
1c
f0
ef
e2
cd
16
dc
fe
b2
ea
17
1c
ef
31
24
e9
fe
1c
2f
1c
ad
3b
0b
28
08
05
27
11
f9
2b
28
e1
b7
18
02
0a
19
f9
23
36
2b
f6
02
2a
0b
e5
05
ee
fd
25
e9
0f
17
24
0d
11
e2
ec
1f
fc
02
ef
d2
f6
ed
20
2f
12
f9
e3
e4
09
21
fd
04
25
2d
dc
f5
06
10
14
df
2c
f0
15
fb
f8
0c
31
06
fd
d7
e8
06
2d
fc
f3
32
15
21
f0
fb
4b
52
ec
12
fd
5e
f4
f9
ee
e0
d6
b5
25
03
ce
cf
0d
f6
14
e3
0b
fc
c0
33
44
45
fc
01
e9
b0
e2
24
cd
f5
e8
fa
01
ce
22
42
f2
f9
05
d4
bd
04
e5
d2
12
11
fe
fd
bc
f7
34
41
0e
da
04
02
43
36
ef
1e
21
2b
ed
f3
fa
1f
e6
e7
0d
00
f8
d5
1e
29
d5
c3
20
d7
fa
bc
e8
11
e0
f9
18
3e
11
f1
e7
ff
ec
f4
3a
61
c9
e6
1c
55
fb
fc
f5
c9
ea
e0
fe
21
d5
e4
fd
f1
e2
ec
fb
ff
f4
e4
36
34
fe
f4
11
fd
d8
0f
59
0a
e6
0f
f7
40
f1
18
f7
01
ad
d4
ec
02
d4
a3
fb
ed
ff
08
16
0e
e4
ce
36
4a
fe
11
0d
e8
05
fb
d7
0d
f2
2c
0a
1a
23
24
06
09
27
01
19
d2
2a
f2
28
03
fe
39
20
e0
e8
fe
c8
c6
1b
d1
12
f7
d4
06
3a
38
eb
db
ee
27
26
11
f1
d0
db
1e
f6
ed
ed
de
fd
15
e2
f0
21
e9
ff
e0
2a
2f
f6
08
22
ee
fc
69
fc
e4
33
fa
a1
00
04
02
b6
3d
ff
33
d8
21
14
06
37
3b
e0
17
e1
ea
04
f8
fd
fb
46
da
d9
ea
0e
e7
02
bf
d3
32
ea
f5
38
0b
33
ff
04
11
0f
16
19
09
39
0b
36
e7
ec
26
19
0a
c7
c0
05
db
1d
0c
0c
21
f7
c7
24
0d
23
d8
4c
2c
02
d9
d9
c3
dc
27
f6
28
05
e4
3a
fe
bf
e6
08
2d
fc
e6
e2
ff
29
11
2d
45
fd
0c
2d
0a
bf
e3
fa
b7
d7
f7
03
1b
b5
0f
f0
23
4e
39
cc
e3
03
e0
f4
c5
08
e2
61
ac
db
10
9c
00
52
57
e3
e6
0b
25
d9
f7
f8
c9
d4
03
ee
f8
da
11
05
f6
1d
d3
22
dd
d5
02
56
30
ff
19
ea
b8
e1
f6
cd
01
1d
23
d0
de
06
ed
18
06
00
df
df
1f
d4
e6
eb
d1
ee
e8
fa
cc
19
31
dd
da
11
e6
fb
03
25
03
00
c4
28
f2
05
d7
13
f7
c6
4d
10
1d
d2
cd
35
30
19
f9
27
33
12
eb
03
27
bf
c2
e8
dd
e0
4e
0d
0f
c7
14
19
42
10
fa
70
07
28
11
0f
f5
ed
f0
e0
dd
2d
e1
3b
d0
d2
23
39
38
03
e3
f7
f5
44
13
ed
f4
1e
da
d9
ec
15
ea
e8
06
35
d0
d5
c9
e5
1f
ee
e7
35
28
f3
11
c1
ff
e0
38
11
11
d5
bb
f3
10
15
10
da
da
d3
f6
e8
c9
25
0c
00
d8
1a
eb
0d
e8
e5
f7
2b
f3
00
e7
d0
de
13
16
01
e3
30
e7
1f
f3
14
e7
f1
f6
22
20
f0
1c
29
39
1d
f8
ff
f5
e8
ee
fe
09
32
0c
2e
00
fc
d4
37
20
e4
01
0b
d9
12
09
d5
e0
0c
21
f6
3e
f7
02
02
02
25
db
fc
cb
2a
eb
f7
17
e4
bf
59
d5
0e
e5
32
38
1d
25
a2
04
4c
08
25
82
14
14
e5
1a
5b
0c
7e
2a
29
e7
05
f6
0f
91
16
f1
f2
d8
6c
13
35
d5
33
54
d2
d6
d8
31
55
45
ef
f1
d5
eb
cf
17
f3
15
18
2c
32
1c
d3
21
f8
da
d9
cc
03
eb
16
f8
f6
de
08
fa
02
00
cc
fa
28
11
e6
e4
ec
fb
0d
31
bf
c4
32
2d
21
d7
fb
e3
c7
f8
0f
1b
3d
02
e8
ee
00
29
2c
29
20
ea
ea
f8
f5
1a
c9
09
13
d6
24
39
e6
12
42
1a
1d
dd
e6
ec
ec
02
fc
04
f2
1e
4f
f4
fa
f4
33
0f
22
dd
e6
d5
05
34
ec
dd
20
05
21
19
2f
01
05
40
15
27
ec
1b
0e
e7
de
f6
e2
f1
40
24
1e
02
21
44
07
17
b9
0f
fc
3c
15
e5
1f
f9
de
d6
df
ff
0b
f1
db
05
e3
0b
dd
f5
20
16
1d
1f
ec
0b
ec
20
db
c3
02
2c
11
f4
1c
e1
22
d7
fa
cd
12
f8
f5
e5
64
f5
07
36
ff
41
17
11
17
0d
e0
06
26
10
25
28
0d
26
c5
e7
e9
17
f9
50
ed
0e
ff
00
f5
17
0e
dd
58
02
43
18
db
1e
eb
02
06
12
25
0a
33
f2
28
05
26
3f
13
c3
cd
10
f5
14
1b
40
dc
e4
10
d6
bd
d7
20
f9
c9
1e
16
2e
fa
ea
08
02
eb
19
e9
f8
fe
30
eb
c8
19
13
fa
d4
c5
2b
0d
2a
fb
e5
14
16
f1
d2
34
f6
ec
05
10
2a
e2
20
2d
29
1c
1b
f7
2c
f6
3f
3a
db
eb
13
36
d1
d3
0a
11
00
18
4a
d4
0e
ff
38
d9
08
01
f8
da
02
06
0c
11
00
ff
fa
e5
e6
08
ef
ed
05
4e
59
0b
12
fb
00
d8
23
24
41
fc
ea
18
22
bf
ec
19
bc
db
ea
15
fa
c1
c1
f1
f9
12
e2
fe
0f
d2
f7
56
71
02
ef
0e
ef
ee
03
f1
f5
f4
da
eb
22
fe
fe
c7
fa
f9
01
d3
04
28
fd
f4
08
fb
eb
fa
3d
1c
f2
fc
e7
f0
db
c5
f6
ff
0c
f5
f4
27
1b
f2
1e
fc
d7
bd
f7
d6
24
a0
05
17
24
2c
2d
db
ee
f8
d0
18
f4
f3
27
0c
d3
cb
18
31
bd
d6
0e
f4
17
2d
19
23
34
2c
f2
0a
2a
14
ae
19
22
d0
fb
3d
20
0f
d3
3b
08
03
f9
f3
20
12
f5
37
ea
18
f1
eb
e3
1b
d2
1b
31
56
ff
33
36
3b
c6
4f
ff
d8
eb
62
25
4e
16
30
27
da
0e
d9
12
1b
38
04
5b
18
1d
da
13
aa
09
18
fd
bf
24
23
22
aa
3a
22
e4
ff
4c
b1
22
c9
15
0b
e6
e6
13
57
00
c6
16
fa
26
0e
3a
fb
e5
d8
17
f1
fd
d0
08
d7
0a
d3
21
ef
d8
07
1b
c9
f4
bd
e3
db
bc
02
2b
ee
ce
f5
17

// dense_2/bias  shape=(32)  count=32  scale=1.5269810055e-03
e9
1d
33
53
ea
50
08
30
5e
74
77
00
f5
cb
16
e0
f5
e7
2d
2c
5d
e6
28
f5
41
7f
48
57
fd
f7
48
15

// dense_output/kernel  shape=(32x5)  count=160  scale=6.8631674361e-03
f4
14
fc
48
2b
b3
34
e9
31
81
c3
18
18
a5
ed
a2
3e
3d
d0
c0
d0
cd
c0
e3
0b
38
b1
d2
07
f5
d8
cd
16
d0
de
b3
24
21
be
d0
37
cf
f7
1e
c9
3c
e4
16
e2
f1
09
ad
ee
c5
e6
e3
c6
e8
4f
17
c8
c0
be
28
d7
ec
07
e9
3f
00
d8
c9
20
d2
c6
cd
3f
e7
fe
e3
cc
c0
f9
56
c0
be
d3
db
2e
cf
20
0b
a9
fe
c2
a5
24
c0
2f
02
1f
f5
19
ed
b3
dc
c3
e1
49
27
ca
d9
32
32
a0
f5
27
e8
2e
2f
42
bd
e9
1f
be
0c
cd
e4
c9
e2
d3
37
36
e0
c0
c8
37
38
09
d9
ea
41
b4
3e
df
c2
e6
35
c3
f8
2e
e5
21
a3
ee
17
bb
b3
18
e2

// dense_output/bias  shape=(5)  count=5  scale=1.7530562605e-03
1f
3e
0c
81
b4
