// HAR Model  FP16 quantized weights

// conv2d_1/kernel  shape=(3x3x1x16)  count=144
32e5
b7e3
b946
3691
3416
b6ff
33c2
b41d
3415
37b4
330f
34c5
ae00
3371
36f7
b81b
b10e
a71f
3483
361c
34c5
ac10
b4fe
360b
346f
ae16
b5cf
2d69
3630
b584
ab44
332b
364c
b779
b0dc
3042
36dc
b187
3831
347d
3250
2fb1
354e
35cd
b760
3840
afde
3467
252a
b5b8
b819
35d6
36aa
b8d5
33b5
b139
31ba
3447
375d
3658
b281
37fe
37e6
b8a0
b27c
32d7
a82c
3691
34f4
b19b
a84d
381f
37ac
b009
b3cd
3597
36fd
b649
1886
a835
3617
b7d5
2d45
ae7a
9ed9
aceb
a682
30e5
382f
a0c9
3527
a56f
b60c
3449
a343
aab8
a8fd
b852
b976
3729
348c
b482
3714
ae7e
2b26
3588
368d
35a9
2e18
367f
3721
b8ba
af58
a154
b1ba
3886
2cd1
2eaf
330f
3766
37d8
2d01
b6e4
32a8
34dd
b2ed
b087
2b67
3767
b78b
252b
288a
b48a
34d4
b755
3573
35d4
b0e4
b20e
9fbd
b697
325e
29da
afe0

// conv2d_1/bias  shape=(16)  count=16
362e
a4ed
b3c4
a4e3
a62d
ad23
a40b
b611
2ec8
37aa
ae38
228f
b016
b4ab
a273
8b7f

// conv2d_2/kernel  shape=(3x3x16x32)  count=4608
34d9
3515
30d0
218a
2618
3594
351d
b25d
3161
3325
a9c2
2b90
32ad
b0c8
31b9
3165
2eaf
aff2
b321
b411
34d4
2c72
ace8
b534
311e
ac4f
b2e8
b503
3414
2e09
3322
a46e
a23c
3566
ac76
31f9
283e
338d
2cb4
307f
ac3a
2030
2d80
ada8
273e
2ac4
2f99
32bb
af22
2d57
2ce0
2d9a
aa35
345f
2c40
334d
28e0
2cb0
33ea
3627
3104
1e3b
3033
30b2
b970
af7a
aee9
358c
b2af
ad05
b4bd
343a
34c7
b724
2f89
30c3
2491
333b
b420
b026
b056
2d90
2dff
afa9
b16c
3693
aaf4
b16b
b64d
33d1
3733
3643
b001
2da2
2eff
ae9f
b015
b0e8
2f6c
acf0
3268
3152
2c68
2d19
a690
2f65
ad4f
33a0
b4cc
2503
b2d0
20b5
343f
a65c
2fb6
311f
34f3
abef
aa5e
3376
311a
b380
b68e
b1b6
aa7a
262f
2bfe
b164
b3e5
abfa
313b
2823
3186
a794
2b8c
2bb2
aed8
2ba1
b153
3285
b387
aa50
b56d
2c43
34ce
abb6
2ae2
2dca
348a
b49a
3086
2b73
34f5
b0e8
b5e4
b519
b16a
9fa7
2769
b1eb
b7ef
aca0
a1f1
347d
a3ca
b020
b68b
318f
2b45
b4e4
1ee3
316c
a6d4
32d1
b5c4
af2c
a9d1
2c9c
ab76
a751
acb8
30cc
ae7d
2c06
ad7a
310c
34dc
3559
addd
29f7
a79d
2492
b2fc
315d
340e
a18e
3300
2963
b030
2f83
afe9
2b3f
2c67
3575
b631
3268
b1f8
ac84
35f9
af80
3107
ab1f
371f
a4bc
304f
b11e
36dd
ac83
af30
b3f3
b491
2887
2c79
af56
b37f
adbd
2985
2f61
a9c1
b07a
afd9
2a4c
353e
b3fc
35b5
af53
339c
a47a
b464
ad2b
a305
31da
30a7
2c9c
b19d
3609
2d8c
ad80
ac6b
34d6
3463
31fe
2e73
2b61
26bb
b425
28ae
b289
2f75
30d0
2b56
3270
3260
a301
2f95
ab45
a736
3463
0871
2f95
9855
31d0
217c
29e6
a876
29b4
35d0
1c2a
a2ac
a8cf
2a42
3009
acaa
ad61
a84c
aa37
2f7b
ab42
31a4
2f0d
3094
272a
3559
36b1
3631
9bf8
3101
30c2
b3ac
364d
a928
ac0f
24e2
3480
3008
b53c
a444
2268
37c8
b4cd
a680
ab8f
34d9
b5bb
b474
b1e3
2dcf
a491
335d
275c
2630
360c
330e
add5
35de
289a
b417
ac32
9ecd
3254
ac27
3332
af68
ae13
b372
b1ec
3500
a7c3
1aff
b1be
374b
22a1
308b
b0a4
3535
b294
b8ba
b897
2c09
3145
b259
b19b
20a7
2da1
3468
3023
34ee
32ab
2f9e
2dc0
acc4
308c
b3cf
35f4
b691
9b3d
b4cd
277e
31bd
b0a2
3237
281d
3584
b5a4
a642
2d00
34c7
b589
b120
b43f
a624
309f
32e7
a63c
2d8b
b025
2ead
301f
185a
aeca
2a23
309b
2d06
3423
324d
9cc9
33f3
b060
3060
b04b
ac3f
2eb2
9fb5
3152
b160
33d6
2fc5
31cf
2424
3383
3552
3406
316e
9803
ae14
2847
2d47
34f2
3518
a8c1
31ac
ad6f
b2a5
ac4d
ad04
272d
3315
2c62
2f3d
968d
2a0e
b289
332e
2b8d
3018
aabd
31fa
3350
320f
b038
3532
b568
b310
29c5
9dfe
3032
b40c
2adc
2bb2
34d9
2f23
ac84
31e0
2dc1
30e9
2998
ac9e
3408
b187
339f
b634
283c
b1ab
84cf
32b5
982f
1ef9
b299
3687
b369
2c36
b06e
346b
aece
aa89
b0c3
a717
2100
21e4
b239
b703
2061
b1cb
31cc
b1e1
b051
b22d
322e
3416
ae06
330b
3042
331b
3422
b367
a05e
b08d
22b0
9bdc
b29d
b3c8
3396
ad3d
b23d
af0f
32b9
381f
354e
affe
1ef0
30f0
b403
314b
adde
aaca
2be6
2cb6
3453
333b
b241
b182
3350
a9ca
a812
3110
a74f
3288
3614
235c
afbb
9c36
249c
3112
a400
ae45
31f7
2c21
2c74
31a7
31ba
31d2
2e81
31ea
3149
311f
3169
2bc8
ab8f
3179
31b7
aa77
2c52
a861
327f
26b2
ae67
2b27
ac41
ad7d
2e05
2c7f
2f66
ada0
30ac
2063
2ae7
3025
2cb5
3116
add3
b211
b462
2bdc
ae2b
a5ae
27ca
99e8
34e3
283d
2cd0
246a
a953
b48f
aef0
adc8
acbf
32b7
a830
30a7
2533
a656
b641
9e09
318f
a961
32c4
3089
301f
2f18
2e72
2cc4
2cc1
b215
b48e
2e73
3102
b701
a578
b1cc
af36
2cd5
3044
2c6e
3003
2dfd
3189
3399
aecf
2e76
a561
331f
a649
b17c
30d8
2c2c
1a10
a894
a062
a40f
2d48
2aa5
2e76
2cef
341f
32cb
28e3
2afe
ad6e
a8e6
b284
b2d6
2b36
31ca
9817
3139
af1b
3216
3050
340b
b0fe
2cf8
2e69
a40a
329f
b3b7
aad0
2e9d
3090
32b9
2f7a
2c1a
2f84
30da
a316
31f0
3403
31e1
30bc
2d2d
ab42
24c1
b299
b0cd
33c8
29c9
319d
2f51
280f
b232
22f6
1c6d
adc5
2cf1
2434
af5b
91bb
a959
b4fc
a88f
2aa9
2f2b
3176
344d
2e3e
a5bf
3304
a8c3
3435
a40d
28c0
283e
2ef5
b186
2e7b
b129
b5bd
3440
225e
2e9c
b1f2
b3ef
30b8
321c
2526
2dfa
307a
b19b
2d11
b52c
b366
3551
2d6c
932c
a59a
33d0
acd9
2e5e
3256
341e
a1b8
aa04
a8ae
b0a4
941e
1d7d
a8fe
a477
b118
aa66
244d
2454
adf6
b1d0
a9eb
ab49
b57f
3528
a824
315f
293e
24b5
ae50
b483
32a9
3029
2fdf
29f2
3088
3241
30e3
b2d7
37e8
acf3
ae53
32dc
ad96
245e
a809
adb1
b611
b13a
3097
b028
2a6d
3207
3048
3597
b169
32e4
2e5a
32c3
310f
2f3b
307b
afca
3150
3016
ad3e
a422
34c8
2795
2d08
b111
353c
2fce
abc5
3054
a97b
2d5f
2a86
3240
ad38
ac34
2d47
300a
3466
3595
2b0c
32fa
301d
b345
344d
30b1
aa88
3256
361d
2d4f
af99
9cad
b1b9
28c7
ab67
b233
acd7
a9b6
ae00
1997
ab25
3351
2d6b
31ac
2d08
a426
b780
2ca4
a92a
23cf
a99a
b27c
2dc3
adaf
2a97
2902
a7fd
2df4
ac94
2c8d
aedb
2fa3
2ccc
327a
33ed
3037
31e2
2c5a
3031
32f9
362c
33dd
34d3
310e
27c7
b21c
a004
addf
af69
27b8
9da0
2845
304e
2b1c
a653
3556
b063
2f85
2c2c
2747
a6a7
a513
ac33
2f1c
2ef6
2fe4
3137
1a68
2aee
aa78
2f41
30fe
3215
1c5d
218f
2926
1c0a
10b2
af81
3201
b61f
afb3
25ba
ae90
b009
ae9c
ae51
3551
a976
31a1
accd
3175
284b
29af
ae94
a50b
2f56
2fcc
2a6e
afdf
308b
3013
af2b
9cc4
3294
3563
2b4c
3369
a863
2aa5
31cd
3083
b5c7
2584
aa2d
9f08
b0c2
b477
25bc
adb9
aee6
325c
af8a
3024
ae39
293e
b256
2deb
31f7
2ed7
332c
2d76
2fa2
31da
3094
2b6d
3614
35dd
34f0
a789
28cc
b5c2
2c15
3074
b671
2db7
a1b4
3051
a5e6
ab0c
2e19
31be
32ec
a8e3
a669
2ace
aea3
adfb
282c
2a2a
2e59
2eb9
283d
3006
a94b
2c42
2721
31dd
2fbd
ac76
ab7a
265e
ac1e
a41e
b294
a81c
34a7
3240
a44c
3141
b19e
b2cc
9fed
2719
3131
3214
3053
2415
24f6
af65
b58b
31a2
1f5f
aa74
2937
306f
3180
2e9b
2e74
2cf0
3004
b68b
b7d1
2204
2ccc
b10b
ac0b
349c
2ebe
aa41
abca
ad73
357e
3171
b466
ae2e
3015
afed
2de2
3067
a8d0
32ba
32d8
a96a
054e
1c8f
ab76
af07
a8cc
2bcc
2d3b
2f15
b9d0
b304
2968
2d87
2c2f
2fec
312e
300f
9253
2f4f
a314
2df1
2d35
b24c
2a68
b40c
3261
2de1
b198
2bfc
3031
2ec6
adfe
aa37
297f
a968
b395
b06d
302f
3035
1f9c
a48a
b488
b38e
31f9
348f
2c4d
b4b8
2d9e
290c
b48b
2c31
2b6c
3146
adc8
b3c3
2f90
b507
a6d9
316c
a8a7
2beb
2c77
23c0
b54e
2f86
a7fd
298b
2f3d
2b42
2485
2ef6
3059
a7e2
b817
b4bb
abb2
a8c9
a5d8
b30a
2f1e
27d7
b303
290f
2d8e
a9fd
2a48
32f7
a5ab
b45f
0781
2b63
ac81
3080
ac89
31e1
31f5
aa54
312f
2eb1
aa37
291b
32a6
2d37
ad17
b09b
b5a5
b3b0
b308
2ec6
ad6d
2f8e
28e4
2869
b4d8
30f5
2f90
a436
b004
3042
2a75
b541
b14f
3101
3171
2cee
30bf
304e
2f21
2fd1
2fc8
a867
2c03
2da3
31c0
2a1f
a1aa
2fd9
aefe
b4a2
b262
2c88
2883
31a5
a30e
2fe8
ac14
2f12
30c1
2b2b
ac69
ad08
2c7e
2cd3
197d
a8c1
3089
a0cc
2f6e
2fc6
b0ea
aca9
2910
2dbc
28ab
aaba
2b2b
2f08
aceb
2c6d
b844
b4cf
a527
a776
a48e
a334
adec
ac28
b61e
2a19
2da5
3104
966b
b371
abc2
b54f
2c8a
2541
3458
b19a
acff
b29b
b302
3438
adc2
2eca
ac5e
33f3
2e98
30db
b45c
3073
b536
b1ad
299f
b1be
2d7e
b2b0
aebb
30b2
ac32
b20e
1ca8
ad4b
b0e5
30eb
3183
ae61
b59c
353a
ae7d
3235
2e65
327a
2912
b41a
3153
2dc0
333a
b58f
3564
2f60
325b
b584
b5ef
3397
3175
325f
ae58
28f4
3310
a86b
283f
ae3e
2d71
aee9
306b
34fc
a058
b30b
b540
3208
b052
3067
2e90
34fc
31c6
a6f5
3266
ad8d
2e13
ac60
3457
aa82
24ea
b151
b499
2e6d
30b8
32ca
a8fb
3517
3093
340e
b350
ae33
2da9
adc8
34c4
2fdf
2ab3
a81e
30c5
a94b
2e98
3361
24f1
3486
3435
2a58
b297
acbb
b27f
2e22
acbb
b3c9
af2e
2e13
b88b
adfa
2840
31db
2edc
30c5
2ecd
2cff
b3c9
2969
a5c5
298f
b189
b43d
2464
b154
ace3
2d6c
25fd
aab7
adf0
2dbd
b140
22c5
3018
a20d
b0b2
ad0e
b0e3
3201
b0c3
2e56
b5e6
2b20
2e8b
a823
a2d1
a915
30de
2e09
b14e
2fe4
3156
2e31
3125
2c5a
ac89
b50a
ad09
3137
30c3
2bea
ad76
305a
2f48
310a
ab2d
30ff
2c5e
28ed
3217
3029
9ba7
2f59
b114
b563
b332
a7e2
2837
2f03
9084
355c
b1f5
b153
ace7
b301
abf7
b3e6
aa97
ad77
2e75
32c3
ad28
345a
a836
3293
afdb
b540
3322
a364
a089
b1e2
304f
327d
32e5
a988
b46f
2e19
33af
33c9
af54
b45b
3139
32ed
b200
a9fb
b0fe
b130
b18b
b6dc
b2d7
b415
2484
2fac
a1a7
2e31
af80
2e9c
b366
a01d
313c
32aa
21aa
b05f
b06f
3016
2d2e
2cf4
b581
ab00
b133
2e92
aca5
b3dc
2f2d
263a
b729
2c4b
b06e
2cfd
2ea3
1bc1
1ebc
b4f5
32cc
2f44
2a12
a469
28c4
2a00
afe3
30c8
3015
a6d3
a8f1
2f1a
2da5
1f9d
b391
31ef
b2d6
ac19
3052
30dd
2f07
af42
b0db
2b7f
2e98
3300
2abb
26bd
b12b
b551
a015
b61e
2aed
aa6b
306c
ac2f
29b7
2f2c
b534
32e9
2c1b
3056
3088
293a
323f
3009
30a5
2b18
b8f8
b0e9
2cb9
2766
2cfe
b424
a27e
2f55
3613
a722
2da8
30e7
340b
3271
1c7e
2fdf
3195
1d68
9c6e
3069
b191
345f
3033
30ed
b09d
ae23
b153
2fd7
2970
af34
b4c2
94dd
aa56
b5e9
b4ab
33fc
2b05
3206
2ec2
2e00
34c6
a817
2dcd
2854
31cb
2eff
301f
ac95
2a93
2533
3183
2c5c
2cf5
2993
336e
af57
312a
a433
2e89
afea
31b9
2cce
3224
2bc5
2c60
35fd
3410
2d22
28cb
2d76
2949
b91c
23df
b345
3683
abef
b002
b507
34cd
33cc
b6b8
335b
31c0
3069
3549
b3a2
a551
b18c
2549
a8b1
b1cf
b2f9
340a
300e
b3c0
b356
341a
36c9
3510
afcb
2df2
a2ee
2169
afa9
ac6e
34c3
a5fd
3403
2f05
2ad0
a588
aa4f
24c4
29d5
3125
b35f
28f0
b44b
b058
3526
a9dd
a486
3024
329b
b416
1e43
3279
348d
b1b1
b649
b4fa
a5ab
2d8a
a8a5
acc5
b401
aec4
3588
addf
3186
2d97
2873
2b7d
aff3
288f
1dff
3410
b210
315e
b6c1
a933
3608
accf
2c91
3071
3466
b4ff
2e15
2f95
3346
b061
b20e
b4b2
b4bf
3327
ad21
acc8
b700
adb6
ad0f
33f2
b05b
b04f
b729
3275
30c9
b562
324c
2c72
adc6
2d8a
b67c
ae91
b2f0
2f74
ac56
9ec2
aa4b
342e
2e36
1ca8
b43b
3191
35d6
33fe
b27e
30c1
2914
b05b
ad8f
3575
34bb
306d
33a1
2358
b0bf
2f20
afb1
2c45
2870
3305
b7e3
327a
b40c
ad46
35f6
adc8
321e
b2f9
3666
b2ee
311d
b16d
3415
b39a
afed
aea1
b51d
3101
acbf
aad0
aec8
af40
a308
325e
ac7b
ae83
b2f3
3145
33a4
b024
32de
b030
340e
2efc
b1bf
af25
b071
33ef
1f24
a977
b55a
34e4
32a5
ad7a
b1e5
349a
321f
3041
312c
1b16
ae8c
b2d3
a872
b46a
3016
2e80
31ab
3027
3392
2d6b
30fc
aac6
ab5b
347b
ab1e
30c5
271c
2ece
a011
b079
2a68
ac29
3514
a270
a349
2ae5
2539
a840
aa8c
a7a5
2a07
304b
3140
2f40
350b
2e12
3028
ad15
3428
36be
3503
a92f
3101
343d
b426
34ad
3008
a82c
2e4e
34b9
3531
b4cc
af9d
b0e7
37f9
b5d3
b168
a961
3413
b559
ad5e
b3c4
3145
2cb9
3604
aba4
2781
33a2
3577
26f6
3489
aefe
b4a7
2c00
b042
3120
2af2
348c
b07e
2c68
b202
b098
3575
ad0e
a206
ac75
33f2
2449
281f
b1ca
3569
b3b2
b807
b43d
2fc3
ab5d
b2d3
b1ac
1027
acb2
35af
a871
3667
1f13
3034
2fe7
ace9
2c90
a772
334c
b604
2ab3
b48b
2df5
3648
2829
3213
b014
35f2
b51e
30b2
b002
353b
b59c
b243
b490
b0a0
32c2
a0d0
adfe
2ad0
b02f
2fac
2929
a940
24b5
adbe
2c72
a950
30c9
2d8f
aee7
3005
b1af
2c61
aca0
3063
2ce4
1d35
2e32
2153
3126
2cc0
340a
3202
3482
3532
350f
2e56
ab3e
a63a
2f4a
3135
3523
3422
aed7
34d8
b355
b654
2aea
2897
2611
2ec0
313c
2dc8
b15b
af81
b09f
34e1
271e
2f60
b2a0
2cae
2fca
2c4a
ac1d
35b3
ac8f
2446
afc2
a656
ae40
b2ef
2c1c
aa8d
342d
312d
ab45
3559
33a7
310e
a74e
adbf
2ae2
ae82
3241
b535
314c
af94
2a63
3234
b066
abac
ac46
35f9
ad5c
2f09
b2d7
33c5
b2d6
302e
2972
afde
29ca
26af
1c6c
b6f1
ad02
aaeb
318c
ac03
ae71
b478
347a
3471
b12d
22e7
2e79
18a7
33da
b1f8
2e35
b2f4
acd4
2fdb
a41b
b48e
31e4
223d
b016
b09e
30d8
34ff
353f
1d74
28a5
3126
b121
3257
2c05
23c9
a240
2c07
348e
356e
b048
b15a
3172
2c8e
3017
3483
abdd
3372
33fd
a2a6
a635
b19d
30b0
30cb
24f3
284d
2ed9
2a77
2c12
2825
9d1e
2cf8
2ef0
30b5
2fdc
2edd
308c
2f73
2c09
265c
3222
2df1
2b83
2dc3
2443
2f2d
2c96
2442
2417
21c5
a469
30be
aae1
9e5e
30e7
268f
af4b
2fec
2d16
3001
2733
aee8
b637
31e0
2d94
212d
29ab
b067
35b1
3304
31c4
2a11
a0f2
b76c
2e1c
ae5c
aae3
2de1
a4d7
a486
aa2a
af52
b5f7
31b0
2a69
2664
32f5
3341
316a
30b7
345a
2c82
2c2b
b27c
b40d
a805
ad1f
b3ab
af9c
af80
b3f4
a994
9d04
a8a5
a555
324b
2d09
3141
a94e
2ec1
b0d7
2ee8
2d4a
af1c
2df6
ad69
2c89
ac69
294e
2fd1
2ebe
30c0
2c55
2565
3381
3273
324d
2d82
24f2
ac2d
ac60
a9c8
a87d
2d58
2c4c
2ce9
adaa
a7f5
303b
31ef
ac8d
2b92
2b16
2e46
32ac
b46a
b103
31ef
a158
31ce
2efa
31a1
2f20
3166
2460
2b14
3548
2a3f
1e68
ae20
2f36
9696
b245
b175
346e
258f
3085
252c
276d
b1e3
284a
ac60
af4a
2bbe
2d93
2e20
1fb9
aff7
b38a
25ff
2ac3
a75e
31da
324e
aa36
317a
2fd0
aac0
3112
246e
2456
15a5
a829
b1ae
afeb
a7f4
bb16
30de
af10
30d9
b460
b11f
258a
30f2
24cc
2e92
31a1
b487
ad4b
b49f
b0fa
356a
a29c
2800
3112
3367
a64e
2384
2c16
3130
1f29
b00d
2993
b45f
26c1
a07d
b01f
1afc
b2d9
b3be
a227
a649
b50a
adce
320d
992c
b1ae
3223
b192
3458
b1b4
26e5
aebe
b435
319b
2cf8
a9a3
b37c
31dc
3515
318c
b1a3
3766
aaf5
25b1
2d5b
a6b9
b07e
29c2
ac08
b480
a753
337c
b0dc
18f9
3352
30bd
32fd
b02c
3034
b02a
2e58
320a
adaa
33a0
b45a
3207
26e5
a475
b11e
3404
ac1e
ac1b
adf5
34b2
2c97
2d62
3027
3028
30ce
2fdd
3144
b536
a97c
31bc
2d20
32de
3633
ae61
3436
2cad
b316
2cd1
31d1
30c0
3442
34a5
2556
b0a8
ae92
9978
3164
b299
a96b
2273
a28a
a697
af14
29f4
33d4
31d4
343e
220f
a604
b90b
316b
28e1
ace5
2418
b14e
28d1
b1b6
a32e
31a9
aed2
2903
a22a
2dee
ac23
29be
31f9
32b3
2c4e
2da6
32c3
3231
2e63
332d
365b
30be
34af
2cb0
ab95
b3e8
2c51
ad18
b4ca
26d4
22ba
2d52
2482
29be
2f00
3078
2cdb
3003
a05a
2996
3072
a8d8
aa7b
3113
2ea3
28dd
2dba
2a98
243e
a44c
3066
2caa
2e6d
2e6c
b07a
2ab4
1d52
b002
b0f9
2d0b
b7f6
afd0
2e0f
0d79
b023
a990
a70f
336f
2a87
315d
b2e1
324c
2b76
2ee0
1a4d
954e
2554
2eb9
2833
b1a8
2e93
2ca2
af40
2d5a
3456
3595
aa42
286d
2c77
ae79
a646
217b
b588
a281
2ac5
aa7c
b574
b4c2
2c1e
b042
a560
3349
ad7e
30a4
ac56
a030
b2f6
2d8f
33ba
256a
3050
9e6e
3347
341f
34ee
2dd1
3688
32a6
31ec
20ec
ad38
b17c
2b36
28a8
ba65
2f87
abef
3269
2880
2a4e
215e
3373
3070
2bbb
a130
284e
2e1d
afe7
aaf1
305d
ab84
2dcf
aa50
28f2
2925
2f14
2b61
3299
2040
2c89
2a83
2abc
310b
a3e0
b061
aa1a
3323
2cba
a880
3350
b00f
b557
2e6b
2639
2f6f
2e77
3240
2b5f
ab0b
a5fb
b117
30b4
2f32
2c87
1f48
2ea4
2e91
25f4
33cb
334d
3068
b85b
b560
ac0f
2e99
b4ed
ae34
342c
3084
a52a
ad7a
2c13
3445
348b
aa5f
add4
2f47
b122
9aee
3420
a818
34fe
2e46
adb0
23d1
b06a
94aa
255e
9e40
aecb
ab49
9fc8
ba61
ad43
acd1
348e
afb7
2fb4
30f7
3189
a972
2ca2
20b6
a619
3090
b17b
286c
b34b
32c8
2c07
9bc8
ace3
1c3b
221d
ad27
2cbf
2884
aba8
b408
29c5
a0fd
a2dd
30a0
2d3f
b3b9
b225
2d18
3134
a84a
b15e
aa53
319e
b510
329c
2923
1ae1
b451
b608
ab62
b570
2ef2
2ca3
3117
309c
99ca
30cb
b518
33a2
a002
326a
2ffb
32d9
2c10
1e6c
3077
2f8c
b82a
b398
a30b
a98c
a1d1
b47a
295a
2db6
b2e9
2e3a
a606
2a87
2fc8
31cb
ace4
b6be
a58b
278a
ac61
327e
2c9d
30a1
322e
26b3
2934
9d97
3075
b0de
2e53
2ff4
24de
a977
b63a
b0ce
b41b
3184
29d6
2ee8
95f2
2cf7
b46e
30db
a802
2e0a
a19c
2fae
229c
b6b2
b25b
331b
ae60
a8c7
299b
2f49
18b3
ab22
2243
3114
a8fd
a802
24de
2d95
2cd5
25d1
b5c0
b3cb
b378
a644
2ecb
2635
a445
a1a3
b423
31bc
aa20
23d8
b078
aa2e
2d97
ab39
2a85
3189
2c9b
2573
3210
a8a7
af82
3074
2c75
264d
ac30
a60e
2d45
3084
2704
2f82
b5b7
b4af
aeba
a8f3
27b6
b00d
ac2c
aa77
b669
2c6a
1ebb
2e3a
a83d
b1f3
2ec5
b132
28e2
3080
2aa3
b5c6
295f
b445
aeea
3166
aba4
3215
ae33
a896
3012
29b5
b626
2e02
b4e4
b47b
b041
ad55
25ea
aed7
adc3
a3e8
2a32
a0a8
2dc8
ae7b
b0f5
295e
2ce4
b1bf
b42f
3570
acbf
308b
2ebd
315c
161d
afea
32c8
0fd2
349c
b406
3413
34d5
351b
b541
b40d
33dc
3250
305b
b073
1f37
2d6f
2cca
3178
ad82
3454
b260
3413
34ba
2c6c
b64b
b475
3474
ac6c
33e9
2619
3437
32d2
b058
2cd1
241c
3142
b520
31e6
a9c6
2ea5
b540
b66c
2f17
1b18
2b41
ac74
34c1
3008
2df4
b410
ab3c
2f01
aa6d
345b
343a
ae73
b1a3
3182
a6e3
3160
340f
20d7
3360
3439
add9
ae00
b1c2
b361
afc9
aed8
b426
2a61
2e5c
b737
b384
a079
3453
2de6
356a
2cad
2ebd
b643
26e6
2ba0
2dd7
af10
b0e7
b0f5
21ba
2a00
2998
aab1
1c5a
a266
2d30
b27c
2fd4
303c
3338
adff
a6ae
b0bb
3342
b4c2
3209
b8b6
2e7e
2ce5
2dae
2ec7
b373
2cd9
3092
b590
309d
2568
2f9c
a477
3046
2b44
b6c0
af17
300e
9e1b
2792
302c
2e56
263b
ae09
2a50
2fe5
2e53
a667
32c7
30c4
b191
2d74
b4c7
b409
b2dd
200f
2e95
1e07
b0a8
3218
b352
b354
2d9c
b205
aaf3
b4e1
2b79
2948
3072
2f79
ac66
327c
b163
30af
a9b6
b125
32ec
2dab
a91b
b50d
3360
341b
3445
28d5
abbf
2f60
320a
3479
20ff
b322
2da7
3113
b3cc
0e0c
2c6e
20d5
b66b
b639
9fd0
b581
af65
323e
b0aa
a643
ac0b
2a9e
b509
2fad
32a9
3083
a762
b34f
2d63
34a5
ac2f
a31e
b3fb
ac23
9cb1
a5b4
b042
b412
3055
33f5
b7b5
3161
aa52
3095
2bcb
b0d2
3107
b58b
2e57
a62f
2a02
b05c
b04c
2e92
b088
a551
2c11
2bd5
b23d
2e51
27db
2ac1
b4d5
3183
b75d
ae4a
a9c2
a577
1a4e
2553
9354
2fb1
2f21
3331
25be
31ef
b091
b608
abd1
b2f0
2475
3061
a013
a84d
ad0e
a8d7
b46c
31cc
a276
2c8f
30bb
32bd
31ab
2d1c
9177
3488
b858
adac
a936
3021
309c
b307
2ad0
349d
358a
306d
302d
2c4a
356a
31af
b0ff
2e8f
330f
a05c
24e8
3413
2a6f
3487
3228
30dc
ae62
b050
aeec
32de
2861
ac56
b272
3052
25e6
b51d
b5e0
330c
9457
350f
a673
2de9
372d
2cad
2c5d
aa90
2d20
9dbe
2e14
a455
ad98
2fbd
2d87
31c7
1f35
242d
33c6
987e
3046
2e54
323b
28b2
329b
a696
319f
278c
3227
3526
36ba
304a
a936
33b1
31aa
b88c
ac56
aca9
3330
ab4e
ad0e
b4c3
34df
32fb
b5b4
319c
3374
328d
353b
b6c3
b0aa
a895
a245
a360
b15c
2e42
36e7
2b02
b160
b3d2
3410
36ed
3590
b1cb
32f6
2a3a
b23e
aa90
ac49
322f
aba0
3490
2ce5
3111
2589
a5c3
2f15
b179
30ab
b0a0
2d20
b369
2ea2
2ce3
2dde
2f4f
2bd1
34cb
b3e9
ac9a
2d2b
333a
aeca
b5a2
b6f9
a91d
3032
2790
a83c
b24a
aa55
311f
a6d7
333e
aa7a
2d01
3076
222e
ab86
a8e5
30a9
b5d1
31eb
b69d
afef
3083
2e0e
3285
1708
3750
b441
30ee
9fda
33fd
b52b
b53b
b4d1
b3eb
32e6
2dab
b0ca
b822
28a7
29f5
3342
2b77
b0fa
b81a
2e35
2e71
b515
256d
3485
a449
329d
b219
2c44
2584
2790
2c6e
303b
3012
30af
302d
a66e
b276
2e46
31f8
3467
b116
315e
aae5
ad97
ad71
33cd
31eb
a9c8
35a7
a81c
b1a6
2d72
20c1
2da2
2142
35df
b76d
2f95
b565
b450
35bd
a36f
3075
b432
378f
b132
2044
b188
34c2
ae24
ac7f
afac
b176
31f8
ac01
a9ef
af1f
b3d2
afb6
2ee0
b0bf
b41d
a179
3060
34a3
b406
35d3
b3bd
2f41
2976
b337
9fa3
acee
2d2a
a6e4
2faf
b09e
34a6
2e6c
304e
b2aa
359e
3359
327d
274b
184e
2940
b48e
adaf
b006
2a4a
3012
315f
33d3
3097
2b4c
3144
ada6
a674
3053
b042
25db
a9d4
2c63
2f4e
2c73
ae91
a525
31ef
2c9a
9df4
a61b
3007
ace7
ac7a
ac02
af37
3198
27da
b000
3342
33d1
2efb
a63d
3450
3706
357b
b0de
2a99
34e3
b4be
3694
a99b
a94f
3182
35ed
333b
b40a
b23c
ad72
3679
b5b3
aeaf
aa15
3436
b432
b49f
b15e
33e9
2613
367a
9d48
2b74
3618
3432
adee
326e
2c58
b526
2e16
b275
3079
acd1
33c1
afd1
afe7
ab6c
ae6a
33de
ac05
3293
ac39
34ed
a97b
2674
b23b
3469
b486
b911
b69a
a368
2e4d
b1ee
b226
b0b3
2dbe
347f
27e5
326f
2da0
30ce
248c
2ab9
2f50
b383
312e
b58b
304d
b66a
a362
3528
ab6c
253c
2b24
354e
b418
2d57
a6f0
34ca
b57d
b59e
b2c0
b072
323b
27f0
ab24
2654
b1b1
307d
2175
2e25
a0c8
a976
ad4f
2ab8
3460
340e
b04d
343b
9c25
2e68
b129
3000
2a5f
273c
34fb
2682
3109
2c9f
3238
2dfc
35f1
35a6
34aa
27c6
2530
b21a
259e
2bb9
3575
2da6
b1a0
2d19
b441
b5aa
2c24
a4d9
2b20
2dcd
a9a5
a957
ac65
ae12
b4da
325d
2cf6
2656
aa38
30a0
2e04
2d58
ae12
35a5
aead
aac7
a903
aad9
a613
b49b
ada7
2eee
3483
33cb
ad32
35c2
2c36
2deb
2faa
b100
333e
b206
33f7
b590
31d1
b262
adec
3620
2d7f
2d01
b168
367c
b050
a72b
aa47
31b8
ac11
ae26
aebb
afb4
301b
16cd
aeca
b846
ad2b
b1fc
30c8
1f56
ac1b
b0a3
3432
3447
b103
2c01
2fc4
2957
2e30
b420
b038
b0fe
ab3f
ae75
b2d8
acf8
3307
2dc5
b100
b484
343d
37a1
341c
af0a
29d2
30d4
b145
2e29
2c3f
2e84
ab16
9c55
314f
329e
b196
b32d
2e1e
adb6
a8dc
310b
a3b3
3465
3622
2c5c
b092
abef
329b
2b92
278f
a50d
298d
a64c
3009
30a7
3093
349d
a2e8
34df
3019
317a
3073
2802
2f2e
319f
a8ec
2f65
2a3f
2fb0
2c59
288b
2e29
2627
282a
a641
9c63
3388
2f98
30c1
2cff
2f89
b065
2c7f
3461
31e6
2c81
add4
b429
252d
acd4
224d
2b05
2785
3497
32a1
2cb6
249a
b142
b6e3
a06a
2d7b
b012
2f57
3007
a942
a9c6
af38
b49c
3263
3083
2b2d
3475
3242
27dc
2a1c
344a
2584
3245
b496
b536
a858
2cb1
b408
2bfb
af26
b124
263e
3035
aa63
2fd9
2ca3
2c24
34e1
aee4
2cd0
b15b
1e86
2dbf
b2bf
2f5e
b1ab
9cd7
ae77
25ff
246c
330b
306c
1743
b299
351d
2bb4
2fb4
3086
ac54
1ee8
b27a
b2dd
ae76
aa87
2946
2057
b0ab
a6c8
29a9
34ba
b069
300e
9f1a
2f47
2f47
b445
b01d
aea3
3054
a863
9895
3190
30c8
2771
27fa
af3f
3507
30d5
a886
ae11
2dde
afce
b436
b1bb
32c5
300d
31f5
302d
2d49
ada6
2dd5
ae69
b2bf
332c
9cb6
ac21
25f5
b13a
b26e
2887
1ea4
309d
343f
2fc0
2e00
307c
2c88
a788
3125
a89e
ae00
2a93
303a
b4bb
2d34
b29c
b840
3328
a7bf
3432
b09b
b118
a432
33b0
2985
2ee4
2fdd
b458
2a13
b530
af1f
3267
9d27
2371
9e06
343e
a9e6
3341
2c0f
3506
3233
a966
b0e5
af7f
2fcf
9e87
b285
acb9
af27
b26a
a6c6
b30f
b26a
b0dc
3135
2db0
b2d4
3285
b0bd
316a
b0e8
2db9
afd2
af86
3491
2fb4
ac98
b01a
34ea
306c
2211
b4cc
34b4
ac49
28cf
2f3b
ac8a
1faa
28e1
abfc
b655
b476
31c5
b1c8
3074
33ab
333e
369c
b3af
3376
b16b
3381
2878
2b1c
31a8
b00b
3263
28f1
ac99
b39e
318d
290d
2f72
b3a6
327c
2842
a8fa
2ce5
24b8
25a9
229e
345a
b35a
a92d
303f
2f06
35ec
3456
b039
331c
31e9
b2e0
2a34
3416
a78f
303a
34f8
2a7a
b0f4
b295
23fc
3384
b2f5
b199
b044
a6c7
a90c
a155
a2fd
2f74
2efe
34fa
aa92
30ae
b77b
a176
aea4
30fa
b05a
b257
a2f5
b0a5
29fd
307b
ac4a
2f7d
b38e
29d8
b28f
2834
3056
a5ad
3418
3108
30f2
28c0
31db
22b7
3471
34bb
354f
2c07
2d2e
b4d8
259a
b095
b7a1
2a44
2ca8
2eb3
2d93
2f3e
2ba7
3507
aa43
2e47
ad7f
2e58
2fbc
af5f
a84c
2b0e
3012
aefa
2e3a
9efa
2bb9
2ecd
2bce
a608
342a
9bb1
b027
a519
29a1
afde
addf
2e43
b825
aa2a
27e9
add9
a826
1643
256f
3137
24d1
3400
b2ea
349d
ae91
29db
27cc
ad69
3328
2f00
2e4f
b16d
2da5
30d7
2906
2d35
3422
341d
aa6f
301e
af5d
ad75
3143
a42c
b4d6
2721
2324
aedb
b45c
b344
b0b6
9eda
a975
322c
b1c9
329a
b505
2d4a
b464
275b
342e
2a21
3405
2b93
32f6
3259
35ca
329b
34ae
3581
34f2
30d4
a40a
b52d
27b8
3185
bb72
31bb
24fb
9c37
2489
b0d2
a217
3466
2c2d
1f61
2da2
27cf
29b7
b277
aef9
33c6
2abc
2e99
1e0f
2ef7
aca2
2a77
30a0
2c2f
28b8
ab53
2a89
a958
3037
2657
ab0c
9a33
35ce
3325
ac46
3036
a38b
b6a7
27d9
2e99
90d7
30f1
2fad
2a6d
adf2
ae26
b68a
3481
3044
312e
2dd1
3595
318e
a8e6
3450
2c98
271b
b6fa
b539
2da1
2fa3
b571
aa66
314f
a3f2
aefb
2cc3
ae7e
34b0
3133
b1c2
b44a
33a8
b150
aca9
33df
b010
3138
347f
aaaf
af2d
29af
2c9a
2c82
ad0d
b06c
ac55
2d2c
b9f4
927a
af82
30ff
2e32
3215
31d5
344f
a03f
2cc1
20ce
2c7a
2c3c
b43b
aac9
af00
3055
aa98
a6ca
ac93
a8f4
301d
b452
a812
2f2d
ae1a
b3f3
2d0c
2ed3
3139
3038
2d66
b5d1
ae4c
2f3a
31c3
aea6
b4a4
9f10
2ae8
b007
2657
b0b2
a560
b41c
b7c6
a85d
b5e9
a5ed
2da5
3242
2d56
2dbc
268a
b75e
32a0
30a0
2c94
30d1
314c
326e
294e
2cab
2df3
b548
afed
2f33
2cc0
2dd8
b2f5
3065
310e
b352
2cb2
2c70
aedd
3093
2d19
3064
b3b5
adfb
3279
b0e9
2f4d
246b
2ccd
2a5a
28b5
2e0a
2e28
30ab
b4f5
3313
2bb2
acae
af92
b673
b183
b5b5
318f
acf5
31ab
19ef
aa21
b408
a6e6
2f4e
2974
add6
30b6
2c26
b736
b271
2a4f
1cb9
a930
2a5b
a871
21eb
2ad6
31dc
310d
28e5
a970
3203
2abb
2d9f
af26
b44c
b42b
b5b3
296b
af3e
2f39
a772
2ca3
b426
311f
29e8
2fce
ab4a
b4d1
24a6
2d3c
a0d6
32c7
3214
2185
2c22
3159
afc7
981c
2933
3129
291f
32ac
2b69
31c9
2246
2fff
b680
b4c0
ad87
2574
a14b
b225
ae22
adcf
b524
3362
2a1f
29d3
b01a
ae0f
2d29
af71
2992
a7d6
a6c9
b5c5
27f3
b410
b149
3097
1f2c
2c64
b0be
2f7e
a043
2c8b
b68a
30ef
b495
b5c1
afaa
b19b
1e41
ae8a
b0a0
3049
ae3a
b098
308e
b32d
b1e4
314c
3147
ad16
b416
3114
b3a3
35c0
2c96
33a4
2c04
b265
31b4
3343
32ed
b592
347b
34ec
3516
b197
b489
339d
3199
3115
acdd
2e1a
3298
2c42
31fb
af90
34b7
b46e
3488
350d
a43d
b237
b173
32d2
ae40
3569
338a
315c
3536
a4a0
a32f
2aa9
2f93
b5f9
3115
ac30
31d8
b3c1
b722
2da9
2f09
31b9
ae86
33fd
2cb5
340d
b52e
a0e0
2608
a511
3684
33e7
a65d
afe8
3285
b169
2540
2d89
ac65
320f
3507
2c42
a9df
b3b4
b2e2
28d6
a9ec
a674
ae39
ae9b
b8f8
ac68
aec8
3340
28e4
32d3
ad1a
3015
b618
3002
20a4
b049
b282
b3a5
b0a8
b122
2f5c
323f
2094
a5ec
a7e9
2ef3
b2b6
2e71
2920
3260
b0db
b050
b0c5
2f4a
b161
3077
b887
a474
a795
313f
2c15
af8b
2dc1
a9cc
b196
ac32
2d19
a834
3116
2e63
2d88
b34a
b09b
30c4
9d12
30e1
2d8d
29ad
25d3
27bc
2f9d
2c5b
2b89
a801
3021
2494
29b0
2742
b4a0
b545
b627
2f24
a9aa
2b77
22f2
331d
b300
b3f2
1f5b
b2e9
a33a
ada9
b009
a71f
2c4e
3232
b0ad
35b5
ae36
337e
ae72
b51e
3442
2862
ae85
b548
331e
34dd
2f01
aba4
b425
327a
31db
300f
af1d
b2db
32cc
317c
ae9e
2d11
2a1e
28ee
b53b
b5a6
b1f8
b0b6
2991
2ebc
a512
2c27
b3d6
a54a
b6d5
24ab
336a
26f4
aad6
a92e
2881
2fe4
a985
29ac
b715
29ff
af00
2f2b
ae6c
b4a2
30ea
3196
b62a
a575
2d00
ac01
a5c8
2763
2e48
b4e7
2d53
a0db
9012
aa53
2969
a7f0
a754
2580
2d2b
abcf
b08a
af74
2d79
ad38
b008
a827
b82f
b412
a856
9ccf
30b9
ae16
ad68
2191
9dfb
3390
b0d3
3088
b420
b36c
2e76
b579
3086
24ef
3342
ac86
af40
2af9
b53a
3468
a924
31d5
30da
2e84
294f
2dd8
30e9
3439
b771
b0f0
a83e
2986
2f35
b256
2ed2

// conv2d_2/bias  shape=(32)  count=32
3199
2eb0
ab6b
2943
2580
337e
34cf
ad2b
2e2a
326a
b2c9
3142
31c4
2480
323b
354e
a86c
b05c
b1aa
b08f
3114
b094
b2f0
b2cf
2213
b30b
a837
9d83
30e8
28f3
351a
2899

// dense_output/kernel  shape=(32x5)  count=160
b68c
309f
385e
366b
b137
a96d
b82f
3bec
ba73
353f
37d2
b859
3769
b74b
31e9
3245
3519
b4f8
29e1
b4c7
354c
adb3
3724
b6ef
b0f4
ac64
3268
2f75
b02e
b467
b9f7
3942
3070
ba3d
b524
37c0
3562
b799
2fc7
acc4
b539
32e1
ba18
3792
9d14
b858
a94c
385c
b1c6
b688
336d
b03e
b97b
37af
af7c
3801
3483
2f98
ba31
aec9
b4ef
33bc
a6ba
3687
b6fa
3637
3619
b718
b176
290e
b906
35fe
3131
37e2
b74f
ba17
3486
ab7b
b84d
b3d7
3689
b819
38da
b6e6
b1cf
324f
2cfb
2423
3570
b3ad
34c8
b7a8
b759
2be6
b3ad
b217
b934
a8de
385e
353a
3464
2591
34bc
bb5e
2ea7
33fb
35f6
b972
3803
b042
3489
b84c
b64e
34f3
2c1b
b1cd
b8ab
21fb
36f7
3514
adba
b827
30d3
b7c4
b7e4
b94a
b94a
b99b
388e
a94b
b5e9
3b2d
bd25
39a6
3261
ace9
3af5
ba48
387a
354d
b128
3587
3626
36a5
b6e2
343d
2cac
ac38
b508
b7eb
b85a
3844
2e25
b908
2fd1
b866
2616
b2dc
3671
2b7c

// dense_output/bias  shape=(5)  count=5
af1a
331c
2eba
ae82
ad2f
