// HAR Model  INT16 quantized weights (symmetric)

// conv1d_1/kernel  shape=(19x1x12)  count=228  scale=3.0718582588e-05
0163
f64e
ece4
1da3
e6f8
f3ad
00dc
19b9
fab4
d9cd
fcd2
f139
088d
153c
e306
ee48
f326
0985
0274
2025
f417
04f2
06f9
0cfc
fa74
fe68
05c0
0294
06fa
fc99
07a2
fddb
0d78
f4d3
fadf
f9a0
d019
d214
f435
021a
f72c
1a36
0f9e
cf3b
1917
0171
083f
2614
ea64
c646
0984
f728
d23e
19ca
0f86
d47e
18ee
e3e1
fe58
2dbe
dfdd
e37d
f6fa
f90e
ebe8
049a
19e4
e4d9
162e
ffd0
05fc
16c8
6c98
62ed
0539
1c1e
b5c5
0d72
182f
98ba
2049
b0df
323a
103c
d3eb
0503
84e7
8001
7a3b
eaab
f18c
2290
dfc4
5c3e
1e8a
cefd
0c27
f69e
175b
eed1
190d
0931
f44d
19e5
dd08
0144
1153
f47e
1239
f5b9
070a
ff97
2690
f8f2
fd3f
f0de
f37c
0d33
02e4
fc47
0c85
089c
f8c3
eb73
08c7
eb9d
f815
f8dd
065e
0e18
f7e4
f6ca
1009
0ecd
1824
f97b
06e9
f4d6
e1b0
0dfc
fc34
086b
f9d0
e7f2
e4e4
e24b
f6e9
fad3
d891
2178
26fd
d5f6
1033
f508
0374
0a5c
d622
d48f
ed8f
06ce
f547
1925
fe23
e44d
08b3
0f56
032a
00b8
f61e
e767
e370
f28a
f186
08cc
1a23
f597
0ce6
f9a5
ea95
2b10
d83d
da99
04db
0195
f1bb
0e31
1f8d
d28d
0652
ebb8
f830
01c1
e373
e4e0
fab5
f658
f099
1cc8
01ad
df1c
18d2
f161
f984
1ba1
f486
e7f3
fb5e
ec4a
d82b
1d98
06b5
dbb3
fd24
e1e3
f347
0f60
e37b
c872
ee14
0835
cd8b
1c3e
118f
e6f6
0bfd
dfe8
f7d3
0a66

// conv1d_1/bias  shape=(12)  count=12  scale=9.5058885242e-06
7b45
68d4
0326
7fff
71cc
7185
5fa0
6f98
6d24
0528
e69e
7f07

// conv1d_2/kernel  shape=(1x12x8)  count=96  scale=3.2436004741e-05
1365
8001
370c
0c0c
249c
2279
7116
dd01
f2ad
8047
c1cf
6b29
09c3
e9fd
5827
1fd5
cee3
5650
27e5
d7c8
c799
0046
6ec2
d27f
189c
6d52
4aef
eb0b
2007
eb2a
69ab
565a
2f5d
2e5f
effa
7f21
da5d
c3f8
c4cc
0434
2ce7
23bc
3481
d494
4a64
e3e6
05d9
1c4e
2349
eb7f
548a
be3c
6792
05a2
ef32
e73e
cafe
66cc
cf1c
5740
daae
c335
19f9
cd22
3936
da7e
3b33
2ae0
4013
c890
fca5
3a1c
b4b3
3cf7
e4dd
4df8
126c
cdf9
816e
0096
fa47
a058
de12
ebe0
c2a3
3602
ea71
22d1
00e2
fac2
55ab
ea7d
7592
1410
1232
40f7

// conv1d_2/bias  shape=(8)  count=8  scale=6.7681345180e-06
599f
e600
5cd3
7fff
5e30
e443
e267
5f7f

// dense_output/kernel  shape=(8x5)  count=40  scale=4.4619982144e-05
2f9d
d591
acb4
f6d3
eb56
db49
8001
d753
665c
09da
45b8
e316
bac2
bbb2
c66e
c239
5e52
f9c1
1e71
e744
17fa
f04c
c7f1
dcc3
dce8
13dd
1ced
02c0
1045
373b
e135
e5f3
5409
c39b
d913
38d6
fe28
d93f
d8d9
1c21

// dense_output/bias  shape=(5)  count=5  scale=8.6692606529e-06
30db
7fff
dd81
b1ba
aecd
