// HAR Model  INT16 quantized weights (symmetric)

// conv1d/kernel  shape=(19x1x12)  count=228  scale=3.9874923441e-05
ffeb
117b
ec4b
fb22
f6c2
fba6
ee38
fdf8
01ec
04ab
04c3
e9cf
0093
13ba
0ae2
03a7
0362
edf6
2122
0092
f5b4
11ef
fa5f
f6c1
02da
f619
0f61
0326
edb2
0757
f0f0
0d12
0071
01d6
07d5
f8fb
251c
127e
0085
0bb5
eb03
0918
f535
219b
f3f4
cd7c
f74e
fe81
2700
0d88
f912
180e
d9f2
f66f
e426
1e9f
e9c2
d8ec
03df
fc05
1b5e
1245
fbb0
2697
e8a2
f407
f7d6
12fd
f85f
ed2d
f84f
f953
2bb9
ba8d
e5ab
27ac
cea4
b4b1
b7a9
27da
2a23
4429
8799
dd0c
e834
f4c7
3577
ea81
3733
0a10
66a3
dd40
8001
de73
0ce9
585e
fd9c
2645
07ef
e8ec
f83e
00a8
f4cd
e52b
f525
07fc
f045
0258
f89c
f0d3
ff59
fb22
f2e3
1116
0d9f
00b4
fd07
0558
02cb
1923
fb38
0308
0399
f6e6
100a
0225
f080
f40f
f516
133b
f447
0cba
eb0a
faf7
0a89
f26b
f92e
fe30
fe96
f9b7
067b
0d35
fbcf
04bb
09ba
1ad3
eb8a
173c
ee09
0939
e49e
179a
f92c
cecb
1267
f1b6
07ef
15fd
efcc
1a57
f16e
fc05
f67f
18c7
f21a
e7cc
0c24
0165
2600
0d44
eed9
094e
f15f
f93f
e7d7
21b1
f366
d1ce
ffdc
f131
0410
0006
ed84
16c2
deed
f3e5
fb81
091a
fe31
e7b1
0e17
f1ff
07d8
03d0
f5bd
1df0
dc07
07eb
f906
07a1
e448
d8eb
fc24
fa3c
0c37
028b
e9f1
0553
df8d
07e7
eee8
18f6
0349
ea70
fb1d
f47a
1c5f
0d2b
da07
2013
f0ef
0014
e41d
1aaa
07db
d8da
1258
ed07

// conv1d/bias  shape=(12)  count=12  scale=1.1900478343e-05
7fff
7074
17a4
7fc0
4ca9
f461
39af
7717
22ab
6826
6962
16f6

// dense_output/kernel  shape=(12x5)  count=60  scale=4.2171944238e-05
5f77
bc81
b986
bfcf
0587
449d
9aae
e112
6925
ca7e
a12e
43f3
d55c
2a3c
da67
44f2
f177
cd95
bb2a
d86d
a857
1d74
f6e7
2111
dbc1
09ca
c580
df36
65c2
1996
b7bd
30e8
d2ee
2e4c
c7b0
3060
dcf8
a73e
f070
b833
e4cc
959c
4c4f
e321
b9b6
f3f5
3ed4
54df
8001
b12c
4787
8dbb
cea7
68ab
034a
c442
23f2
830d
29fb
d162

// dense_output/bias  shape=(5)  count=5  scale=1.0358547638e-05
5033
0606
2c38
8001
b0aa
