// HAR Model  INT16 quantized weights (symmetric)

// conv1d/kernel  shape=(19x1x12)  count=228  scale=3.4457920461e-05
0b89
06dc
e9c7
de89
f7ba
1782
f7b2
fa6e
0cb6
f63f
06e2
eef6
ff2a
0e21
0b3d
0123
061e
f8a3
0cd8
1016
fa31
0d14
fee0
2943
087c
0aef
0c65
f5c2
004d
07d4
0001
eed2
fe9b
01ea
06e0
0e0d
0ae6
c8ba
0ec3
ead7
0c8e
0e58
ed31
1270
e501
e810
0502
e733
17f2
e34f
23f5
fa0d
097f
1954
f412
1bd4
0022
d8b6
f626
fd23
145b
c352
2ade
f673
1b37
2698
eb46
20e3
ee77
de3f
11cc
ff2c
1bb0
3eca
2532
b082
1704
31f3
ac6e
248f
a5f9
72d8
b6d2
d105
ed92
bb1c
d584
599e
eb4c
d23e
7fff
d77d
a5b0
33fa
340e
3f4c
fcaa
f36a
ff0a
1698
f859
f21d
dcbd
0736
ee0a
0f24
1402
0729
eb95
fd1c
ec90
2467
f3cb
0cac
ec95
efc6
03ee
084b
04a0
1382
ea73
0991
ff14
098f
ed15
ed75
0d3b
065a
f632
10c9
fa69
e28d
f1b9
04ff
f0fa
0232
f037
fac2
018a
edd7
fc90
08fa
fdcc
e69a
2320
da7c
0f8e
ef50
23ec
1989
e8e8
0e24
f0da
ea95
08b1
e524
161b
de86
0fae
f257
1e1a
1191
edee
0abe
fa2a
f31c
05d7
ef51
07d6
ca03
1dd0
ff4b
0bb8
28c0
0080
291c
f0dc
ea70
1009
f64d
0f15
d138
0b9f
ecca
1c0b
0fc7
fb8d
1a6c
02d5
e6c5
0d35
fe19
1ef5
d82d
211a
fc3d
0f29
17d0
e9d2
2079
f662
e19e
0748
eba3
02ac
dafc
2743
e269
15dc
1616
f4d3
0394
fa68
d715
03a2
fdd8
163b
d492
1ee2
f6c2
1594
05b4
e18b
0e9f
ef7c
deee
f884
e19b

// conv1d/bias  shape=(12)  count=12  scale=1.2297069244e-05
519d
6a09
7fff
1336
5fda
6b51
0b27
6ec4
1dcd
307a
de55
05e6

// dense_output/kernel  shape=(12x5)  count=60  scale=5.8677473943e-05
3717
d2cd
fdbd
e279
f6cb
c59b
148f
493b
d0a7
d568
321d
eb59
c00e
fbce
f68e
d351
2f9b
a342
462b
ff7b
3980
e910
0732
ff79
0e4f
2c74
0d3d
d6ca
c55b
dbf3
e1e6
04ea
8001
273b
fbaf
2cd0
d4a9
08a4
e32e
f4df
f330
d2cb
28fb
52fa
0459
e9ef
34c0
103b
b23c
ea48
f544
a5fb
ed18
4199
06ee
ca39
1f44
e17a
323f
d9d3

// dense_output/bias  shape=(5)  count=5  scale=7.4895881961e-06
6928
0833
7d07
9e99
8001
