// har_mlp Model Weights — FPGA .mem export
// Total parameters: 3973

// kernel  shape=(19x64)  count=1216
3cf4b273
3d4605f7
bd969549
bd39e7d3
3d7b8331
3e2831be
be819173
be572edd
3e9135dc
3d974f63
be462232
3e56d053
3e94dd87
3e436bac
be868aba
bd2197b4
be44557e
3e059ec3
bdbf991a
3d14982e
be2e8052
bc29a65e
3e1d680e
bca4b967
be065d7a
be47acc0
3df6aa28
3c8d1726
bdb6b070
3eaa6ec8
3d00d2ab
3c3cab7a
bde7b148
3d9475d2
3cba640e
3d364c4b
3da86c2e
3d953e4d
3e4d0722
3e06152e
3dbee7e1
3d5f326e
3e04ca6f
3d8710b7
3be75be4
3db2de63
be44190a
bcebf9e5
3de84917
bd1c71da
be02eff4
3e48ae8f
3d7a5fdc
bc876d83
bd84122d
be803f27
bc941263
3dfc96a0
3e1207a0
3dd7c23a
3d8fe7c4
be5675b4
bd0a1b7f
bc970fa0
3b5ac7c1
bccca92e
3d15a612
3d6afa94
be20f2f6
3e0aa843
be622d45
bc0375c7
be5a19af
3d4d6018
bdea1d8b
3d937d67
be5475c9
3e188f1d
bce6727b
3ca77349
be667757
3e40996d
bda1459c
bcf60ac7
3c4df56c
3e541f19
bd8c92e3
bda763fc
3da5cdcb
3dbdc77b
bd7e0197
3d53a987
bd3c4eb8
bc932d15
bdf8345d
3dd64a09
3db5bf40
bd19841d
be06fbf3
be4d42d9
3cbc68c0
3dc54365
3dd7105c
bbcb6f83
bb672248
3e1b7c98
bcf04c1e
3e47c1cd
3d9a247a
3dbb3e23
3dca282e
3e09edaa
3e10caa0
3d690796
bd616950
bdfd6338
3e1b6b1e
3e8182bb
3d8b766f
be2db099
beb3cfb2
be4f51a7
bccfc9d1
3c1acef8
3d66099a
bde091a1
3c57a9c4
be29c36b
3e066e88
be8fa19d
bd981d61
bd3793db
3a056d6c
bd3a1d89
be00f724
bd827103
3d8f9047
bbc439dc
bc665a2b
3de163e0
3e177541
beb3a5b0
bd027471
3dd50325
3db57424
bce8e5c3
3e5d4740
3dfa9c4a
3d0b8688
3d61b0fe
bcdf8391
3e32f30a
bde1c0b0
baeecf50
3d1497ff
3dce9456
bdf4c3dc
3d9f1254
bd3b84e8
3d97ff0a
be084b8e
be12efa6
3e0f219a
be452427
3da8d4b8
3b77e264
3e1108b1
3de36979
3d5fcc4f
3e35b5d1
3e4989fc
3e7873ac
3da2d266
3e10a665
bd2b60b2
3e3db776
3aefaf27
3cb47489
3e0050ef
3dc78c7d
be053100
bda9816c
3d1e18fc
be24a87f
3e8995d7
3ded75c8
3e078aca
bd0271ad
3b0897a4
3e34e37c
3d4405c3
3e2924a5
bdda40d2
bde7f1bd
be87cc98
3d9852e2
3cc53ec4
bd4f5b1f
3ec1b0e7
3e2c823a
bd969ea4
3df5672b
be4a1e8d
be2619fa
be438904
be1c64dd
3e631062
3ec97daa
3e91fe93
bd1a58c9
3d486034
3e00c9ea
3cc7ffb6
be814bfc
3e24c890
be510713
3ee3513c
be376fb3
3d941106
3e85ce00
3e8bca34
bdee35d7
3b81d659
bca2707f
bd3fd031
3e7242aa
3dc04d47
3e85490b
3eb467d0
be51fb38
3d9acfd1
bbf050a9
3e0c6316
3e5b5a70
be13226f
3cb43bbd
3eafd56e
bb94921d
3ea0ff4c
bd4b30c5
3ef1e058
be7fba44
3e13073e
3d87c911
be1be206
3d92ac38
3ec11a0d
bdc0e482
3df51738
3cdde7fc
3eb1ccf2
3d729169
3e9d8b52
3e72d1a1
3db68072
3e2b4005
bdcc1644
3e5a26ae
be019a0c
be012b2f
3d2bff4d
bd9cf485
3e2eb703
be4a5caa
be44260e
3cdff71a
be041700
3e66e537
3e248f5c
3e411b6d
bd084b40
3ec1e51c
bde84af4
bd007f1b
bdc77ae0
3d14a357
bc71dc10
be210628
3dfd8c6f
be5781d5
3eab18c6
be7e6242
3e9a3833
3e5beed6
3d6a60ab
3e81c65b
3ea9c5f3
be35cfac
bda56055
be2603d1
be1b520f
3e1049a6
3ed55013
be358d98
3e383c69
3e95c30d
3e112984
3d1c4269
be526482
3e0a2e95
3e74ccbe
3bbb15f0
3e702d06
bd9deb01
3d88f99f
be215e58
3d921ea6
bcef9bdc
bd912a68
bdba5a90
3c320a1b
bd73b6f6
be154475
be754204
3dae20f5
be32f094
3e6ec279
bb26292d
3e143c88
3ea5309b
bdb4ec23
3e41171a
be4e4e32
3e34d8a0
3adca7f1
3e3f7613
3e08cf0e
bda12a5a
3d009a5d
3e835fec
3e1c96ea
bcef5e28
3e8a1d8c
3e16791d
3e5b74e2
3e34e1b4
3c864028
3c1408b1
3e1b6b07
3e6a0c7f
bd1f0bea
3e543b10
be44b08c
bdb0a7a4
3e231c82
bcd3e4de
be593427
badcd989
bd7887f1
ba54081a
be28fb55
be4f44e7
bdd94ea3
bd5e3a78
3ddccca6
be0bc0f3
3e8e7712
3eadfc32
3e307e02
bd67e30e
be97ced8
3e35db05
be1fb192
3ea2a989
3d0f6124
3d92fd66
3e19d318
3df352f8
3eb598a4
3e54ac58
bdc7079b
3e9f92a4
be3da2c7
be03b3be
3e0d8f8c
be83ce0f
bd123da5
3dbaa621
3e5fdea8
bcc39088
3dd7c105
3e079b9a
be22c47b
bcc7a743
3e4024b7
bf09f382
3f10a5aa
3eb31831
bdaf383a
3e9cf2ad
3e872e83
beb4c9ff
3e1f8f2b
3ec6f613
bd8945fa
befcb0ac
be4b8eed
3ed3c892
3c795f18
3ee9691f
3e5d57a2
bed80497
bf2245a1
3e9915a9
be7ec077
3e77184b
3e4f9f73
3e8ed2d1
3eb2ec7c
bbdb03cb
3e9b8110
bf0d7994
bd6bf0bf
3e91600e
3e38e231
3f0c61d6
bf242aa8
3da4a5bd
3e3bdbbe
3eaeaa01
3e5b3f81
be12cd8f
bf1c48b0
3e0c4495
bf3be855
bf16d767
3eef4009
bee5eea2
3ee8bf33
3e98feb1
bde31eea
3e83208d
3ec4468a
3f08371e
3edec1f7
3eac17aa
bee760e1
3e2f25c1
3ea64376
3eb84879
bef5f324
bf468135
3e5719d3
beba2745
3c7f7612
bd2c772a
bcf1e878
bf177fc0
bf1b2380
b999f0bc
3ba0586c
bf0a5f0c
bf4254a0
bec1e7ce
bd393782
3f2207c1
be841406
3f265581
bf2e45fd
3e0ba044
3e63d817
bf2315b1
be9e1a08
be620be4
3d961d27
3bff23c0
bda0ad74
3c80edfb
3f30f9d7
3dea3896
bf42ced5
be9b3714
beba5789
3f046193
bf20c5e0
3e64cf79
be301741
bf301119
bd92535e
3e2bb232
bd11a45e
3d3c968f
be119a0a
3bd2a1df
be0da78a
3f1faf40
be386a35
bee75432
3c8a90d1
3e14b1c5
bbc9b756
3f050a36
bd86151a
3d35e42d
bea0523a
be2e2a4e
befadb9f
3dea18a2
3d9f6947
be9c02b9
3e809806
3e03e47e
3d27ac50
be1dce6f
bd8d5270
3cac0a0f
be27e62d
be0317c3
beb821b5
be357976
3f03f7bd
3e7b2a75
bc518e1e
be0ca419
3e35a1e5
be407c58
3cfc6c4b
3dfe31a8
3e323db7
3d1ed473
be4cb49d
bdafc0b0
3bee3190
bd7b078c
bec64a17
3dc9dcb0
3e2dafbb
be772a29
3d86b773
3eb028af
3b9ff091
3d7ed012
bdb2fc59
3d3cd74a
bc84e0fb
bea6b66f
3c2b8602
bc89732d
3db318cf
be5a1e0a
3df47c0a
3da42528
be6e5434
3e22b8c4
bd2ac947
bc112b77
be2b4746
be7ab05a
3e813445
bd086686
3cdfd1ab
be54a12e
bd2cdc3b
bddbbf8d
bcb5fcbe
3ef2dc6d
bd4c8f56
3d175fab
bea4a6f8
bb70b623
3dc7e7b4
3b870597
bc6a9384
bcd4ea31
bcc695c2
bd09e1a1
be5cc985
3b6665e1
bd2fc581
bd0f4898
be54a113
3e70a1d3
be568aa7
bdcb4030
3ed57825
bda76f09
3cec2dc3
3cbadc8d
3bbb4a2f
bdb3b41a
3caefcc2
be415750
ba0a6d51
bd4c3c11
3e56781e
3e27f87a
be1c6f0f
bd65e0a1
bdcd1a43
be7e70de
3e2a8737
3d5562bc
3e75fb08
3b707a43
bd6442a0
bccf6ab9
bddd36c6
bd144518
bd4d04c8
be7ef562
be7106cb
3e2da07d
be26dd27
3e510eed
3e3b3873
bdb3d2f5
be1b4437
bdc33ec3
3d349e7c
bdd8f419
3e00287f
3db7154c
3e2faa84
3cd077d7
3cb1dd29
3cc796c1
3dab2b4d
3ca846cb
3d9f1e84
3db3f0df
be34b2a1
bdef926a
3d82d3de
3e17108c
be69e133
3cfb8eca
3df2e4f9
3d91483f
bdf18c03
bd842756
bd2cd6d1
be4e21a3
3ddc7412
3d9c9d00
be3af6ff
bdf8f58c
be76f712
3e620633
3e397b63
3df5c54a
3e0d30c4
3df9071f
bd1841bd
3e09a36d
3a7ad82d
3daf0121
bd507d67
3e24c3fe
3be25dc1
3e3dd05c
bd1a3b42
be6907ab
b826c362
bc47dd38
3c012327
bddd081e
bda3756c
beabb5e0
3e86cb9c
be3fe9c5
3e4f760a
bc35069d
be0ec0c5
3e458ab4
3d4a0fc2
3e56ce95
bdda7f2e
be479cd6
bd19a6e5
3e116789
be408e8c
3e1f387d
bcf31a9a
bcd9e7e1
3e00aaf7
3dce410a
be05f9c6
bd97e860
be8f0067
3de06b8b
3cbf0030
bd6ed44a
3e650f80
be9081f8
3daeb2e7
3e0ed961
bd4a1116
3db3dceb
bda82aa0
be2b7f05
3dcd3e5b
3bfffdd9
3dbbb1ed
3dbc38c9
3c9cd75d
be84a036
bded8213
3debbd63
3e178a47
3d8cb9e9
3e2d08b4
bd10a40c
bcbf6ed4
be689b22
bcee5ec8
be433162
bde1f0f6
be115c16
baa9253c
3e15280c
3daa0e6e
3d61d8a5
3e208254
bddc8922
3e252842
3e0c27b9
bea3d23a
be4bd229
be58ef3f
be26db50
be4b58a3
3d9df725
be445c50
bda7928c
3b210a05
3d33c4ba
3e6b9f40
bc981cbf
be6e90f4
bdd12d4f
3e09bfb2
be0ad22e
bd7c0862
be7ff8b7
3da39f35
3e62f662
bdf422ef
bdee2217
3cbd0c85
3d9a77fa
3e1e8a28
3d79a5ed
3e0185cb
be7e9369
3db263b1
be256b82
bdbaf868
be26c9bf
bdfa63be
3e8c329b
be3ae86a
be1c500f
bdefa2e1
3e5026d8
be74c6de
bea2280a
3d4e9bcc
3dbae57b
be0a0246
be52839a
3d13a3e7
3d8b2c35
be6d4d87
3d5bd287
bdf53616
be8d705e
be1b5817
bd783bb8
3d2cc267
3dd4fa01
bd1cb17b
be1ba47a
3e516c3c
bd3ba5b8
3e87b487
bd802aaf
3e00dbe4
be33fce7
bd44470f
bd40006c
be59b5a0
be45daf7
3c3f920c
bd5948ce
3e750365
3d49ded7
3da5a7c9
3e4ef285
bc082f58
be729966
3e78835a
be16eef3
3e67d4a9
3d218330
be765fcc
3e86836a
3ea150f0
be7d3a3c
3e46c6ab
3e19b1ad
3e1d3c00
3db923ee
3ddb9450
be2cf6c6
bd679623
3d01cfa8
be2e5260
bdafe862
3d7ba222
bcf1a457
bca947ae
be3ed18b
3eb98b5d
be5a187f
bd33f654
be3736b5
3e5bd87f
bdbad2df
be0e1b79
3e8ef3a1
3dddbc48
3dc8162a
3e7b5d0a
bb44185e
bd866201
3e50c1d4
3e002b79
3d88a232
3ec7f2b2
be6e2514
bbff8a25
3e83f712
bdb6e121
3d08f99a
be344475
3d9d70a4
be7ac9c4
3e748d56
3e31bff0
bc98222c
be47235b
3e1a08f7
3daef237
3e8210da
3c03034d
3cb5b1b0
3da55ffa
3c35385b
3d310ef2
bdbc0b7b
bd22ca6b
3e114ebd
be4d910f
3e3decea
bde973be
3e5d9cde
bd79af3c
3d272a74
3d971a65
bc60a34e
bdd2fbc1
3d15a4e7
3e7e24be
be523a9d
3e387243
3d5795b4
3ddd74b8
3e273d06
3e26491e
be47c7d0
be7fa8f4
3e005984
bdf7a029
bd9183e3
bcabd045
3e4a9f62
3e9dbc84
be4dc028
3dbc7690
bded87c5
3dd30257
be66150c
be3ae69e
bde886a5
bd538a26
bcc10c2e
3deff024
3e5ba15f
be16b107
3df91f36
3e66522f
be20cafe
bdea989a
bc459d72
be2a7493
3e61b8cb
be2591cd
be0a57ed
3e797912
be564f3a
bd7fd174
3d7612a0
3eb44e73
bde654cf
be1253f0
bdfe66e3
bda246c1
3e50667c
be3972a8
3e65c641
3dcb3f7c
3edfa8ab
bdc7f272
be42d84b
bc27bb3e
be242401
bdca3a55
be7d14a1
bd95a93d
3e1fb037
3e2ca7e5
be05e6bd
3e8886f8
bd8eb7e4
3ec7a0b2
3e3eb625
3e0c10e9
bd0ca4dc
3de6a015
bdf82771
bd9b84a8
3e9ebf8a
3eb5a403
bc8d86e5
3ea0d412
be450468
3e4f6c1f
3ea27b9c
be8e0c0d
be38c92b
3e4bc364
be223667
3e19b6a7
be94eff1
3d02365e
3d1d7a0f
be8bcbe8
3eb30fff
bb8c856b
be76e8e6
3da0b49b
be05b3b2
3ddc8a80
3ddf9976
3ea05d16
3e898126
3ec795c0
3c37538a
3e55dcb6
3e422f78
3b2864c5
bd5d6f9e
be13cb8d
3e3e628f
be1bf3ce
bdea58af
bbb5d30a
3dfa898e
3c181b63
be19300b
be319459
be1c2f3d
3e5649ce
3de237fb
3dfcce2f
be27d66a
3e6b427b
be3c59fd
bd0bbf12
bd78ca29
be13e469
3e25385a
be57e8b0
3dbad0da
3e668031
3e02864a
3cadbb63
be7e2d7a
3e4de34c
3e20280b
3daf0cf9
bc46036e
3e834018
3e4b7bbe
3e00ef89
3d98fe72
3e68b218
3d8ca49f
be40c410
bd3fd64e
3d983bdb
bda35113
3dd445b9
be561dae
bd992b1f
3e31b49e
bdac21b0
be261c3a
3e93ce71
be6142be
bd7f0f53
bb540880
be2fb406
3d4b9fb6
3d74c455
3df26933
3de43c51
3cf50be2
3e886622
3d2de2f6
3e5945d5
3b57c88a
bdb9541d
3e022f28
3e1bf26e
3d4e2cf2
be13af15
3e84c7eb
3e4b0563
3e650781
bdac40e7
3b9f4c85
be02472f
be879f0c
3e1250e1
3dccb730
3e94b0d4
3e1a02cd
be26c59d
3e5a79e5
3e8b8ad7
3e255a75
be22b2f5
3ece8024
3e1993fa
3e06fd0b
be1d484f
3e3dbd87
3d9dfe7a
3df856b8
bc514168
3ea0a813
3ce3e3d5
bc2ac6d0
3e30684e
be655f28
be2a045a
bd5b4859
bdf85d93
3e74502c
3dc96217
bd928367
3e66570f
bdd86975
3dbe9c1c
3e45a124
be8d5066
be4730f1
3d701681
be4e68e1
3ea03937
be63463d
bda83462
3ae5a0dd
be45f4e1
3ea2434c
3e73bd86
3e08135d
3dee74c3
be804fe8
3e47381d
bdfe644e
3e812791
3ea71327
3e18931c
3dfc07b2
be5743d0
be101440
3e54d843
be1c5c42
3d073cf4
be37f208
3dc7c4c3
3da9d791
bdb6e024
be8d80f3
be005ab4
bdfed05e
3e17c403
3b81feb9
3c9f21e1
3df5ce28
3e641caa
3e1af61c
bdf71f23
bc743308
3e0fdb02
3d205b13
be463651
be5383e6
3e96215a
be85bf49
3da0b3f5
be366040
bdd8b5be
3e18a440
bc4ea3c8
bce4ef73
3ebb1b1a
3e6e4012
bdddc3f9
bd6bb4eb
bdba78e6
3da6fcde
be18d489
bd256ba8
3e9ab682
be40c2f7
3e0d0544
3ae0d8b2
3e4fbc51
bdf1bdbb
3e939432
bdbdff5e
3d9e7f77
3d7bf7a5
3bcb71d7
be4a8c17
3e8412d2
be088229
3c15832e
be3cf954
3d75455e
3dbb6561
3e73f6e6
3c1c85d5
3e754f64
3dbc7ba7
3eda58fb
bd827c49
be06a3db
be2bd88b
3ea548c9
bd6e74c3
bc8d9ff0
3e532830
3e782c0f
3d8d20aa
bde3e214
be8800ed
3d865adc
3cbb3b8a
3e135fe8
3e82178c
be26c058
bccac034
3e873d15
3ead5c51
3e7a2c14
3e35b21f
3df4feb3
3ea5e6b2
3c9d310c
3e39e34a
3e16e2eb
bca70e32
3eabf26d
3c9fc283
3e02599f
be42c49a
3e40bf47
3e83a061
3ec6c604
bdd1ae63
3df7a2a0
be329292
3e736f58
be4dd542
3e93570a
be8ba50a
bdf23830
3e76d6b3
3e090ef2
3e2829c1
be8bac66
bd8c6c54
3e217202
bcece951
be1f214d
3d97760c
3ecbd4f3
3aac563a
be3d41f3
3e693c7f
3cc9ee34
bc8d7e4f
3dc9011f
be7dddc7
be6bddb0
3e31ee8f
3ec25ce6
bd72adb8
3b9cec0e
3e86aad8
3de0a66c
3d9cea16

// bias  shape=(64)  count=64
bd44b262
bdd45c43
bd9391f4
3e312204
3e4e5295
3de12e8c
3e38a5ce
bcd24c58
bd96c1b7
bdb44056
3c0c0984
3dad4675
3df163bb
3e5cee64
3e176ddc
3e71194c
3e0ce9c1
bd08ddd1
bdd30c88
3db9fa7d
3be9aaa9
bd32c860
bd4cbe5c
bd1cb12c
3e6b77f5
bd93e157
3d102586
3cf84487
3e467d1c
3e079d5a
3e0f7694
bdac8b05
bd6ee7ac
bd4ddd26
bcc611a3
3cedc670
3db2e09d
bd4c132b
3e10214c
bcdd395c
bdaed992
3dff6af2
bc428fb6
bd439cd2
3e813eb1
bd668d78
3e023426
bccad6e4
3e524d26
bd90b028
bcc3f6b9
3e656722
3d3d4bb1
bda904ee
3d6ad2f9
bc9b7175
bd449193
be0caf45
3e77b3ca
bd8afdbe
3e28b219
be032d7c
bc73167d
bba48643

// kernel  shape=(64x32)  count=2048
3dac71c7
bd08b45d
bd88c30d
be873382
3e4dc394
be631412
3dc57dcb
3dab97ab
bd57a60e
3e9415c9
3cf5bad3
3d983f5d
3cdccbed
3e4afc31
3d87b453
bcadcc47
be76d166
bde89105
3de49ff6
bda8caa4
3e5e1b60
3e2e7306
be3f78a1
bec124fa
3da21b47
bd910d6b
3ebe10d9
be206798
3dffb64c
3e0f9488
be615142
be7e12ea
3ea48f31
be8a872a
3e57645e
be48071c
3db3b684
3cf4d755
be617870
3dada04c
3e1bb4d1
bda48d8d
3e578fa2
be86e2d3
be4b30c7
3e01fba8
be53926b
3d75394a
3e726b3a
be022cc2
bdce8855
3ea1b0bb
bd14c1a3
be646aaf
be479972
be3ef5cd
be48e3ba
3e63e6d2
3e5a4aeb
bd80586b
be309924
be38ec1a
3e010b05
3eb97f89
be393c62
be66e55c
3c5d7202
bdaff22a
be5b0cc5
bea4a73b
bd2af292
bc2467e9
be1f6a0f
3d035ba4
bea0371c
3e564774
3e896f72
be633520
3a78156a
be4ddb80
3b964228
bdffd98b
bd4c323e
3dc598fc
bd60e0f3
3e3af0ff
3d97787f
bcf57363
bb6a4cb7
be81eeea
3c841e13
3e01858e
bd2ad910
3df49239
bd66c636
be7567c5
bdc1b6bf
3cf6c1c5
bc76153f
be39979e
be2a13f1
3e4b5420
3e8b2ad6
3e4e85ac
be2099ae
3e1c54ab
3c0743e3
3dc83eb0
3da0f9eb
3e31f093
3dad6061
bc80419e
be9f8133
3de209dd
3d5b11e3
be96d5ad
3e8bd2c5
3e54c30b
be86c00e
3b3d62b8
3e9c3e4d
3dacfd19
3df8c5d5
be260f2d
be382b29
3da26628
bca4e379
be0547ec
3e3ef281
3d9673d0
bdd7107e
bc2086f7
be96e2a2
3ec64b73
3e0c82cf
ba7e75bf
3eb891cc
3e9784d2
bdd67138
3dbcc801
bdd876a8
3e676ad0
3ec9cab5
3e144fd1
3e8bdab0
3d7bb262
3f006b6b
bd55e961
3d852035
3d9cefa8
bec896be
be6f5ecd
3e208a02
3d16bf42
3e67a95b
be684b6f
3dd3aef5
be989d11
bbb2526d
3d9f08be
bd39406d
3d65a193
bcc646ec
3ddfa0be
be2ac40f
bce1c7ea
3c111474
3d315378
be94786b
3e4f06bd
bc1fbd28
3e723450
bdd0fa08
3d80f7e5
3e11b39d
3dd8c007
bdc14c46
bdf4e269
bc7e2776
bd16cf02
bd236baf
be673cfa
bdd481bc
be3b3ed9
be90c38e
be94ab1a
bd99a601
bd996b18
3da29db7
3d0ba7d3
3dd8cb18
be551395
3d28f8e8
3de997d0
3cc84400
bd495e36
bd4640ea
bd6305ab
3dba373d
be7e06f5
3dbd5d39
bd492197
bab1f7c0
3e1239e3
be854cfd
3e171500
bbd44a00
3ddb1d73
bd99c90e
bdcb7963
be61fabe
3e028fcb
3e3b7c31
3c850f68
bda50760
be098e59
be54e3ef
3d1917fb
beb9d633
3e0c6dee
bdaacffd
bd22f342
3e21568f
3e0d7572
3e26047f
3cfe26ae
3ec6e6a4
377e27b0
bdce63c1
bdb81613
be765164
be3933ea
3e7e0247
be9bde64
bdbdb2d5
bd4adcda
3df6e4c9
3dd7f396
beb6d478
bdd2a237
3eb6ea4e
be2edc4d
be5b1165
3e98a382
bc7a0758
3e199704
3e0239e1
bbccaeca
bd2fa00e
3d79a6ab
bf0b5e4c
3e876c9d
bba826a7
3a540317
3d9aac96
3cbe09c0
be307c56
be98db87
3c13dcca
bd2d4adc
3c5d2a39
bd81a7b0
be25cce2
3d8aa1df
3cf15aeb
be353f86
3d78cb5a
bdbbd5fd
3e4976e9
be8bcafa
3d960c1c
be23da22
3e114d2d
be6dc667
3e29c146
be178d2c
be5d022c
3e59b8d0
3d355094
bdd6a55c
bc845c35
bd2e6d68
3c97875a
bd314ce9
bea33666
3e363b46
bb840ef6
bc6618f2
bdc3793b
be8f46ea
3e4714dd
3e08ee12
3e4621a6
bccae036
be6f3254
3dcfa389
be930a69
3d88f96c
bd1cc156
be6796a4
bdb35bda
be848cec
beab9456
3daf368a
be51b2bc
3dee8714
be8b97ac
3cf19726
be518dee
bdc43291
3ec03978
3eba5f98
be557511
be4b4e0a
bea552e2
3de9cecf
bdd6b0ff
3e2e0d6a
bd1e7739
be24e119
3e6e04e6
bd84db6d
bdc0be00
3e302069
3d1a2871
3c6813e2
3e508765
3df6a76f
3db1cde0
3ddde513
3bedb836
3dfbf610
bdcb4a9b
3e030cfa
3e8d4c0d
be1e45b6
3d69ea45
3e26e339
3eaf00ba
be45691b
be102ccf
bdb40523
bd8de71e
bed576bd
3e83a407
3e77a2e8
3e8e5000
3e4e598f
3dd11c32
3de1cdaf
be9b77de
3e35e817
3e41eb9d
3e0b34b8
3e392c91
bc6f1c35
3c5ff7cd
3e84d621
3e79861f
be4bd0eb
3e658510
bd826d0c
3db6ad23
bd26938d
be9fd9b6
3e1f4509
bdb2e13d
3eb235d0
3ef76eee
3e71150f
bde3c9d9
bdae18dc
be0acb51
be5871e8
bed6a2be
3d8b1130
3d194429
3e8e0e9d
be8af5d2
bde23772
3d10e87f
3d914834
3e21600d
3e8234a2
3e0c7a6f
3e195553
3ebe518a
be8ddcf5
3e15d853
3dd12d1a
be4c7db0
be41d630
3df307f6
bd541b79
3de86d9c
3e38d7f3
bebe2dbe
bce208f7
be908c6c
3e20109c
3e3a7a38
3ea5665e
bdc7e04d
be071be1
3dee1e13
be66e4f5
bdd7c5cf
bd3d45c4
bd01ed48
3dec7544
bef776cb
be78a197
be6bbc9d
be686248
bcb2d9e9
3ea1a345
3d784245
3e9ce6fe
beb13f2c
be136327
bd4495f4
3e67fca9
bb558a85
3e158c79
bdaca5ca
3e6cbdcc
be215e7f
3d74f8d4
bd87e1aa
3eaa969d
3eaa8447
3eb29f49
3c6482f8
3e9bba94
3d94038c
be492999
3ea4981e
3dd173e5
bea4db77
beba1005
3d59e532
3e4a0273
3e3616fb
bde4988e
3d8f0cbd
bdcf6261
be117bb1
bd8e1ed6
3dc19163
3d5a8a48
3d94f119
3c471248
bd2494c5
3dbef157
3d7fcf97
be9953f7
bc7433d3
3d94ea16
bd8aab36
bdc54d5c
be127edc
3db1ffce
bc78db94
3cef6e99
be3c042e
bdc4becb
bc8eb781
bd39ae14
3e8c2d72
be784d37
3e5c4097
3dc3917e
bca5262d
3d9a8050
bea5f5ac
be8be0fb
be2f00e0
be37a086
3d081cb6
3e279303
be719276
3eebc679
bd3d5137
bd165351
bc59d8a0
3e806a72
3eada560
be071034
bd78ce2a
3e725b4d
be4ad1bd
3eaadbbd
be5c0534
3e674c58
3e6b0ac6
3dc4a8d7
be87435d
3ecd48ec
bca16d7f
3db8022b
3e73fad8
be14036a
be6c2d18
3d29af92
be1cae66
3dc0696c
3cc2ddea
be222431
be154b24
3d092b61
3ddbb7af
3d853ac8
3d5c5fd1
3d519f2d
3e593167
3d8f36c6
be57b551
bd3ff446
3defc3ee
be7fcc2c
bdb0860a
3b478517
3d8bbbe2
3e0f23c5
be0789fd
3d1e959c
3d86dfa3
3d9808e5
3e249e23
3e47d0c6
bea6b01a
be1ccbf8
bdba4de9
bd746ed7
3bd2e6c5
be023d28
ba8dff3d
3c97d8b4
bd977ebe
3e7ecac8
3d57fdbc
bde3db39
be578b35
3df1ac7f
3dab41ac
3d9be9d6
3eaf363a
3e5e38b0
be93c327
3cc962f5
3da928f5
bbd8446d
3dbf4524
be17381c
3e56be89
bea57e43
bcf51d11
3def3064
bea4f2f7
3d8461a6
3e31f187
bde2b271
bea6da8a
3ecdba0d
3d92b47a
bcbfc982
3e26acd1
bd3749a1
bd913249
ba27df41
beb32c35
3d5c7993
bd20d384
3c9fbaec
3ec765af
bcef71c8
3e657eb8
bda9999d
3db3cd6d
be7b83e3
be68a4de
3e8dc7e2
bccf9427
3d79d671
3e1afc89
be3fe7d9
3dd33eb9
be62918d
3dd37604
be3f11fd
bdca87ed
3e5abb09
3ea61b2f
3c1cf93f
be48fa5e
3d89bca3
be0a8c0f
be1d666d
be0a5cb5
be9d5ad5
be1177a2
3e49df01
3bee6481
3deec500
be7c6b7b
be096bec
3e0f3762
3e39d9d4
bc1e6609
3e92a1a3
3d8daed6
be2b8c8d
bdada332
3cb4b29f
bb7175cc
3d4d0d65
3c4d7bc1
3e6a5790
be5c7754
3e1e5a99
be16ddbf
3d9cc6eb
3e0f8a91
3dff19b1
bb86a39a
3e9be08c
bc3319b4
bd958269
3d6c0617
bd9d319e
bda0e2cc
3e160144
3e571897
3d8eedb7
3d4f6ea9
be29aa5a
bcd5aa33
bdd5257c
3e103c5a
be301aa7
bdb1c0e7
beacf807
3eb9ec76
3d3ac84a
3d9f92bf
bdd6e268
be850b7f
3de6447c
3e7d6dc8
bebbf0a7
bda3af3b
be2dc4b7
3cb2b0a2
bd013122
bed85b89
3e3109f4
bc322833
3e173d3e
bf1121f8
3eddc8c5
be6eb428
3d44eaa8
3e753357
3eb6116a
3dd2c2a9
bc24494c
be8fb0c3
bd7561d7
3dc955c2
bd137cd8
3ee04068
3e077737
be234074
be1c9efa
bc98e419
be315e19
3d88ac09
be285942
bdad624e
3e5ac5ef
be85b762
3dcc574d
3e00d7b5
3d237104
3e9d8be6
3df9b199
3d7af313
be445108
3db67a89
be4696ef
bbba1776
bdf5de4f
be5af55f
3e6d2dbe
3e74b8cd
3da18a39
bd00db89
be94c432
bddbb4ef
be063544
3d3ce17f
3e505168
3e2d7c11
3e337e0f
be507f97
3dfdc3f1
bea13784
3e1ecf00
3e2cca62
be097907
3e2512e4
3e9d1c87
bd7c878d
3ed9c51f
3dbff140
3e18ed4c
3da3aad1
3e621272
3ec120ed
3e5ce53d
bd037781
3d010d20
3eb08a02
bead18df
bd72c99c
bcdb9626
be93fc75
be8a80b0
3e31273b
3e3aaeea
3ec629cc
3e2ac98f
bd2f6fd1
3e86bfff
beb1ab48
3d230d59
be4937d3
be1b1dcc
bba6835e
bda54da1
3e841b90
be2f0636
3dcb7c9b
bccbf021
bdc55243
bda67454
bc2dd15e
be1ee688
be040cd0
3d61e08a
bc10a0fc
bdb35766
bdb53a04
bd8df340
bd1a2cf6
be663927
3d9bda10
3dc5ba29
be5d7462
3d3e9d6f
3ea1f329
be49f3bf
3e25984e
be31026c
be122273
3e686d1a
bc4e33d8
be8f1fb2
bda8c31b
3d87defb
beacac7b
3cbcdf8c
be098b6c
3ea8627a
3dac0ccf
bea4b597
be60e271
3da465fb
be358673
3da945bb
3cc0fb5b
3ece5570
3e17d259
3d9a932e
bdda70f0
3eb0a6e1
be885519
bdb57b37
3eafdae5
be37e4d0
be861285
be296eeb
bddfd381
3c927bcb
be3248d6
bde8d96d
be35113b
3d31330f
3e7d56ce
be7bd688
3db5ac9c
be4fc3fd
3e2df955
3e5e4d55
3dc23447
bd375477
3d4fcb5e
3e0088c7
be2f7c4f
be8737c4
3e2b08c2
be336d22
3e52d22a
bc3831b5
be90afb3
bd321505
bcb5a2e6
be0ace6d
be65040b
3e82e708
be84de3c
bcabaf58
3e302ff6
3e61c03b
beab0d0c
3ddc2f8e
bce7a5d3
3e3d6cd7
be719bae
be02d230
3e15e4f3
be0de459
be31c8c8
3e85d59b
bda5fdc7
3d1b03d3
3e6c24d1
3e5ef205
3e4cfeee
3d9ddfb5
3ddfda8f
3db6a075
3d9711de
3e7250e4
3e1d2634
3e3efc77
3e7f245a
be03a12d
be53f759
be1826ef
3eab8782
be6c8d48
3e5b2061
3e004278
beb424cb
be6ff9da
3e9fe96f
3ded97b9
3eaef0b5
bd178055
bd9a15bd
3e6e2ace
bdea1a57
3d854dd4
3eb14450
be393af2
3e2e67f8
bb92f9b9
be8cca8c
3ed0c029
3d76063d
bd5b9571
3eb07a5c
3ddfbddc
3ee1b64c
bd9ba43c
beabb83a
3e7450de
3df4918e
3ed0a587
3e8748be
3e92344e
3e562291
bdc1942c
bdae01d2
be8f08ce
be744107
be4c441f
3d5dbca5
3e468e9c
3a2b9075
3e1394b9
3e5f6376
be4d1080
3e3cfeeb
3e260ec5
3ccff358
3e99d70d
bc264c81
be606d32
be6ae46b
3d89fc8f
3dfca465
3c864c49
be5205ca
3cb85231
3db997e9
3e7e7f55
be7f5211
bd863a76
bc0c254f
be3b9890
3da9345b
3e81f2ac
be975198
3e6f4b4c
bcba34c8
bdf446fb
be5f61d2
bd960a60
bd92ac8d
3e7d77ec
bda30b96
bd8346e6
3e256569
be408879
be0dbead
3e0ebce4
3d85494d
3e2ba901
be1bbd41
bdb7823a
3db0c846
3d9c2eb0
3d19a14c
3e8696eb
be278f54
3dec9941
3c90373a
3ea3296f
3d1d3d07
3c9f651f
3da84f74
bbe6db91
3d41232e
3e58583e
3e4aae55
bec39929
3d9f04b4
3da84ed4
be502dc6
be8bbd88
3e3fea86
3d598c8a
3e81df4c
bd10dc78
bdc65dc7
be0ee9f8
be8441e4
3e20414d
be3d8de8
3c98a679
3e27f23c
3e3bd85f
be6418d8
3b251b6f
3e8c0396
bdba1348
3e2a9298
3e2639ba
be4fd1b1
3d914bae
be714e4e
3e71e8a8
3a81312b
3e62ceaa
3dd46885
3d631eab
3c71e298
be1360cf
3e6b9703
3dabae89
be4cd49e
be25ae30
3e4eb521
bda53cc1
be1eadfb
bc5c6311
bcf91b7d
bd06b556
3dd93a8b
3cc7d42c
be8ee3c0
bb83ae5f
3d4b9ae0
3da34a81
bdd0f9bf
be1b042f
bd61bcb6
3cc0d490
be51af38
bd3fbfa8
be959176
3d2f4b55
3e837c07
bce46df7
bd938703
be1ab3a1
3d8edf23
be381fe2
bd30c86d
3de03c42
3def0221
3e17fc6a
3e5b963e
3df1e093
3e30d692
be941e60
3cf2b72d
bdb7952b
3e037558
bd486182
be512bcb
bea02770
3d84093d
be096f7a
bd80fc1d
be291e9e
bd76c9b1
3ea80dbd
3e6e6b30
be666150
3dee7e29
be44933f
3ea508e2
be28849c
be1c2f7c
bd08a12d
3c848c5a
3ddecb2c
3ea700ab
be07e4a3
3dd73847
3e0a7b2a
be074952
bbdf3005
bddf34cc
be4e15ba
3ce775cd
3e662d19
bd02e1d4
3d41d192
be01e142
be5f47f0
bcca7b09
3edba6f8
be434b7e
be2afd06
3e2fe4c8
be8310fd
bd91292f
3e03a462
3b57ddbd
3e436ed8
bdb6332e
bdc86ae1
3def1613
3e06f4a6
3e688613
bdd56e55
3cf723c7
3d0395a7
be4f4f03
bc86a2fa
3d8bb706
3e6e985e
bd91553e
3dc48d43
bdc673dc
bbcdb5c4
3e765071
bd7e85e9
3dd6f16d
3e3f836d
3e3c5345
3e0a9011
bd965b90
bdde8c06
be1180d6
bd62e754
3d5a9145
3e05c70c
3e6ac409
be54f351
3df3f07a
bd6ef920
be221969
3e4a781f
3e7249fa
3e3d2eba
3db12351
be2bc552
3d99168c
bdaf8b55
be312a32
3e29f61e
be19c214
3dd86da1
3dcc2a29
bbeec5bf
be4cf1f5
3e207f0b
3ca6dabd
be3147b4
3d59ba95
3e592085
be548e4f
3dd35668
3e0c2256
3e5cceab
bdb34809
bdd40ea3
3e456f37
be0998d5
3e37cd3a
bdcef26b
3e1696a3
be33ccde
3c3b6943
3e257165
bdc454e5
bdb9acf1
3d8e9fd2
3db5a55c
be590124
39f5e406
bdc9fafc
3c955462
be573619
bd5d413f
bcab7bd9
be186168
3d893e78
be5c5e28
be3e4448
bba75d65
be2b051e
3b893735
bded4706
3e16692b
3e83a3e3
be4e8d37
bd81bdb8
be057b8c
3d2419b3
39186278
be55b6ef
3e57bd81
bccb8295
be74e527
3d3541df
bc9a07bb
bcdec0c3
bcc7065c
3d8e6bdf
3d721308
bd3f0b59
be83f10b
be8a61e1
3e003222
bdf07d3a
be621492
3cd95aa8
be39dca8
bdf1188a
bcbb5c17
3bde8bee
3e0ddc40
beb186ff
be6a7b5a
bdc64064
3e261385
3e2ef147
be0585ce
3e3c1e4e
3dd2373a
3c52a81f
3e054f2f
3cf17892
bd04220b
bec4e180
bd8a9037
3bf9c038
bd7bb09a
bdc2ce25
be867d68
bd314ccd
bdd7c9d8
be810e70
3e6cac6d
3e09b536
be16d8a0
bdf1536d
3e9a7d81
be33d4e4
3dafa7a6
3e77a799
3dee1e1e
be8129cc
bd7747b2
be9cc9d3
3e8529ea
be6b4c58
3cdc8cb4
3e82febe
bccb5d1f
3eb0c7c5
3e546657
3db238dc
3dc44cbd
3db6be39
3e81f6d4
3e5d8906
3e182917
3e4b6356
3c6ab434
3eaa9e84
3e2c5946
be94d5ac
3e5feca9
3c150443
3e48802b
3e82bb39
3e6f4509
3e6bc72c
3dc5c04a
3d0b6925
beb731da
be97a2c9
be40a72a
3e0d35f6
3ec59f92
3e1667d2
be03ebe9
be5b7ede
be94e2e7
3c89d1ab
3e8c9649
bdf1d05d
bcc82c1b
bddfd52b
3dd18047
bd871974
3bd6fdb5
3e2ac331
bc6e2b41
3df621d7
3d8b9f4f
be5de091
bce61b07
3e8c9302
3d84c485
3db648d8
be1c5eaa
be2b9f90
3d4ec947
3e03e617
beae39e5
bdf2eb4a
3e553777
be86cb38
be002953
3de01283
be00b760
3d1a07fa
be3c59e9
3ca9e1e2
bd4a34e2
be2916a3
bd0b3713
3ea850da
3bc6a513
3e5f27a9
be649833
be281310
3eb86783
be6605ff
be265bea
3ed2b25e
bde9ca7c
3ed38232
bd4596cc
be4576ed
3da2a294
bd9011d0
3cf2ba76
3e47e694
bd9b9b49
3e98d793
3e9a0ccd
be3e9aa7
bbcb8435
be2f8a83
be032f43
be379355
3dc55f4b
3da4bc94
3d86b6d1
3de3aef3
be6529b0
bbb7b600
3eab92e1
3e0fab0a
3e0c8205
3e5514cf
bea03329
3e3da165
3e8087e9
3d8d4c80
be34db34
3edc66b0
bdf6b41e
3eb9f6ac
be036751
be270619
3e3f30e1
bde43d07
3e0453f7
3e7f7df6
3e434e8b
be5963bb
be0fe1a7
3e8c79bb
bde5c77f
bed7b102
beabb591
bc033f76
3e702263
3da3fd2f
be834fa8
bdbbb583
bea2c1d1
3e1264b5
3dc90ab4
be2f4827
bdf29e2a
bcf166ed
be610b7b
bdecdbac
be0b2cd4
3ca03cbf
3d1826cc
be19c637
bd95721d
bea62cff
3e17da78
3eaf8f5b
be97d966
3e209309
beb3fb78
be712122
bce16d0f
3d447a89
3d4154d1
be5f75e4
3e4b3922
3d9103ff
3e34e52b
bc7465ae
be136688
bc84e8a8
3df80956
3dec4c64
3e10b178
bd982aee
bea01f7a
3d0a1e4b
be75cd8c
3eb33d5c
3ce01b82
bd663031
3e150907
bd31fea3
3d5ead20
bcdb8e78
bebb5876
3d1f8919
bea250bd
3d272359
3e369aa7
bd8014e9
bcbfe1a9
bd021ee3
3e1f5356
be949053
3ee2ed56
bdb3b822
bc4492d8
3e4caeca
3e1d6aed
bed2c686
3d8de0ea
bea3c02e
3e9eb869
be767f91
3db60e52
3ee105aa
3dd263f7
3d95b307
3e9152ad
bdf6f8d0
be755fd8
3dd3ee13
3d0589af
3d904e67
bd957abf
bd4b5dea
be20b190
be61d236
3e476422
bde1b512
3e6b5d7f
3e7170b2
3dc6813a
3dcadc91
3cbd5ace
be9dc194
be19783e
3edb0a11
3de58d21
3e52f851
3e8df00f
bb2aa5ee
3e372d41
bd8cb2f3
3d9d2485
be6367c1
be96acef
3b39546f
bd2b536c
be0ecd6f
be53bccd
3a8f0eea
3dbb2ff3
bda4c3ad
be83107f
bcaecd0e
bd9f74a2
bdd3f3b6
3ddf51e7
be8d4444
bcb5fb84
3d831e39
bea5381a
bdecb212
be76ec11
be4d70f3
be313342
3e25b9c4
3ddeae05
be277a6e
bc8bb6de
bd08578a
3ca6d2aa
3d0ff92a
bda0774e
3dd0b30e
bd02373a
be483b1f
3e7fe297
3dc85b57
bd9fc83b
3db38569
3ea7fd9e
3d915ab3
bd6fd1bf
be148cf3
3e5dbbb4
be1fc7c8
3d159bfb
3e583776
3d420b31
3e324ce7
3db448f5
bdb73a86
bd53752e
3e891b23
3e2593bb
3e254b85
3e768d6b
be67864d
3da1ae41
3e4affe9
be723323
3beaef5c
3d82dcef
bd7609e4
be1ab687
be9b513c
3e3077bb
be68589c
3d9c46d0
3e4cfd22
be11475a
3db3068a
be1d7723
3c2fa061
be006f0d
bd73cd28
be65463a
3e22f65b
3e5f5802
be90e0c5
3e1f8b4f
bce16335
bd900101
3e006b07
be82ba11
bcea334c
bddd3d95
be22d3c9
bd84687a
bd90fb14
be30a2a9
be64cd06
3e4e2fa5
bd9cdda1
bdc39561
3d9f6f83
be6032ad
bdb86442
3e33f0df
be906c22
3e243833
3d78a349
be04e72b
be146cd1
3e192c42
bd2c444d
be06799b
3e7aaf64
3e33500b
3e5f2492
be5e247f
be1092cf
3e9400e1
be8a1c7f
3eaa54bb
3ce7b9ee
3e8c7af8
3e16c405
bd8fa60b
be027660
3e08fb8c
be3f7f0e
3aa8616a
3e207771
3d9827a4
be01eb6e
3da9ccbc
3ca84696
3e983fb9
be0b90c0
bb134c42
bdd1d105
bda62173
3de8e50e
3dc7f892
be569587
3dfe5d37
3babc09f
bb267575
be93b1a3
be631082
bba50fd2
3dc63c3e
3c441da3
bd9238b7
be9b0657
3c7bd112
3d0aa200
be1af7ae
bd16c884
bdb449b9
be585277
be082607
bd9a8d90
b9bc3262
be3e9fbc
3e8bdbcf
3d245f4d
3e3d7dfb
3d981eb1
be5ff823
3d25dca8
3d2ddb42
bd9d4135
3d52a876
bdbab910
be666873
be799f31
3d3b8691
3c2f52ce
3e3ae126
3db39add
3dd53024
3e014479
3e0ffd32
be2f4044
3e338a0c
be72cc5e
be044249
3eacdb90
bd9d6ad0
3d424ed8
bea5f7ec
be91cbf8
3d41d0b4
3d8b72ae
3e00d95e
be6b3e00
3d42f47c
bd07d77c
3e245fd7
3d954454
bd55e20f
3ccca2de
3b5bb44c
bc9a42f0
3e52c90b
3e3d19c7
bdbc1045
beb5100f
3eb8487e
be592f12
3dd805c4
be5ffb7a
3e138f0f
3dc1472f
be5fad9d
be6ddfea
3e5c97f0
3dfed0c0
3eaa9431
be5668aa
3db0d4c2
3e0775b8
3ea5e96b
bde25766
3d5e26f9
bdcd10d8
bdb88799
3e105448
be9d7af5
bd6541d8
3e107a2a
bd878662
bbdaefec
beb8b7be
bd00d052
be3e9bbb
be8034e9
bd553d55
3cccd002
3c357b88
be29fb17
3ec02bae
bdc39be8
3d9aa586
3e7669b5
be2888d5
be3dad2c
3e35ab73
bdf84636
3e64421d
be3853a0
3d502523
be813233
bde7a123
bd589cca
bd985e38
3e8f4181
bd9f5b03
3ef47d66
3e146b4c
3b8beb3c
3db53134
3cf00ded
bea602a0
3e799520
bef015ea
3e3bf2d2
be6e1ad1
bddcbb52
3dccfd92
ba81f472
bcc73725
be5b30d5
3d2a4ddf
3cbe3d57
be6592f1
baa8efe6
3dd02692
3e6c7f61
3d746eea
3db471d2
be502eea
bd7a7f98
3cc59646
be8b0777
bdf34374
be57dee5
be0fbfa9
3d752996
3e050fe8
3db68d11
bdfa4ffb
3e1d05f4
bd9cdf53
3e2809b1
3ccb7419
bd2ff8d0
3b09737a
3dc416fd
be1578d3
3e3a91c1
3dd534da
bdcd0e4c
be63e6e9
3e71ec55
be9de78b
3dd9f6b5
be55ebbe
3e9442a3
3e772079
3dcb0afa
bd490f30
3c0d41b7
bddfb81b
3e335714
3cc0ebe9
bd502e67
3dbcbecf
3c001897
bdfc04b6
3e9c0548
bedd4b5b
be66f3de
3e3bba85
be40b06c
3d8f2989
be75d553
3d705c5b
bdffdf14
3e00de1d
3bfb4c32
bdc30490
3c1a2208
be5c67ed
be89d1a2
3de2e708
3e0272eb
3d284687
be13efd9
be03d4b8
be191538
be1dfe6e
3e0f640a
bd2d6c59
3d2ed6e4
3db15d69
3dd7b23e
3eb35bd2
bc98c2f5
bc6b1b69
be4d7aa3
bd6defef
be81143e
3d2c31a5
be0eee12
bd934216
3e12d6a4
3e47b007
bc096065
3e3ef247
3e36693b
bc62442e
bd1003e4
3e15c6f7
3e7c99cf
3c7e1949
bdaccc86
3ee4a76f
bbd632d9
3d58f20c
bd5a968c
3d99f598
bd1108e0
bdf5ea62
3e25e3da
3ed16640
bde841f3
3ef51f40
3dc2c903
be9e6cfd
3e0bdb55
be5767ea
3ec83010
3e87adfe
bddc6d5d
be0a4752
3d1017b7
3a568293
bdae9d8a
be7014d7
bbe23e95
3de19696
3e13533a
3e86874d
be5f9ea9
3e0183a4
be22e707
3dcc096f
3e52051a
3e7e7636
bdde95cd
3c59b6a7
3deeb1fc
bda1d317
3e8a1698
be43d317
3da92bf4
3e7026f5
be56eaad
3d68dcd2
3d80cabe
be1f168c
bcc3b6da
be2f3acf
3e876e7a
3da4158f
bd2ec27b
be327e08
3e80d6f0
bdf73050
3c803db0
beda785d
3ca15e06
be86ab62
3e79dc3e
be0d6be7
3e0b9ce6
be6e54ef
b973a506
bcda337e
3e14809f
bdd621f5
3e879a27
be4b22f6
3e196f35
3e1cd4fa
3e8bb709
3dadcc0c
3dc74f50
bd75c72d
bd0123e7
3d5e2323
3e0afcca
be4938d2
3e00bc4b
3e4f3e1a
be071ad8
be880f9a
3c272778
be97df0f
3e009d00
3e66585b
3b89ae38
3e02a678
bcbcee8e
3cebc8d5
3e0d492a
bea6a70d
be89b153
be0edcae
bdebd1bf
bd7a82dc
be886910
3ee3ce6e
3e5bce30
3d8c987f
bd22aea4
be67ed12
3e944da7
be25af8e
be0208c0
3e02ba8f
be3cfd9f
3eef640e
3e102bf7
beb67fa5
bdc76efb
3dc357d8
bd2ea8c3
3d225525
3e81affe
3e1bc7ef
3e877814
be58d4e4
be98b538
beb5ffba
bf02a2f8
3c0205e4
3ee92904
bd90255a
ba0aa313
be52443d
bebc2873
3ddf541c
3e0c10c0
be7213af
3e0cab98
3dc554a5
3d5ce322
bd80925d
bda62c15
3ea28e29
be90440e
be3a91ff
bd179244
3cc37b0b
3dfe312e
bd0ed2c8
3dc71834
3ea71670
3e879439
3db18530
3e3b60e9
bebfe670
be33277b
3e8bcd0c
bc58a7cf
be31b2e5
be54f557
3e321fda
3e4af5d2
bdc4397f
be9bec35
3e7d42c2
bea2f613
be299bdb
3cf99909
be0e6dad
3e7c959c
3e036c5b
bda1393c
3caaf03f
be1dea98
3e2e3d81
bd9651b2
ba9fe6ea
be74f52e
3e7aea06
3e0f43c8
3d527904
bc1cb1a5
be415f51
be0122fe
bbd212f2
3e3875ac
3d31812e
3e3c3f82
be3a319d
bcfc3da2
be89a35b
3d5c6399
3d754ff2
3e2831f0
bdfeb65e
bdf9f849
3e011e9f
bbd1967a
3d2cbc7b
3c995d5f
bd030406
bddd871b
3e6b950f
bd383ac8
3d0fc4a2
bd7fc796
3c0bfb76
be07ab05
bd03f118
beba6f2c
3e1f2c21
be71d29c
bd7d3272
3bc6cf1e
bee16ca4
3db4b3d2
be0be511
bb47716f
be9228f2
3e93ba9c
bde04b51
bd501976
3eef5e77
bd090d45
be6381f0
bd810925
bec9dbfe
3e9a73ae
be815319
3e1e3d73
3ee2da0e
3e08311a
3e9eaf18
be6e5b50
3d8dacb5
be94244c
be848336
3e7eed0b
bd37aeb3
3df0b433
3ea49246
bc117ccf
3ea8355a
3e006864
be72bd65
3e771f20
3dc5014e
3dd8c49d
3ef0c8ee
3e582a55
be78f169
3eb3da8d
3e07fb58
beac360a
bdd6af78
be0c9df2
bc7df03e
3e90cd20
3db061ea
3e5f2970
bddede43
bc82cc43
3d95bdc2
3db940da

// bias  shape=(32)  count=32
bd7abd44
3d8806ce
bd015642
be051568
bd49d201
3d0f40fa
3decc49c
3d44316a
bd0c7516
3e1a8e4d
bd562e34
3e010a4e
3e17f905
3dc06c87
3d87ac97
3d5f0e9a
bc2b4e97
bc8ff21b
bc111bb1
bca3d467
3e148d8d
3e164864
3d99ef29
3cc94af6
3d88c529
3d256595
3cfaf70f
3d8ede9e
bcc0145b
3da0dc21
3d7bb015
bd17b8b9

// kernel  shape=(32x16)  count=512
3ed4bd5c
be994fd6
bedc43a4
bf04762c
3c627064
bdfe5236
3dd4e1c3
bee382b5
bcfa39d6
3e9ee58d
3e00df93
3f168551
bc4106bc
3eb074cf
3e872355
bed0afc2
3d0d573d
3e9c3938
bcfd42ec
3e27844f
be577540
bed46239
bdb3dc80
3ee0a453
bda80e4b
beade199
3e70c0a6
bd6826cd
3d66bd7f
be260736
be555a09
3e3520e6
3d9401c4
be54d51f
3e58bc77
be800f9b
3f36062a
bd630fed
bdf9c10c
beb7c649
bf0f67ba
3d46733a
3e08ecb4
bcadadfc
befaf5b0
3da73f52
3d1b11f2
bea6852e
beb7d4bd
be90ecb6
3d06ce8b
be9c916a
3ec47950
be899bc5
bdee1b4c
3dbad723
3e3eedb3
be24a9e6
bddffb6d
be09367d
bc47f4a6
be44e945
be172c3b
bd62fcc1
beaef49e
be3358a8
be17df02
3df54340
3eb19c0f
3ea0d2c3
3c672825
bd3884cc
bd6d0a9b
be0fe83a
3c15fda8
3e423a1e
be1d38b9
bdd3be79
3e8ef729
3dcf9682
3e8a1fd3
bdaad5e2
beec7f08
3e9b1b50
be1d825a
bee8ccaa
bef68a39
bd12588d
be739003
3df62638
3ef63ccb
3ddd6537
3cd91c8e
bb6f2b47
3ea4ee77
3e8360a3
3e72b4fc
3db08053
beacbc18
be72db36
bec4c56b
be9fc927
be96a4a1
3ecdfa54
3dac2871
beb9b6ce
3e128778
beb33514
3d60c628
3c7a3b5d
beb57df3
3e368c73
be66f3fd
be54a65e
3e749f76
becda011
bd0a25d5
3ef493c2
3eabe927
bea9e611
3e0fe9e1
3e09fe95
3d0f776d
bea44e8b
bcc3bb5f
bd60deca
bdec1198
be5915d0
3e4ff97d
bd960557
bee20e1f
be9e5431
3ec1ff63
be2a2274
be756340
bedc25a7
3e9ab968
3e66cf57
3e67876a
3f046abd
be860d3e
3ee19b41
3e35a166
be732df9
be277757
3e718eb1
bd7c4a99
3e04cae6
be0b4a99
3e4d779d
3ebaad15
bca0d19b
3e0951df
beab11a5
3e001ad8
be6f1dbc
3ea353aa
becb6af5
bec1bc17
3e892bc7
3ec4f66d
3e25ed38
beb5d178
bed55b97
3de71024
bc99ce99
bdf80cfc
be5eb1e3
3eb1b354
3e518f52
3e221c99
3eed1b20
be4c07bb
3eb98c5d
3e9156ed
bdec73f7
bdb1c032
3e8c8b4c
be1b57e5
3e8b1599
bec9f52e
be50299e
3e5809a1
3db4b6bd
3d62eca1
bca9dfd0
3e45f6f2
be68d868
3e4c9d5d
be919c31
be732d2e
3eca9898
be5eff8a
bea5d554
3ec895d8
be5a6fe3
39fad5ba
3ee91eec
3e9f2126
3d053845
bcdd4e94
be9e3536
bec2a5cf
be887888
3d1bc354
3b4b2638
bee3be57
be8150bc
3ee1b53f
3e979798
bcb3fae6
3ec64227
3b883865
3b778aab
be305b38
3db2e298
be42d9df
3dfefe61
3ef1b59d
3c66e8cd
3e634a17
be57a8da
3d7c11b0
3ef6840f
3e91d9b8
3e0fcc02
bea58ea1
3e841197
bece3c26
3e239193
3de85901
3e6abf50
3e80beda
be725a5d
3d12e1ba
be83dd8c
3eaa3d78
beabc1e2
beafaf8c
3cd813c8
3e833049
3e44e0d2
bee841d3
3d1bf299
bdd51bbf
be501f51
bef2af5f
3dc1ddea
be7ae621
3da6b6b1
3ecf738a
3eaa7e8f
3d0578a7
3d12c6cc
3ee6c029
3dd9a5bc
bd992573
bee4375c
bf05f866
bdc36e86
3dbc564e
be75a23c
be6504fd
3e067192
be89d895
3f067233
bd09a9e1
3e9c75df
bdf6423c
3f21ca32
3e14d624
bda5458e
3e47d73c
3e5cdd7e
beb4f26a
3e8ccf33
be57ea59
bddac883
beccabae
3eaa82bd
bde40b17
3e518a89
3e2abd14
bdfdcdbc
3e5bfc92
bca9d5f8
3e5f1832
3c5c49d7
3e6d6d0e
beecb381
beb95f2c
be9a1dfd
bec1fced
3eb8617e
3efe36c1
3d193260
3ebab1ba
be10921d
be15efa0
3e773d7e
3bfa505c
bdd0ed3c
bdc5961a
bea2ff88
bbb29c23
be861eb8
3e2e07ad
3db583f4
3f130d4d
bc8bcf60
3e3b9640
be214f2c
bdbbf3a6
3d43d116
bde66782
3e59b068
be9c431f
3eb3c704
3e5c6093
be97dfb4
3d966ada
3ea9557e
be6b16e4
3e9ca2e1
beb8d640
be4e199e
beb68c70
3ee3252e
be26eecf
be46cb11
3a1ef298
be5783d7
3ebb2268
3c9c997c
bea04dfc
3e6f98e0
3d780c8b
bdf49106
3e5d0bac
bd8d6874
3e5d4bfb
3f0f9971
3ed949c8
3da391ac
3da589e1
bed4f61e
beb8fb4a
be638569
bd1d2943
bd115d4f
be2bb0f0
bea40d2f
bd764c36
be83042a
3f0208f7
be3cb6e4
3f1ad5b8
3df3e0c2
bd4a052f
be8ec4b0
be8c997c
bd6977f5
bd847e5f
be2e9e1f
be20ed37
3e8a5017
bde996a6
bede386c
be0db0c0
becf6ba1
3f06982b
be9f7c0f
3e17ec94
bdb4eb43
3e8a3511
bdb4dd57
be960277
bdbd8d64
be5abb75
be286b6c
beb88050
3c354521
3da5cb08
bd108d4e
bdb88ee9
bd9b5e5f
3ccc108d
3d8af96a
be19ffef
3eb4a490
3eb11d32
3e0ae884
3dd02ac3
bdeea860
3c34e8f6
be609a9e
3dc695ad
bee939e9
be84534d
3c0285a6
3dd58604
3d3495b7
bd49f9be
3c794798
3e2e6d61
be649e79
bc1b9407
3ea254d5
be41293d
3df8b171
3e72b132
3bdc3018
3e59a986
3e6e82d4
3f0e1881
3e338348
bbd24914
3d89d57b
bd1a65df
be56bc91
be645021
3efdb74d
3f060417
3ebc8fac
3eb7406d
3e3a532a
be625939
be307eef
3e873717
bdafba49
bea43d9a
be9e52ad
bd0e7087
be8ffb16
3e849c4d
beaef4c3
3ebb6434
3e58957e
3e0c5dbc
3df65d1d
3c5400a0
3d3aed24
3a108b21
3e74521f
3a96d767
3e68d4a0
3d27b33d
bea25a3f
3e9c2a83
3e8987fb
3e86d638
3e2c0d42
bdbba60d
bd5d3dd0
be18be92
be265f05
3e99e0ab
bc2ddf87
3e492d09
3e08a1e2
3e977b4b
be202d20
3e96d627
be78cfa7
be7eead0
bec25105
3ee34886
bea86a9a
bd73ede8
3f106f1a
3eac2ead
bdf2f3f1
bc91be96
bcde03f6
be994dbc
bebca487
3cf03fd2
bd457bf1
bea903ce
beba15c6
3d0edd16
3e302e0d
3e1b79dc
3e22f97c
3f26e5e8
3d381fdd
be5e86a9
3bbfecb7
be78d2be
3c09fe12
3e5e33e7
3d8199f2
bec09bd5
3ecc86bd
be0d3e22
bd4a81b7
3eeabfca
be7d657f
bd027cd7
3ddeb2ab
3e9322b6
be81f740
bedc110a
3e0110c2
bd2bcd7f
3ebd7b61
3e673c10
3e885a95
be806825
3efeb09c
3d4d16f1
bc470598

// bias  shape=(16)  count=16
bdf42fd8
3c4b19b9
3e995aaa
bd8b0ab3
3e6a4051
3e9cc019
3ed23191
3e2a9925
3d81083f
be35982d
bdf4d97d
bdb16c8a
3e121fc4
3d81a72f
bdf3f53f
3d930648

// kernel  shape=(16x5)  count=80
3ee163b1
bf0f1c87
be1a539c
3eebd375
3e3d3eff
3edd6f9c
bee0da32
bee13ae4
beb3406b
3b5d8b66
bf414466
3edc5650
3eae7908
3c677ca2
bf32164c
3f13f9bb
3e6a90ca
bee91d05
3d7cfb66
bd6ec9cf
bef337bb
3e2b305a
be452840
3e06b0a2
bf3bb6cc
bf2014b2
3ed615d8
3ee04a1e
bf1e4786
bef5fd20
bf2a20c1
3e51064d
3e830ede
bf71a6b8
bf2e070a
3efd9ccb
bf0321f8
3e6dfe68
bd1262bf
bf1ead2e
bf273ea3
be153b37
3f22bf9a
be801e4a
bf6cfa9a
bd12c44e
be56d6db
3c25a54a
3f25fd11
bee6b1fc
3ed7d93a
be847243
be8eebf3
3eb587e5
bec75552
bf0c229d
be190511
bef4c596
3ea26ae5
be6b3a13
3f26f8fa
be9a1d01
3f14b2b2
bea67369
bf9ed689
be989404
3ecd2655
bf36404a
3f06793b
bf3485c7
bdcf03bf
bee5bd7c
bf08dff1
3ea68b06
be47382d
3ed3f464
bc3c67b0
be800e95
be3caed4
bf2296e9

// bias  shape=(5)  count=5
be1dfed8
3ece8214
3e8fb95c
bf18c3f0
be94ec86
