// HAR Model  INT16 quantized weights (symmetric)

// conv1d_1/kernel  shape=(5x9x64)  count=2880  scale=9.7791509087e-06
3a72
0678
65a9
2605
1105
9651
0d9f
b8f4
e139
d217
d365
1ad7
4922
f8cd
f1d5
ba8b
1998
fe62
6aec
22db
0b6c
225d
e3a2
4e25
0721
4616
a988
29a0
e091
d044
11d0
0971
f76f
07ee
014f
d1e4
b9aa
2fdc
b8bc
c8c1
d217
fbb2
3f5b
ae4d
3556
0738
9ed3
e718
99dc
9166
e52e
18c5
ec40
ab9d
d276
5541
13e5
31cf
220a
16aa
515a
27ff
f4eb
0ee3
eee5
e7cb
fb32
eb60
13ab
f179
e26f
02b0
0793
239b
2753
10ff
151a
d58a
cf6b
cc26
0f87
042d
dbdf
228a
1f3b
18e2
2502
ced9
c7e9
16a8
d5f7
d34f
c976
1d74
d4a0
0745
0f63
d316
27a7
ef30
f3db
12bd
de11
0c8e
082b
dbf2
deaa
e03e
e7a6
2268
d87a
3a67
2ab6
03a7
2d5b
dc55
f3d2
ea41
3374
de88
02d6
2d64
e1f7
d898
1361
dc90
e65f
ea0e
c995
eeb3
0128
2ab3
d87c
32f1
ef80
f74c
1b0c
fdc3
f585
2857
ca19
bd3d
b515
0251
3de1
2a8b
de1f
0db2
11c0
2904
0795
19f4
e1ee
e8b9
148c
3cd8
e307
dd74
e0f1
f610
fb34
20a3
f813
074a
e009
1004
bf50
0cde
e581
3275
0f0a
c3b8
f5fb
18e1
ecdc
fedb
cc77
0c34
0ce8
1b05
149f
19e1
03aa
de9b
e2e4
ce69
c82f
e2fe
2d5a
336f
ec11
0748
cbb5
2899
2d70
05af
1a3f
ef0d
ff76
ded2
4507
dbe4
0a5e
1389
17d4
e286
f10a
f90d
e817
2f81
f3d6
eb18
e5ea
10af
f640
496e
2077
033a
46ac
e163
3743
2856
15ab
173a
4762
fd33
c833
ec78
fe2c
d969
16bf
5e48
23f1
c981
40d5
ee03
1212
c2a9
37c9
f7f2
2c38
e07a
0203
0058
0c97
48e7
0c01
0eb1
2994
e2c3
c8bf
2a44
ce4f
1520
18fd
1956
2c7b
b291
c93e
23a7
09b6
0a57
04f2
1829
e8f0
1aed
07d3
0515
23bd
ee3a
2da8
e5d9
f033
2fa6
03c1
125d
e8a9
d7ee
0a26
e54a
c580
f308
e055
07cb
f67d
fc15
cbca
fb6c
dce6
e472
1b99
52cc
0d1f
f28c
cb05
e87b
d264
121b
befe
0d66
18dc
d802
ff54
ef30
03e7
e367
f289
063b
e8e5
280b
0853
4200
d9f9
fd24
06d5
cb7b
c822
c2fa
042d
e8ae
e65f
f57f
27d2
f835
0a76
0ff2
1eef
e0c8
30ec
edf0
15cc
f229
aa94
f980
ecce
d90a
0721
bc10
f710
0183
4a2d
3b33
1949
fab1
fe94
9ffa
0600
0e8d
02f9
ec06
cd10
de3e
080d
0676
f0d7
01e5
3839
4059
cf79
0e24
ef86
0521
1700
e608
d12c
f4da
1c56
285e
0137
055f
ed49
bf1e
17dd
0d63
def7
2521
de5a
0afd
ff9d
d6f3
1d99
304f
1133
1ead
2fc7
0e4c
0837
f7fc
38a8
13cd
e4f5
cea9
07c4
07cd
ef20
0f71
ce5a
f36c
d310
dab8
b85b
3213
eae2
1d99
ba72
1d3f
b42b
2861
d2cf
d0ff
f62e
c2d4
f180
abe7
be03
e421
d5a0
efe8
3809
1226
f9e0
0109
34a1
ece1
dfcf
be6e
224e
e180
e01c
efd1
ffed
1a1c
0315
ea23
db7b
b5cd
d75e
186f
feae
cfba
1c1d
51a3
f1e8
ff85
30ed
fea6
38c5
c2a2
1259
d48b
0aca
0f30
0cd3
e5d3
e01d
298c
cd12
e3b8
e4cd
ed9c
0d06
16fa
dee6
046e
d6f0
ae49
f415
0e1e
e46a
1871
cc17
20db
c2da
2791
afc3
f2d3
0295
17e8
e54f
d8c7
c472
1e34
f00a
f06a
fb4f
df92
1556
d608
c5d0
2e11
ef3b
05f4
e822
bf3b
0959
1685
2d7f
185d
067e
d349
ac86
f780
108b
26ed
0390
cae8
d9fc
2d9f
313f
7fff
418b
d376
1a12
5e11
dcae
060f
415e
2953
eb4c
f464
de47
5383
15ea
ff05
0b48
19ef
22eb
de0b
d34a
e7cc
0c35
1616
ffbc
3961
09a8
1bfb
07f2
0735
e830
0c9b
dec4
127c
b8c1
0272
14a6
06bc
f2c6
12b2
d569
1b0d
0726
13cd
351e
fdd4
fb10
de5d
14e4
33c7
0abd
0eaa
fc79
0747
1eb1
0f8c
d31a
2534
dca5
c634
1b9b
5257
fc7a
ffc5
f844
4459
2a25
1396
5a1a
cfa0
63ac
1dc0
f08d
af58
04cf
c5b8
d2e0
b2f8
bed9
17af
3793
c262
c323
ac65
2d92
db45
6b6b
e89b
ab3c
2bf0
0a8b
4fb7
de6e
508a
ac5d
d337
c61a
10fa
d4d9
ee8d
153e
4554
03ce
dc3a
117d
1df0
b083
f272
fd84
bf73
571e
9a0d
2083
bb63
d635
0859
a974
93e7
e21e
d999
db7a
9fb1
06f7
32b0
08c8
dda1
40c3
2815
42a5
f9c9
fb13
28c0
feaf
27f5
1ed8
0083
e9f0
d82d
0a4f
06a8
2a1c
e803
2f20
2910
253f
d94d
0a26
ed04
1f40
1967
c151
fd82
232d
d8f7
362f
d7d1
0199
d2cb
1641
b6b4
f52e
c3b6
0939
e6ff
df7f
02de
0a06
f6f7
29f0
e6ef
00d0
fb55
f065
e142
15ab
462c
b6cc
e885
d8cf
1ca0
31eb
293c
ee30
dab4
fe91
23af
11ec
de21
e313
fdde
0cf7
eda6
c583
fece
eec4
2539
fbdd
1db8
ce6e
1a69
199c
382a
1436
ec49
f958
1cff
e770
e114
ee2d
c437
e8af
1eda
3b38
1610
2193
3f70
faff
0dc8
f1fa
0fe6
21e5
da2d
f7d7
2298
2c52
1a8b
0e05
e063
2c1d
1598
2ff6
17bb
1421
0b63
c628
0391
0557
e1c0
0763
c97f
dc7b
1a0f
282e
f91e
e862
ebbd
3edb
07e1
09ef
fbdc
187f
e2f3
e224
1c0d
f618
fd93
f969
f82c
e3ac
fce6
0083
2cf1
d337
ce83
f8d3
d74f
4185
1dad
1f91
06a2
1a5d
10a9
1bbe
ff50
063f
2342
df73
ea42
2fc3
e6ec
0cd3
16a7
14ab
3243
f863
cb66
4cb5
de0d
1d30
413c
091d
d6af
eb94
1a99
fc5d
1506
0a59
e446
eec2
1211
ef8c
1a0d
f5aa
f6e8
0470
f644
19ea
123e
057e
337c
24c5
fc6e
d914
3519
d00a
0ce5
1a9b
de1f
c790
2dbb
0f1d
edb8
0011
0945
0647
b827
1c6a
fc2f
ae07
0e0a
d85c
ed23
00f3
e9e8
f7e4
fc6d
35ee
d691
2f4d
fc5e
3ef3
1bd2
077a
e476
27eb
af4d
20b6
1444
fdd8
287c
eca0
e2df
c5c2
e145
0345
1eab
225c
db99
e208
19b1
37e8
f52c
1846
ed33
cbfc
dfd6
d273
e4c2
f636
f9c2
f6f2
2b2d
e862
392f
fe6a
ed71
19e8
27ad
d7bc
218f
bac6
ec5a
dd18
2ba7
1c90
d38c
f582
3b8f
04b5
d2d5
eb91
fadd
2772
08ac
1d1a
eca1
3085
d860
09d0
2a0f
abb5
0feb
c91c
f2f8
167e
c841
1394
f90d
17bb
dbdc
dc36
dc93
030c
a59e
125a
ecd4
0ad0
df36
1aa6
2182
f0a1
12ad
0c16
0377
33e1
37e3
dc89
dd93
fc54
c1ab
0946
0dbb
d854
df6b
1eda
ecab
3875
d6bd
d0ec
fcc2
25e2
10b1
ccd3
e9a3
f550
07e6
050d
1766
d48f
2fda
4888
fc2a
f86f
dfb8
f3b2
19fb
f6b3
edd5
f809
1a34
f984
f6a3
08c7
1472
0ba9
1e6f
cbda
00fe
b908
0a68
1b97
35e5
e148
f666
b110
e32a
22d1
0100
cb95
bcc7
13ae
b172
f546
f121
a106
a6cc
1983
d963
fdd4
eea1
075a
28e7
dc1a
9e2a
1dfd
0fa8
1fb6
315a
b895
fd03
05ec
ffab
e04e
aea4
d18c
1f90
0f82
e9b5
0716
3cac
14bd
ecba
26bf
dc8f
ddd3
9ab1
d32c
e695
0f0f
e3b2
58be
d341
e5f6
ead0
ed4c
15dd
fb05
d47c
2018
daab
20bb
ed1b
0443
b6f2
d340
2aaf
dabd
4f8d
2dea
c9bb
de87
da3c
cc25
e91d
f4e8
c249
ec65
ebd2
17ab
1fa7
be1d
041b
13bf
08d5
1470
cff5
0ace
0794
0704
ca27
d724
d194
de05
d68b
e6a9
e090
d261
d22a
bf87
f9f2
e686
0a1d
53a1
c7ab
d1b6
e29a
0212
30e0
2d2e
15d6
20ad
4f1c
0b4e
2d73
2b39
2689
e637
ea9c
e969
14d9
cac0
fada
1af6
252a
17aa
f18a
0aab
1bfe
019c
0e0c
dd8e
2647
ede0
d695
d824
d3ee
c50c
e80a
d04d
0975
e811
4e99
e9f4
d8f5
c54a
3d77
b2b6
f82a
24bf
ec05
29cf
be50
0cb0
ee1c
0fcf
eeb0
c4b6
2791
fd50
16ac
1e15
18d0
1b75
e3dd
2a15
d509
3ae1
640f
e06d
cc62
ecfb
3dd1
4605
c9cc
6812
f0ff
6ba5
f802
cd07
da18
0b37
a038
f32a
0b6e
fad9
30cc
2af9
a430
e4e6
a39b
06de
d119
75f2
30a8
b211
0431
de76
3d39
e22e
4f49
c090
dec8
f390
190b
17b8
c8b1
3066
1820
ec6c
b527
d042
403c
e034
213f
226d
d117
7556
9ff6
4322
ebb3
ac47
fe1e
982a
8a66
cabc
cc1c
e2b5
ab19
1ec0
f309
fdb3
3892
3702
3b1d
7190
0d4e
ffb3
f34d
e661
faf2
c2f2
03ea
d599
0afd
e7d0
1339
0a86
e215
d004
1724
f842
304e
ce86
1505
2431
d7eb
d3cf
ea81
159d
00c5
0b98
e792
0968
e900
06b0
f18b
025d
e6a6
1387
e85b
0fed
e14a
0c1c
123d
cb04
0c24
ca3c
e7c7
1374
33b8
0b1a
f603
fa97
d9dc
2c88
ffba
31aa
2d18
f5c5
1f35
1db7
e9c0
f039
c1da
2379
d4a3
d012
ce49
c4b0
c05a
1891
eae3
e1c2
0c6e
c76d
255e
d327
dcc5
1071
07d9
337f
e76b
27a9
e124
0bf3
2995
ee50
1793
3354
2281
fbcb
235b
1fd1
3a4c
fc43
2d53
22a5
05c5
f54e
3c7e
25a1
cc46
01a4
1612
eb47
21d0
0462
326e
ec44
b64a
1a1d
fcca
25f0
f54c
05d7
3709
18ab
f4c4
1a2e
0f3e
d353
f9f4
3a5d
e527
00ab
149c
00df
2d7b
1bf1
1397
03ff
f1d2
1bd3
250f
f5a0
20eb
e2f4
22ac
1a16
f4bc
e254
dd08
f67a
3f45
1100
e023
25d0
e6b7
eb11
c171
ee05
14f8
078d
40b4
ea6e
d349
d615
1df8
d375
6772
4b95
e105
4453
ea27
4e2e
fc60
214b
0f5f
1c89
e61c
f360
d5e9
caa4
dec6
07c8
33db
006a
f9c6
dc5a
d376
f90e
dc9f
e6f5
dca2
fc1a
2d20
e0f9
1920
f2df
f41c
2046
fcf5
07d8
13e2
c22a
c8b2
0fc1
e3dd
f2e2
f477
2a4b
91dc
158c
2db0
0203
c821
febe
14da
dc5a
fa1f
04cc
d225
4cde
0ee0
5184
d508
043d
fa86
e168
d4ae
36f5
d4a8
02cb
0889
b6d2
dab0
d784
d044
1384
cdff
df71
51bd
dcf3
0f77
0e7d
490f
2e07
f30c
04cd
f7b9
f18d
0247
2744
fafd
e093
f965
15eb
0a8a
02d3
fc60
c82b
141f
d8db
2b07
eaf8
02a8
d7ab
1af9
05d5
ccf8
e0f2
cbc8
f5a2
ff06
33f2
ce93
017e
1aa3
0094
0c83
f39c
364d
1d56
269c
1db2
0897
b4b1
21d0
fb8d
e4bc
137c
1b25
1f77
fc33
0595
0a63
0b26
dfbd
1e14
0def
e11b
da46
cd74
d98d
e28b
0e11
2851
3885
e3f2
269a
0295
0057
c614
daae
2fb8
c44e
f806
fab5
1f3f
075a
e243
e0a1
07ef
3662
1d77
ebaa
28fc
e6fc
d89b
cccd
07bc
07f2
dafe
f442
0134
1328
2366
ecf7
f9d4
f9af
2675
fba2
357c
faae
ac29
e015
e97e
442e
1cb2
2986
c501
fc78
b67f
e093
e763
e990
de94
30fe
1272
1b6e
be2d
0bb6
e17f
2e61
c9ad
d24b
2068
c5cb
b1a4
f348
a594
d56b
0afa
1c7b
d38e
1454
fcd9
02f9
1dc5
a30d
c7e6
db5d
cc74
f624
dbe9
09b2
ccc6
21a0
f396
dbfb
0d4f
f93c
fc1e
a868
fd82
ef76
e88b
faa6
f131
1197
0a90
e32b
cf8e
d248
128b
ceed
46cb
bb8f
ffdf
e0e8
2387
e040
cc0d
bff6
2bab
280b
d89b
08f2
ed2a
c947
c844
3761
de0d
3882
dcf7
e133
1bef
e7a5
04b9
1baf
ff12
e207
255e
17a5
1b73
f8c7
0b1b
055b
1c07
cf6f
3b4c
15a1
1844
002c
e57d
0328
d703
0d79
f138
d6b1
cf3b
cb73
0167
f800
cd34
12e6
469e
e4e4
4f55
f5bb
10f3
3bda
1e54
7b7e
28bd
d0ff
1dff
34b4
0c17
3d03
4ddc
10b7
2e46
15d2
34cb
2c74
df16
ee63
0a83
1b20
f674
fd98
2506
2017
db76
2379
e3de
2a7b
f7e0
0340
cd6d
03cf
ef06
e9e4
e0ae
1d34
c84a
4657
c85a
b3ab
f3a9
4513
b1b5
34ca
025e
e1a4
1972
c95b
e84a
e7d9
3287
fc8e
016b
e649
0343
d5b4
270b
fb88
e395
211a
df40
157e
20db
6178
10cd
ca30
00e3
fe52
3725
2aa8
455e
0125
6180
d78d
0a0e
f766
f62d
a4c2
1b31
ef86
0cfb
3957
3167
fb9d
e94b
a289
5285
baa0
6aaa
0961
bbf9
3e16
e9ba
43da
ef99
44dc
d9e3
1ede
1904
d862
e120
f73f
46c2
2897
0f6c
0836
f0af
fa73
aac9
218e
0c64
c279
498f
e9e5
508d
d63a
a5d5
b998
dd1a
e046
b73f
1037
c0a7
c2c6
2a44
f305
e369
2a4e
592d
0559
2138
3871
ea8c
2f65
d634
fe8d
e3c6
2c0d
292b
1c22
119f
2526
19cd
19bb
021e
096e
b843
d40c
10e9
0c54
e1b2
e04e
f7d5
2cdd
cbe1
d739
cf69
ef7d
ddc3
fed9
d06d
b9a6
11b0
c4b1
41fb
0e42
f235
0b16
f0a7
2101
0058
d54e
cb84
1e13
d653
29e1
dd70
0e76
1feb
2fdb
fcd6
edc3
2564
11e7
bfb2
f381
0d15
f02e
0d55
cbac
ee97
254c
ab0a
f04d
bc08
efec
e1a4
1207
1633
d72e
d59b
d3d0
d9cd
dedc
240d
25f5
ed0c
e1b3
e91a
dfc3
1a55
0e26
25cd
d0dd
0d12
0a64
d2dd
1d83
0844
f49e
110a
f547
f8d8
f938
d6e3
3122
2f28
e277
ec1e
f6a0
2e9e
01a8
f7de
1b8c
07c3
174d
3d1e
db05
0ecf
d485
e390
266b
10c9
dde8
20e9
1326
15e9
1ae9
f974
e2a6
e698
44ba
135a
21ab
1853
0a81
e0c5
1745
c8fc
2fd9
1c97
01a5
e7c3
d8de
c5e6
f450
28ca
ebc1
fb77
ddad
0f9a
09e1
2bab
d775
f48d
17ba
270f
12a5
d6f9
3489
e4bc
d2ff
de41
1263
da5d
6e8e
3b91
19c3
55e1
24dc
49d5
e47b
fdbd
eed7
1fab
f7af
1f3c
e94c
fd46
d730
0086
4e2b
151b
ee24
e8fe
2827
2866
1acf
019e
1294
f475
2f85
0db4
160f
2572
f611
0e87
c2b3
25fc
3a2a
f23a
042d
1898
0028
008c
2dd0
f7e5
d84c
ce42
2140
b0ba
e438
d630
062a
2a88
d188
d423
d893
1c81
0abf
e4c7
fa45
f3ab
e82f
e4d2
0b49
3102
d4b8
2f76
1167
d3dd
fbcf
d765
cd56
eef4
f6cd
f5d0
1f71
3a13
ec91
fe68
3a82
1a1c
1330
0641
232c
b8f4
ff15
49ac
de81
fd1f
0570
ec5c
dfe4
151c
d760
ea31
fff1
f5bb
2b18
0f96
32d2
e6ef
e9b3
d547
2fd6
eefb
bf71
e1f8
2f2d
3abd
2c92
d577
19a0
ff58
2245
ec50
02c8
0f4a
095e
161f
f45f
0d65
3137
f1a1
1a5c
c9b6
1fd9
f61f
db82
e5c7
3fad
0967
120b
1241
3e87
163f
0087
ecf7
d104
ebe4
2a7b
ff04
36d1
f358
188f
02c9
f9f8
19a1
dbe1
dd01
27b7
0fb7
3fed
f6e4
2675
f86c
1dd8
15c9
2209
cca1
2588
11cd
dd37
fbe0
0cf2
087e
0367
2e96
c942
0efe
122b
102f
1121
2ccf
115d
e677
d645
f292
1a14
afc7
ebae
06aa
232f
cf69
138d
098c
309c
cd80
d218
04f1
1f27
dfb3
e972
046f
10cd
b100
f536
e886
f363
dd6c
eae2
d65d
d9f4
c0a8
0931
bea4
ed4b
e6c1
1411
fdcf
0d27
e406
e25e
0d75
e98f
edd6
b573
d144
248e
cbc9
f8a1
ecbf
f755
f882
cbfc
057d
08be
07b8
f3d6
faf8
feb1
d70d
1846
1fe7
11d3
259c
a334
0b86
270b
d415
deac
4800
01bd
0394
0368
2719
cd66
184a
b484
f401
e1d5
d40c
cf1d
eaf3
011c
ccc7
1976
31cf
37de
c7ea
1f31
cfec
fdf9
d479
e00c
c691
e839
1ee5
0309
2675
368a
d208
1613
dd05
e8cc
37d4
c71e
d55c
dff9
1fe1
074e
16f2
b4d6
2ceb
2006
15a2
262d
d8f2
2927
f364
c966
464d
206c
42c3
eae6
e0f6
33bd
0f18
7d87
5f63
1455
f355
32a0
251e
4960
fc78
e1c5
f294
1f62
f9c5
4ed8
e65b
ee72
dadc
06e0
cade
0a6b
2812
04e5
1af0
2c0a
21c8
09a2
1219
0121
ec34
0023
d12f
f9b5
d279
dc24
02cd
4477
2900
ea43
bb90
3984
c3b1
e9cb
2337
1b3c
2a24
f996
05e5
f4e7
e2e7
1ff1
02f1
240d
e571
31dd
f86c
1600
08ef
eac4
2ba3
0e20
2456
24d3
f87a
1a04
1d67
efe8
3731
fae8
0e62
05cf
e7f2
d8cb
d4d4
dd4a
f924
b7da
3f70
e762
e846
322a
07ad
ce98
ef30
ad66
37e1
1058
63cf
3bd8
d9e4
0f48
056e
4779
009b
4a6a
e115
31cf
1bbc
dedb
dc4d
f835
f029
f4ec
0ac2
f1f5
2eb0
3313
cb4b
e140
d69e
bac3
69a2
d9ec
4e56
ddc1
e996
b2b2
9ee9
ad19
e3ae
ec22
d280
9b42
233f
29c4
0810
2b17
e9f4
0c3d
3f00
fb3e
08cd
17a5
f9f6
06d7
12cf
edf0
1cfd
feb2
025f
20be
e419
f9cd
1338
f4a5
cea2
396b
f6b8
18f1
c57c
f1e1
d936
11d0
dea3
d3ef
c75d
090d
c323
d7bc
e3e5
1068
daa1
1714
1c04
2114
f29e
e19a
1829
e50b
0fbe
dc05
fcdc
11ac
256a
0076
b431
5cbb
30eb
e12d
2adb
d06d
2fb1
efe1
f507
1733
265f
0796
2743
dc20
d487
dd93
b10e
e385
d334
cf65
178f
11a7
1bae
e8d7
18a4
0843
1589
d09f
fb89
de37
f96c
1795
1420
02aa
d93b
1c16
00f2
d855
3204
2bef
e19e
40df
2933
2c0c
36b1
f186
067d
3579
2f0b
405a
0c4c
05fc
02af
f444
d87e
1496
eeeb
0641
2355
062a
0e84
f3a6
0510
0dd0
e581
f8e1
d914
ed15
fb75
f270
25a1
3179
1408
ff88
0513
f4c5
08f8
2c28
e6b6
fe0e
ec8c
f9dc
d123
3024
0d13
00e3
2304
14cf
d814
06e9
1f85
d645
e97a
2d7a
0120
29d9
dcb7
f256
0bca
c092
fe68
f020
1682
3509
d357
18d9
e472
d879
0425
62c7
1971
c8ed
4b14
f366
4f29
01a9
335f
dcc4
1bc9
1975
1433
e63c
1b63
d634
007a
5f2e
13f8
0bd5
3e4a
f564
1a93
df10
1f6e
ebae
0129
18f6
1db2
26c6
2a31
2917
fa45
1eb4
cbee
1294
c721
ecf8
e151
dd95
d792
0b1d
0d83
8e74
e145
07e4
e1fa
2264
125e
bc31
eca9
239f
cb93
1361
3ffa
fc9f
d9cb
1c6a
f8d6
ea78
dce7
099d
0ab7
0040
00b6
2f61
0cf6
04d4
c33c
02e8
eab9
0b87
f25d
536b
f408
d14a
f128
1a33
3b41
1889
e542
3ba6
bbce
d8b5
1193
1eb4
dab7
1398
2b61
c957
be9d
e8b6
0113
e4a4
12ea
c080
f303
c892
f792
0744
e1d3
f7d7
2a2e
fc0e
23b3
f120
0ccd
02b5
2c1a
eeb3
fbe8
d507
d65d
f460
e5c9
f263
1385
d419
b722
0110
dad1
1037
08dc
f3fb
09a2
d870
12d5
260d
1e01
3af3
cbd1
3bc0
c4cd
ea21
02d7
0bff
248d
10d3
e8f8
f922
f717
29f3
f432
eec8
ddcb
de7d
e022
f76c
e2c9
3991
4064
1be5
197c
0ef7
ea7e
371d
0ea2
28cf
e4fa
1757
ef8a
cd67
11d0
f9af
2b64
f007
e3dc
f580
2f00
e8d7
da20
fc2f
e0a2
0396
1404
ec35
ec04
d735
fb98
1fe6
c475
1c24
e035
fc9a
fac7
d3a3
c5a9
dab8
1599
301a
c361
1715
b191
f14a
fe71
cba4
dbe0
f2a8
fed6
b482
d15b
21b2
cb41
ac07
32f5
202c
d5ea
d854
0df2
3471
fa5d
f034
1792
c8c2
1297
ff5e
e717
f3eb
08da
d535
0a55
e6cc
d6fd
d87e
f9e9
d4fc
20e5
4283
ecc5
f911
06cc
e399
1ef3
a8c9
e709
1ced
ec5f
0a85
553b
c79b
0239
f969
04ad
ddeb
227a
a866
e582
d24e
2229
ff69
ef63
db55
0138
06f9
2324
fd6e
d64a
0cb8
e684
077e
d607
1256
bdb0
c663
df63
d1f1
04a5
253a
0502
0a1d
f301
219e
e27d
da30
f762
26fa
0770
d9c9
07ec
bc6b
fb19
f7ee
d925
e5f9
f93b
dade
c907
bcd7
120d
de4f
193c
0ac3
c457
f67e
375b
4f96
37a0
03e9
1273
2def
e11a
48cd
48b1
e030
fc0d
da33
12af
434e
f7fa
cfff
e835
0eb3
15c5
3149
091b
f671
f7c9
f20b
12e2
2e3c
efcd
0ec5
20e3
d290
0cbe
0946
199c
fb0e
d893
124d
e65d
bcce
1e74
43dc
c005
e8fc
1c65
2118
4cf9
be57
1cce
eef0
d88c
004a
00b0
12f1
22b4
d931
d636
eb18
0d8a
f919
13ad
0a31
3140
234e
faf0
15ec
3015
0d7c
274b
ea58

// conv1d_1/bias  shape=(64)  count=64  scale=3.9394382708e-06
f010
15cf
af5c
1696
2b4a
052f
b5fe
d0c4
b5a6
1daa
8001
f454
ad60
f91f
fe4d
d99b
d469
f7fa
df47
0e1f
bce4
1606
e9d7
dc43
dd1d
cd00
bd84
e070
f296
de3f
194a
2438
e065
e4bb
0e8a
e9f5
dae8
d257
f858
f332
0ff5
f25a
a896
e84e
da32
0977
d294
f8ad
ce27
b9f8
ec56
c7df
fbc5
e924
c333
dc06
42eb
159b
d484
de79
d4d1
1606
3822
e4f5

// conv1d_2/kernel  shape=(5x64x64)  count=20480  scale=1.7238213712e-05
19ff
00e1
0830
00e0
ee34
01cd
03a7
0ae3
03c0
fb72
f464
fde0
101e
0014
f000
063f
fbbc
eba1
1db7
2075
fdb5
f62f
0aab
f2b5
f6cf
f9d1
1903
f190
160f
0795
faef
06fd
1145
1500
d0d6
190e
fd2d
0c6c
1754
0c3c
fab1
076c
0d54
efb6
15b3
0b82
0465
15e5
08d2
fd99
06f1
0695
0a6d
f969
fa70
0f3c
feb9
03a9
0396
f85d
16be
03b3
f398
e5be
1c49
1456
0506
fd15
e7ee
29cf
0cff
faba
f5ce
0cd2
ffc7
0cc1
ebe5
0d9d
ed28
0df9
0e44
e6e0
15d5
fbc6
fa93
fbbf
ee7d
0024
21a6
01b3
f976
0176
d601
e886
0fd6
0685
ecdb
f454
0172
e9e9
fcf3
e81a
05c7
13fd
ff64
0fde
ff07
121a
f77f
16f6
1a34
1d7b
08f6
0379
07c9
f98d
fa7e
0ae8
0898
dee8
0fc4
eac6
b2f4
fe76
d7e5
f0bf
e6a6
fd9d
e950
0d19
1ec4
1158
0575
e44b
061d
f84e
fe68
0d01
f451
1180
0401
fda3
fa17
f20e
09b7
e42b
e40a
fa03
f8d3
16b1
f890
f60b
e84a
27da
0be1
fb2e
e4b6
0a4b
fabe
f1a5
0c12
231d
ebf7
2417
fe14
04e0
02af
f053
0313
0ba2
06c2
0279
105d
013d
e71d
e9dd
db45
fa68
11a5
0112
f785
0b35
e083
004c
029d
0108
0597
033f
f596
fa2b
1635
e6bb
0d56
fec5
0418
0492
09fb
24ff
11e4
f742
ff81
f235
f90c
1089
e8cc
f830
f47d
0d69
fd81
035e
00a4
0c44
076c
f334
0f1c
117f
0cf6
f26e
ff08
034d
e4b9
ddad
f616
01e8
096d
f5ef
0c5a
fb57
db7c
1231
1c6f
fcdb
dc75
2393
03f3
037b
fad9
f605
0d0d
19ff
1149
0d40
053d
ff09
f52d
f80e
1139
f9dd
ee48
f951
dcc2
03ac
e459
e273
ef9b
156b
214a
e78e
2ff0
fbdf
eb2c
e7c3
04a1
ef72
e7f3
02c6
1a6c
0699
eb03
19a5
ecae
022e
1a36
ebad
f8cf
fbdb
f2d3
0d17
2038
050e
25f6
ff5c
0ea1
19c9
ebac
f8e5
2450
d3d8
e72c
f421
21bc
f112
f2b4
0dff
f376
0dc9
f776
0a1f
f941
122b
efd5
1244
1d06
2a04
1201
0365
f5d3
f3d1
18c3
f603
f182
f93d
1513
000e
ca99
182e
e635
f35b
e623
08e4
00be
1575
248b
1106
f7ac
fc14
1600
091a
f2ea
11cb
eb1f
0976
fa42
166b
1230
f75c
e302
efb8
fa6a
042a
1759
f878
f6f2
ff6b
0dfe
1a30
1488
e718
002b
131a
f265
0df1
0347
1ca6
f632
0571
f3f0
0a83
0bcc
e4de
0293
e8fd
1abf
0a26
eea2
0ba0
de45
fd16
ec89
f3e5
fcf9
f654
0433
f14f
fbbc
0c88
ef8d
17f4
038d
e7a4
12f6
0568
195a
ea6b
f853
ee06
ed4c
fa8d
12f9
0d41
0b8d
125b
f83b
ff2f
0a85
042d
f77b
1133
0d80
1025
ff18
0ebf
0be6
0426
13eb
09c6
f1f3
e8e1
0ecf
f86a
f7e0
fac8
19bb
1afc
fb7b
fcd5
f5f8
f4a8
f1ac
ff96
ee5d
073e
efd1
054c
0d90
11c0
1aca
f9d2
11cb
0a2b
f68d
ed87
efed
163a
e701
00ee
0748
0870
f297
0124
f19d
0f32
cdb3
0cb1
0588
f89d
f4d7
1146
de8b
2344
ff50
f684
fc78
ef4f
0d94
232c
f05d
15a1
f9a6
125a
fab6
061d
f14c
088a
f3c2
eade
07c0
08dc
1304
169b
fc4b
0044
0953
1ca7
fd19
0ba4
fd8b
f134
0903
edc5
f5d2
0024
061d
19c3
fdcb
ff6c
f7af
ff8f
f0d9
0f3e
fee3
0447
02fb
f64c
fd02
ef8c
fa26
1336
05ce
ffb3
14c1
f3e3
1757
0e05
067f
129c
0360
00e1
0ad3
086a
0811
17cf
eb3a
0fc9
faf0
0132
fd81
f0fe
0b77
09ea
f9b3
09fd
fd37
112a
f4ac
f9d5
0311
0a6a
0a1e
08e0
0943
0f91
e599
eaef
13a7
086b
14bb
27b9
f650
02d3
fc4f
eac1
f639
0fd9
fea6
11cd
1299
073a
f40d
0e6a
0d35
066b
1141
1806
0bcc
ee2b
ee1d
015e
fda9
fde2
0221
fc19
15ed
066a
0004
e772
f0d2
0873
0a14
f3ff
f963
1040
ee28
0a68
f2ed
fdcc
116f
f4ad
b174
1f97
0ac7
162a
0aec
0b27
0873
f22c
1787
f313
1366
f606
0fc7
0798
d352
f6b8
0763
0a96
0ff3
0d4c
edbf
e83d
ef32
0869
1223
03df
13f8
01d7
fe0b
29a3
fb22
f90b
da97
1276
ec1b
1aa6
1fb9
e9e9
edf7
f50c
1b18
14ca
0fe6
f6c9
dff9
fa89
1037
ff6d
0059
05d8
f3ae
0d9c
fc62
0e74
f10a
0580
2216
da5a
2620
0210
feef
f493
f2e1
f65e
f60e
126e
f046
f39e
0900
1fd0
f4ff
0960
1083
1734
e7e4
14ef
1327
1413
07fe
fbca
e7bc
ea37
07c4
f479
01cd
ef42
fb52
0cbc
e8e5
0553
f564
e231
0cc3
e8d6
fec0
150d
0dc3
05e2
09ab
0693
e6f0
fbdb
f9a9
fbfe
e693
07c0
0897
08da
ec55
f973
fafb
fc0c
0e1f
066a
1add
fe37
f222
02d7
eca7
00c3
1325
0be5
f5ac
f07a
0979
fc85
e36b
02d8
214e
128c
173d
01dc
ff90
fac9
fa09
06cf
fcbc
0bf2
1d08
0bfc
ed12
0dac
f67e
f98f
0c06
1192
d562
05c0
f274
e688
008d
026e
0000
0a3c
04c2
1a80
feae
fa72
ee80
14ec
e105
f01e
fe76
11f2
0315
dcd9
0f2c
eb57
0f05
f374
001c
0659
e09b
e765
f4f2
10c0
138d
07eb
e7a2
0ae3
1353
fa3a
e914
1a10
0758
fe0b
1b8c
0fcb
f8f4
ffc5
f67e
e544
1a17
0555
fe33
fe75
09c3
01c3
d752
ff2c
1935
017b
dc83
0fc9
0f98
25c2
2bfc
e4f4
f0c9
ff69
1932
0dc5
1acf
fb12
181f
2d6f
f7c3
f3d2
ec00
01dd
ef6b
f276
0d9c
ffb5
097a
ff0b
0920
01e5
fe26
050d
ef43
19d7
d5e7
0d79
066d
f412
0df6
0b0d
0251
08f5
1959
f9a8
fe51
0234
f345
f0af
2678
d3ad
00af
0399
dc41
0875
f1c1
034b
06eb
15ee
cc58
198f
f985
2315
f564
097c
fb6f
0f63
1d34
0738
2272
037f
10de
019c
f071
137a
fe6c
01e7
08e1
0572
eb7f
1170
fa65
1817
087b
e477
0343
04ff
0e6a
1351
0202
0414
00c5
0a7a
1561
11cf
f365
dc9d
f50f
1920
1583
14a7
0317
edf6
0089
1682
f860
0739
f496
0166
10ff
ff17
f747
1f18
05d8
0723
0e60
f70b
0b3b
ff55
12b9
e31c
0252
10ab
dbe1
0af3
f87e
f906
f492
0483
e126
f208
0e7d
ef28
e47c
ff03
0372
235e
efb9
0d52
d8c9
0c93
ff4b
10c4
0872
0714
f22a
1a53
09ad
f1e3
d667
dcd2
da54
fe0a
1757
e9e2
13ff
1664
f4b2
0e86
ff51
f4b1
e7dd
16bd
e706
f58b
07db
faed
0d2a
18c4
f7aa
1e55
01c0
f7ee
0822
1bd5
147f
1405
0df6
f1d3
0be1
12be
0f51
18e5
0557
0113
e216
21c6
e8e1
fa09
e579
ee93
18ea
06d0
ef47
2292
0b22
0044
ef1e
06a2
f262
1f45
fa59
0d4f
de21
1cd1
1230
1796
f7e4
0f7c
ff86
2473
f34c
f093
f4e6
f53b
e3a1
041a
0736
0c8d
0aac
fb82
176e
1ae2
ed07
fc9f
eb6b
1505
f3c5
0aa1
e590
1e85
ffeb
0c4f
fb50
038a
02b8
fc6f
05d3
1cd0
0987
fec3
02af
f81e
0467
0be6
ef78
004e
055e
f873
fa62
f670
f22e
f9b8
f01d
fd3e
0ef8
20b8
e91c
049a
0b5d
f14e
f507
0949
0ae4
0613
feac
e8d1
e8b1
f2c1
1e27
0ccb
ff78
08af
f7f3
0a1b
f1fd
00f8
f46f
f6c7
f61e
faf1
1593
045b
046e
f7ef
0d27
f132
0c23
192e
fe89
1416
ee7e
04c6
ff21
eb52
f57e
23be
0049
24eb
07bf
f822
076a
0868
fb59
fe53
03bf
f263
0445
033e
fe9b
08ad
0608
2031
0e84
f18e
10c6
1163
fdde
1dd8
f0df
f1b8
09a5
0864
f159
ec78
0ca6
eccb
f8bd
eb0f
ee18
037c
071a
1ac3
fae6
0b9b
f30e
0287
ebd5
ee8a
060e
f089
05c9
0f04
ebb5
0fc4
fef3
1f07
f6b7
0e3c
0ada
1a4d
05a0
ea0c
0b33
f9b8
059c
faaa
f605
f776
e851
f3de
eaa0
eebd
16e6
fcb4
1406
e906
fe11
0579
02ff
008b
1821
075e
fbf8
1151
1b53
04a7
ec9b
f2e5
1825
1205
f541
e3f2
148d
fa00
fcc6
0891
1871
fe98
014b
ff01
ed3e
00ae
2a69
e5c2
fa82
27b7
0308
18cb
06cf
ecbb
00f5
12b2
e6a6
fe05
f4e1
f9cb
0d7e
0e22
fa33
1d8c
f0e6
129b
fe44
166e
069b
03a5
ffae
15a3
14ae
f324
0e0f
e90d
0cc7
fe72
f239
13a9
155a
1efc
123e
0feb
fe3e
00a9
fb63
093e
1215
03b5
ffa3
08d1
0735
fedc
1699
f9c7
ea62
0a51
f210
ff5e
f7ec
db55
fd35
e699
0898
2518
0918
127c
f896
d216
2457
e50f
04e8
00a0
2511
fecc
0ad7
1865
05b9
ec9c
0837
184a
efe9
11fa
f783
f873
fb1c
0330
0cb7
fb42
f868
0f61
13d3
e5b5
04c5
1ab4
12a4
10fc
e447
0deb
08a2
f273
239f
de81
f14c
fbc6
1fc4
fb92
d85c
150e
ebfd
00cb
19eb
03c5
1f21
0261
f99f
0a7f
19c4
0720
fe3c
15ec
ef5d
0fd3
160c
11bd
1093
fb01
0402
1151
09a4
0f18
002b
0f72
f805
f312
00c2
fee3
0969
1424
f82a
0c6c
0b27
0a68
f937
e3d0
09ad
0d58
e49f
f701
12a3
1381
f2b2
febf
fde4
1680
0da3
facc
02d3
ec81
06b6
1140
067f
f14d
e4fb
053d
0b7d
03c8
ee27
f4c4
fed8
1201
ec83
1a0e
ebed
0d42
fcdf
ec0f
ed38
f90e
09f1
f5c1
055d
fe46
03af
e61a
e267
03bc
ffac
f2f2
ebcd
f58b
02e3
050a
cf57
1cd2
fa56
f384
0614
e334
ff2b
fd62
eba7
0a9b
1279
014a
296f
1810
f4e2
feea
dff1
efc4
2035
ef98
ef13
0526
f9f1
e44c
059d
0fba
f081
0df2
f038
1180
0418
1b8e
e933
02af
0828
2274
2086
1148
03ed
07a3
1ba3
0e92
fdf7
02d7
0c07
ee2f
f921
07a6
f379
f4b8
eac1
0ba3
e80f
1560
e2b0
00cf
fdd6
ea3f
0a8b
2a99
fb10
000a
072c
e8e3
0246
ed2d
0ed4
066b
e129
f33a
e8fa
fea9
0e59
f6ef
ee2d
dece
ddbe
1d42
ee83
0f2c
f910
012e
e8ad
0ba0
fb66
0abf
028e
0db3
1126
fafb
f607
1846
f5ff
0c5c
f95d
fcd5
fc2b
0ac4
0364
0851
0dd0
3136
f81d
f6e0
eb53
139c
1624
02fc
0c65
019b
13d6
fdda
0506
f6d1
15b0
14bd
ef37
0e68
ea23
1b01
0546
cf6a
0f52
05d3
f584
03e5
1052
e611
fd68
ec01
08e4
03bd
15e7
ec27
fa6f
1830
e48d
037e
fecf
fe33
00c2
0e7b
fc57
0a65
f778
13c4
f7b4
fd63
f9b8
fc7b
fde6
16ec
0dcb
02f2
0c39
fb22
f532
ff2d
0e06
0a75
0276
141f
e2fd
dc21
053f
107a
f15b
056c
09b5
ed87
f950
233d
fa4d
1ff9
2864
e1c1
f9c4
1516
19f1
10bd
f487
fc39
1dd4
f5a3
14bd
dd74
0455
fddd
ffbc
1825
12ad
08fa
0487
f5d5
f119
10f8
fc03
0d7e
09b7
15a8
f04b
13e9
ecec
00c1
fd5a
f91f
0dad
0351
2007
1ac8
e304
1cc3
fd4f
0e7a
e5fa
f055
f89d
15e3
011a
fe5e
029b
fb35
ea81
f5e4
0a61
048e
e699
f5a9
0604
0863
fd96
086f
073d
f3fb
ec50
fc7a
0883
16cf
027e
f6af
15da
f0e1
fa3e
0f83
062c
12a3
da30
1290
0836
f9e2
19fd
241a
f7a9
14d0
f4ab
f43c
f446
03e3
e85e
0611
15ff
f0fb
e601
f864
0f02
0e08
f60c
0de0
1169
2b43
f0ac
1463
f2f9
e7d7
056f
da92
1689
14aa
10df
0bbe
0818
0991
e891
12d5
edf0
2041
e856
1eb0
0e76
0f02
0cf6
09ef
fe5f
032c
feaa
2331
12e4
0205
0853
1995
f701
fb89
0cee
fd89
0e36
1532
1021
021f
b773
f706
ff73
ef80
206a
e996
ef60
1082
0009
18ff
e48f
e5b5
1bf5
f2e3
11b6
f32c
e60b
0f91
e8fd
0138
eb4e
12ca
00dc
f6ec
fab5
f6ec
f46e
04e8
1623
11ff
f17a
0005
f122
ef62
049d
f29f
0714
1dbe
ff6f
ffd3
f2d0
f179
117a
f946
d9dd
0e77
fa38
e31c
e55b
03d2
01f6
11ab
10b6
0e37
ea68
14f7
fde6
0d67
c861
ece6
15e0
1b61
1be3
1061
ed77
0138
04dc
0154
ebd9
e306
0526
0312
0874
e859
00ce
0f4d
e04d
05a1
029a
fc1d
0877
112c
0073
f5fa
0784
1b2e
09ef
e43f
f30b
2ac9
fede
0001
ee94
ff71
ebe3
0549
0a3f
f67f
101b
f0e5
fc26
0ca3
ea52
fdf8
fb72
1845
e54d
1201
06f2
fda8
0b22
012d
f963
04b0
1169
f860
167d
1d53
1d52
f791
0387
fb92
e36f
083e
edc6
e931
fa2d
1277
fecb
ffb8
f4de
e83f
fbbb
dbb3
ea95
0455
13e9
f2bf
e51d
eae8
108d
0d06
1077
0537
ec5f
f7e1
f2d1
1ce2
d0dd
13a9
e635
f6e8
0e1a
ef16
1002
f44d
19c0
195b
08d4
0b3c
06cf
ee7c
0084
fd65
1674
0bdd
0b6f
fee3
e41b
e8a8
166c
f3b6
f838
1240
ca4c
e39e
0904
ec7a
1179
0d5a
f0c3
1441
f805
11f1
ef68
03c4
ea49
fede
04c4
12eb
0a70
f5b9
f024
08d6
f41e
17a8
05f6
fd8e
0439
0586
f578
fd5e
0151
057b
0835
ee7a
edc2
0f51
dce3
0048
d159
eed6
fee3
1d58
f8e3
eba0
dbdd
26ad
db82
040f
f5a5
ed06
e03c
f69a
006a
1233
1764
fd6f
f1ee
128f
fe33
036c
ecd4
1b03
fb25
0f97
f45d
ff47
f2a5
0680
f373
2643
f55b
f103
f9f9
2627
0ae7
1241
f2ec
e664
1237
ecbd
0822
f7f1
ef83
2161
ffe5
f99f
990b
19a3
fc9b
f3b3
fb1f
08b6
eae3
f656
ef3c
eb11
f469
0021
eaaf
17ca
f0bc
0818
e69f
136e
f072
0d4d
0b44
e74f
e792
3665
0916
f560
01c1
fb5c
e8df
f3f9
e7d0
0209
efd0
e6f1
fad3
f351
0afb
0052
08b7
2203
fa2d
ec94
f805
1ac8
ff9f
099a
eea2
119e
f7b3
046e
ff76
2694
2505
19ee
0bc2
0150
1fa8
259d
fd88
01ba
0dff
0406
fab2
f7e1
f063
f4d7
0620
2215
f405
1535
efe8
e8de
fae4
15f8
e555
03ba
f558
0b73
f935
02b4
100f
fa08
0e40
0aa7
fe1c
f9ca
1250
f10d
1b51
e5b9
d77b
f3f2
1b4c
ff88
1204
0de0
fd12
eeea
ffbb
0293
108d
eee7
e4ce
147f
fafb
006b
fb55
ef4b
0bd7
1549
01cd
0f96
08d8
0b47
f1fd
edef
fd00
dc6c
f98a
f511
e3ee
fc97
c55b
f5a1
fe37
fea2
f7a1
01b1
0804
f99e
ff7d
f8e7
e355
203c
ece1
ee25
e9b9
f010
e3c5
f50a
ff52
0b22
e18e
0a7e
ec34
dc76
0459
1a72
e9c2
dff1
f13b
019a
e953
0249
08b1
e897
fa02
fdb2
e956
f071
fcee
03f1
0755
e489
f813
0b96
06d9
1b0a
f217
e22b
f6fe
fa38
0733
13ec
fa0b
1645
ede3
f452
ecdf
1770
14ed
1066
1aeb
044e
1513
16da
e6c7
e99c
e10e
0cf7
e52d
097d
2197
ff5a
d6fd
09c9
f5d2
fd57
ee91
e93a
fcc5
f9db
db70
f8f6
fad2
162b
0b9d
fb6f
dbbd
e21f
f210
eeaa
083a
efe9
ed7d
1cef
f035
fd81
c826
da87
d4fb
e719
eb1d
dedc
0a33
0e55
0231
deeb
c76b
1606
f9f8
15c8
be7b
fa69
1289
f221
fda0
f84f
032c
2079
fa44
147a
069a
1c34
0485
cfc3
0a2b
c8d1
f977
2746
e081
e4bb
fe06
0fe9
0482
ec0b
fd81
fc95
114f
026b
e69f
fe66
f68c
0786
f520
175b
153c
11ea
f41c
115c
dd08
15a6
f4fa
0f53
e537
f8e7
0a43
ed2f
12cf
f19a
e91d
02b3
1b2f
127d
10c8
f639
f291
1574
0dcd
f255
e76b
0b0b
0ad9
0f8c
09f6
ec52
f72d
e73c
0327
e742
e84e
eaab
fa28
ec8f
0c4c
14ec
ed30
f338
f784
f58f
0cf7
13ba
0d0f
1052
0c1e
f2ae
f57f
01b6
18d4
0ab2
de13
0078
e247
1b60
02e5
1226
eb13
f348
1b7d
faf9
fb0c
1538
f12b
f325
1536
e800
051e
edbf
13a7
edca
fbd2
f3d3
036c
efc0
209e
f6c5
ec16
edb6
ff79
e250
112a
1489
04ad
03ec
ecbe
056b
1059
eff8
e529
23b1
e371
1894
0667
e9d4
0861
033d
0280
0c28
e4e5
0a68
ff59
08a5
fc45
d8cd
e80b
fd3b
f110
03c5
d5c9
f38f
f2f8
f245
f5ad
029f
f9d1
e3e1
0ba4
f167
01cc
0cb3
0649
fc91
f8c5
186b
1175
f5f2
f1dd
1c9b
0285
f388
f79e
142e
f89e
fe3c
0d8b
f1ec
06a6
f1d9
f0e9
e2a5
0062
f2f7
0345
e788
133a
016a
e932
c0f1
0786
f7ab
0b0b
ed20
e3f4
0475
fa69
0c9e
eef0
f43c
fb8e
0a54
ebcb
0139
ff2e
1780
0343
161e
0321
e21b
0e4f
0d76
a5b7
09d6
0342
eb81
0380
f50b
ff25
0359
e5fb
16b4
fecd
df29
0a8c
f876
01f6
1463
0cfc
0f06
05fb
fb2c
fef8
f9cf
0523
f414
f7a2
0948
faf3
fe00
f86b
fcfd
0397
1b46
efd7
06c6
087e
05fa
f368
f5ab
0107
036a
f5c1
0ba6
fc06
04db
1399
ec48
e8e1
12c0
168f
050b
04e0
0924
e86d
fe6b
0baf
fc3d
fe5a
0cd8
f0f5
eb85
0439
fcd3
f302
0b17
0e8c
fc6c
1c52
0146
05c7
fb49
0ea2
11b8
0b52
096c
ea4d
02b7
fd38
fc0c
fd18
16c6
1dda
20b1
12f7
1c38
f4c0
084c
0bdd
edda
fd2a
eac0
0af1
1204
13e0
1792
1615
fb4a
02bf
00da
f529
045d
1540
f1f2
1794
ec63
f707
001e
f77d
0860
e28f
0519
0070
043a
ff51
ff28
e8a1
fc40
0a63
17d8
f768
e804
125d
ec90
05de
fcfe
01d7
f756
05df
e67b
e681
0bef
ffcd
fb2d
fc3b
f641
108e
18eb
0ef4
f993
fd8f
1b66
120d
fd54
0d93
f747
f844
ff05
f67a
0e87
f386
e5a0
f483
fda2
f5c4
fedd
fd89
ef68
e567
0cdb
f1ec
1e3d
f9b3
f682
0e1b
065e
12a0
f844
ea96
00d5
fd2b
17f9
0b89
1579
1662
f1e6
ffad
13e4
13bb
f794
eebf
fe6e
efbd
fa7d
f330
e54b
01ed
1986
0c5e
e789
f7fe
104f
eae7
1a9d
1608
0065
136b
142f
eda7
effc
0e4d
ee80
e890
ebaa
e28f
1a3e
f2d0
0396
ee72
0b6e
0498
0dee
e4b4
f470
0b35
f96f
f941
0785
1988
fcc2
fcd4
081a
0a38
f793
21c9
1e43
f99d
f273
fc00
f125
f702
eeb3
f8f7
eb69
f69b
fe4e
07f9
ff0f
1185
168b
d47d
0936
eae4
1935
03fb
e64d
051a
017a
0e48
152b
eeda
0034
08a1
0a28
2207
ea6a
10e0
eded
f58d
de1b
f77e
f6fb
0043
f9b2
f0c4
0978
d155
1c24
ec02
0a27
f058
2acc
f5f8
0494
10ba
14d4
de8b
e897
ea09
16a9
0043
faaa
e1fd
ee67
f665
22af
fd6a
0519
fd71
1b9a
e255
f5e0
d9ce
e15d
d942
df57
f06e
07d5
ec4a
0838
e96d
ed6e
d853
2351
0c9c
144a
f641
fddf
f7c5
1fdc
1629
20c3
0bac
06ed
f7f6
0fed
1a2a
1809
25c8
f550
0a62
d4e8
fabd
3c4a
f9aa
166f
ea66
fb61
ef0a
f46a
f900
1fbd
e4c5
f15f
1409
f984
0bb8
1384
16c5
ec4b
e3d1
157d
14a0
12b1
0d3f
ea36
ec91
137d
dbcb
1652
e964
0d00
1d57
277c
fd4e
0af6
eda4
d7c3
e700
e87f
2fe7
1233
1440
334c
1111
1509
ed39
db9b
f1ea
22b8
1417
27bb
fa6a
0a85
f6e0
f124
018f
0e55
138b
2908
1ed5
f901
eb8b
0cfd
f48c
ff04
3e50
fb7f
0e51
0b6a
155a
e4a4
e108
15ff
c623
2fb0
f03d
de70
192b
16e3
fe58
0cd6
fb78
f986
16ce
107a
f40b
04f8
0194
e3c1
e496
2115
113c
1eec
e9ec
f935
fed1
2663
f99c
1174
f063
e52d
e198
eeb1
1e5f
0f37
ec8e
115e
1db1
202a
fecf
15ef
0871
022c
063b
10dd
f7e4
1142
e5f9
192f
f088
f06e
20bc
1b8f
2cd6
17e4
1b85
169e
18c1
f598
fd97
1d16
f9a8
06b1
1dac
f768
f8a9
05a7
ef76
fc34
0337
f26b
fb55
ff9e
0461
fc80
0de9
eda0
f4ec
03e3
069b
fc59
1333
f7f9
effc
16bd
ef66
13c5
0584
0034
f886
1b12
ed8c
0b7c
0811
036a
057b
14c7
fc7b
f642
eb93
0cc0
0493
0e59
0c72
060b
f9b7
12db
fd75
0304
04b8
fbd2
fa6c
fd2b
ff24
f9de
00ae
1900
047c
f53b
179d
0b38
0c44
0f61
0084
f094
ef25
f22a
037d
17a6
10f5
faaa
136a
f826
f435
07d8
fda9
1130
14e4
1040
0f33
0279
2242
fe3c
fecf
061a
d3d7
0bae
0499
1cf2
183a
0725
db9c
df7a
0eee
10c1
f2e2
03a0
12b0
1c60
f780
27c7
f99f
066b
e1e3
0047
09ef
0796
0e2d
0135
fb85
f8e6
f59f
0a82
1a00
0093
e1b4
0675
f59d
0db4
0784
12b7
fbcd
0385
0ec7
f0ce
f701
f0f6
f69c
ff76
0609
029e
ebf0
f04c
d99f
2334
fbe4
0556
12cd
fc89
11ec
1ef0
03c9
0754
f699
eece
ee49
04b4
f608
1941
e81a
fe8f
e72d
09de
1a72
0c03
eff0
0692
0541
023b
0a0b
1285
ee85
e6e3
e048
030b
2127
1f93
1146
ff85
ff06
01ca
f924
f6f7
eda5
1733
1335
f6f9
000b
01d4
13da
1913
e9b3
0bb9
f4cf
17b6
028f
f83c
f6f3
0899
eb9a
e81c
1c4f
0f58
f846
ff9f
126e
0bfa
1188
f310
0a46
feb6
0334
006a
0149
f02c
fdeb
08e5
ff03
0347
fef0
fc5b
0000
138f
e5c2
1375
1a52
ff14
1304
0e0a
dfac
fc2a
f367
1416
f812
0c0e
0109
09e6
0236
ff77
f427
f431
f177
0db9
0add
1284
11b4
e253
ef17
0f68
f719
f1c0
017e
e8f5
f64d
f183
04f2
070e
f5ae
fac8
0f17
f756
ec9d
106b
f0f2
09ca
f646
f323
0ffd
ffc1
14d0
e852
e91b
17d0
05eb
17dd
0fb0
f78c
11e1
1824
0e68
0d33
0dd7
f75b
0f43
1903
17f4
f8fb
f5cf
e4a0
156e
0d64
0c1c
03e7
07ea
008f
06e8
1bc9
0877
e860
f705
1026
f68e
0270
040b
1e1f
0659
02b9
00e6
0a30
fdf8
fef0
fc7e
0367
0ed7
fca9
f9c4
0189
f098
0a5b
ef13
ede0
0d8b
11b5
0945
f270
e6b3
1cb4
f799
0863
fb6a
e9b2
1b4e
0d38
0dc8
f8e4
db0b
1393
050f
0cf8
ef0e
d68f
0599
f74d
0dac
1da2
0d70
fc83
0a52
1706
fda4
ea4b
f746
e038
fe0b
1d5d
0d2c
0be9
e4a9
0396
eb12
23cf
fed8
12a2
04ec
f878
e9c3
05c8
10d2
133d
fb41
1deb
0b68
02e3
f782
f09c
0be8
136a
faea
1400
e71e
0924
044b
f883
e188
ecd3
1c3b
154a
1756
0cf9
f44f
f7d2
ef86
001e
01dd
0be3
0d87
143f
1ab2
077b
ff31
fe00
1837
fc8a
f2e1
e44a
ee46
04ca
ef5a
1076
fd57
f102
1471
fc8c
e600
feba
05e5
01db
f5a7
11bc
0a54
fcbf
f0ec
e6a2
018d
1aa3
ee2e
0c11
e9ce
e4d1
f6af
fdd5
0b4a
1725
f9c4
ee6b
fd7d
05bc
0cee
edd1
00e7
0726
ffa7
fd03
fd2b
f68d
0101
0f8d
fd3e
fb9d
fe34
189a
00d8
151e
f0eb
0a06
05d2
fe68
f7eb
e78a
ed90
11aa
0b1d
00c1
e926
0a46
ee49
f23e
ef0e
eedf
fc85
21e1
02d3
0909
e6cc
0172
ea0c
ec7b
0c71
10e8
e1f8
f71a
f0a5
01fe
1747
f33a
fa0f
eb5d
f085
0292
fda5
0937
eddb
01f9
f990
fbb1
0558
0f5a
f961
eda7
01cd
05ff
f7e2
fdba
f84e
1ae7
0531
fe36
f996
1535
0b40
1561
0616
2cb5
081a
0bd3
13bf
1c46
1cc7
0944
ef9f
041b
f43e
06bb
ef0c
fbc8
05c2
282c
023b
0b2b
112e
ee10
0368
c8e3
1289
1522
0574
1931
0ede
e242
0a1d
ec62
e759
0ce3
f255
15f8
fb65
2222
e82f
0730
fa52
ee56
ec55
fc6f
f0cf
0664
1be9
f7ae
0ff9
357e
f7b8
fcf2
fd22
017b
ecb4
13e7
089d
1876
fb44
fc47
1530
1026
fc06
ed86
0573
0ef8
e7e7
00cb
1279
f55e
0faa
fcda
10eb
0ecd
076a
0ec8
f8c8
de2d
1c5c
128b
12db
155c
f6cc
0b5b
1b41
0e60
07c1
059e
1be5
0874
04af
00ee
09d1
ebfa
0837
f23f
f323
e7ec
d9fe
fe23
f4f4
1f6e
f5ee
01e9
f75f
06f9
0566
f51a
f288
ef98
f259
0edd
ebc6
1a51
fb1b
1d77
d784
1536
15ae
0875
0c4e
e4e8
0e74
f633
0ddd
12f0
16c2
f11a
eec1
ff38
09e5
fe9e
171f
099a
0889
f629
018f
f3db
f492
f79e
0eb1
01a7
0446
eca0
fe03
eda9
0c45
0734
f2dc
0a71
07de
f11c
0b04
f58a
0e89
edfa
08a7
16a2
1317
1e25
ed42
ee0b
0e4e
fdbd
de1a
e9d5
fd8a
0723
0ef9
0aa3
1785
0791
15c1
19a5
fb48
ef81
f29d
dbab
09a1
f30a
feed
f46f
06bf
120a
f592
fa94
fb12
13ad
19c9
0fb6
edd6
1002
0ac7
fc56
0b2b
ebe5
0b9c
f9aa
186d
0d16
f251
ef23
0f3f
17ad
0abb
f7be
f2a9
fb01
fe8c
f03e
0167
ee93
03ff
1e57
fa15
fdd2
053f
19c0
059b
17b3
ebdf
f2f0
085a
0dab
f9db
2c25
118a
fb36
ef19
073b
fe95
1e0d
f121
f031
0fc0
2435
0841
fb8e
e0f2
ff38
da7a
e57f
069e
1357
048a
0ce8
f8f5
125f
f3da
0b72
f24f
258a
eff8
146f
05e6
f050
f32f
fa17
0ad0
1487
12e8
1ccd
f903
21d8
068c
f506
fffb
e4ad
0839
0142
fc08
09f7
fa84
0292
f89c
00d1
2889
02f8
e541
0307
fe36
01e3
f72c
e69d
1a7c
feae
c8b6
0f09
ec09
fb2e
03d4
0932
01d8
fac7
10b2
e9d0
1f5a
0c06
10c7
0d9b
0325
1621
c2e1
f4b8
0d92
d21f
03f6
eab2
1e27
0707
f8d2
ed36
0a49
12f2
0379
0217
f837
1b61
08d6
fd48
2357
0d4b
1e63
0f0b
f660
f7a1
1199
070b
f088
e643
1624
ff88
f93d
034c
f67a
e989
036c
0fed
fd2c
0a10
8001
03d1
00de
20b7
0f86
f73d
27fa
1f63
f4a0
ee20
290c
f0f5
e86f
0181
f0b3
02ce
0ad9
0d86
e975
057f
fdb3
e05b
00d9
f817
fc32
f8cc
07bf
137d
fe3b
0795
1ddc
09a7
feda
0b28
f6ae
0a08
1e7a
04e3
138b
0af2
1b47
1ad9
1bc8
0aa8
e1c0
05ad
fda0
03e4
f401
fc53
f029
ec43
0071
1d50
e321
1940
2b7e
00c1
2128
eb5c
1895
018d
04ce
e888
f8e2
fb5f
0254
cc11
135f
105f
1916
0f63
045c
fcfa
0111
006c
fad1
1473
1ae5
f28f
e8d8
1902
f4d9
fc4c
e428
eaca
ed2b
0e38
101a
0f93
135f
0bb0
0aca
16ab
11dd
1dc6
e78e
f3cd
0122
115c
f93d
0efe
005d
ecd8
f6ba
ff3a
0bf4
056c
0937
e383
f8f3
02dc
0b7a
f698
0d0b
1295
fca4
1d9c
10ce
144b
0aba
f7ad
01a4
043b
0238
fb73
f095
1133
eb80
0484
0aa3
0417
0a6e
1499
fb37
1979
f98f
f1ed
06ee
1f02
f4dd
fd78
f93d
f6a6
eade
071e
e32e
f38f
fb74
fd83
14fc
078e
da25
0f2d
03a3
ee06
0883
d1a2
182e
0f27
14de
e061
057b
f7c6
f7f6
fcdc
0746
1518
ff40
f4ab
f355
f0b9
0816
0866
f4b5
137b
f7bc
1df2
fa6c
0981
ea18
ea1e
f44c
1429
ecc0
f72c
f95a
1117
10b8
0d49
1468
fe22
2a15
1795
0435
cc6e
16aa
f4a2
fc5d
1d7a
179a
11b8
e8c0
fd05
f4fa
f1b0
0325
e450
e557
00c2
11c7
fffa
fe95
fc5d
2604
2117
0377
0bec
f601
fbe6
f02a
e71c
0df6
fceb
2084
1b3d
15bd
065f
ef7d
f66a
f346
0721
076d
f8a2
0a14
f840
1639
01af
f732
f8fd
f4b6
0250
00b6
0a6a
fa39
2969
0ba5
0f95
156e
eee4
0cff
ef7f
10d8
ff2e
fe00
1754
2ebe
fcb4
04cb
c991
f3eb
f10a
fd17
f3a2
1076
20af
ef8d
f9be
0020
ebd7
0d52
e8d9
ea94
e876
1926
0294
195a
18f6
26bf
f1ca
02cf
0386
e63d
ed26
12c5
fcfd
fecd
f457
1bd8
f3da
0bfa
e9d0
f386
1ec5
02de
1a18
d78c
fd49
f925
072b
2669
2e9d
1e87
0a98
fc7a
ec14
12d9
1fca
e878
07b9
1ca6
dea6
f86f
253b
f87b
f892
ed00
f213
1a24
ff18
0ae3
ee94
f815
fa1d
f872
0538
ec6d
def2
1ca4
229c
c145
1b81
fec8
0255
1f5c
f3b0
0741
e5b5
0fef
ed63
15e4
0e52
1999
ec71
108a
1912
e4c7
e154
20d1
ced4
e876
0099
1dcd
ef4d
eab1
e594
0167
18b1
ec0d
10dc
eb0b
f3ef
ee47
0c70
238f
2a7f
fe71
0a7c
e812
f0f9
0b99
06a2
03fe
e86b
0927
06ff
f3c7
0d97
e063
e95d
fc7b
1122
ea93
f883
fbee
055b
0f43
f018
e7b3
1996
e402
e40f
e044
f9b9
1086
fcea
f036
2611
f874
1772
e6aa
e27d
08ef
131f
e223
eaa2
f432
1d9f
effd
f3b2
f1e6
d94a
eb2b
037f
e944
fdc4
120a
f39f
f0c6
e707
eb38
153c
fd63
19d3
e3b6
f850
1dd7
e47e
ffe0
15ae
1877
2378
f118
0d30
e51c
0dcd
28f3
f2df
f5cc
f832
0abe
15be
e546
087c
e0dd
2939
f0d3
f330
1815
0c42
f466
1159
0bba
ffc9
03e8
fca7
fe66
f8db
0e65
046c
f925
1549
1710
f312
110b
12aa
f2a9
f9d7
0890
0151
fe31
076b
0f4a
f9a0
ff89
00b3
04b6
0d62
f00f
05d7
d3f2
15ce
f469
0f56
ff0e
0fb3
f377
125f
fee5
0b03
239c
f508
df7d
0fb1
f538
f0da
101e
0ccd
f97b
ea4e
f06a
19a2
f4c0
f82c
1580
ebb7
1159
f9db
fae9
f7f2
111b
10ea
1224
f812
e430
18a8
f3fb
1054
e70c
f7a0
0e15
1b10
ed06
0f08
e3c5
f621
0c07
01b6
1b13
fe73
fd6e
1b14
f902
1746
1bd1
0b96
1186
fb69
f66e
d994
121c
02dd
db1c
e730
12e8
e204
ebaf
fdde
f0ef
ef04
e1cd
1e06
ded9
fdec
00e3
edd2
0d33
0e70
12c9
fff2
fa4c
f4e5
0b20
1575
1e18
cd82
f12e
eac4
b58b
0a2f
d206
f29e
dd7e
06e8
e345
f44d
1b05
1b1c
04fa
ec87
f62e
0cbb
faa4
271c
1016
0492
1658
fdaa
f457
0775
29e2
e201
e66f
1428
e421
089c
df69
0ff8
f05a
0b74
faf5
0884
0c8b
0518
eb6b
0a11
fb9b
0bea
f796
0f1c
1b01
1c52
fe04
fb5d
ee07
f967
16e6
ff0f
1764
1172
ea4e
f660
e1d6
0609
050b
0d7b
14bd
de62
e214
0894
0f8c
0291
233b
0b6e
f2b7
0a1b
0d4c
fec9
1e58
f514
e1bc
fa81
01bb
06f8
0159
12c9
fdc4
ed40
f958
0cd3
fb33
f693
eabd
0748
0058
f1d3
1367
0bdb
0338
f5d9
eddc
0d19
f846
021e
04f8
0093
e604
f00b
131a
fce3
09f8
02d6
f85d
eae2
e732
fb8d
1723
039f
f453
2525
e30b
f797
0017
1092
157e
026c
063d
fde9
06d0
f04a
fe2a
ea23
045d
e333
028e
dbf3
e075
fab2
ccb5
fc30
fe7d
f0cf
09ee
078d
1a37
07cf
eb9f
00b5
fc89
f46a
000c
e101
10ec
21d4
c44f
08c3
0a8a
0d2c
1255
082e
0db3
f361
f7d2
ebe5
2020
1a97
0428
e55e
1341
125c
d9e6
05a2
1f83
e301
dbb2
e777
07fe
ffad
f9e2
f2fd
e911
12b6
e3af
1d25
ff49
0895
eb7a
058f
282e
260c
1166
fc8b
eb0a
fab1
ffcb
faac
f994
eb09
061d
f7ab
e0ea
fd3e
ec33
f65b
e6b6
0a78
ee76
0c9f
31da
0010
03ec
0cd7
f8ab
0502
0612
0aed
f992
fcfb
1629
fc36
fd09
f131
e4d8
12a7
f2d8
21ba
1f16
14bb
d7d0
06f7
005d
fb40
fb80
0f73
102f
1dfc
fe32
1675
0be3
0e31
dace
15fd
fd95
1e2b
f412
f873
13be
fcdb
16a1
f2a2
f04d
eb9a
e2b0
03cd
f3b0
0fc2
0597
f763
fa08
e702
f87c
f2b2
ed0f
1909
fb89
e64a
0392
ff23
1698
ed26
e03e
0afa
fb18
ea15
1820
e8bb
0dc5
1409
fc34
fb99
e39f
0fb5
1250
fb97
0527
2987
f037
12e9
11ef
f3cd
1bc7
027f
f6cd
f974
051b
0c21
fb84
06ca
1321
05a9
08d4
07fa
ed1a
f9b7
137d
e70c
f028
fb59
f0db
fbf5
f7df
07aa
128d
fefc
06ad
ef21
f5d8
f68f
0fe0
147a
fa92
f03e
0c30
f794
ee18
fe88
0b84
faf4
edc5
eba2
ff9a
eff9
ff05
1097
fc73
fff5
edbc
1297
0d13
f057
1723
194a
0d59
043b
1090
1760
f788
19a8
f1f7
f8b1
ebaf
f136
f217
1a62
0a00
1230
040f
0b0d
fbe6
ff50
00e3
0819
ed67
0a5d
ecc3
fa43
0f45
0936
03a0
1569
f8a1
01d4
066c
ec28
0d8b
1f35
0276
0fa3
f399
0b79
f8cf
ee1f
ec16
f9d6
030c
0f72
15dd
f65a
091c
0f2c
f657
0c93
eb0d
e6b4
e9ae
f435
1b33
fe59
0473
12fd
10a1
f53f
0efc
e3cc
ed40
1359
18e1
f267
070f
fa4d
f024
0c6c
148b
f2e5
02d5
fe59
fb06
0ae2
fd49
f078
0142
f806
ee50
0034
f5a3
054a
184b
0d8c
0598
0618
0d2b
0531
0f4b
16bf
1c2a
007b
05c6
fb45
0560
1849
fd18
fced
08c5
0a10
0826
ff0d
0e72
0cab
f52a
ef23
17fc
09c6
f79d
080e
f106
fecb
1a15
0669
ff6e
0797
f8bf
f32e
06e5
0615
a0f3
f6ff
000c
0807
ff77
0f19
1ad6
13d7
f98d
fc06
22b5
0ddf
f98a
171e
eb9f
0ca7
1649
0b99
149c
1753
da14
09ce
ff09
fc44
0491
e334
fdca
0fde
ffdf
0fa9
0c89
135c
f744
0190
0ebc
1457
126d
0870
f8e1
04a1
1ee9
0a19
065c
0053
e4fd
0d52
0212
f1a7
ff9f
f530
e5d8
f9e3
f339
1413
e624
1869
0b05
e26a
1a89
eba1
f378
ec33
e0fb
1cc5
f234
f49b
ef92
0e51
f70c
1a72
f541
04db
0cc4
fe37
f8aa
1347
1297
1552
1b02
f55e
00da
0655
0c21
eecf
0420
0a17
08f5
1914
fc2b
ef4d
ed39
e59c
fa1a
ecfe
1163
04cd
0df9
1ae3
fd6b
f46f
0032
fe33
09de
1000
0323
f024
02c8
f86f
00c4
1776
0413
f4c8
105a
fe2a
18ea
0191
f842
03bf
f241
10ea
f789
fbe7
e903
02be
09d0
0218
0025
eabb
1da8
fac6
1384
0efe
e641
099e
0fcc
f109
f9fd
186c
f524
1974
075e
e655
01cc
0c11
1355
f22f
ebef
f63b
f224
f0ef
f8aa
0ad5
0905
07c9
2145
1bfe
fbc9
044f
ff44
172b
f642
150c
0865
1308
10f2
e061
0483
f198
055e
0ebb
0e6b
0500
f211
ee3b
efa8
04cc
ee1f
f55e
eb4e
e273
ea14
efdf
ef38
1781
0d36
130e
f95d
0158
0a5f
e15a
1b5b
ebb0
2544
f140
e4f7
e6b7
0798
1346
e39a
044f
1808
1f1e
e936
fd28
0f76
160f
2b84
ea12
e8a2
0bc4
1a63
fba8
0537
fea3
0fb3
0af6
f159
10a2
d69f
f70a
039e
e1b7
10b1
022a
f58c
ed58
e7a2
deaf
d4e0
0bc9
e07c
0dcd
ffb3
ed3e
fcb4
09c3
0a89
135b
0d6e
0239
0cf8
f470
0a7f
02ae
0abf
f825
318f
dd34
0ad5
02a2
e123
0186
f2eb
0600
1850
fa60
d06d
02ba
08ea
2755
f3c6
1403
f548
fd59
03e7
fda6
04b8
1e5f
fd22
ffec
eb89
f581
fbf5
1592
09e9
09ab
fc20
fe58
f8e1
f4d8
12d3
e855
080b
01fd
00ea
f215
0ae0
07f2
f572
1ea5
0b91
f7f3
fbac
fbbf
efa9
ff0d
166e
fc37
0f0a
0f81
fe81
f1cd
f6b2
0cbe
0746
f41f
0dd8
0883
111e
1cd0
e11c
02a2
19da
ffb6
0d0f
0dfd
fbdc
ee9c
05fe
1d28
fadf
1123
073c
ef94
0ea2
056c
f9d1
0b98
1440
fbbe
db02
0431
0f19
2201
ff0f
0052
eec3
f941
125e
124d
fcac
f71e
e7a0
1279
ff68
f252
d5a2
df67
fbb7
e23a
f1a8
fecd
f5ad
feae
f951
ff70
f447
1bdd
f1e0
1312
01cd
ebb4
f818
1568
1a33
1b0b
f4f6
1c39
f328
0e96
ea6f
fa4a
1b21
13c3
0865
e75c
064d
0951
0a3a
f5d2
f106
1caa
f784
2767
ea41
225b
ed00
f263
f89a
0d43
041a
0043
0ce9
028c
ee27
f7ca
07a6
fd9f
fd40
1011
09c4
0673
e902
1ead
ef3c
f697
ee95
2847
fc73
0fd9
0065
f3aa
f188
ebe9
11f9
0734
f590
1578
0feb
feab
e87d
feff
0ebe
1aec
f50e
0179
1114
0f01
fdaf
0ea0
f5af
04fa
0839
0231
221c
f7a6
160e
21c1
fc26
f99c
f5a6
fec2
0028
f514
0bc1
f189
e601
0497
fda1
1499
ffc8
e540
0b71
0948
0267
1588
0708
fec3
1515
0841
f0d9
0bfd
1adb
fc0d
f70e
ec56
1bad
f4df
fbda
f767
f768
1b35
071b
1759
0578
e679
e451
fa9c
040b
18e4
f893
fe56
07b1
f167
0371
1cce
f210
21cb
025e
f39c
ffaf
f698
037c
1b27
ff11
0e52
f05d
f9dc
03a2
0f5c
0291
eb07
f043
ffe0
f265
f5e7
f3db
fb6e
1c58
159c
f9dd
f130
24dc
0efe
001c
1711
eb3a
0307
fe9a
fc92
eed2
0022
fe31
0f21
f05a
f132
f8ba
1764
0a0e
0089
fde4
1929
d9cb
fa4c
f64b
0971
fae3
ed24
0755
fbcd
f6d0
127e
fb2f
1bda
e032
1102
fe0e
2126
1cf7
f1e4
00d4
fd94
13d3
0a1c
15b2
edf2
d2d4
f069
ff3a
eab0
05ad
fe19
f208
f553
12af
1533
db8d
1aac
fc24
daed
1ea7
08a1
080b
e972
0eee
0c5a
17cd
1b38
f6fb
d4d2
1226
ef20
0e2c
1a77
fc22
e4c5
016c
17b8
f0c3
e507
2491
0bf7
ef01
030c
e298
f929
fb07
12b0
1ab8
fa72
0b04
1845
06b9
fedb
0e2d
06a7
1f8f
17bb
162f
f2ba
080d
1fe1
1412
014a
059a
fd71
0608
168c
0caf
e700
fd8e
0632
101a
f989
03e6
097b
f309
fb9d
f2eb
0e17
e625
1e58
fb69
e8da
fe6f
0dd0
1270
fc98
0aa8
f346
144a
0362
048c
0f9b
0587
e855
0422
f8f1
1a5d
1acc
f1c2
fdb1
f046
e6e4
ff27
02f8
f617
ea85
1f9d
eee0
1c21
0ea5
2236
f62a
06d6
0485
144f
0ebb
05bd
d911
efe6
091b
0857
fe23
e608
f299
0b05
f37a
0d60
0f33
fe29
f050
eb93
f031
00a5
f0a3
fd5f
e9da
f02d
e6b3
1c55
f85c
dc01
f622
f3d4
f00c
1797
e8db
0b91
e8b9
f333
04d4
0cf2
1547
d6e0
fc43
0413
0ce8
141f
0e91
e8ad
f5a3
ecef
fc20
fe14
01f9
fb58
f704
e6ef
f27a
ea8f
026c
169f
00b5
00e9
e3ac
eefb
29ac
131b
ffb9
0cc0
0f5c
ec13
fd44
10ca
1c94
fe30
0757
0bd2
f2c0
1386
ef31
f209
fd47
1422
0e00
0ec5
eb17
e984
0941
0cfa
059c
f72e
1323
032b
ed4d
08c0
0116
1312
edd4
e33f
ef45
09e3
0f87
190a
e9a9
1757
f1e9
20fb
f483
ef05
0623
ebd7
ebb3
f818
0365
23d8
183e
e8af
f652
02d2
fa49
1d22
f52a
0912
0d85
0257
0fcb
0e84
0fc7
059f
f14a
fdfb
157c
f9b3
dd13
17e6
d27f
f684
ed1b
1c69
eb99
1114
f5bb
0233
1588
fa3b
14e2
0a6b
faca
fe6a
ff71
0f75
2529
17e9
129b
f024
02ce
09cc
0120
09d6
e4ef
147b
fa5f
f6ff
1b63
e5f3
e7db
0495
04e8
dbc9
0edb
f525
17de
0380
fd80
e7af
06da
ef81
edbc
fcdc
0de2
f46e
ff20
1009
2730
f9c1
1163
e954
f3c0
203e
0e4d
e06c
e067
0630
3126
eebc
035e
ee4b
f86f
e635
0ab8
1244
11f6
fe21
0a76
0f24
13aa
e7ca
fb50
06a0
02c1
fc38
e93a
00d8
f39c
fe8b
fd34
f249
111d
e917
f6f1
1045
09c6
0fdb
fbe1
f27e
ece2
eea5
f582
f445
e7c6
ffeb
0c6a
ec54
090d
001e
0743
0d21
cb10
117d
e9da
12fe
facc
0f28
fe66
153c
02fd
f800
ffba
f81d
ed99
e260
0784
d8b3
faad
fdd4
0271
07a3
1d99
f70d
1469
ee74
0c7a
fcd5
f561
179f
f5de
f62f
fb51
1292
2653
f5bb
e764
fa28
053e
1ca5
f464
12ac
0583
f387
e30f
ffe0
ff82
07e6
12bb
146f
eded
12be
16ae
f24a
14e7
27f4
e4d4
1402
efe2
031a
0067
fcff
ff6c
014e
f87f
04d7
eba2
0a95
eb67
f799
1331
fbe1
0b1b
063b
06a7
166d
065e
07e5
08b6
f22c
11a6
dfcc
fc38
0440
fd73
fd31
0efa
0c16
e979
063a
181f
0a93
0870
e787
f67b
e4d7
094d
0964
13b6
fba6
0e9c
0a6b
e9d5
ed7f
fb17
e2e5
0fb4
fa3e
f54c
ff22
ee41
0ba5
103f
fde5
f948
0629
0fd0
0eb2
f445
e417
0bea
0fa0
f7b0
09d8
0731
e7e4
f95e
e34b
1ea7
fec2
ec51
0c7b
0060
08cb
0675
fd8a
05cc
17f3
f6bd
0f53
0afa
2183
0463
f9f6
0ac8
f457
1bab
0652
f978
0650
18a9
f0c1
04b8
004a
e91e
ef3c
d9ac
11a7
f855
fef7
1c35
10df
f90f
08c0
f2c7
01d8
1973
e89e
0168
21ac
1010
f57b
0311
002a
0766
1814
299e
0bcb
0601
04bc
0807
2053
f827
16e5
0176
f64d
fec9
1413
100b
dd76
f2e3
e0bd
0c5c
0f94
ea94
00f8
fb5f
09aa
0809
f465
e5bb
000d
fd09
fb23
f901
fd78
1633
e011
1573
e4a7
0caf
f7fb
f335
e168
095b
fec3
0002
1c52
030a
fbd2
1b0c
ed25
01f5
f206
fd5b
faf5
1c83
f21b
0b63
e971
f359
0ef4
059d
d8d0
1343
e475
0b0f
f085
ffc5
0a7f
1de4
0e41
1b1e
eb1b
2058
100b
22b8
c942
1838
12d6
0099
1809
1976
e5d9
06ec
25c4
f5c3
07ec
03f2
11be
1917
04e6
fa22
f0a4
ef35
dbba
ea5f
f49c
1b48
efe4
111e
f38c
fe66
fa70
127a
04ee
dcbf
ee5b
1b8c
0708
f59f
ec29
f2a0
e5e0
f1fb
f7f1
f49b
ed80
e2b5
f3e2
fda4
e8cc
071c
0322
11ae
f1df
0fbc
11e1
14c3
f366
0658
093b
0693
f80a
161e
0858
05ff
06e6
f217
ffef
dca9
ceba
0690
f404
f209
1b6c
0e18
eb44
f815
1019
f18a
f627
bdea
fae6
f00c
07da
f8b4
0e34
04bc
1c55
edd4
f608
14ba
eea6
0870
052d
0265
eb20
e954
04e2
f8dc
0de0
14e1
f83c
fd11
013c
0500
f023
0d74
eac2
0300
faa8
eb20
eee6
09f8
0d65
ebd1
e70b
07f4
12bf
eea0
e750
0fed
d59e
ec99
f53b
f4e9
e70a
1224
f23e
fde8
07e3
1af0
0f5e
1e64
f541
01d8
0025
f139
00b5
0f26
fcd2
1a72
c9de
15c8
f0db
f2e3
f97d
0a41
df56
fbc9
e664
0da1
e362
e1cf
f7c9
2dfc
ed15
f89f
e4f0
090c
eed0
0125
f38c
03bb
df5d
2446
d94d
f26e
0003
f625
e3cf
0128
17db
ff87
f204
ee23
f044
030b
f1bc
267a
f39e
15d4
00ec
0874
fc38
13aa
f3ef
0f3a
0f7a
2586
ec80
0485
0f23
12ed
1bba
fc41
1a25
0723
1e78
0437
0fc6
0f7f
ff2b
054e
df12
1cb8
a4b5
101a
024e
02fe
0aa5
09d4
0108
014b
fca1
fc60
fd25
0a6d
121b
1d3d
ffcf
0ef5
f02b
0aa4
f3c3
0f51
e855
f9f2
e718
2e50
02b4
f585
e7ea
db26
e36a
f9a9
ee97
feee
0054
10f2
0fc4
0499
f5c0
1ac6
ee90
1cb1
eaaf
0d91
1ea0
028a
0b48
16c6
f48c
1a62
0286
0975
f7d6
18aa
1939
ff76
14ac
ea73
101f
ffe7
f5e0
109a
f224
2451
19a9
0d74
109e
ff27
f2c4
175a
036b
0210
ec04
0e6b
1bee
f1b2
f194
efb4
ed22
11d6
17c4
03d0
0442
0509
0e80
189e
047e
ef5b
fd7f
f4e0
137a
f824
cff7
eadf
04b2
ed6f
0c22
f4e8
f267
e871
e014
094b
fef9
0cab
f416
211f
ed33
f78f
0baa
f009
1311
112b
1e68
f911
fd7a
1299
0fa8
0f84
0f50
dc2d
eb0d
ebc6
e449
fddc
cde2
e6ad
e0b9
f3ff
0a29
fc01
0e76
06ec
0584
eba6
fb71
1f22
f2ee
ddb1
eea1
04c3
02fb
0dd3
0557
1d1a
efe7
197e
0162
e4f4
1ee5
0c16
f66e
efd3
fb94
0dc4
ee62
030a
f2ba
0694
dcf5
f769
db19
eba4
138b
f448
e1cf
f280
f3ff
0d04
e237
1d20
006a
e927
0887
106d
01f2
0216
111a
13ea
000e
0ea4
e5e7
0032
0acd
01e5
fc0f
fb05
1740
0212
0654
0e9a
e50c
1c29
fd76
e989
07da
edbf
ed6b
f557
f7e0
fb29
f0ec
eb04
f1d7
0e8c
c0ac
e9a8
04ae
1af9
f03f
0585
e07b
dd98
f979
0775
ee32
f280
fb1d
2299
e9c4
001c
c437
e218
e309
eed3
efc0
e0f8
ea7c
e912
f3ee
f31d
e7a0
f5c8
fd81
1842
b6a1
edb0
f05f
0c9d
04db
1404
09b7
1594
ea54
13bb
04d2
2378
07f0
d037
f3d7
e18a
f204
2548
f20b
f150
ed54
02a6
05ac
0886
1c66
fec5
0b54
f374
fdbe
e997
0a6b
04b5
0d1c
0f7e
1b77
f4b6
f56b
ff22
f8f7
1c14
f0a7
f861
df67
eee6
04d1
096b
efad
0ff7
f9c3
00e9
1e73
f8a2
eb0f
1591
e814
1163
ea45
0d06
0c08
0d72
0e49
04f4
ff4a
0d66
0284
ed30
07ef
ec75
ff30
ec9e
01fa
0a2d
fa0c
01f8
fded
090f
f7f3
0751
043c
074d
0bcd
f8b0
0615
e854
ef39
f87b
0269
0a6f
e64a
0f58
ec40
2dee
fecb
f739
e999
0a06
0299
01e3
e417
1751
e8bd
0efa
fa0b
f3e5
1bea
e9fe
0a3d
f768
0f7f
08cf
26d8
f68b
1ee3
015d
e4e4
0290
0f0f
f090
f73e
0008
fdd4
f5a7
f712
1352
13df
0bd3
e60a
0d1c
0bfd
0eee
0604
01d7
fba0
0122
018c
0698
0252
072b
0f3d
1259
ee98
df81
04da
0204
eeea
f086
d74d
00a8
0c24
f1e5
0c4b
e4a0
cfbb
e529
00c5
f5a0
1075
01b0
01d8
fff4
0d3b
09eb
00c3
fdd6
fef8
19fc
fc71
fa95
0253
086a
09cc
0f44
f658
f37e
0968
131d
122d
0604
0f1c
f8a3
f595
dd65
e68d
0597
edc8
c8ed
0e08
efc8
f6d6
ffb4
f1e2
0d41
0676
fc19
e558
ed4a
00b9
e469
03e5
ecb1
13a2
f713
089b
0b9c
f28d
ef8e
fc08
0bd6
b4f4
fb00
f479
09cb
fcbc
f934
0cc7
121e
064a
0b73
0a32
eef4
1403
0fcb
02b9
04c8
f0b6
f6e2
fb9c
f541
e8b2
0661
fa11
f1b0
f8a4
17a9
f961
1077
081e
ebec
0ee7
085c
faad
ffef
1198
1147
eb5b
1a2f
0735
06ed
fdf2
1480
1215
06c5
0774
067e
0ca7
fb5d
17c6
f004
f53f
0743
f371
0115
0a50
ff6a
f5f0
09b0
06c1
02b5
04d9
f265
fd30
08ad
19a2
ffdb
0c21
eb33
0d47
ef27
187b
f386
1a0d
08e6
e61b
cd4d
f578
0e97
e5f3
fd13
0e4d
2152
04b6
f667
f6f3
124e
0de9
12d6
0794
ee7c
fea6
0aef
0c51
ff1c
23c5
13fd
0e96
083b
f204
fd40
ecd6
e380
1895
1208
013c
f832
0167
136d
e930
f815
0059
1ac8
fce8
1204
f70e
f8e2
fd07
186c
1859
11dc
0f4d
008d
0fe5
0d02
e838
1885
f69c
ebbe
e467
116d
0a8b
0eca
05fe
ed83
f3c7
feb0
212a
ed52
0cbc
09a2
f04a
e860
f4f2
06ec
f8b5
fa9d
ed63
ff8e
fb69
fb52
f9a7
fcd9
f90d
1c5b
f095
0a9b
f4f2
02fb
ed24
f78d
f60b
10d3
0e50
035c
036f
159f
f429
0faa
de6c
fe54
0fa9
f97c
ffbf
031a
f547
0215
03f3
f9d6
efc9
0c17
d081
0400
e403
f42e
f176
f7e2
0406
fb15
ef33
f6ce
084c
1f91
1055
e425
061b
03bf
11cd
08f4
089a
fef4
f3b3
f954
06b1
0650
0d38
1264
eab7
fec3
0d26
07db
d6c6
0fe7
e6fb
03d6
1080
f024
14b0
099f
128d
f67c
e8e4
14c6
0cdc
1ae4
0122
ebfd
fbc5
f8be
16f5
ec7f
f6a5
fd62
ec96
f368
e1d6
018b
070f
0491
f152
01a5
e355
18e3
f24e
e90d
063c
1d46
febb
14ae
1085
fbf7
002f
fa96
1232
e672
10e2
e43b
eaeb
f3f1
e13d
04ca
e133
fcfc
e85e
fde5
ae1d
10d8
dc7f
0790
09d1
2add
f1bd
fb57
f1a8
013a
e936
0eb6
0563
0acb
e7f6
065a
e6c5
0a3d
1a03
1208
0bc4
ef1f
e578
33cd
e778
f06d
f019
e4c4
f4fd
f54b
182e
1253
f9d9
1476
11dd
0303
d16e
017d
f975
25cd
e0fe
fabe
1a32
19a6
ff37
1553
0ea5
ff17
0551
0840
fd00
2f5b
18f0
0c1c
0c92
ec9e
0315
2f8c
feca
ede5
f1ac
19d2
02a2
f99b
f4ed
1b56
ed90
071c
17b3
0749
16c0
23db
104e
0a87
056f
f76c
0dc3
0e64
194c
fdff
fd5f
21f0
f85d
1967
039d
f649
216f
1798
00e9
291b
ecd0
e7e0
f3d7
0da8
0741
1861
067f
1d5d
01d4
1434
01d0
d8eb
f691
0b5f
0eec
1046
1bf1
1e40
1493
fbf1
eaee
fed1
1ea6
0bf4
1fb7
f95f
04c0
01a2
0058
088e
3f77
0634
1c6f
1f29
1ff8
f936
de3c
2d63
bfc7
141d
e978
01fd
2102
0c78
ff56
0ac4
18d6
e9ed
159d
f0d4
ece3
2316
ebae
e23f
f647
0a11
09b0
021e
f7e8
f2f9
ea7a
2ee3
ea96
0aca
eeaa
036c
ff76
da19
0748
1b2e
0df6
07c3
182d
0d1c
e998
076b
f7f4
f640
f9fc
facd
f5d3
1b40
054c
17c8
0684
1019
1eff
0e50
14ed
0c3a
1051
ff57
0651
deed
f4f4
0361
f0e0
f293
1f46
06d7
f59c
ff1a
03ac
17b5
016c
049e
ffa6
0b35
f688
1470
041a
f775
f86d
f7ce
00fd
11b5
0779
0d16
0331
fec6
f2f8
f93d
f105
0611
f183
12b7
fc02
054d
0e10
f32b
e801
fdc6
1b3d
0bef
0dd8
01bc
f990
fe5b
fab3
03a2
022c
0f96
1321
f061
fa7c
ef74
07bd
14bb
ee69
0d14
0fd1
0504
1027
1b68
1452
03ba
0063
ff05
f416
0cc2
02e0
1522
f7db
0ec1
154a
0744
281b
0574
f256
1769
036d
ebd7
10da
f847
14fa
f998
07c2
1546
fc72
e511
d9ce
fdfe
1e1f
18b8
0f79
f817
daae
e589
ec5d
1774
fb74
06a1
20ea
fec4
11e1
0efa
076e
1c4f
d066
1536
e961
15e1
fa1a
e999
eb19
ff0b
03e6
14ae
f6b2
e76f
ed53
f311
f41b
09cc
ee18
eed4
e82a
f580
f6d2
128c
d8e2
fb7b
1abb
f693
1a17
e275
066c
e84a
e13b
161a
fade
fbe8
ecf0
05bd
fbbb
109f
176d
08aa
0f48
f6e7
ec41
f41e
e819
0665
ebe1
eb60
0add
03e4
055a
ef55
f0cd
fecd
0e1c
2a6e
0265
1395
d88e
fd33
e182
f7ca
0c82
f93c
0320
19c3
172c
013f
ff73
052f
0343
14b8
139f
08bd
10d2
f53e
f002
f541
fd0f
11fd
f84c
1c82
193b
1760
f554
02a2
f253
f41b
f50b
fd7e
fbd4
fcaf
07cd
1260
ef53
f7e9
0a76
05cf
feb1
0020
fd9f
115c
048a
fd5d
170c
1854
0a52
1c1e
11e8
fac3
0197
ea6e
1a76
0e5d
fa3c
0abe
f518
0c3b
07a8
fd7e
fbd3
09a5
061a
003f
0642
16e7
0962
0fbe
f703
0b7a
ee7d
06ea
0f68
f0a5
fc17
0c38
0a6d
f3d3
f853
09c5
f6fa
f3a8
f968
08e4
ff53
0d69
f32b
fdba
0cdd
f098
ed0f
edec
0c51
0154
0173
ef4d
0279
fa07
04f7
18ca
fb0a
0a91
f036
0b31
03c6
02b5
f390
00b8
0457
0f5a
f746
05cd
f7a4
042f
ff60
e964
fee6
1062
08e9
fc29
0706
fa0b
ee89
1d11
ff89
f09d
04a4
02ce
f320
0216
fd99
1d94
0d48
09cf
f25a
fd80
12a7
f5f0
ff25
0bee
1581
0d4f
ec84
ff6e
e447
f864
0731
fb1f
ff4b
12ec
0310
ecd5
f2d6
0673
1053
ef70
00b5
ef88
1184
ee91
f036
10b1
e53f
fd8d
1668
f905
f0eb
eaaa
ff47
0928
0dcc
1254
1602
f0d8
0a92
01ce
00c1
efd5
0880
fba2
0ad9
0cf4
f207
f87f
02b1
07fb
eb64
0f47
f9ef
eaeb
067e
e811
ffc2
04b7
1105
0943
0c17
1456
1df6
2085
0bd0
e20a
0823
156a
1018
0aba
ee2c
f255
057f
f073
ebac
0587
0308
09f5
1409
fbf9
f72c
09c3
0251
13aa
efb2
0b08
e409
0fb5
0865
ee37
ff5d
0946
2676
0012
0353
f133
ff18
1730
ffc9
11b1
f498
088e
113c
edba
07e1
02aa
fb1c
0025
e950
079c
039b
053f
ffb2
f78b
1599
0392
0faf
f2fd
fbd0
f776
f217
f2ba
1083
0b0a
13e2
0e2f
00c3
190c
ec55
08b7
00c8
0d3e
0461
ee88
0cd0
116d
092a
1158
f810
1b3a
0753
16c1
0c69
218a
1658
0f6b
f12e
04f5
e7a4
e251
fce6
0db6
0464
f58a
024b
096f
e974
17ee
ef99
0202
ffa2
026a
06b5
fe6b
0878
e927
f708
fd2b
ec21
109d
f086
00d8
ed98
eecc
f9da
00f3
e7e5
02e4
fb97
1235
0b20
f9bc
f132
f4e4
fe08
10a5
f8be
f616
0ebd
02ec
f37b
ed0f
ef0b
14c3
e781
21de
ee61
f326
fa6a
ff76
0291
fef1
eaba
1d0c
ef98
0086
040c
1e0c
0722
011e
ffdd
0c3d
ebc0
15ca
09a6
f10c
1175
1c84
f636
0ef5
105e
0e9d
ff1c
c798
0861
159a
f860
063e
017f
07ae
0358
031c
07db
f6c2
fb9b
0ff2
11d9
1148
f7fd
0311
006a
e253
0ed5
f837
0bdf
ff8b
1abc
0506
16c1
15fb
1113
ffe0
0922
e393
fe2f
1546
014b
f0b9
ed26
0ba8
14fb
f9d1
fec7
f878
de60
fe9c
ef6a
f1bd
f9a2
1769
faa6
18f8
fa98
02d4
0aa1
1c62
fca0
e221
0141
0ed9
f931
f7cc
02f5
0a8f
34c7
114d
0e28
f2e9
123c
faf1
fbac
0fc5
f225
fdc1
ecad
01fb
fa5a
f612
cf74
0a98
0976
0cad
048a
01f7
0759
f4ed
ed68
0647
fd53
ee4b
f73f
fdc7
01ea
f71e
1644
f9f9
dfde
19d7
0796
153a
096c
e61e
092b
f32f
f04e
f6a5
f18f
ff5a
e155
fa81
f721
ee9e
fcaf
18e3
01f5
f7ed
f6c3
0b8d
f4f0
0c6f
1fb1
f3e7
f75d
f032
f250
eef2
f648
eaae
00c9
f9c4
16f9
e46d
fd4c
e9a5
f3e6
eebb
127b
fb81
f8b7
090c
ef60
0a34
056a
efd4
f802
0aa1
fcb8
f8ef
0551
17dd
18ce
1aa0
08d6
00bd
103a
06e1
0896
d441
0187
fc2f
02f0
ed98
02cb
0430
0446
079a
ff1a
13ce
0859
ee19
0bd1
fbbc
089d
fed0
1217
f583
09d9
fb5b
06f8
f33e
0503
f8e7
086f
06c2
f044
fee4
0d22
f5e3
f12b
0657
f06d
f6ad
e8ab
f71b
0197
fe0d
13b8
1c76
01a1
0609
f5db
e727
0f47
0164
f61f
26b5
00a6
00ac
f067
fb10
132e
0671
0119
f8bd
ec97
178f
0020
1736
dc74
eb69
da77
f46d
26ae
0b25
02c6
e73c
09ab
ea3b
eb82
faed
f8c4
00bd
ee5a
0c79
0fc7
fa4b
0903
f758
ecac
10da
ff34
16ed
f234
1c54
1e74
fb1c
078c
0099
0e1d
f27e
fc5e
f3e7
f304
23b0
fdf4
f07d
fff2
fa3e
07a1
f378
00a9
eecf
ecca
ebf2
2010
1f5b
c988
03d3
03e8
fb62
0380
0521
f5c6
e0b5
054d
fc51
f84c
fbd6
1324
ef39
f08c
1c9e
de0d
e452
fbba
c989
007e
ee38
144a
ebc6
fb29
02a2
0a1f
f3ee
fd0b
2951
ec0d
02f9
f1ea
0921
1971
0f8b
0d9e
f94f
ff17
f979
0a85
0b86
0905
fff5
0ede
0eb0
e3f4
0df9
01d5
0d14
ec14
1515
f438
0485
9413
130e
0ed5
2810
0c19
f548
06ae
0bdc
ee74
e57b
0531
f871
fa74
e5f6
ed42
fcac
0f17
0e60
0612
0cc8
dc33
f799
12b6
f763
02f8
12c1
04b3
fce1
09fe
1144
0228
ffca
e3c5
2f32
1879
160a
1419
e4be
083e
1082
0afe
1280
0a87
e16a
f9e3
17ec
eb11
1193
06e9
1a22
f6e7
e234
efab
2fce
f18b
0f4d
443c
eabd
2319
e95a
15bf
e78b
0951
0e3f
f771
16fc
fcdb
cfab
f553
03b2
1c7b
19ed
edd6
f3d9
06fe
12f0
f61f
ff55
17d8
0093
eb79
192d
0d5b
f0d6
f78d
e6df
f3ea
0428
0b1e
0ccc
fba9
021b
e91f
28fa
ee66
1c77
f803
fcee
fc70
12a0
1390
f7ed
eb1f
faff
01b2
0ca2
ec0b
f6e9
e39d
0b3a
fbb9
ea8e
f359
0299
0495
f230
0f7d
2621
f637
180d
020a
0ad6
03d3
facf
1c75
0ed9
edc2
f8d1
f552
0137
fbd3
e078
fb46
0b5d
14ec
f5ca
f64e
f57f
0ad9
1ea6
124e
1a1c
0648
1481
f03d
137f
de07
f3f5
fdaf
10bc
f30d
fd4e
dc89
1836
0315
f37d
1ddb
e5b2
078b
fb0b
0f0e
f777
f201
eb24
0a37
f5f3
e9b5
1789
f66f
ff95
f8aa
f537
220e
1727
07a4
0299
0732
20f0
fdfc
0860
f954
e54f
ef57
1197
0091
05a8
e884
12e3
0261
eeb5
070e
eef9
203f
0aeb
fd83
bdfd
19a4
e5ea
1065
0ef2
257d
1260
03a7
0ca9
f976
0143
2011
e95e
f37e
01ce
f5ba
f914
06a6
1e4a
1897
f8eb
f895
1501
ee23
f177
09e4
e0d8
0875
10c0
fcf1
158f
f5fc
fa4f
e7ac
ecea
f23e
0876
017c
11fa
0ca0
f5a7
0caa
04a0
0708
100e
1100
0112
0439
fd20
ee66
1959
f02a
0e92
2fe8
0353
0fd7
f636
11e0
0136
1314
13d5
4159
ee04
e890
c2d2
ef3c
fa14
01d3
021d
103f
236e
ee2d
fd74
f49e
115a
157b
f5a3
f004
0283
0fa5
0930
1007
10d0
0f55
f472
f34a
fd73
e336
f40b
25eb
f089
f9d2
f097
1d8c
e8d3
0c54
01a4
d625
05ae
f891
26f5
f715
0a4b
1200
00a0
3f43
1743
2520
fae7
0a5c
e6de
fc65
1210
11b9
fbc1
00f9
e692
02f2
0350
ed84
089e
ff1f
fde8
27ab
0305
2969
e6ee
de1a
034d
f8cb
f5e6
03b8
e415
08eb
0120
c40c
fcca
ed60
0a72
09f8
eb67
0201
fa88
0175
f6a7
fe9c
13c0
298e
fbc1
f501
1a74
d60c
ffa7
1479
e697
fee6
05c4
13df
fd47
0cda
f9bd
f4e4
014b
dbf0
0fd7
0208
0a1d
ef23
0719
17d9
1e41
18c8
f8e3
07e8
ea32
107c
0264
02c2
f23c
f306
f8aa
e5bc
0834
fefd
f6be
eabf
fd61
eed1
ed39
131b
fb93
f94e
116f
edd6
1d5d
d85d
e929
049b
061e
05ad
e6bb
e636
246c
f4ee
0ecc
0018
ef2d
0d99
0392
f12f
e38c
ec50
03a7
e6a5
ea8e
072f
efa4
e90f
e986
f59a
f4f1
fd23
0098
f796
de57
ed41
13ec
f7b7
0801
fa7c
de63
0e1f
f23e
060c
24f2
f80e
303a
f5ed
06f4
f886
065f
227f
eb5a
025a
ea35
eafc
0c00
0f99
e4ba
dd29
09c9
1907
0323
1ea7
1575
fc2e
23e8
1a8e
f970
12d3
f170
1d6c
fd52
1157
f902
ffba
0e9f
065d
ee54
f5d1
225f
0262
0ee2
f9ec
f8d5
1b50
ff65
00db
1567
f868
0338
0b25
f941
167f
176f
ef0b
1809
06e2
0ff6
f225
1267
f856
1248
123a
0c28
f954
0b76
f74c
ff68
1606
0c42
03a8
12f1
0b9a
f5ad
0850
f552
f137
fd2e
2642
fda7
0e76
0b5a
15e9
f707
16f8
001b
e746
e8b8
e6eb
0ed6
f3f2
099c
e4d4
0847
0c4b
0de3
ea79
0293
f91e
fd2f
16b3
ed21
0797
051e
fdef
0b4a
f74e
f4cb
0a71
0d62
165f
e188
fcef
dc05
13cf
ea4c
ff36
f2ed
fe38
d555
f2ab
098f
1179
f87a
e3eb
054f
e9bf
0cd0
08c7
f14b
194b
22ca
1a25
1948
0d34
195d
f92e
f3e5
1241
f4b3
0231
e250
c1e9
f47b
d1fd
074d
f2d2
13e2
f22c
eaa6
0816
fb83
0041
ff18
f9c2
0d64
0f6f
fc6e
0e49
15fd
0d35
ffa7
0619
ec6f
276f
066e
ed20
1301
0254
11d5
ea7b
fdc0
04d4
2a8c
0c05
0b02
0222
ea80
0b2e
f5ca
f0ab
fc85
f18a
009f
041f
1307
1128
e964
06e4
0f97
07bf
1c1b
1462
efee
f422
f768
f75c
162b
0bba
fabb
2017
02f7
fef1
0141
fc7a
1a9e
14ea
03f7
083d
16c9
017c
0f5a
0a93
0e4d
da21
f396
0671
0869
051a
f88e
df7a
fb3f
f739
01fe
0058
f9cd
f41e
0796
1975
f697
19b0
1186
14e4
0c67
0ed1
ee81
0be7
fd46
0e9e
e5c1
ddbd
eb91
f878
f37b
0eb7
ffc5
fadf
f610
dc9d
f38f
0bb0
0f48
f7b9
1e46
eb29
0c25
10b6
e82f
168d
2340
0399
0747
0f5e
1661
e84e
01ea
0b9b
e826
0e66
e25e
d610
f051
e926
f7ae
fe92
f1ac
fd17
077f
1c36
f9d2
dbe8
08ce
e74e
f020
f95b
0739
0954
0c01
e2c6
17e4
0abd
ff3c
17c4
0691
f1df
e327
0ce8
062e
177b
06e3
25e1
0b76
0cee
0538
d999
fe1d
0c02
d66f
dd3b
f93a
024c
0e35
f8a7
e54e
ef9b
1b26
00ee
2221
e341
111f
f5e4
f446
2bc1
1931
1a3d
fa8e
e6fb
ee89
f975
f693
1201
05b0
06ed
ec84
d9e7
186b
e727
f388
e60b
15be
efdd
f1b1
2231
0f25
0a2c
097d
1491
f2c0
f9e7
131f
e926
fa51
19b2
0be2
004b
f0ed
d7e4
ebd8
ff78
ff1f
1829
fead
f2c4
e973
05c1
fbff
f2d3
0dde
125c
06da
f663
0a8f
0471
0e61
dc9d
073e
ef9f
15c4
0e21
e267
034a
0fc1
1d21
106d
fb25
f762
db46
0171
06cb
1547
04f0
16c7
0597
e929
ef58
f2c8
064e
0576
02a4
fc8d
16ea
0229
17c6
eab6
e819
f062
fbab
edcb
f7ea
f4af
f71b
178e
0f1d
16b6
0c5a
f964
035b
07bf
f0e4
1b85
101e
10e9
fa11
13df
0ab9
1210
ebad
fca6
f2a8
fb3a
0830
fb18
0a2e
046a
e97d
1618
1062
0227
fee2
fd3b
00ba
f897
16b2
087c
fc79
0e1d
1cb8
0e4d
0e5e
ede2
f88e
ec20
0bb3
1415
0a88
07c1
f184
fa82
0b2c
ecdc
07c5
f651
fefc
f62e
0a05
00c8
f616
f97f
fc59
1fc4
f272
0fd2
f15d
f936
fb78
0c9d
0555
1163
f9b2
15fa
ffe4
183e
ec15
1b58
0e48
036a
03ad
058a
0f52
00d7
ffd2
fc93
0428
1d23
fa47
f027
f5dc
f447
0996
06c9
0ad5
0e09
12f6
f1d4
f87f
1362
eead
eda0
0afc
0c48
f856
12f6
00bb
fc6d
f7d3
1466
e96b
010e
1559
1a7b
fcfd
11f7
eb59
0ea7
f671
ef7a
efb6
0896
fc53
07b5
0869
eecb
f53e
1ded
0732
106d
05e6
e9eb
11f8
109e
00a9
11cc
1730
1739
0a05
0a68
ffa6
005d
1713
f753
f49e
f988
0d29
edbb
fc2c
f3b3
1108
259b
f0cf
ead9
f5b0
f146
f461
04f9
12d2
eeb9
0337
ffbd
131f
00b1
0083
de4f
076a
edbe
1be6
134e
0b29
1659
0c5b
1017
f0c9
ed11
0f6e
11ff
0c21
f69e
f294
0313
f217
fd1d
f17c
f1a1
1071
f11c
143d
0d51
f419
fd64
bf2b
1c15
0e89
0f24
0a98
fbb3
09bb
094a
f8d0
f000
12de
0371
fa45
1833
fa45
0e4a
fe67
1be5
f813
12ad
fa6f
f201
ece5
ed84
11b9
f84c
1525
0941
f35a
1a64
ef8b
160d
faf0
1eb3
10f4
fd61
0cda
f074
08ab
f1bb
054a
10da
fc1a
1127
ff52
1cb4
058f
0e9a
f4dc
07ab
f74c
0dd9
1ae6
061b
f409
195d
26d3
e0ab
15e3
076b
f2e7
fa78
02c3
01cd
e04e
0fe1
f9ba
feaf
f697
18bd
fde1
021e
fc7f
f8b5
fd64
f277
f7f7
ff8b
f0cb
0e5f
0429
0678
13dc
1080
137d
0222
0825
0f07
00cd
17cc
f763
018b
f20f
e7d0
e83b
f256
0848
f253
fbbb
ee0b
f24b
1013
fbaa
1597
e5a9
11be
feb3
13dd
ee87
1759
eca2
f21d
14bc
1646
153a
f60f
1187
0fb6
f600
050c
f51e
0328
0da9
164d
0a3f
f4e6
0e5a
f22e
214b
f376
18a4
fce0
fe4f
e8cc
fab8
ed4a
007d
f740
20c9
151d
033d
076f
f877
1807
034b
19f2
e34c
f49b
fae0
13dc
0752
0e2a
fe14
11a7
1769
1090
03aa
044a
fb15
14be
f6ed
fe41
1643
139f
0e1b
ed6b
eb4d
0baa
08be
0eaf
01c0
f85f
e127
f59c
e4ef
f0a7
ea3f
1191
f112
e7b9
e5ad
1483
0f53
1330
035c
0f95
f689
fc1c
0194
e155
fa7d
fff4
19c1
f56b
e7fc
f1bd
1093
0bab
e01e
e817
0a6f
1ed8
d6a8
fd84
ee25
2490
1191
eac4
ee4a
f967
f97f
f557
17da
0c5a
f87a
1131
f3ba
ef37
dedf
f959
e29f
de13
f071
e610
05c2
f22c
e9b1
f159
edf3
0da6
dea6
0544
df3d
0a57
f957
f817
1c76
138b
ff3f
0e79
11a7
0f8d
f737
142a
071e
e204
1496
cf38
0aa5
fea6
ee82
f7e1
fc23
fc21
f972
020a
e4e7
1a02
14ed
090c
fa8a
1844
08c9
06e4
f498
0c77
1c8e
159e
0a33
f70b
022e
0e28
1d9f
f631
1e79
0bb7
03a0
f5e1
f13f
02d4
f654
f8f3
1a86
0497
0589
ff34
f5a1
1e3f
f72a
f5ed
f2a7
0365
1269
e63a
09ab
fe80
0168
0f1f
06a2
0b3d
ef19
17ec
1326
feb7
02be
fd6a
fdb7
f9b2
04b6
0e85
e20a
1418
f240
0d7c
0a43
0427
f531
e431
fbed
1514
e984
1a6c
001b
e3e5
0608
2532
e31a
fe4e
eee8
0243
db5b
e6da
07da
196a
e954
fcee
ed02
0aec
1151
2068
08ee
f9ca
f151
0747
f009
fac7
e37c
d8c3
d737
0350
04f4
ed4d
1710
1697
e558
e572
f354
205e
f419
1f26
febb
0595
f2ac
1765
0039
05f6
09ae
278a
13f1
1c1c
032f
157b
11cb
f901
f0b1
db09
11c6
0a96
f7cc
11bb
0b59
13b1
0a81
fe58
ec5e
0653
e828
055c
0482
1f26
f01f
1a29
0cad
ee69
00a7
f944
ff9f
1038
efe5
faef
fd69
044f
087f
f7f8
093c
e352
f801
0df6
e46b
f6bf
ee33
e7f3
0967
de7a
1d85
1a3a
0db1
0b5a
f2ff
0fb6
f89b
ec08
05d5
1f71
0e1f
060f
fc27
fc7a
083e
086b
ed47
066b
f5d4
fae3
fcfc
1350
04bd
2270
1264
085d
f162
08ff
fb05
1077
ff1c
0115
0442
0000
fed1
0222
fb11
e6d4
122b
020f
08e8
05f7
f79c
0b5a
fb3b
074d
0cd3
085f
1fbd
e9fa
e7cf
eead
1cee
05a2
fe0b
f12f
0553
0cbf
f79f
1b2b
01fd
e13e
e7ce
fa98
1bfd
0947
fe0a
f392
e7e2
00d8
fbd5
1d3f
038f
2656
11fe
101c
150c
f2d1
fbd0
065d
f88f
10a5
041b
1ad4
10e9
f8d3
fd4e
efa9
f948
0700
1cad
0ae9
04aa
01a3
f66b
0465
f1c7
1992
1a67
0d04
0141
16b1
f99a
ec27
113b
0e1e
f2ce
0867
1473
0a6f
eec2
efd5
0733
14e7
fc39
1fcb
03c6
fe96
ddba
f35b
0db1
fb8d
12fc
f23d
2005
1578
ed64
232a
fe61
0591
f7f6
fc1a
f9ff
1a59
1d24
e821
f902
014d
1542
ec46
1248
13ab
f9c1
034b
fd33
e888
ec08
0322
05c2
ef3e
096e
11c2
e67f
10f5
0046
fb37
0f58
08f1
0e31
1150
fb3b
ead4
2969
f551
16b4
f205
02b6
e899
fe9e
193e
f464
e559
1ba4
fca1
0279
0c1d
271c
0fee
0188
0e18
e85b
07b8
e055
0672
f696
1257
f563
19db
02ea
f24d
f61d
1f58
03a8
0953
fbee
ed7e
f5ae
1ab9
088c
f771
0cce
fb57
1344
1331
069b
eb41
ed04
f11e
f94f
013f
195b
f98d
f305
0120
0460
19ae
f1e5
01da
1f2f
00da
0fe9
f54a
19e6
06a0
183e
e0b6
f4bf
fc3e
f54a
03c9
f7e1
e322
ef9d
fd2d
0a10
ffc0
0ecc
20ba
1617
f604
1bde
06d2
0ab6
0a73
0b08
e31f
14ae
148c
fcbe
ee65
1fb6
fdeb
f371
edef
0248
f314
e79d
1068
0712
f3f5
ed04
eab1
f3a1
e7c4
f626
1002
009b
0e09
e815
f114
ff1b
0c3b
0067
f570
05d8
ef9e
097f
0fbf
eadd
fba3
ef4b
039b
251f
02ce
0341
f5e9
10a9
f754
0fa9
13f6
dedc
f3ba
15ba
037a
0a3d
fa9c
0afd
0210
09d5
f676
1f7c
0859
100a
f431
fa36
f80a
e6cb
f6e9
ff31
0332
f2d9
f6da
fcba
0531
fa5b
016d
fedf
f7ec
f51f
fd3f
ee16
07e2
e44a
05eb
e926
f64f
1011
0144
07a0
0c01
1658
0fee
eb80
0910
e973
f8b0
1323
05d8
ea31
05ff
0cab
09f4
f27c
f1c3
008c
0829
dfdb
03f0
fd36
f721
0463
f32c
19b5
0699
276d
fe60
f87c
fc2b
0589
0c62
ffd2
f44f
1174
1355
f240
1bd4
f59f
ed82
06ff
e4c1
ebb2
edb7
12f2
fe33
0eed
0dd3
0126
f9c2
1177
15d6
fd6a
eaaf
f86a
c9eb
f41a
0d1c
1428
080b
f705
ec41
f6ad
f4f8
ff0e
04fc
ec84
0d35
f90c
f5c6
2e40
1dd2
f9ad
101c
fd3a
f113
0031
1758
f69e
003f
17c6
fd51
ef90
f7c9
fe40
0756
01d5
0b22
e6c2
01d5
f877
fce6
0352
0cec
f348
1c68
0a1b
144f
e5e2
0586
02ff
fd74
05e9
15ac
ec0d
f6ed
ed3a
091a
0006
1bd0
fb07
fc1a
fac4
212c
f14f
1444
f146
e67f
f152
0e1d
07a6
11a9
eb70
10f9
f6da
0cb9
055a
0f46
09eb
f201
f2cd
ef00
f7e9
0263
e9d7
0945
fd47
03f7
ef95
0a14
eea1
0f66
25f5
f7fb
057a
faa6
16b9
f63f
0792
edeb
08dd
1cf2
f3b7
f2a4
ff26
feb9
195a
e412
1793
e52d
1f38
0810
11f7
033d
0a16
0fc3
edb6
f642
09f9
0ae7
ec80
00c0
f399
068f
e3af
0474
02fc
0f2b
eb47
01e1
08d9
1207
020f
1416
1e6e
0bfb
0464
0c0f
093d
0f23
1852
f1c7
f50b
04e6
f7af
ed5e
0fd9
0f13
e60b
f1c2
e4eb
fd6f
eef5
0f23
02b3
f301
ea5e
12d6
027d
0427
ff66
075f
1f43
0ed7
04fd
e951
0101
fbcf
066a
05d8
fc60
e2c4
0485
f595
0784
f341
fce2
eda9
0989
1696
fafb
feff
fa0e
1cb0
e80b
14dd
ed41
06a7
fec3
e939
0a81
088f
0afc
f276
1f6a
1652
00a9
0ab0
02ba
0207
e638
f45d
fb92
f7a6
fb8c
0d6a
0777
11c9
1340
feef
047c
0931
f6a6
fdbe
e7f3
0729
034a
fe3d
eb6d
0f65
f885
095c
f3c4
0a90
dc0f
180e
04aa
f403
f5a9
f4e6
ef62
ed37
0e50
1f5b
0993
e1a7
1281
084a
ee27
1524
0e3f
e259
0eb5
05e5
0f9a
0e5f
1cd3
f193
f2f2
1c30
ea34
1858
0cb4
081c
06e6
0b97
0822
2504
ed55
fd1d
ebf1
f93b
06a6
1039
f361
0dcf
15b1
09a9
f2e3
0431
f0c8
1af5
eb25
1786
126d
1cf7
f003
165a
e81d
0842
fb11
2a74
0aa1
245e
055e
ff65
0d18
093c
1af8
0344
073c
1972
1bbe
fe61
ba4b
fe25
f677
f365
1a23
eaad
01fa
1b40
130d
002c
f67d
fa0b
243f
f4d9
f1cb
09af
06f9
1411
e5b5
1181
dd5f
f673
ebf7
f7d8
e215
1311
130f
e5e5
211e
0632
e52a
0e29
f7fe
f44a
08ad
e7db
f6ab
1b50
052a
fdf8
07c9
ed01
108d
edc2
ddad
fbaf
ff14
080d
f9d2
e33d
0033
f7d4
fc04
fa4f
fc9c
134c
1689
218a
dc6f
f529
1a8b
06bb
fe19
0467
00d9
f777
fc9e
0d5f
e5c1
e9bf
f610
10b2
082e
f203
ea67
f0b7
fbc8
00f7
06e9
fa29
0138
101d
eb97
0d6c
0dea
00bf
0f81
ec83
fd70
223d
e9d6
065f
f8f9
ed7c
d899
fdaf
066a
013e
0a4e
fd3a
f06c
0482
ed20
13da
e668
0b40
f114
0b01
f11f
fb12
fdc9
1c6e
03f4
15fc
efdd
1862
fe61
0a9d
0b4b
ed28
13e1
ffb8
d6fd
fe7e
df47
010b
1b4e
f4b9
eb45
0c05
fb46
fcaa
1a24
d333
e7c8
0e5a
02dd
0817
0eb0
048e
091b
f09a
fcd6
f084
0b4f
13d0
f5d8
1a6d
d829
f73f
eb16
ed46
f846
ee6b
01c4
ea08
2060
134b
ec46
1666
0d7e
fa64
0506
081f
ef83
1857
f308
fd63
f1b3
e7d3
02fc
0b2f
0ae4
eada
e812
e6fd
069a
fbe1
00e8
0784
0021
ff36
fe3f
06c7
1267
0aed
ec3b
04f6
01df
ea14
14d8
ff78
ed61
0d88
d6be
12b9
0266
0adb
0af1
224a
ffeb
00b0
09b4
0093
ff40
e340
0db4
2a86
e8c7
0d84
e817
e489
ee8b
1a0d
0a25
ee48
e41c
0bae
e1e4
fc3b
ef6f
03c1
e3b0
052e
f26b
fd43
0590
ef5c
f4f3
f1b1
fc43
222f
fe5f
0775
135b
e695
11d6
0ad6
0381
007e
eb8d
1d96
0050
13bf
e5f5
014b
167d
17d9
05fc
06ab
12c8
1490
0b24
ec30
eb16
25c6
02d3
000d
c0c8
fd64
fda6
eb20
11cd
17a9
0715
1736
f03d
ff9d
03fd
fc03
11c3
21e2
e898
eae7
047a
f102
10a5
10c6
0baa
035e
e39d
10ba
f37e
08e6
f4e3
eed3
e72c
ddd3
f084
0d2d
fd81
ee0c
eaf4
07bb
fa09
0f31
f0ba
0f61
02e3
1424
f51a
19cd
edbd
0d44
0cc1
16cc
1625
119b
f388
0452
0a34
fdc0
f97b
f1f9
05bc
014d
21fe
00a3
0446
21af
160f
f017
07b8
15cd
00b1
1081
0c85
0ac8
ef71
fe5c
0f7f
1908
f5bc
10f6
edad
1252
0c61
f437
08ee
f19a
f983
f9c0
ee6b
fc84
154a
0785
0f80
0862
d6b7
fa4e
05f1
0c52
e6e7
19d9
fdc1
02eb
057d
eb2b
16f2
f4eb
d712
2926
05bf
f6b5
ea24
f2da
f308
1a63
1c30
205f
f30d
115c
e8e6
0b79
177b
df1b
f36e
eb15
d897
0e05
f065
ebb3
0211
0395
ea63
f217
fed2
0129
fe70
0b61
026a
11ec
e169
f959
efd4
f8f4
f0cd
0764
0e3a
22ed
f957
f9f6
f2ee
e3f2
16c9
12dd
0b55
fb8b
f7b0
fa8b
eed4
f94f
ea7d
0520
db08
158f
f401
f1af
f641
06b2
e411
dd9f
0601
fffe
edb5
06dd
e54f
02fb
166e
066e
0c10
ffe4
079a
13f8
04d9
0fdb
eb93
1871
f8ab
1371
1bc5
092c
19b2
f2c1
09f0
0d0b
ee57
1c45
0567
e8cb
f735
11f9
d655
fbd0
e529
04b5
09cf
fa96
1038
f81a
dd82
e9ab
ec05
173f
fe1a
f169
dc72
f59a
1673
ef1d
f954
fb43
0f17
1f56
0c85
1989
e53b
fa3a
f927
f767
0fe2
01bb
0c19
f92a
e025
e8e9
f351
fce1
fa4e
0891
b70f
12b0
02b2
f342
0ecc
fe94
fe73
102f
f05a
064d
ebc7
0ffc
063c
d675
0467
c09e
f639
26af
d93a
f2e8
f2c7
0c0b
fd2d
eeaa
1f19
017e
1178
eadc
0b60
0d1a
05e5
eb87
0d50
fc7d
093a
110e
f7d7
fbcf
f23b
18de
e8c5
0106
f22d
e636
eb06
12d3
f10d
02ff
0bc7
e6a7
1de3
1079
f960
fc50
e9b1
046f
043a
1615
f6b4
f7f8
fbb7
fc4d
08be
f1f8
059d
fe67
ff8c
0a03
ece1
09d1
02d0
0882
e6b8
f926
0118
ec17
0450
0bb5
102f
fe3e
fdfa
0583
15a5
fb1e
00c7
fd47
1fd6
f28b
009d
f73f
e320
09bd
1065
0969
0069
ea8b
0a7c
0e36
d9fe
1656
efba
05c9
f563
0679
ff50
109f
13cc
ef41
038c
1519
0424
08d7
0951
df77
06fa
f1a6
fb70
ec4e
01af
f61e
0643
e3e9
f87a
fc67
152e
0453
f72c
1a85
fe59
0dbd
e7f1
e771
f401
ff1a
1fff
0b12
08d6
f2b1
14f2
f98b
efa5
ec00
f364
dc17
c4a3
f797
d42f
fe4d
f077
f089
0c61
f010
dc25
e126
180c
08bf
0eaf
151e
01bb
03a3
1382
f908
fb8e
210f
1231
fd91
f993
1247
0ebe
fc60
1432
e515
0afd
0e7f
ef6d
0200
e844
ed76
0e75
1bdd
f7f9
0490
ea01
fb46
0d46
c65a
11a5
028e
f59a
fc38
08af
e779
1191
ebb4
fccb
1227
ec19
0b7c
efe1
066b
1364
fc22
0fa7
06b9
050f
e5c6
0556
0a40
ba55
1345
f7c0
079c
f452
ecc0
176f
07b9
f1ef
fc1f
ff30
0fac
f99d
fd95
0ec5
08a1
f8c8
0126
0a65
ff49
f31d
ef2b
07db
fdd6
f661
1682
03ce
fb7d
e7e7
f6f6
064a
064b
17b4
e9ce
11e6
1673
f197
020b
0144
0bc2
fa47
f89a
089f
f65c
f9fc
ea37
ebfc
fbe1
168c
1317
12a1
e77b
009a
fd49
0bad
15a6
12b3
fc95
f5c2
0864
f53d
f5cf
0005
f648
0add
073f
f170
e8c4
0461
0873
f947
0394
1645
f7be
0c21
dc99
043c
0389
0035
0d12
05e7
1a6e
fa4d
1b85
ebff
fcf6
05da
f3ed
0844
0716
1173
ff07
12af
1ec6
ff51
10b9
0da9
f53e
e418
025d
0b4d
0ab1
f60f
0e69
0b23
07ee
071f
0c1c
07d4
132c
f15e
188b
f39d
0f15
0c01
1b90
1d9c
18b5
05ac
eb3e
033d
f9ed
04da
fb7a
e826
213d
f522
fc22
0d65
080c
fe2e
0c58
01bb
e7e7
ee5c
167c
2c88
02fe
1b60
0c36
0f0a
0986
010f
f766
ecd1
01e2
eb54
fd7f
f949
df68
e4d7
04f7
0708
ff42
dc02
06e2
eb7d
1080
f897
f5b1
f171
f0b2
f5d9
0491
009a
11b9
f620
1827
fe2b
1650
fa0e
10e6
055e
f76f
f13d
ef44
f3f6
0e0c
11ca
12ea
f85c
0412
e202
05cb
1076
02f7
f3b5
fe02
fa72
0def
e874
19dd
ff81
e5f0
0f9e
0832
03bd
f65b
15e2
fee5
02e3
f77a
e696
05e2
f7aa
f35a
e409
103a
0e69
1182
f3c8
0843
ef6f
1b07
001b
02b7
1e20
f3f5
044f
15d2
f8d4
f064
0c66
fb66
fa21
f41d
039a
e62e
1a87
fc69
f7ff
07dc
0f89
eb58
e5e9
0e39
0840
086e
f724
127f
08f1
1106
ec45
ffda
18c2
278a
016e
1bc4
01fb
ff25
026b
ebad
fac0
e280
eb2d
fbea
e3f2
0752
f2a7
f77c
ec8a
fc51
e585
1a89
ae49
193d
ff76
f928
08c6
0959
fa9a
f250
09c0
f1fb
fe16
0a8b
0bae
2226
ed72
0163
db27
091e
1084
1490
0b86
e339
f7b9
0e45
f858
f83c
ff13
eca4
ebf2
e904
edea
0ad3
00c6
18e1
ed2d
02c6
e47d
06a6
0321
0be9
f2a6
f16c
f5fe
19b6
006f
1f67
1257
04a7
0941
0015
faf7
2ed1
1de7
f0d9
02f0
d6d6
0195
3a98
e706
ed57
f12c
13e9
eaf1
edf9
1b78
1293
f811
036f
1647
056e
11e1
07a9
01f2
1476
e111
fdf3
efd0
e715
1aa4
fa24
ee6b
0cec
f2a5
11fd
1147
1cf9
1d63
193d
07bd
1b5e
e9f2
eeb9
e77d
fbf4
206a
090e
0e86
2c27
2360
fb81
e84b
e07a
f429
1aa6
f923
0d47
0820
129c
ede5
f512
e938
f247
1657
1145
0e27
0f29
eda9
fef2
eef9
eb83
36db
08f2
fa41
f512
0c52
025c
fcce
25d9
c25d
0ae9
e278
0862
1da7
2047
f678
221a
f6a9
e74d
f320
10e1
1313
fe51
f928
f660
feb7
1ddd
151b
07f4
e1d5
fa46
0adb
2f8a
f7bf
ee32
ffe0
0172
0340
f971
2224
1041
e87c
151b
1ff6
1956
ff24
0935
11f0
188c
0a77
1542
fbd0
022a
e502
ffc8
f46e
f5f9
ff54
02b6
1694
1195
0db8
1b22
17c8
ef3f
f3f5
0b0b
f7ea
03aa
03a7
fc4e
e88a
ec9c
db79
095b
fdda
f303
13c3
f98d
0090
074b
081a
e7fa
04c7
0a52
0255
16a4
14f8
ffec
085e
1571
06f6
101f
f584
fc60
0c35
09ec
f67c
12a5
f045
f54f
e56a
10fd
03df
f504
f458
02a7
f6ca
fee3
ee2c
0606
049d
0070
1be0
0b25
1800
053d
f693
0fa9
ea5c
0968
0e76
16e1
0888
f233
006b
ef00
0902
fe7c
0edf
e6a4
eec8
006f
f264
11ab
0338
15ed
0fd6
f934
1045
00ec
f94e
0f34
ec49
06d6
05e0
1320
05cd
05ed
f1e8
e48b
fe8a
f5dd
1a93
14d2
fb0a
0566
e551
f66d
11f7
15d0
0dae
0045
0e40
0a03
0af3
0e76
f05d
19e3
d7a4
f9f7
facf
f612
fa4f
fc12
f9d2
f97b
0cc5
f26d
f8f0
ebb2
f6f2
ec3a
0db5
f3e4
14c2
02cf
ff20
eb21
09c9
f5ea
f1e3
ee2b
1f51
f8d3
fed5
f2d3
f25c
df8d
e0a6
1f30
ddbd
19c5
083f
f4c9
0c54
2218
0833
1b4d
1543
f8ee
e6f1
0b66
ed22
17f6
e581
fd71
0a64
1595
186e
f526
003d
f8fd
0ced
13b6
f28d
05e5
e83b
f820
f110
fedf
02dc
14cd
f5f1
1322
efe4
131d
f4c9
e58f
16ea
0e65
fd7f
177a
f13d
0c1a
fb36
1529
fb84
181f
0262
0ce8
0bab
107e
17db
f6e4
091e
0c75
f0d3
f1f6
f924
0766
2056
f671
f9e5
150e
20f5
0483
0c08
04bd
139d
080f
fe5c
1153
0eff
0b22
113a
1475
f6f5
08c4
041f
ea7d
02a7
0d02
0fc9
ef32
ec1f
0735
05df
024c
0477
e2f5
fc97
f308
f42d
fa61
ea65
084d
0278
f788
000c
0795
fef2
fb51
f196
0b8c
1aa1
eefd
092e
1421
ecac
0aa5
0576
0057
0184
0589
fb4f
0671
096d
f9dc
f074
0443
fd8e
ff29
1684
0060
f36c
e4c9
0467
0e38
1190
0521
1080
edb3
086b
fcaf
1862
f8c5
0191
f132
02fb
0ca4
12de
0b10
f1f1
facb
fd1e
01fb
0550
f593
f1be
fca3
f717
10a8
f7c2
e2a8
039b
0e44
fcc2
f6c0
18e0
1116
e8db
1b04
ed07
1cf2
0a63
fd56
fb05
0230
1cb4
ffa7
ee06
0830
e608
ebc5
fa78
edd9
ef3d
16a6
f3c9
0a47
0841
05d0
0282
19e0
e97d
0d76
0fea
0453
18c9
08f7
ed0f
0fa1
0fc2
17b3
e86d
f395
1f50
f83d
11a6
22a3
0af2
04bd
0af0
fade
ee35
fc58
010c
fad6
f54b
12ec
1478
17f4
ffdd
fdc3
118f
0843
0414
ee1d
0179
fea7
f613
003f
fb5d
02b4
0db0
0bd1
1dfe
1390
f669
ee77
fbb8
fb99
f105
08b3
03ae
fb07
05c5
f647
e9bd
e038
0161
02d2
037b
0b94
f6f3
01d2
087b
00f2
02ac
0f21
1353
1660
fd4d
0384
ead7
f8fe
fab1
eea6
eec3
d600
10d6
1c9d
02d6
19e3
14f0
ec37
fc8d
f962
f217
09f0
f46f
fd4c
fba3
14cf
094a
115d
f424
fdcd
14bc
0076
f402
fc75
f427
0563
dbd2
f2b2
ed5d
1332
efb8
0e97
f026
038d
f98c
11e8
f69b
05fa
fb74
0c80
fac4
f6bf
02cc
fa82
f9bf
0765
0ec8
0f96
0396
0054
16af
f5fc
f620
068f
049e
0100
f040
e87f
fd24
0a19
f17b
10c5
f756
f8fd
0924
fa61
ee47
1742
03fa
faab
e30a
e41a
0f6e
e6d9
fc47
198c
ee09
f735
e712
0273
fff3
1b32
e470
02b4
db47
1b38
0f29
0160
f624
fcce
fc70
f935
efc7
fe60
fe89
eea7
0b5c
f00c
f0ce
12ae
ff10
14c1
ec3b
fdd7
1170
11d7
f65e
0d36
ea44
1c17
f819
0de2
f5c1
007f
0268
f5a6
0437
f961
fb2a
f0be
163c
0388
ea60
22fb
ed42
fcd6
0351
f998
104a
e81c
151b
0be5
0479
0095
e819
fa77
1fbf
0f8c
0d43
10ec
ffcc
effe
eff4
faca
f1b2
f3c2
e2b0
f06f
fcf3
f246
f44b
fab0
0c8b
11c0
fb1f
24b2
06bf
f840
ecda
fb8a
0e25
2000
11a5
fc9e
e873
ee45
15b4
f554
f99f
0bb3
e9eb
0540
f5df
09f9
0cde
09d1
efe8
fab2
f87a
09d0
f82c
f3eb
09e3
f8a1
fa57
018d
1a49
0931
00b1
19dc
0bf6
1875
1445
0c3a
fdab
17b9
ff3b
082e
15df
f23a
fbc7
fed7
06f1
f7ad
efc6
f922
fa45
175d
eef7
0ff2
07a3
0cf8
fd84
09cf
f55f
f46a
11d3
0035
f249
0a4f
fa8d
080b
e761
00ed
05e8
1739
0cd1
0654
0944
164a
1b24
0f29
f66e
1642
ec03
0638
0a7a
ebd9
0ef6
14df
fd84
edcd
f5b4
1710
eadd
0ff4
1958
eaad
12c2
f3d3
f64e
f897
ff8c
0340
0545
e616
042f
06b5
fada
09b9
0345
ff9b
1d18
0a30
11a0
0130
0045
f722
1c81
fa2c
f282
ff08
09e3
e86a
054b
035f
fe18
ffa2
152e
facc
0c95
fdcd
111f
f0db
f180
01d5
1251
effa
08df
0a78
10d0
0664
ff90
15b1
fcaf
12f1
f2df
fd12
ffb7
00d8
122e
f026
eaf8
0a2d
f082
0c74
fd6f
f18c
1129
0e82
1062
f00d
0abb
061b
fe5e
eedd
e244
09aa
02b0
f88b
e5d4
f6b2
ff7c
ff92
e2c9
fa72
f1ba
ed08
069e
fbd2
eaf5
1c17
ffb6
faa1
0a06
ff63
fd37
16b3
fda1
f126
04c2
11e2
f436
0995
003a
e0b0
f14a
0e88
0b96
119a
1194
0d92
f861
1433
00c4
135a
e771
11cb
f110
ec0d
f709
157d
013e
1f93
f424
193d
1165
12ce
fa41
239c
198d
0c53
2537
f1e9
f580
0058
0204
e967
1546
03b1
1225
f348
0f72
ee47
0aa1
10eb
e448
008f
f3fb
06c2
1a88
0cb7
ebb4
f4f6
ea32
0c5e
1a8e
f169
f11a
e814
0d4e
0b5d
1a15
1852
1b99
ef3d
005a
12e7
c995
018d
182f
e9ed
0783
fc1d
0350
e8da
ffa5
f3d3
fbc2
f419
0716
2889
eee3
fe98
085c
0cf2
2703
1ea0
1f24
13ff
0619
fb44
1405
efc3
0d8b
f84a
0b71
f032
f0d1
0842
eff7
f9a1
09bb
ff60
12d3
112a
9cee
2a22
0c71
2714
0040
007d
10de
10b5
08a0
f13f
feda
05d3
03aa
f56d
0c28
10dd
25cc
13e4
fdee
1264
f2c7
081b
1247
ed13
ef9b
f04a
fd14
f34f
0649
15db
fc6f
04df
ff25
2d95
fdf8
1e31
1510
fa69
03b1
10d1
0319
00bc
0ba8
eadc
e7f2
18e5
eb19
0d61
0ac5
0158
fb6f
fed4
12a4
33a3
fc0e
23d0
24b4
f5ec
2d2b
07a1
1aca
fe85
fbec
01e8
f214
0f25
0e56
ea19
0ddb
f5e6
f799
1a4f
f181
0183
fefa
fd3c
0f5f
12be
fa7d
fd52
0c82
20f4
1175
fa14
f465
09ad
e5ae
f4b8
eb84
0d75
21bd
0653
ee72
1627
0b13
fc9e
0df8
ec2e
0edd
1cb0
1189
ffd6
f243
074f
10d5
e940
1747
eb7c
fd31
0a5f
f8c3
ff5a
0050
0ecb
0cb1
fd50
fc4a
11df
0c93
ffc9
1541
eab6
0790
ed22
1a0c
04ed
0c84
0075
e8d4
f085
f4a3
f400
121f
f7e6
0fc6
fe18
0d53
f8eb
fab0
f5d5
11c9
08fb
1aea
efda
f1ef
197c
e617
fbaa
f8d6
fccd
f752
123f
fa16
1db5
1387
edce
f90b
d812
03c3
1d7d
0a0b
e2fa
01e6
f127
089a
0bcb
0a6a
1b97
f3f9
0fcc
0ce3
0e06
11e2
0ca2
0541
f91f
f16a
078a
0cf1
0835
e48e
fc13
0914
f17c
ef09
15c9
e162
127a
f843
0171
e82e
05d9
0377
f81f
f916
cb90
0cce
fe4a
ecdc
0bea
157a
118c
0ab2
ed05
e9c7
e2cb
103d
ff73
03fe
f2ec
1405
054d
fe1f
2155
1771
f4f3
0da5
0dac
0065
e2b7
10fb
ef9a
1e72
0820
0b31
0808
1299
0121
e7e6
fd20
1300
099f
f762
169d
fb2a
f761
20d7
0d29
f497
f42a
f89a
1316
05e6
0791
e04b
0335
0ac9
0bfb
27d7
06d0
2106
ee99
131c
ec67
0130
f59c
2f39
088d
efd0
cfce
f4f6
0ec4
e951
ebb8
0d1b
1197
eba6
1076
f663
f28a
2f88
0947
f855
06cb
f715
f739
1f2c
fe8a
023f
f7b3
f9e9
21f8
0a95
f812
140b
ef61
e007
fdd7
2c5b
f143
0a83
0a67
cf7b
0b21
efd2
0705
e8ed
1429
f29b
05a3
2824
10ac
21c8
1167
05f7
f854
fc77
1c67
031a
05dd
0eba
fd40
f029
0723
0db3
fdf5
ed0e
fc47
fe44
f174
0b51
0b9f
eb3c
0f5f
f3cf
e946
f477
f37d
01ad
0ac1
c84f
1c72
0033
f32f
1f80
f24b
1069
f5d0
f459
ef4f
11c2
0338
22ab
f208
f065
fa5e
c7c6
e1a8
2540
e329
f72f
05f1
00bd
f84a
ef1d
0df0
e578
1571
df5b
2e1a
f369
fa35
e373
fab9
0e47
2851
1d5c
f24b
fc7f
03ab
03b6
fd81
ec8e
e584
eff7
055d
d54d
fa83
efa0
e832
050e
127d
f994
01c0
eac5
0bdb
0ab8
e9e4
f8dd
1412
ea5d
eb7a
0357
e9fb
eeda
f73a
0ed3
1779
f795
0c57
f7b9
ff3e
174e
015d
f810
fbbb
ec37
08c3
ea17
f088
fb86
f2b8
e374
e87c
0198
fe19
fbb1
f659
ff5a
e09e
02ce
16d8
dbcb
fcf9
e1e2
e59d
0454
0f0a
f897
117a
1b2a
10cf
fb68
f1f1
e1a2
fe53
0c51
097f
1384
e69d
0327
faae
eb33
11a8
dea1
1205
195c
e816
1a38
0717
f1fe
21b3
1ed5
ed86
f491
1962
15b0
f7f4
f85e
07ac
0c3f
ee4b
12b7
0b90
1bd9
1977
f18b
1396
0221
13d8
f65f
0d2d
1d7a
0f79
0c40
efdf
fc9f
08e4
0947
1d90
ec13
03d4
1446
0f8c
03db
f251
0085
0faf
1b4f
177b
1c67
eb5c
e3ee
0d07
0153
f903
f1d7
19ca
f1cd
0d90
fbe1
04de
0fe7
ee5f
1e21
01b2
1644
e461
f7bc
0674
1fe6
0938
e9e5
0824
ffa4
1756
f463
f3fd
f066
0d5f
10de
0de1
f3de
114d
e585
f657
f37f
08ba
15e3
1acd
0989
074f
0ba8
127d
0334
0664
fbf7
0173
e82b
ed8a
0641
ec4a
fbb0
fd01
17b0
df20
f160
0a94
0582
133b
e77e
2b36
e51c
057e
fd8f
ee0e
0c2c
2c55
0b29
1460
1051
fed0
fddc
1129
080a
d6ee
1432
016d
dc8c
fc41
dd55
02ca
0267
f991
e214
f720
06dc
2338
12a5
e8dc
16e9
115c
0151
07d9
f246
f2c1
ec16
fbbe
027d
e6cb
277a
0738
ef64
1d30
ed62
0d62
fbbe
0eb9
f246
1bde
ed1e
14b8
fbde
e7f6
f441
f0b8
1d28
00a8
fd62
0434
f6c6
f9f3
f690
e569
102b
f302
15c3
00d1
1390
0543
02d1
dea9
fde3
ef04
1f88
00b4
16c9
fbf5
020c
194e
f14b
0c2b
28f9
0176
f43c
10e2
0a29
e603
1834
ea0a
d9ff
0c63
0b65
0302
18b8
f237
fa96
ecfb
1ef5
f5f9
d3ac
fba5
0e08
0e20
0725
0f1a
2443
f21e
0c8a
efce
047c
fadc
0bb6
10ce
15c8
04fe
d561
f221
0fa6
f978
ec21
0d22
eb99
fb77
e9b2
038a
1003
03b4
e9e8
17d7
fb44
f14e
0373
023a
fa0c
0557
0e84
f382
fd2f
09e6
05b4
ed8f
1457
f7c4
fbe9
f472
ed06
e344
f78f
f9a6
e2b3
eea0
1817
0bd4
101e
f0eb
ef7e
f6a2
04be
ec90
eea9
f049
0522
11cf
cfad
0a83
0017
f3ac
215e
ea26
04b2
f708
ff40
f3b4
0e0a
27a8
2a42
fa4f
06b9
1730
cd97
00b7
2415
db7d
069c
e3fc
1074
0db2
f340
ec3e
e727
feac
fe59
0bdd
0218
1375
e44d
0d9f
1e85
283a
2210
f80e
fe21
e8e8
0a72
fcff
ea9b
e6b6
f511
f9f8
d7f9
f328
f113
f116
06aa
1467
0fbd
103a
1a6b
f6fc
0365
1214
1bf5
0dfd
064c
14ed
0964
f40f
10e8
f6d1
02e9
e6ff
e065
0826
00e3
21db
f1af
0e71
f915
dc2f
f61b
fe79
08e6
f807
0e47
0c9c
128f
1f25
ec43
fb1a
efbe
0704
0f45
0c59
105b
eaef
1350
ff31
1403
1845
f349
f4c9
fc91
0fa2
0ddc
ede2
00d0
f7bb
0912
e3b8
07b4
04c1
f83c
0299
f61f
f810
f149
0fd1
f434
f787
f0d3
0b54
0039
fff8
12b6
f608
ef8a
0470
f288
0f62
fe86
1805
0f10
f38e
0eb1
fc9b
f85b
0682
095c
f1e9
1ffa
fb55
ebb5
fb0e
07b2
03db
fdec
e359
0845
f366
fbdd
1148
10fc
108b
0489
ead2
0512
fe70
1a6c
03b4
e600
0358
0919
05a0
0d95
fc63
e2e8
14e1
ebdc
fa08
0541
ed0c
fc81
13b0
fccb
05c6
115d
1199
e647
0036
e557
f9d6
0dc5
14ee
fc43
fff6
ecdb
fa46
051c
072a
15b5
f6ed
0dce
14c6
ff45
0bbd
faea
fc3f
efbf
0f62
e7f0
f708
157f
06c7
f56c
f7b4
0c9e
072b
1492
0ff0
e8ee
ecba
ea5b
0129
f9b3
0aed
0fa7
f8a5
f0a1
f5ec
1389
fab8
0625
03cb
0002
0bc9
1688
fc9c
0af8
0116
06d8
09a9
ec57
0be0
fe44
fd70
13f8
090b
0509
14b6
07ea
ff28
f3f7
07ed
f099
0eca
feee
1342
011a
0d6e
2018
0b7e
0481
0a8b
1617
f4f0
0ec6
0667
09a9
f246
0abf
0134
07f1
ef8f
1183
078d
fddc
0ebc
16cc
0705
03f8
f8f6
f7e8
08ae
0244
f6eb
ff58
02c5
0bcf
10bc
f907
edbb
03f3
1318
1d69
0341
f8f9
ef1d
fca3
0744
06db
0358
1153
ee08
f5b9
ed65
146f
ea7d
0433
ee62
f561
0246
00c1
18be
e77c
09a4
117f
0c97
e8df
f7af
142a
ea6f
fb59
ea34
ad3e
1dd4
0f34
104f
14ba
02e1
0621
0a1f
1b3b
0e42
ff5c
efe0
ead5
137f
fbde
0bfc
117e
0259
0fb4
f967
fb67
0a77
1751
f7bc
017b
06da
f577
1cca
fd62
00de
0409
15eb
0694
0f57
f4e8
fed4
1b8a
fb96
031d
16dd
1589
0177
ee3c
fe5f
fe96
199c
f7be
f7ae
0edb
08fd
f771
03ab
f9c0
1eff
ee12
167a
196a
e138
233c
0800
f3ee
fca0
f7ed
1d9e
d4f4
05cd
ea5f
0554
fe68
fe57
f24e
12eb
ffa8
083b
12ed
f8f0
0963
f48f
f9dc
094d
fd9b
10e4
0ae7
046d
f043
f6af
0e95
0da9
f384
f894
0dff
0f0f
ecc0
e71c
e809
ef00
077e
f691
1907
efee
e7f0
0664
fbb3
0747
ff58
fde5
05c7
1990
ef72
f5b5
ecdb
0df1
f2d4
0f5e
f629
f5f6
0e93
12f7
022d
12aa
f8a8
ee6c
e2a9
ffa3
f2b1
0422
f948
fab1
f443
fa30
1d15
011c
0e97
e259
fcee
09f1
f20d
f1c6
1c9e
1cee
0206
ecc4
01a5
1983
f64b
13bd
0a94
e9ed
0028
0ddd
0ef4
11b5
16f7
0adf
0bd1
0c73
f9c8
1677
10cc
0234
fd01
f7fb
f530
fdf4
1c04
06c6
f1af
10c8
fe0f
1079
086e
ef3b
d957
0bad
f7d4
f23a
025a
1483
e708
02bb
f834
f999
0673
157b
10ea
efd4
13bb
0cd9
19a5
f87a
0514
0e20
24aa
f01c
048f
e5e5
1a94
251a
01a3
0d1d
1528
fd0f
fd97
07f1
066a
0fad
182a
e02b
05e6
1403
f8b0
04bb
23d0
0e3d
0170
1a32
ff57
1214
e78e
dc91
0196
ecd2
fa3b
f27d
f865
fc13
f199
02f2
0135
1460
e95f
1bc2
eabe
0dfd
1143
f84f
0f28
214a
09a8
f60c
f354
fbc3
13cd
1666
0797
d954
2dd5
d1c3
06fd
0629
de82
e678
f1a0
eef9
0a86
1365
d853
1aa1
0620
0d4f
1df9
0d59
160c
f170
1adc
13fa
f02a
0d3f
f18b
e2de
f3a5
05a9
fb0a
fc26
f00a
f3f8
f1f7
127e
fd59
f6d3
033e
e5ed
18f6
f8c7
0902
0beb
070f
06ed
e957
0a58
11fd
ff16
f9f2
ed6f
0a89
1305
f3fd
0352
0020
0f00
0fce
141e
f47f
f396
fdd0
1011
eaf6
fc64
0f2c
1b05
07de
fc5c
0bdf
0e9b
0b69
05f4
0e26
e66e
ebd4
2a4f
ebb5
124e
e772
f6ec
03d3
0d2f
efbb
0871
faea
f1f4
f25d
0d06
1109
1161
05cf
efe7
006f
0cc4
f2f5
142a
f90b
e2d1
fa92
230f
ecaa
0089
d1d6
f20c
ef66
ff5d
139f
fd94
1759
ed9b
0060
e9d8
f93c
f928
e5c4
2140
e191
fcb9
14f3
0553
0994
fd17
ee0b
fdc6
fcf2
0844
ed18
127f
1d1c
e639
172c
e06b
1b9e
036e
edf4
fed4
f45d
1e89
e36d
1889
def4
f6ef
0c38
f928
148b
12cd
0351
0933
17df
f4f4
f278
ff59
fd8d
0845
07dc
09c6
f456
fa42
f1ff
1721
0610
e08e
ffb2
1f04
057e
07df
0d1d
0d79
ea06
fb24
07ca
f86f
0a3a
02e4
0fe8
0b2d
f5d1
f5b6
fa2e
20fd
ff65
0d5b
102b
1686
0bfc
07fe
e7c7
f3c2
fe01
f811
228a
0658
0117
0af2
f151
0d4f
fccf
f7e7
e6df
0f48
0118
1217
e68a
03d7
ec83
f5e1
101a
f3c1
0735
0770
04b7
151b
16de
1260
08a0
0351
efa0
f2c8
f734
ed8f
060c
09cc
1551
f520
ea89
ed83
01eb
211c
e511
f1bf
e679
033c
f40e
f1e3
14ac
f009
fb04
ed68
f812
fb4c
0dfa
f09f
ec40
257c
0f1a
f6db
fd28
f004
017d
17b5
012e
1065
100d
17c7
10f1
16b8
f248
0413
08a4
dfac
000f
e791
03d9
fc29
0c4b
1037
f7bd
1767
2485
f234
0cef
1747
03ec
10e7
01d0
f76a
e674
e924
12c1
fb5b
070b
def4
0940
0095
14ed
19e1
eb8f
fc39
ebf3
e339
0d91
edf2
1abc
f638
0847
1776
147b
0020
0614
1029
ecaf
f559
f2c1
0be8
0bd5
f2f8
0cb4
f711
1fc7
f138
0d72
ff35
f496
120c
fa32
ee5a
f77e
f4ca
0e25
fbbf
1416
1906
fa23
036a
1687
de87
0953
13f6
1b3b
fd7e
ef9b
f95b
17aa
0a3f
0b4a
073c
0abe
ee87
fa6e
16cb
16d6
ea51
0ff1
f7a2
fd99
dcf9
1115
0f05
147a
09ef
0466
0f7b
f4ce
f669
fbf9
0349
12af
08ac
f7ea
fd5c
0963
0fc0
0b52
05b6
1709
ee88
f740
1cf2
1e22
f78b
0b35
f393
fc99
0e81
f995
fca9
fe02
0657
f8b7
f10c
054f
fddd
0747
f568
f094
12a4
0604
192d
0ffb
f964
0855
fdbb
fd5a
1141
fc46
edab
f7ff
023f
f335
07bf
ff8e
027f
0a22
f319
02b4
1c5a
ee98
1e9a
f5a9
e194
12e5
03d2
0e39
05dc
2078
0561
06c6
fcc5
215c
092c
010f
f8ef
f580
077f
fc11
f574
fa43
08c1
f3b1
0c9f
0388
f186
0a01
0dfe
07f4
1c3e
f5e8
0e67
ef6e
f288
00d1
11e1
1f81
f4c0
ef11
0545
0921
e839
ddf3
09e0
0e31
f36a
12d8
f850
0644
d9d5
f946
0753
1248
06b4
d6e0
0bf1
06e9
1577
10b7
1375
0aab
fa20
0cd1
1c15
1e42
1b56
0c84
0572
eb18
0025
0301
0e32
2414
faae
0489
06c8
f115
10dc
1065
0003
f0cf
f59e
003a
02cf
0769
0979
03c7
fcd2
e87d
f115
0bab
f5cd
f469
fdf3
0ce2
ff20
f89a
0db3
fa0a
0869
038a
042b
f0b9
f98b
1611
f81b
f907
0e30
f82f
f908
e884
fa80
eb61
facb
fc77
fff7
f684
0f4f
271c
e5b9
f00f
f5e4
e9f7
f98c
11cf
f141
055d
2324
f982
f8cc
0a2b
0164
0a6d
ed58
0b79
ec99
10e2
fdf5
168e
198e
250f
fdc4
0d7b
14b5
de32
fca8
0eb2
ce96
11d6
ec81
0516
e8e1
0069
0628
f9ae
f6ce
fb3a
25e5
f474
1ce7
f15c
027a
2b32
1c36
0ee2
f34f
13c5
f49c
0070
08b8
0ad4
f398
efac
f671
0623
f6c6
e4dc
ee03
0af7
0dec
e5d4
1712
db21
06d9
11f0
ff36
fea7
2823
07b8
f0ed
efc7
f615
eb2f
e972
f15d
16df
e5a7
0ee5
d6ee
f3c9
0589
0b0c
dc37
ec19
0216
203a
f3fe
f0a6
0d84
f5c6
ec00
101d
06bf
eb2b
1267
0161
1540
f358
fdd4
1bda
0738
053c
f736
fc39
fd74
f329
0a15
0ae3
fc7a
2775
118b
ec69
fb2a
fbd4
fe84
1703
fd9f
0af5
eb31
053a
0025
024a
0557
0dcb
e0ae
052e
f997
046e
05a6
e26a
f895
f1d6
01bc
0aca
fe9e
0777
0886
ee15
f3ef
020c
1081
03e1
e668
0c00
f6e0
fa88
f8fb
e859
fa65
0d19
ef7b
05f1
133d
10ec
f3b2
f8ab
0dea
1d77
e467
f778
06ca
0e6d
1894
f06d
0325
ee94
0e1e
f020
17cd
faa6
d8a1
eaa8
e4ae
058e
fe6a
0858
e99c
0fa9
ef02
1c9c
e830
0a77
1319
0067
f78d
f142
fa64
0b2a
f06f
1120
0847
ec8e
1e3e
dcf2
f584
ee8c
0827
0612
0dda
0219
0f8f
1384
f42a
f772
0a39
f436
f82e
ff25
f997
f673
f87c
eaa3
0adf
f4a0
f942
e8e8
160f
0f78
fe1b
f439
0cd0
f495
e64e
e796
f03a
16c4
0d48
f396
0780
ff7b
f3be
f2f9
fb88
f33b
e831
ffe2
f3fc
e71a
02ba
1323
076f
f7ea
f94b
0544
ea2d
1108
f2d0
f05c
0648
fa8f
fd9f
ef0b
d9b0
0da1
f00a
10b9
e9cb
f038
0478
22ba
fdf3
1a9a
11c8
ee9c
ffe8
ef9b
01b9
1c56
fe9e
e7ec
e7a6
0c58
ed94
1b4e
092f
f8d7
ff75
18a1
f9db
1abf
0052
eb44
ee90
ff2f
18eb
097a
fb76
041b
195f
fd02
012b
14b6
150f
1d93
0474
0f2e
1525
091a
f9ea
19e6
0199
1a61
2354
1012
f741
2703
f505
0df7
06bf
f75e
27a9
f16d
130d
1a97
1a3c
0f84
c893
fc2d
e215
ffdf
2038
f426
ff8d
0d99
0761
178d
e919
e50f
2280
fc06
ff11
151e
07e1
17d2
0f3f
05f9
f386
08a9
f9f3
063c
ddef
129e
1385
f074
ff2d
fc68
08fb
0e72
0dd1
ffb8
f9a1
f177
1075
247e
f8a2
ea58
0d3c
f635
1a25
0806
e17b
f22f
0078
f4db
e84f
e6f3
08e6
fcb9
05fe
f305
0025
1b1c
ee34
1d38
bd07
03bf
fc3b
f331
1472
fdf8
048a
2623
07a2
fb7d
ea74
fcb7
fa69
1676
0d32
0971
04bf
1241
f002
062e
0bad
f346
eac0
05fc
eefc
0cd5
0dd4
fbe0
f4e9
fea7
1399
0c1a
f91d
0cb0
fd16
e00c
eaa8
12d2
142d
001c
0545
0b80
102b
00b1
fc53
f2b8
f4e4
08f2
fbc8
0ce3
121e
0fbc
0f45
0610
f510
1edf
0ee1
0e3c
f5e4
0f77
fbd6
04e3
1366
f861
d1db
098d
d1ac
0a61
1e54
14b9
ed65
f64a
faca
0650
0193
d6be
05c1
e764
0d48
0a04
e8a6
f2dd
15e7
0859
e9a9
f615
0f3d
0a21
07f3
1b1e
f876
0936
e437
eee8
f84c
1457
ee0a
f402
022d
1a51
edd9
006a
0934
0454
006f
ed6f
116c
178b
f29c
0627
0b13
e682
163a
f044
eb82
f7a5
f840
f43e
0aef
06fe
fd97
fe1b
0289
fca0
0ab2
f34e
02f9
fd0b
e2bb
ffe7
1572
ec30
145e
ebb8
db50
fd20
e4ee
ffea
0472
f147
156c
0c5d
f9a1
f25f
eedb
e8b9
fe48
f9ff
eeb2
2752
e7dc
f7cf
eeb2
f95a
f5ed
0e5f
039a
03f0
02b1
0f40
daf1
0309
02f6
f35f
e45e
ffd1
f81e
f028
f5e9
f1f8
10c8
fc0a
f905
15de
f2bd
1788
076f
03b7
06c3
f4b2
066e
233b
1668
2994
0afb
18ad
ea13
2238
1a56
0707
1824
f611
1c0d
e7d0
ec65
f477
f38e
19db
f027
04e9
ac6b
0f7b
f47b
0728
01fe
2850
e470
0e24
ee51
002f
0d5d
f8fb
0f17
1dec
e6a9
f01b
0695
f435
f53a
fbe2
f179
fa59
e503
1163
f935
02ed
e022
f287
dfe5
eb6d
0214
f9a5
0335
eaf8
eed5
182d
e3e3
1ff2
082a
105f
f60a
f2ec
1015
f07b
f1e6
013c
12b1
1f9e
101c
16f5
0215
1d41
11f7
0745
114b
fbe1
fb06
0ac8
1524
053a
09a7
1b15
15d5
0fb2
0849
0782
e550
13d4
05c5
084b
e3d6
1047
f603
017a
efc7
ee57
f496
14c1
f629
eb2d
1e2e
fd0a
f755
f56d
0011
03a1
068c
06e7
09bf
e223
d6f1
e72c
183b
f986
11e4
f0b9
0a29
f98d
f12f
03e7
06d9
f048
e38d
0472
e1c7
f6c1
fe5b
097f
14bc
0c2a
0ca9
0560
1150
0e80
f6ab
eecc
0878
e565
050a
e61a
d62f
ec91
eed4
de93
f160
0361
e34b
fcb1
f2a3
f2f5
04cc
ec2b
04fa
17bb
03cf
f012
ebd9
f38b
ed4e
089f
0de4
1b08
f3df
0900
00e4
082a
f602
0867
e145
fcd2
0c3b
1904
0e48
0af2
067e
f247
fb1d
fdcc
f8cd
0185
fef1
daf4
ea28
e7f6
0be4
0009
f3e4
1d63
04ce
fda0
fee6
0044
1267
f73b
1833
1173
f9bd
ecf7
ecb4
06e0
1034
1068
fa59
077e
07e9
f963
f2c0
00a6
e4ac
1ed4
e8c3
f5dd
e7bb
0798
db02
fda5
f790
fc96
edb5
def9
0026
0e48
d839
fd2e
08e5
1e60
fcf4
0284
f2ae
f4df
196a
0269
edee
f306
1c65
248d
f9e9
02cb
ee90
e9e8
f3ff
daa2
ec11
dff3
fd6c
0ff6
fdbb
e8bf
d6ea
17d5
067d
19e1
cb64
063b
08f0
1084
0ee3
fc96
10a1
f525
e9d1
ee3e
e9bd
12c2
093a
ce95
1985
ca5b
f9d8
1ee0
d18e
0a91
e13b
003f
e684
069b
0ab2
ec6c
0d8f
fae3
e8be
0cda
f0fa
f32e
11c5
0647
1771
0809
15c9
eaee
dfb6
1a8d
e919
f63c
fc79
eab3
06ca
14f6
06e8
e7db
fc1f
0b5c
1624
1f56
f3d9
0e98
06d5
fd5e
fa88
0f4c
ef54
eb6c
1cf2
e964
e8af
e893
1802
0a03
f60c
fc82
eadc
f4be
13ce
e6d0
f584
1584
eb4d
ef85
0d19
0184
f7cd
181d
f478
0d97
f6ba
eba8
15ff
efed
1b49
eefc
047a
fd0f
f9d4
0fd5
f37d
f6b6
f75f
0a63
099e
1b30
f441
1a63
f2c2
f746
0873
f465
f5ab
f650
0f58
1063
0275
feaf
177e
0d9b
02dd
f719
ef5b
fc96
fed9
043a
f9ae
04bc
06fa
fac3
ee72
0e9d
0e85
e8c0
eab9
276c
0bbe
f36f
f4d8
0bd3
edcc
188e
1dee
fa85
068c
1084
1368
0dee
f4f3
f708
f501
e2b7
d6c2
db92
e225
e426
0d26
f580
fe30
f3a5
ce00
e0d6
1323
fdee
f0dc
1195
f7cf
0428
0259
097a
0329
fa4e
ed2b
0099
09c2
124f
e9cc
fda1
f67c
0bee
f5dd
f2b5
002d
f2ae
137b
f82d
0624
08d5
f876
0ad3
0de7
1721
0422
d2c5
1227
eaed
fab2
0fb1
f4b0
f5c4
042c
0e4d
ff57
ec6e
02d7
0616
e8c2
f7f7
f642
fe85
f03b
f2d3
f478
08ba
fbca
123f
c645
1c76
e570
0fd3
efeb
f06a
055f
f21c
0fb4
1886
01d6
0bad
201a
12bc
064a
fef6
0c3a
02cb
15b1
fe72
f3e3
f01f
02c9
f056
0f89
0b61
1689
eab3
f9c6
f16a
1537
1a80
0601
0ca1
1164
06b3
094f
0f28
12b3
0bdd
e556
11e6
f9d7
0dc7
0aab
e4ef
fa1d
007c
fcf3
f15e
fa30
e607
e146
09c8
fb7c
01cd
ea63
0535
f3ab
f843
e68d
0c03
efbf
eb93
1b49
e1ed
0955
08c3
0a57
ffc1
01d8
fda6
f97b
0de1
ffde
03ed
0c67
0a74
fd45
ef05
1996
1f18
ee63
f645
f2bf
f1b9
fdc5
0f75
fe33
e9ba
05c4
0971
009c
1e0e
009a
0475
f9b5
0793
0371
ef11
1b40
f33a
0f51
fa87
1833
f904
0cf2
f9e4
ed98
0798
ee54
1178
f608
07b5
09ec
0df4
09f3
1159
0485
f9b0
fd0a
ee4d
0064
1000
0637
fada
0e94
0226
131d
0d22
0489
f922
1c2f
e75e
f0e1
1208
253a
fcef
0293
f0a9
edec
0929
0baf
0ade
1542
129b
1701
f8e4
fa94
df38
e17e
0115
04d0
1a7c
dc6d
f35d
f278
f2fb
ffb9
f9f7
f181
e413
f324
f37b
0277
0664
0485
1bbd
0626
0a3f
ff7e
1932
02ae
f2f3
02b5
063b
127c
1308
06be
15dc
d584
f70a
f168
ea82
fa2d
13f5
f956
f0fe
1813
1963
e119
0e90
0f40
ebca
065e
0768
15a8
e809
1a25
0677
1201
fe53
e36f
0bac
0cf2
0961
0524
fb35
118b
0a96
e6dd
0609
e76c
05b5
1008
f7a2
fd67
1257
f816
07de
f65d
f880
0bfb
1416
f04d
eef1
0cab
e7ea
05d1
f027
fcce
04e1
00f4
db94
eee0
fd67
04fb
fe68
f0bb
217d
ec0b
0207
f242
efe4
1ecd
0cff
1afe
1644
efa5
03f0
0115
e97f
f96e
e54b
1506
e25f
fb06
0242
f0ba
fd28
e58e
f581
df0d
104c
b764
02b8
f695
f810
ffca
2d59
e244
1381
0227
ffc2
ec19
ff99
f851
1e81
e416
128e
ed37
1068
05bd
1166
f2a4
f706
0eb2
34bf
f872
15bc
ebd6
ed27
dc9f
cdb0
090d
0961
ea36
0aa2
fb6e
fe5e
dff8
0797
00de
0780
f7ff
139a
183f
f9db
141e
01ca
f37c
f8e3
02f7
0743
191d
2b27
f945
fb78
0416
cbba
ef28
28ac
e93e
f361
f6ae
fb13
010d
feba
1567
098e
e1ad
e3f0
23db
eb57
100c
220a
01b7
f3c7
f634
0a0e
078c
f7db
2b11
ed96
02e1
0339
ef5c
2465
03e3
fb08
0d20
0b2c
eb9c
09ed
e190
f5ad
f4d2
ebbb
1d2f
0822
f6fc
1189
0820
08e4
0078
d972
1397
fe88
fd54
0f1b
f945
fac2
00ac
0174
e540
fda6
11e4
1a7e
2573
0c5c
e58f
f964
12d1
f940
1bb3
f180
ed86
011e
0c90
e2c1
f0f7
26cc
c5b2
1340
0477
f1f1
ff8b
2af4
09e9
1442
12a2
f6af
14c1
f38a
ebe9
0fc0
e879
f5c2
eb55
0712
0eb0
0d0f
dfc0
09f1
0be1
19f7
e8a9
ff52
eeaa
f619
0c1d
ed35
19c6
1d79
ef9c
0800
0ef5
0037
f80f
0488
1bcc
192c
f2fc
1b32
1330
025e
ec8a
0248
03b4
02f1
1ab3
0fc2
236d
0161
16f2
07db
18ae
e630
f951
f97a
e67a
12d3
075d
ef00
01d9
f02d
fdfd
f3cc
0ea8
03a2
0021
f369
0049
0c09
f78f
e55a
0e79
0323
1460
1aec
0087
f9fd
f91f
fbb3
e7e0
0043
edbd
09ed
f472
2484
e969
fffd
0670
f995
ecd9
1e01
0377
0391
0634
0f80
fb4d
1ac0
1816
f7f7
058e
1288
16b0
0321
15af
170f
05d8
0501
00ff
1bb2
0882
f088
02ec
000d
0a1b
f862
ebf7
1a72
1109
e6e4
11e4
0685
108c
0640
106b
f6d3
29c0
0a79
0850
1517
06aa
118c
171b
f4ac
17cd
14f5
0fd8
f64b
1335
dbe9
069a
08cb
00f3
1202
085b
f4dc
f754
e4d6
167c
1008
0ce4
edd3
08c4
16e4
0ca8
1fbd
11e2
083f
f3a9
fb43
f8f6
f4af
03b8
0194
0107
0b0c
138f
073f
0902
f288
ed59
0d53
1508
f5cf
f4ee
164f
fef2
fbe5
0cb4
0dd1
ec2e
fb23
172c
ebb5
0741
e439
1788
072a
e493
189c
df26
0633
fc86
f4fe
0119
2004
12d9
1bb4
1579
f6fb
068c
0b1a
11d7
120a
fd52
eb16
fffe
f29e
f524
0c18
f779
e660
f5c2
1bd8
048a
0531
dd17
e152
fbc1
1787
111c
0db9
f9e9
0891
082f
172e
0738
eedd
fea5
1a5f
0dbf
f915
f135
0cef
fd55
09e9
effd
ebdc
129d
147d
21f2
fc28
ff54
1b38
e9b8
ffa6
e148
e066
ff1a
0666
137a
074d
1766
e97d
1c33
0f8a
052d
183a
0771
feb0
f4c3
0dfa
fb47
18f1
eee5
0d64
1460
f8ee
e305
0e8c
1786
f7e1
16db
fa2a
f9f4
0f67
1037
0dc7
f86b
f62d
1998
048e
10af
0890
09d8
13fd
059a
093a
0c9a
152a
ffaa
ec58
14c4
f055
0cc6
0b48
f269
0bdf
e859
14c0
0647
01ab
eaf0
f80b
0ab2
f884
f33b
fc1c
e3c8
ec82
f521
ec89
1670
0491
f14c
ea74
fc40
14cb
fb68
f342
0be7
0de8
f8c0
118c
013f
0c45
f9f7
fe2a
fa16
1e9a
1537
f02e
0bb5
069a
039a
1139
132b
0bbc
e830
109e
f58b
1cb8
1937
e79c
eba7
0680
fdea
0df2
0792
f858
ecc0
f7ee
ed06
0ec3
0a53
f8fa
110a
112c
1ae7
f24d
0255
1301
00ad
f9f8
ea04
e9fc
0157
0f81
1940
07a7
0dee
1565
0bc0
f525
03d5
eeac
fb41
fcb7
1901
f53c
f207
0b5d
0117
f763
eb75
f29e
fca3
115a
1795
1330
0b2c
063e
f3af
f4f7
efea
f65c
f172
ee7a
0546
0a2c
ec61
01ff
ed2a
efea
046c
2561
eacf
ee7f
0148
f40e
f88f
06f8
079b
fbbd
0990
20b1
04ef
21b1
075e
eabb
1039
ff66
12a9
f70c
0fdd
1543
f91b
06d7
e785
e06a
0f3c
1c62
0ab4
fd4d
ec32
1a63
e6a3
02b9
eb8f
fccb
059a
0be1
1cae
0602
0820
0251
0920
fbd7
f6e5
d54a
0dac
11c9
f5e3
0155
0a33
edf4
f92f
0c2e
ec47
f42c
1566
ffb2
f7a8
fea2
1398
0ad4
05b3
eff3
119f
0b21
104d
1169
05e3
0983
0072
1236
0202
0e66
fe34
117b
ea29
1675
0ef4
1174
1050
08c6
fdc1
0f6d
ef49
1683
0204
ed00
0a8b
fe32
0d0f
fe52
093a
1645
f489
f795
fae8
f592
f61e
f38e
f90d
0a45
10f3
0cca
eaa1
fd7c
0352
0dab
f559
fe64
ed6e
01bb
0c10
f169
f08d
ebde
0aae
f28c
ec33
0200
e772
fa45
f513
f8fc
f3fc
15e8
f00a
dc20
e0c9
035f
055b
0f26
0d8e
ea2c
f3e6
ecdd
fd73
ecaf
fe3c
0ccf
048c
ee37
f23f
fc21
fc0c
2140
f203
e812
f86f
f400
1409
174d
f64e
094e
0ae5
f1cd
f526
0a91
04f2
ea65
f50b
1335
0a09
e3fe
0957
efa3
f466
05b0
f2d4
0b8c
ebdb
0327
0a0f
f00c
0ba0
1bc4
10dd
1270
08be
055b
20d3
f96a
0218
eb1f
1093
12df
0dcd
1fe2
f8c8
fa74
dd48
0cba
f811
fd3b
07f7
fb69
06aa
fee4
f3fb
19a0
ef32
0e9c
fe99
f490
056d
1c0f
0bf9
fa88
f114
f87b
f66b
f2d9
010c
e931
06c8
ff21
f3e6
14b6
049b
0b6c
ff43
f88e
f378
16c7
10b2
f852
0c62
0272
fa3a
1043
f2c2
05c8
0959
175d
0fd9
0689
fdd3
00c7
f9af
fa16
1e41
0c44
07c1
0114
f826
11d4
0692
e4fb
ebbb
f96f
0e09
0be7
f5e9
f72b
0189
0309
ff3a
0c1c
0a46
099e
0305
f60c
f2e6
1199
fe2c
fdbd
efb8
25cd
f3f8
1a01
01dd
fdcc
0089
02e2
0cb3
186f
068f
f138
e510
f418
01f1
dfa5
0103
1c38
02f9
011a
f6d2
ffb9
e0c9
0ce3
030d
00f2
0854
036d
121f
e782
10d8
f61d
0fc8
eb9a
1098
014c
0996
0a3d
0ae0
09f1
fa2d
097d
fdc1
0c6f
0de0
0d2e
f102
1670
f17a
13ee
0846
e4f5
ff84
1613
1031
18b8
17a2
0e0f
f822
0e92
ec20
ff76
f400
edd3
0655
1065
f631
ead7
0fd6
035f
0227
fceb
10cc
0055
fce1
0807
04ef
ec2a
025a
0b5d
fb92
0ae0
f743
eb40
0873
009a
09c3
1d85
eecd
000d
154f
ecdf
f7b4
12e8
fa2b
f3b2
fcc3
13c3
020c
0fa2
f170
153f
fe1c
f8cc
f424
eed9
0a38
f68e
100a
1897
fb74
ef35
ffa3
fb2d
efc2
f9d2
fa20
e753
0c3b
12c9
fee6
0a02
e49d
f8f6
d9f8
0268
facf
f4c3
1b65
ff59
f31c
f7e5
f82d
046d
e8c8
0eae
e579
f469
fbdd
0bda
18ce
1970
0c2f
23f9
0fd2
fcc4
eec3
0941
f1be
f2a4
17af
eb30
ead0
f717
eed1
05e5
012d
1a19
0bfa
f29f
1f43
f99c
f956
f158
f4b0
082e
f183
fc78
0ecc
0f79
c9cf
f190
04d1
f729
24ca
f0dd
117d
ffd0
071f
04eb
0cd1
0acb
1aab
f7a2
f019
12d3
d710
e18d
1a5d
d690
f11e
0077
18aa
eafc
11ba
fcf7
f6dd
09eb
e51b
1892
0b8b
feb8
0a18
06ae
1e57
093f
125b
f3e1
0d2c
f044
f79e
f18d
fe69
04ef
fa6e
ed40
cfe8
ece7
eb4c
edb2
ec53
0379
01b4
f3f7
be27
2214
17bb
0c5e
08ea
041d
23f6
fbd5
faf5
ea3d
f89e
f887
02af
0441
e80f
f6df
2301
0c83
e333
f6cc
e8ea
f2a2
07d1
f703
1724
f356
0e96
1286
1ade
fa4f
0e7d
069c
fbb8
1125
f0bb
06dd
12da
0cd1
ff7a
0b70
1deb
1963
0059
e2f6
eb8d
0c97
ed54
12a7
faef
f289
e577
0c11
fbfc
1925
fcd9
0a14
1bf2
f532
17cd
01aa
0a53
fdfd
f08f
fa58
ec68
f252
0724
d94d
0425
e926
1551
15e1
04e7
1387
0aed
0e4b
ed48
e5dd
fc9e
16f8
efb5
03e6
f8bf
0879
ede1
054a
ecfe
f9de
04ae
0ae8
f7a4
1c5a
f619
0f1f
f96d
1bae
1273
f35a
febf
0bd1
0018
f2de
f04c
1177
fc5e
ebaf
0562
05d6
f3f9
f2b9
0954
f422
08ee
14e6
fec2
0fb8
0398
258e
ff04
1b5e
fd6c
ecb1
1f83
eed5
02c6
f7c7
0b9a
0c27
05db
f058
f861
ffe7
0e56
f6f7
f44f
14ff
0aae
0d8c
fca6
1aff
f980
019d
0789
17f7
e940
04c9
081f
0d88
07b0
0f30
fdda
0061
fb96
0a16
f786
f8a9
fa68
da17
f69b
03f8
0ff1
e6f5
f0c7
e4d0
09e0
075c
fb4c
f0e6
fd06
110d
f011
013c
1cd5
15ea
fde1
10ea
1044
0b17
0cdc
06e4
fe2a
de14
f404
0540
f7da
ff8a
01e7
fe9f
f2a6
05ab
ee74
e038
0042
081e
f7e9
e18f
0001
e664
e89e
0fa5
0966
17ba
f91a
08aa
02ff
f40f
2340
0084
f8f0
0446
1bd7
03e9
05ec
2179
1400
018d
fe7c
1ef6
eab9
fe46
126a
ff40
0155
fe27
fc36
fda6
fd4a
eb9a
f428
ef99
f819
0a16
07e4
1412
1482
02e6
2c74
0553
1bd5
06cc
15dc
fdaf
f92e
f786
ddfa
13cc
1381
122a
22c4
ecdc
0942
e7d8
088f
e6be
0a16
fb1b
4a0b
fa40
0fc1
ee29
ec65
144c
f723
06e5
0245
02b9
f378
0a50
0f65
0220
0bd7
ea66
ef54
ea7a
1e1a
f8ab
1d75
12ac
1323
f80b
0b01
1feb
e1c6
ff3d
0a5e
008b
f85d
dc52
0e5d
de5b
f58b
fcdd
d940
f943
0bf4
16ee
dba5
fd36
1069
1c91
2aee
2254
1eee
f88d
12e6
06c8
15af
f323
f0a2
ea4e
1668
eef7
fff9
00b4
ecda
f233
0026
08e4
2622
18f8
1e90
081a
0408
f75c
ebf6
0959
0a81
00df
0882
2456
c1fc
0c10
0ede
f5f7
1f05
f8d8
0ade
dba9
1518
09c8
fb15
0b9a
1a51
0ed4
05d5
11a7
c3f4
01fb
1090
eb5e
f2df
e74e
1ace
ef99
e93d
fb03
f6c1
0632
fca9
17d2
df78
f493
07a3
f418
1f1a
0e6c
25e2
f8f8
ecee
e407
0077
014e
fbb9
005b
09bb
e7d3
e2dc
f681
ee62
e85d
f09f
f32c
f38b
ece4
08ca
1240
0961
0ec6
f326
2ac6
f120
03b0
e505
e98f
ebb9
ed3a
f2c6
1f31
000e
0321
f845
0116
078a
0ba5
eb18
de09
0076
0ec3
ec30
0e48
ebb1
dbe2
ef41
0bed
f11d
f2a6
f510
ed59
fd48
f801
f7c6
15b8
f1e5
11f4
ddf3
048c
f84f
f0da
192a
1bce
0ece
0976
06c3
f357
01af
226d
16ce
f14e
ffd1
ef00
1015
f8cc
ec40
0cb0
fe8f
2500
18b6
ff77
009a
2206
f966
0448
0c4c
fc34
1609
137e
008f
0055
171f
f9f8
f66f
1603
1eb8
ecbe
176f
1007
060f
efef
ea2c
1939
1149
f857
057d
f701
ebc9
1314
17e3
191d
f1e5
1e83
f6dd
f33f
0a29
18b7
0b0a
f810
f0d1
fc5f
1267
0f4e
fd73
f76a
0419
f917
fa98
183a
1966
fd3f
ed06
0d34
e91f
f56b
fc42
1413
025d
0b1e
facf
0192
0e26
052a
1fe4
02bb
1307
1251
ea51
fd52
0276
00f0
eb06
ed71
19cc
1291
ee4e
ff4b
ecac
f52b
fa8b
e6f7
0f94
f813
fef0
16d0
0f46
046e
1689
1bb9
f8b0
0b0b
f002
f452
12fe
01cd
11d4
f92b
fd45
d8ee
f32c
ec37
f3a4
11cc
ffe8
258b
e8a5
0f9f
0a5e
0343
13cf
23cb
fc41
10ba
097d
1670
00a2
04ee
0281
cf8e
025b
e557
e541
0631
e0f5
02c3
e37d
158d
ff8e
fc24
0cd5
1fd7
f99a
e83b
12eb
0610
f538
fddd
1997
0c20
ecfb
01db
00c0
02ae
1f00
086f
ed62
1a59
f41c
08f7
0069
0f90
0ea4
1671
f871
190c
03e9
f81b
0d60
0632
fa38
0961
09c5
1e66
0891
069a
f5ec
e84e
f7e2
06d3
17ec
fda5
0302
fc6c
fcaf
dee1
0329
0a77
1278
055a
19d7
e7bb
d6d6
f85f
0b6f
ffbb
0a46
1446
e808
fb67
289f
f2e2
147e
0dc1
07f6
f7d1
e6a4
fefd
0eec
04ce
047c
f88e
0bcc
f09e
e2e5
f15e
e6b1
032a
08f3
e996
1580
0be4
1a46
0023
fbc4
f2f9
231f
0a6f
1878
e2e1
e629
ff9b
15aa
12cd
fdad
0de3
f1df
f53d
fdb5
f016
fb69
0af7
d971
0465
f137
0f0b
1240
fb01
02a8
165f
0744
054d
039e
ff48
03df
f657
1a91
e5d9
05ae
ddc7
fa30
e63a
db67
e3de
e5a9
15f1
1a50
fda9
297a
e7e4
ed2c
10dc
e049
f55a
fe39
e744
178e
1e82
e0b9
f499
0f86
0d23
14e3
f7dd
0852
fbe9
156f
e630
0ba9
08aa
25a4
089d
fe6e
059c
d4e5
05c0
26c7
c2b8
e956
ec10
1cac
1252
f42d
0746
f6ae
f43d
dba1
1ff9
ee9d
030a
00aa
0625
20a9
25df
29fd
fa52
f702
ed11
f300
0cc1
f1d1
f81a
0efd
e476
c66b
158e
e803
eebf
f018
07fa
0c82
04b4
252d
1c63
1b04
fb5f
112a
fb92
054c
f2d4
0995
0822
11e5
09d1
ee5e
e42c
e47e
1075
1814
0f4d
171a
0416
e2dc
ede1
01e8
0352
19af
0e9d
215c
1f17
0374
1767
ed3e
0c0b
e735
146e
fa98
13b8
1e0f
e731
042a
0bad
1503
0845
f5d8
f726
f6a1
ed52
0727
ec10
1325
f55d
0061
f650
fa67
1d0c
f128
f472
f7c4
e7bc
104f
f2fd
f8fb
026c
e259
0ab2
edee
0021
1e10
00e2
163d
1ca0
ee68
fb3e
f5d2
fc2f
0e21
f595
fae1
01d5
0f93
f1e9
ee8e
f437
233a
fd44
fcdc
feac
f155
fdb2
e619
0d47
fbcf
fe23
ed62
f5c2
02a1
04fc
fc1e
ffd6
009b
02d9
191c
fe9d
f59e
fab9
0450
ffd9
eea0
f79d
e209
05da
f71c
fbf9
0b94
ed3b
f03f
f2a7
eed6
fd3a
03ab
0797
f481
dc77
0866
080d
1dac
0394
e6ba
10d6
0b16
1a3e
e839
0d70
f93f
00e0
eaf9
130b
1461
1257
eac5
032d
e872
1880
0346
f736
05f3
f680
052a
18dc
e98c
ec83
0249
1f70
feeb
f7e3
02fc
f375
f569
0ee3
09b0
1285
f637
f39a
0be4
0b7d
0bd3
127a
0b33
1dd2
fffb
0678
0f98
18c6
0076
fe9b
1295
0af6
0078
19e0
1a0a
0457
fb9b
fb16
f107
fc7a
0a6f
f644
0f6e
11a6
f6c6
0cfa
e924
fe30
ffb5
0320
f1aa
ec26
edb1
0ae5
05d7
1524
0769
0a52
1288
fc6a
e9da
fca6
ffe4
ebfd
f134
f6e1
0c3f
f6e6
04f7
fb18
1259
1bbd
0c32
071f
1130
fec2
151b
fe3c
ee84
f5f2
0985
1775
153e
073a
0ec9
e850
fa27
0b0f
fca4
fd2e
166f
1235
f4bf
0669
fbaf
1151
06eb
05bc
1552
0df5
fdd2
1cf8
0b9c
1414
0660
faec
e974
fe5c
1108
ea4d
063c
fb8e
d879
0308
0fd3
1766
f280
fe3b
01c0
f097
1aca
1246
1cf1
1b08
edca
0899
f8f5
0e45
182f
1200
f15f
1200
06ba
0f9e
03c1
ef6f
f844
01ee
f441
052f
1cc3
06ac
f66c
f6d8
f025
ff45
f249
1b9f
0086
ef2f
fd32
1421
026a
f88a
