// HAR Model  FP16 quantized weights

// conv1d_1/kernel  shape=(5x9x64)  count=2880
b3ff
b0e9
2311
30b0
b0d8
2c95
b08f
310e
333a
ad9a
2c78
a5c2
b38c
18d9
2ad4
b05c
2a14
b274
b0cb
312b
ae14
afcb
32d0
958e
2ba3
3038
3113
2827
b11e
232f
b0d9
b145
3185
b13e
341c
2ac0
248a
3045
aed6
3056
9679
a537
2636
2d30
2bea
ab1c
2ca9
a9ab
3239
ac77
b3f5
2d07
b104
31af
30b9
1fbd
adc4
afa3
3347
3356
aa7b
b154
b16b
3365
af19
a3e5
b143
3056
2e73
2b27
adf4
aa5a
a38e
29a5
b119
0d9f
29fb
a969
aa5f
b1f5
b205
aff4
9c3c
a660
ac44
a301
b098
aea4
2bda
adc7
afb3
2c5c
2ec3
ae22
229a
a403
2440
2ca0
ad63
b02b
2a88
afe5
b230
af93
307f
1c0f
ae48
30e3
ab0b
2d46
ac4c
2f5f
acbd
a611
a9dc
2c3c
ad17
aa50
1db0
b061
262b
2dc9
b1f1
b1fb
b1c2
adb4
31a3
ad24
aa71
2967
abc2
2bb6
b138
ab44
3347
240b
2cd6
aec8
9e2c
add5
2a22
2ca0
2513
acad
a66b
3194
29c6
a2d5
279b
246f
2b83
ab57
9d64
2817
a865
2e5c
b0a3
ab13
2949
a579
a7e9
b23e
a4b1
aee5
2fd5
2e21
3135
2d55
2ca1
26de
30f8
a9cb
2c6a
a645
2d0d
2f08
2a91
1e6a
ae32
a8dc
ad6c
2f95
abe3
ac46
ae58
b0d7
ae2a
a7be
ade4
2c87
aeec
b215
ac90
abfc
ac45
b133
303c
3022
aee2
aeeb
ad91
1f36
acb9
2cc2
2c7f
2753
acfe
a924
a69b
a112
b026
aef1
ae4f
2bb4
b05b
a86f
a68e
afcf
304b
2957
2dd5
2bbb
2d27
a97d
2dce
2e3b
ab13
2836
3006
b245
b332
2dbf
a2b8
ac69
ab1e
ad5e
a28f
b080
b05a
ab66
abb5
a431
2978
b118
a9be
b115
a56b
ad45
a7e5
2cd9
b22c
b0e9
2820
2ba5
2e86
b313
2ce2
29e3
ac73
27e7
a859
b075
abc7
2c98
2d24
ac88
30a3
ae09
a9cb
28ee
28f9
30a5
2c44
2e12
2ead
2c22
2cfc
a5ba
2f5d
9e8c
2a1c
2c1d
a803
1f9a
b1f4
ad8a
2a4c
a5c8
adbc
27f5
24de
2f03
b105
243d
3106
29ae
2b28
2af4
25b5
3168
2b65
2a72
2961
ae6f
a740
2f78
25dd
2778
22e8
a826
a6f0
2b75
a615
b094
2832
a47f
a6e9
a4b8
a976
3595
2bfe
ae2c
29e9
2f8e
b196
ae6d
9f5c
2c82
a3ad
ab1d
2f4c
ae36
2b82
305a
2c00
2b4a
aa8e
ad86
aa12
2e2f
b07a
154f
2894
ab53
30e6
2e75
3302
2bd7
b07c
afbd
af4b
337b
aa74
a8b6
2feb
ac64
2739
23a8
ab64
324b
b0f6
24cd
ac54
b039
aca7
a925
25c6
af87
2c4c
ae9c
a260
32dc
2910
2500
ac9c
b074
2cf9
b118
ad13
2888
af18
a304
a9d1
b27f
ac6f
ad93
2fa2
b0c5
b063
b207
b3c7
2dbb
2c42
b18c
297e
ae8f
a450
3088
314e
b18e
a699
b29c
b0d7
b061
1951
2f2e
2cca
b157
ac05
ac68
30a6
2d6d
b2ef
316a
b27a
af0f
2dd9
2b82
20f2
b0b6
9c71
2dc9
b45b
2d38
a4cd
30ce
aa0e
3408
23dc
314b
af56
a7ff
29b4
b1b2
b12b
2cfa
b05b
2b97
2cb6
a7c3
b3cd
b261
3256
31ee
a99e
1d86
2724
255e
b18e
a88e
29e4
2eca
a9bf
ae2d
ac32
aea5
293d
26b1
ac7e
2cfe
2d1b
2c43
305e
ab44
b1b2
af5e
9f2b
2dbb
2f56
29cb
a292
a349
b124
9547
24f5
b0fc
2f31
3043
aac7
2a2f
2c7d
a464
a430
2c50
b0f9
abf5
aded
ac38
2f4b
adec
a0c0
306f
2b06
ab8e
a983
2a03
b099
b040
2c87
aaab
2bd2
a83a
30a6
b188
b106
ae36
b28b
25ee
a2ed
b1f9
24e9
aa27
23d0
a563
9c88
ac51
afa4
2699
2f37
3295
2278
a546
2e4a
ac14
2d80
28ad
309b
1a2e
30bd
22c7
2c06
adbd
b07c
2fed
aea5
a5d0
2c0c
2cae
2a65
a200
ad92
aab4
a7cd
ae8a
b089
adae
a47c
2ad9
a441
ab41
3019
2341
b0f6
2add
2db1
31d0
ae8f
297e
2e07
a111
30be
2bb3
a7fb
2baf
a641
aba2
2cf2
9da0
1e0a
a3ca
2cdf
3241
2aac
aa09
ae05
b122
a044
2e56
27eb
af0e
3159
2d53
b14e
afd0
3139
311d
a200
ad32
2d4e
b2e3
2294
2ef5
3277
2ca7
32ea
ad45
adc4
ac48
b072
294c
aeb6
24e0
b29c
2992
ac46
b145
32e3
b2ce
a903
abdb
3095
3126
b031
a4ca
23aa
aeab
23ab
26c9
2d6e
b352
1e7e
adec
3250
aee7
2a50
2f0d
b011
b2c5
b0ae
afaa
b230
2c3d
b012
2fd7
33bf
a242
aeb2
2613
2d68
a850
aca7
2093
a74b
afcd
ab79
2951
ac44
ab18
afc8
2f4e
b014
b058
acc8
ae00
b036
ac83
ac0b
21a7
acd5
9a3f
acb3
a595
b20c
2618
2c71
ad03
242f
ae3d
2c2c
b335
b16d
1f15
b294
aea8
2f4b
a78f
2e98
b098
177e
2a5d
af4d
af11
a98e
adca
b239
22bc
b13c
2e30
26d6
add7
a6bd
2ebf
a545
b0e0
ab3f
af6a
2d91
2d7f
b215
294c
b001
a83b
9533
2db6
2ce7
2868
abe1
2e64
ad16
ae68
319d
1669
2cf3
27af
aeca
2bfd
2dae
30c1
a4f8
2c85
30aa
a4bc
2c54
b1b2
abe5
ac7c
ae96
ab24
b1d8
aa0e
2c07
adb5
aa95
aec9
2edc
b0df
a87e
abbe
1e3a
ad06
b055
aeb1
2fc6
329b
ab7d
a12c
ad6b
ac09
304f
aeec
3180
2c31
288f
339d
2c37
b0c7
aa05
2d5b
a367
aea3
a8a3
ad8a
a908
2f62
2b4b
a527
ac94
3422
a7bb
24b3
ae16
b22c
ab54
26c6
153f
b084
b12b
2c24
a659
ac2d
2d69
a9cf
abc2
2498
b045
2ebb
b0de
2cf9
b011
2b27
ac38
3011
3144
b029
306d
abeb
24eb
215d
b084
abb8
b069
24ce
ad0b
a5da
2b69
afe2
a668
2d22
ae4f
aff4
3039
2d16
2117
a8c7
b065
aea5
ac24
28cd
ac26
ac88
afaa
b051
2d6b
2fc7
2c49
a349
b287
af82
a508
25c2
2aab
332d
a5d0
afc3
19e6
2ce1
2ae5
a8f6
2eea
a644
28e2
ab02
2dea
2811
2a35
31a2
a883
2afc
2da5
a81f
aa1e
ace7
2d46
ad6f
a0be
abb5
b36a
2d57
b02c
324f
95d8
303f
28d2
aef9
a5f1
a904
2bbd
2573
a92a
ac52
22e7
24d9
30be
ad94
adcf
2ed3
2ed2
329e
28ce
2c88
af61
3151
ad2f
b02a
ad82
a29e
ac01
a98c
b043
aca3
1cec
b039
2dbe
ad19
203e
a821
ac6c
aef0
b002
2cc6
ac9c
2f2e
29cb
28c2
2cbd
31c0
302d
af9e
2dd2
3019
217d
a357
222c
a858
aa88
a9d7
a89e
26c3
2415
a85e
a7a2
3015
32d0
ad80
ad77
aa1b
29b5
2ad4
a36b
ac22
3263
b26e
acaa
2ee6
1fcd
9a4c
a39c
abeb
2de5
9d0d
2e2c
a8b8
aa69
2f5e
acea
2dab
aa09
2d6c
aacc
2ff3
a095
aecb
ad6a
b0cd
26f7
291d
263c
2d94
afe2
2dfa
b0da
245e
aa56
b252
ac22
2d51
b591
a352
2874
aae4
2ef3
b242
300f
b20c
b080
ac9e
291b
b086
ad3b
b4fb
2e8f
a55d
aceb
ad01
b317
285d
2067
a46c
b050
a6e8
2eb7
b2ea
b0fa
3100
afb1
30ca
b1e8
a68a
2088
ac08
2c34
af3f
a956
31f0
a8cc
2c6a
a489
a3f6
b42c
2dc1
28c4
b49a
2d32
ae86
aaff
28bc
b260
a9d4
2483
2d4d
b126
2dec
2761
9e5a
1f58
2be4
aedc
b165
2807
b018
2c6d
ad32
aa21
2b21
2e96
acc0
2f28
270f
af76
afd7
ae62
a264
aa19
ad37
ab53
9d9b
aa36
28bf
275c
2d44
2603
2613
2c51
1fdf
b1c8
2662
b257
ad23
a28d
af4b
21a3
2514
a8cb
244d
b07b
aa74
addc
a3bc
b026
2adc
b022
25ea
a83b
afd7
ab4f
2d87
ad7c
a420
2f82
addb
14e0
ac25
b0a0
a9f8
a807
acb5
a8e1
2c96
ac2e
a83d
b1cf
a258
b139
2b6c
31b7
25da
acf1
ab94
2e50
9cb7
2bcc
2c4a
a6c7
9e29
ad05
2795
a9fb
9e75
a02e
a2f6
2978
2d5a
ae5d
a767
aec9
af38
ad20
2d98
2f5f
2893
2891
2be6
a900
2805
26d2
1fba
27de
2e1d
aa8d
2d41
a216
2d16
9f69
b2d0
3001
28a5
2752
2b0d
ad10
a788
27e6
29a8
ac11
2e1c
a929
296f
2bcc
abe9
1776
2b93
283d
2d0e
2f32
ad88
3037
b0b1
ade2
2f71
2df7
ae76
b0ce
30e9
a82b
2da0
2319
b315
b2d1
ae89
adf8
1b0d
2f8d
ab38
3029
a371
b2e1
a5e6
ad52
aaa1
b2ea
9cec
326d
2f96
33d7
2804
22d2
b162
b159
aeec
2520
acad
ad08
ac19
1849
af6e
268a
285d
2d83
2daa
324e
aeab
b414
b1a0
3156
b3e8
2c6e
2f8b
2bf4
ae6a
a9c8
a7b7
a65e
b374
2e1d
ae42
317f
2f8d
28c3
aed7
aace
ac9d
ac95
af6b
1e36
2af6
a230
2179
a572
2b20
2718
2c0e
b185
250c
a9bc
a4cc
2b8f
2d15
afb0
ace3
2d76
995d
a193
a507
addf
2c71
af72
302f
b1e3
adda
26b6
aee9
300b
b144
a998
2eb8
31a0
ae7d
a8ef
1967
b0ad
3257
32aa
2edb
ac23
ac65
2ee2
ae21
0a56
3146
1d74
33d8
2f77
a825
aac1
afd8
2a43
2e6d
282b
a6f3
2d86
2b3b
2512
adfc
30d1
2637
af81
2f05
2400
26df
adca
2fd0
adfc
b0e0
2c97
2e02
3016
28ad
ad02
aeb0
add3
2e37
ad27
b057
2f78
3067
a7c2
b115
a869
ae07
2ed6
acae
a403
2d45
2e3f
a56f
b049
aac6
b12b
ac4b
aecf
2d0c
2b5e
aed0
ad1e
2221
2e92
aca6
2643
2c4d
abc5
2e8d
3035
a863
1997
ac0a
9c0a
2d67
ada6
ace6
b0b4
ab23
af51
a57f
2e22
afbc
b03c
2c90
98fd
2601
1f36
2bf8
9898
9e1f
b0f8
ab34
23f7
2d94
25ca
274f
2e1c
b01e
a99f
a31f
9e2d
1225
ab02
2ce6
b129
a90b
ae93
98e4
a9f7
3231
2f3d
a65e
aead
aa97
2d1d
1abf
2dd8
2c99
a969
21ad
2bfb
ac09
22ce
2b6c
b0a4
af34
2ab2
a9d7
ac48
ae41
a580
29c3
b079
ad7a
acb1
261d
2a5c
2b5c
9c40
2cc8
ab43
a927
a827
2f22
9c75
3083
b071
1cc2
a60b
2a3e
2982
2bb0
a560
b25e
aeba
a76b
ab55
b0cc
1c0e
a850
a9cb
ae1b
a424
19a5
aa64
293c
ac65
b031
292c
276e
2387
2f17
a086
ad43
a988
277c
acc6
ade8
a766
a752
b092
268d
a868
ad09
b083
2846
3115
a873
2cfe
2df6
2511
2a48
ac46
ab03
aa6f
2508
315f
af2b
b0c2
ae8a
2aac
a83f
1f63
2a7f
afff
ad26
a435
a9db
ab5e
aa8a
3053
2da2
aba6
b0a3
339d
2863
2366
b07f
ac30
2f52
ab03
1fe3
2e31
acb3
b071
ab08
30da
9dfb
2e09
b175
3076
ad84
af63
2eea
b207
2804
af09
251c
abac
2af0
30a8
afdd
2186
2c19
2cfc
adcc
b1cd
ab09
a17f
1df1
2d6b
b05a
a95a
2a8e
3066
2a7e
2df7
2cc3
b165
317c
33d1
b20e
3003
a7db
a079
2c10
2508
2aa8
1edb
af73
302d
3027
27b2
ac71
3026
a060
a0de
aea8
ae58
b254
ab28
b1b0
b0a0
b135
2c41
28f5
3261
a602
b021
b28b
ad0a
b118
29e9
ad48
31cc
adec
b03c
b035
b46c
2442
b25e
a09f
b05a
3181
2e1f
b205
b535
2521
b10d
2ba6
2a62
adfb
b379
ac0f
aca2
b356
a83f
305a
b427
231d
2b6d
2eee
b0bd
a0e6
aea1
b418
235b
a86b
a556
b2c0
b0ab
2a35
ae5e
aa6f
b1ba
b09f
2db2
30f8
3022
ae6d
aa4a
b032
ad41
26b7
a6c0
aae2
2d9c
aa8a
3123
aa25
2da4
301c
ae09
25ec
2cca
2a62
9f2b
2734
3087
af21
24ad
b117
2118
290e
3034
a315
acaa
a6f8
23be
aea8
ad44
2d3e
2f1a
a37c
29c8
9d6a
2c76
ab38
ae12
2b62
aa91
32dc
a888
b0ba
246c
b05e
2afc
2dd0
b173
2a8b
2a71
30eb
2e53
a922
a6d8
b093
28dd
2fa3
2661
1d49
2950
b11a
b026
b1b8
a97d
2bf8
ae54
2eca
a5d6
1e73
0a89
ab89
ab02
2d4c
2c46
ab2f
adae
28a3
ab36
ae2c
259c
ab88
2990
2168
2fc2
26c9
281d
23ce
9850
2c9a
ac02
2ee5
27c7
a5ca
a557
aa2e
aabd
b03e
ac5f
affe
b258
2d01
a227
298a
ad57
31ef
2d1a
ac8e
ae24
2a3a
ad1e
ae0a
a57c
9c53
ac8f
29ed
2ca9
25f4
2cee
a566
ac18
2a45
a6af
a181
af9f
aa04
aa1d
b0ad
a359
a8a5
b241
b1ca
300a
2a97
b1c7
3016
b00f
af0c
b0f7
3027
adf1
b167
b1d7
b119
b0bd
a19f
adac
aabd
2e1a
b017
2cda
a156
9e25
a8f5
af35
22c9
a550
2c8e
a981
b006
b3e9
af13
ac08
3092
a575
2fcb
af09
3097
2a2b
a808
ace1
31d5
b1a3
b242
2526
b385
2cb6
33b0
b3b5
acb6
2ff8
a69d
306c
b0bc
affe
2ba9
a275
29fa
ae4f
abec
a51a
9fc5
ac92
2bdc
32e4
292e
a7c9
af29
2d81
af7a
b0f2
31fd
2c4b
2820
29ff
afdd
2f4d
b083
a0a8
b16f
ae14
ae8b
b05b
2cb0
b071
aa59
aaa0
a562
a9d3
2f06
29cb
aa7d
2e1d
2d36
2b3b
2aa6
b09e
b209
ad9d
2d01
2de6
a892
ab36
1df4
312b
ad73
2e55
aa3a
1dad
283b
311c
aa1d
30cd
af3e
2b10
aef9
b031
2984
b037
b2ba
305c
b098
a5ff
2e62
2c33
2496
2530
272a
aeaf
295b
a81d
30b4
2cc2
2611
a6de
ae97
a6f1
2774
2e78
29c9
a84d
a55c
2813
a86e
2ae7
98be
2dc4
2e71
ade8
2c75
9688
300f
a432
ad03
a9f6
ae5b
aeb5
aee9
ad6f
ab17
ac89
ad61
2adc
2870
ab4d
a610
2631
9902
298d
3034
ad28
29b9
2e9b
2705
ab93
2afd
9c42
ac2b
1af9
3067
24eb
280d
27d8
31ed
1b2a
256f
abbc
3290
b193
2889
9f07
ac1a
3006
2cf1
ad55
a3ff
ae89
b046
ab0e
30af
2e29
ad76
ad04
a89a
2cf8
26dd
1c77
2544
ac03
1fe3
b077
abdd
2ab7
a831
ab97
2d35
2a61
2b50
a3c5
2abe
2c1c
2c94
1f50
3024
2606
ac92
adfd
ab00
2c68
2351
2afc
b040
aa76
ac8b
b065
2c0b
ac09
aecd
27a6
9fd3
a13a
a516
2ea2
27b4
235a
30fe
add9
ab49
2ab0
30ca
2c03
2a45
2e56
ac04
add6
b0f8
23a0
adfc
ad4c
b264
a850
9409
28d4
b360
aa10
b153
1dee
a6dc
22ed
2be7
29ea
2f62
30c4
b13a
16d6
9886
a171
31d6
a9d2
a959
ad46
2627
9a0e
aeed
ad67
305c
a721
24e9
a634
ae67
2a53
ad19
1694
b020
ab9b
2659
aebe
9e75
266f
ad3c
adbd
a356
2cd3
ad47
2a38
a8a0
2d82
a89f
ac11
1cf4
239f
2f25
1096
ab1d
ac1b
b433
304c
b016
2163
ab79
2ee1
28f1
2d4d
a58b
ab2b
b07c
ad7d
1ec8
2c11
a60b
29bc
ae52
1d76
296f
29b1
3245
a58f
ac68
2ee6
9c9a
2b91
2a9a
aafc
2d7a
a481
303d
ab9c
aced
2576
224e
afff
b1d1
a746
2463
aa61
2184
2e73
1f08
ac29
3031
2e57
af55
a5b5
a423
a40b
b090
2f9f
2ad8
2e13
ac90
292c
ac42
aa64
25c0
ad75
b11d
9e25
257d
2ccc
3241
3057
1c3e
2e9c
ac7d
b25b
b007
2ea8
a79c
b1ed
aed4
af66
27dc
ae23
2d56
a850
b3cf
b4b3
aeaa
b183
2c66
a69e
2a2f
aede
9d94
b0cb
2e0f
2e38
30d6
b0cb
20ec
ace5
b081
b21f
b0f2
b14b
a495
b2c2
29a2
b11d
1d53
b1d4
2f5a
2e70
33ca
b13e
a368
b184
ad94
2d5a
b147
21d8
215e
a82c
a860
3113
b492
b10d
28d9
ad36
b01d
b171
29e0
a6e3
ad20
2ae4
b03b
a275
299e
2d5e
2f2c
aea0
a99a
2406
ae23
2c36
2cb0
20ae
3021
a2d9
95fc
31e0
af98
ac18
b068
2ef4
ae6c
a5ee
ab41
adf9
ae20
ae11
a99e
a8bd
31a0
30cb
ac7b
32b7
29da
2d45
ab04
a50e
adc9
b230
28db
2ca2
2da3
ad76
345a
309b
a80b
27ec
27cf
2b7e
2e01
2a4a
abf3
abe5
2f58
2e5f
25a7
961d
2b32
2d2a
aaf9
2b6d
ae55
2f0e
a410
2a34
29a3
a801
ae12
2f4d
ae64
9e88
24d8
9e98
2da0
1e8e
aefc
2ad0
ad82
284b
292f
9d2c
a53e
acba
2d77
2d9e
9be8
280c
a584
27cc
2977
2acd
a8fa
aac4
b05e
a8a4
2c84
a779
297f
9f78
af72
a9d1
ae39
296d
28a8
2d23
ab22
a73e
2e77
ae40
24b8
16e7
b05e
ac11
223a
aac0
a318
2c22
b15f
26b4
26e2
a732
245c
ac5d
2bc8
2068
2876
2523
2c8b
261f
ac6b
2aa5
b13e
0ad3
2fdc
2fc0
8413
307e
32bc
b18e
a870
b010
2ae4
298a
2eee
a9d6
ae93
9c53
ac06
abc4
a09e
a96c
23c9
b036
2e27
282f
2682
3207
3037
2509
b070
282e
3066
adb3
262d
b007
a518
3316
2b1a
b290
313f
2943
ade8
2abe
296c
b424
a87b
32f1
ae22
b204
3250
a3bc
af4f
a766
a8e8
b10e
afc9
2e75
30d8
af3b
2c1e
b069
2c27
2610
af2c
2e70
b049
20a2
3002
2c8b
ab07
a348
a966
adea
ad20
3252
2afc
a250
2cb8
a48b
2eca
ae2f
313c
2c24
aa2b
322c
313a
327a
b18b
1e9c
302d
3118
2dc1
2a1f
3068
afff
17ed
b0e0
b00a
2aee
acac
b06f
b0c2
ae50
a681
2f7a
9eb2
ac35
2d8b
af94
2527
af1d
aedb
315a
ac99
1c5b
2462
2ebc
3126
2c17
3094
b2d2
af7e
aed4
a54c
2cdd
305f
2cfb
2d0c
ab67
b052
244b
adb5
2a0c
2708
a5cd
ae5a
aa3d
afbd
9d0a
2e0c
ad40
2c88
a8ec
b09e
2d7b
23bb
300e
2564
a71b
0dc2
a8f5
adc4
a1d6
ae03
b238
aed4
a73b
283d
2b3a
315b
3079
adfb
ac8e
b35f
a8b8
2da0
a632
ad09
ac78
2ed1
2f0d
2d91
2d74
b19d
2a2d
2128
af35
aa11
312f
aca7
2c4f
ac1f
b136
18c9
ae98
a8a8
ad9c
acc7
2cc1
2835
af4e
aa4d
ac2a
acca
2e40
a5b6
af24
246b
aaca
aebc
a499
276b
2ee4
b0f4
a5e7
229d
a161
2fee
25a6
3191
ad2b
25c4
1a5c
286d
31a1
ac3a
2c14
afa7
1a14
2e96
a8b6
2c78
a462
291e
2991
27d6
2e88
a6b4
2539
a8e4
a8c3
a87e
aca1
2b7d
b04c
a595
a882
2a85
a98d
9945
2668
3031
251c
aea3
308f
250b
2b99
250a
af13
aba3
ad34
2b06
2d7a
2db1
2f4f
acba
1b90
a9b2
2a9a
9b2a
a9c6
a67a
af4c
a944
27cc
ac06
ab16
a654
b18d
1c0a
a63c
b06c
a899
a816
28da
ac29
ad69
af6a
b151
2f97
26c4
20cd
b0af
af37
287a
2cdb
1d41
3024
320e
a7e1
2499
b19b
a312
acfa
a809
279e
2c8e
2d35
8d8a
a53a
2e4e
b12e
ae7e
a8c5
aa7c
b044
2e30
9c0a
a400
b2fa
ad8c
a8c3
249b
ae1e
ad97
abd1
a128
335e
ac37
1f9f
af9b
2cc5
a390
ad9b
30b3
2dc8
2e4c
b12e
ae20
acbc
2473
a1bd
266c
3014
9b6f
a9a4
a0b9
2865
b078
2931
ad6e
a9f6
a5fc
221a
2703
b176
2ca8
af17
2338
28ae
aabd
2bdd
ae45
9ad5
a320
261c
30fb
29ea
2ce0
2f6b
25d5
a171
adf4
b0b4
ac26
2e4d
2dbe
23d3
a8fb
2e53
aaa6
b2f5
ac48
a887
ac69
a7bf
af6b
a6f0
a4df
2d22
adb0
b10b
aa51
a3a8
2a60
b40c
1e8c
b099
ab68
af6d
2cad
b057
2c8f
22ba
29d2
2dcd
a896
a092
ae5f
b184
ac3e
b1ac
2d73
adfe
af04
af6a
b3c1
ad10
b084
a409
ad84
9f0b
2e5d
b283
b18f
9ea2
b003
30de
b4ea
2fc8
a20b
a76a
ad76
acbe
31b8
ac19
b0b0
aa16
b107
26b9
ad62
2e3d
a451
ab41
adb4
ac7e
3030
ab9b
b005
b0f4
a575
2f88
9088
32d3
a799
2b5f
2981
ae20
ad84
a931
24ae
2c19
b0d1
aecd
b114
2d2e
2de6
ad0a
2db3
ac91
2c37
2bc6
287c
2c74
2aa0
300d
a879
ace0
a8e8
2ee1
2157
2525
a574
ac1b
ac32
2b77
ae53
aa78
aa0f
a8fc
b210
28ec
a40a
28ba
9e8d
28ee
2716
aba5
aeb5
a480
a0ef
ab27
ad7b
2de5
aca6
9d01
3152
a561
a79a
b148
2860
2d7a
2ec5
2da2
af02
b08c
adeb
2b0c
2ca4
afeb
2dcc
239e
ab0e
2724
9374
a850
b1e5
291e
2fd9
a404
9c4b
31d0
2c53
2cc7
1c3d
a444
b085
adb5
22a5
942c
2f9c
30cd
ab03
b345
b164
26cd
1c18
b03f
2c8b
ac5f
a4b3
aa25
261a
2e13
a4ea
2167
2951
b073
2cb4
28a1
2656
2aad
2105
2b3a
2a71
a3ad
21b9
af15
a4ae
a6af
b0b7
1d2b
3209
2949
239e
b155
b076
9539
2e5b
2cb6
a8b0
a91e
2714
28a0

// conv1d_1/bias  shape=(64)  count=64
ad17
a8d8
a6f9
a934
ae9a
aeb9
a89c
ad70
ac6f
ab5e
ad1d
af52
ae21
ad1d
acd0
ace4
ad51
aca7
af7e
ad18
ac83
adde
abae
af21
ae43
ae66
add1
a4ac
ad09
ac7d
ad55
ad79
ada8
ab78
ae03
a7e9
ade4
a7e2
aea8
adec
add2
af3b
a438
2580
ad48
a112
aad3
ab2d
ade9
ad94
aca0
ac88
ae5d
aa6a
ada5
ace9
ac56
ac29
a87c
ad57
adb3
ad42
ada9
293d

// conv1d_2/kernel  shape=(5x64x64)  count=20480
2510
3025
303c
a7cd
a78f
2dcd
2fb3
a928
2623
2edb
a579
2b9f
2db2
2859
3419
a922
ad64
2ce7
2e44
282b
2dd0
af60
2c98
acfe
2ce1
acc9
2493
2d14
a919
2ce2
2dd2
adcf
a33b
3469
2d26
2dd7
a7f8
2d95
2a49
29e8
a984
2eb7
a4a3
2a37
2df2
31a4
2fdc
a64f
2fa5
ace0
aa7b
29cd
2fdd
284e
ae3d
2888
ab39
adef
a978
a2de
abe1
2eb9
240c
2cf0
ac2e
accc
2ac3
2344
a6dd
aff9
a716
a738
a5f8
2e7d
a4d4
2c43
2d46
2259
2ee8
a613
287d
ac3f
a1c9
9eb9
303d
a27a
2d19
2d52
ab2a
a8f4
b05a
a80a
aad3
30f0
21ff
a87d
ab8a
2e11
2d4b
275d
2c64
a8d2
28c1
27c5
acb1
289e
31a4
2dcc
277a
a5b9
a538
ae0d
29b5
2c62
2024
ad7a
ac78
219b
2587
2b5c
2c35
2c97
ac0a
aeaa
aa8e
2c75
ab18
2246
28eb
abfb
ac88
3364
2f5c
2e35
ac62
a8f8
a131
2c34
23b2
a8ec
2a31
a8d5
acdb
2da0
b0c0
2add
aefb
a789
2ce2
2a99
a8a6
2a34
2812
2393
2e4c
aab7
ab69
291f
a5bc
2cba
2c77
aeb1
1c95
2e36
2adb
a4c4
291a
2f49
a68e
a9dc
22ba
ab89
ad82
ada9
2eeb
abf9
2a3c
15ff
28b8
2729
9807
2aee
b314
acec
a804
af0b
ab06
aed4
2bbf
2a37
a78b
a7e5
2cc9
3210
2367
b35d
aa18
acf6
2822
3149
9b38
9f79
2fec
31e0
abfc
a8ee
3039
a492
3145
2b44
2a54
27dd
2703
3007
1be8
3002
a7b8
2d6f
21b1
2c8b
aaf9
af51
a05e
a901
30e2
a9ed
28f0
2ca2
2ee4
2ed6
b1c7
2f90
afdd
29d3
9d9a
ac57
1ec4
3110
a857
1b71
2553
aded
2c03
2884
2f73
163c
af24
2e23
26b2
ac6f
a378
ad7b
a117
298b
257d
2ab7
302b
290c
1fdd
b3da
2e2c
a9c7
2aae
2e97
3132
2ecd
9bec
2cf2
27d8
a534
a94c
b26b
2ccc
2eac
2fc0
2c61
301b
32e4
2dd9
9c09
29a2
2acd
2c41
260b
2e93
2d05
30b3
27b9
a82e
2e37
30c2
2d90
302d
280a
adc9
a893
2124
a337
2faf
2ff8
2851
2053
2a34
aaf8
30cb
2ded
2cbd
21f0
2ad4
abe0
2d37
a4d8
2d04
ab6c
2dab
2560
3116
2fed
a1ee
31a8
2d76
3070
2b9a
305f
2d7c
297f
2e61
2f20
1d38
8606
2cc3
21fd
307d
a4bb
300b
a99e
1ef2
2eae
2c77
948d
2a21
2dcc
af27
3143
29b9
2dff
ae16
2c78
a69e
a8f9
a3c6
1ee7
2f80
a6b5
21f4
a7a5
2669
237a
ada3
2889
9920
2fa4
ae9a
308b
a1a0
2b1b
3062
29f2
2e4a
2728
2df4
3006
24a0
ac6f
0e85
3094
29dc
af6a
a9b4
b07e
1ec6
291a
a25b
3110
3050
2b14
32bc
32a3
2849
1a56
2ee9
3040
9da9
2d65
2f37
30e3
21a9
2987
3298
301b
3057
2ed1
ac86
2c4b
281a
2eef
2926
3181
2417
2d0c
ad59
2834
ac4f
2815
2fe7
aaa9
2fad
a6e1
2db8
2dc1
2c76
2dbe
2ffb
2dab
a6bb
2a31
9987
a30c
2d6b
335e
23ed
2a91
a67e
2ace
a7c3
2cd7
3190
9e55
288d
2cd5
2f04
ae19
2832
2837
2deb
30c9
2ccd
2c1f
a8f1
a9c0
2259
311f
2570
2008
27ae
9e00
ab32
9ca6
abba
ad82
a50d
af70
1a19
2ee0
a007
30e7
a760
aaa4
a170
30b3
a606
9285
2fee
2576
b163
2818
b1ef
3034
ae3a
ac96
2eb5
ad0c
abd8
299b
2992
2e61
2972
a1c2
2c69
a9f2
3104
2b16
adae
2d3d
3036
a523
27bf
a03a
270e
ad8a
2edd
ad1f
abfb
2c96
2eb6
2566
2cf2
a693
2b3d
22c1
2c96
2c38
a860
a586
9635
a9b4
2987
9eb3
2a72
a0e1
2d18
30e6
2fbe
aa87
248c
ad04
acfb
aeec
2db9
2f84
2d55
9cfb
a92d
317e
2b97
2c0c
2c6b
2c65
ad6b
2ecf
2fca
2ab9
2cd3
2677
2d9c
a98a
3150
259d
286a
9e95
a6f7
2f59
ac0d
28dc
a839
30b7
a4be
2c78
1be1
adb6
a820
2346
2b7d
a4a6
2560
2463
28f1
9e33
a293
a869
27a3
2549
2029
2b8d
28f2
aa3d
3198
27dd
2e63
b440
aab6
2c4a
15f0
24c9
2d6d
a468
2a04
2ba6
2867
278a
30b5
262d
3132
9461
2d40
2d48
2cf7
2801
2d96
3197
a8b9
a563
ad53
92bb
2dfd
2790
2d80
24c9
2aa9
a848
3301
1c2d
3202
2d75
ac7a
2420
adf4
a847
add8
2d95
2b1c
330c
3141
a4bd
2ea9
2574
1779
2e9b
2cac
9ef1
307a
2953
2374
af4a
246d
b0ea
3109
a7c0
2142
1d0b
a282
2c56
2819
2963
a131
269b
ac04
940c
a976
2c6d
ad14
ae2f
2ce4
2b29
2d91
ae02
a17b
b009
ac36
af20
a5ce
2d94
aa34
241a
2086
ae6a
26d9
2604
af62
207a
ab39
aef5
abe1
2df2
a691
ae43
b0f3
25d9
ab50
2b34
2d5f
ad6b
19c0
a50f
af36
aec0
29fb
2695
acdd
2c99
268d
26ce
ac3d
2657
26e2
2c64
a7e5
ad87
ad09
acd3
9d18
2929
a236
ac9c
2c66
2be2
aa3f
30f4
2857
2dbe
287a
2e4e
264f
ab32
9198
32c3
30f9
ad0c
2dab
a4ec
3174
a2d6
292e
2d5c
2db6
2442
ad8d
21a5
2b6e
aebe
2aca
26ad
304a
2a7b
9d15
2546
3153
abff
2ed8
1a3f
253f
1dc3
a552
19db
a8aa
28d7
2796
228e
2ee9
a998
30f2
24a9
ae61
2ae1
2a0d
2552
a001
1cf0
a99f
2914
2d30
ae99
a43b
2a8d
28eb
2d59
b078
30f5
aaf5
a42c
2db7
2d15
a91d
ab67
2e13
a747
af5f
3199
a7f2
9c24
998f
ab0c
2e5a
ab2a
accb
8b43
a4b6
b08c
289f
2024
2c98
2cce
2e55
2008
af59
261d
2280
2fac
2a0f
25a9
ad85
2c90
aa65
aab8
a52d
afa5
a89a
2a3f
2ad7
2bdb
2b26
2d0b
a7e0
2c4e
2c7f
2808
2eb0
2cad
a04c
2ffc
a908
2dab
300f
a81b
a618
204e
a7eb
1fd9
2cb7
9dcb
ae30
2943
a140
aafd
26ae
2e41
13f5
2823
a546
2583
a9b8
a862
afe6
b075
2dfb
ab45
adee
2c43
aba5
21c3
2541
b0ac
a9c9
28aa
ad5c
ae87
26b6
adb5
ae23
260d
b1bf
2d0a
2abc
ad8d
3045
b0dd
a203
a77d
b09f
ac58
2e72
2873
aea0
288e
24f5
1f3c
26c8
ae69
20db
ad2b
2958
21fb
2f1b
1657
2746
adbe
af8d
1f49
ac9c
29ce
28e8
238d
acc4
2b0e
2e67
acb8
afe5
2bcc
a69f
2f06
3044
ad3a
aa30
28c6
a802
2827
a570
ac49
abfe
aeb2
2283
2c90
a62c
92fd
a53f
ae39
2ccd
2df6
a014
aa2a
2d99
2c0d
a753
abdf
b072
ab90
aea6
2bea
2ded
ad39
2a99
2ccd
2c51
acd6
2a0c
2710
24df
ab4f
2755
aec2
9f19
29da
2df5
2c25
ade5
aaf0
a92f
af8e
2d4c
aec7
af49
2bda
2272
a915
abe8
a94d
28e5
ac3a
2b8a
2ca8
2240
2e33
2479
28c1
2e09
af44
26b8
a4e4
290e
2a37
2a4b
2dcb
a6ca
28fc
2e4d
a4f3
1794
9e7b
2caf
ad83
2059
2e0a
a746
30d4
ac50
2f0e
a763
2e2d
2593
9e08
2579
294f
2769
30a4
2e74
a105
2f9a
2f9b
a85c
b087
1f61
a3a0
2b47
2a0b
2903
32da
2e4f
1a4f
ab8e
a758
2e29
2fc9
3166
14b5
2b2f
3089
aa2e
a85b
2abd
adee
a872
2733
2f95
293a
2d7b
26ac
2c07
a3a1
aa8c
2da5
2bfe
2f90
2d7d
15b7
a731
2282
291f
263a
3413
a55b
2389
1b01
296e
aaed
2db7
2ecb
a277
2cbe
23c7
2abf
ad44
2d4d
23ca
a722
3033
a69b
a21c
3310
a7e5
2ec4
a94b
2e10
a1cc
24df
aa56
2671
2ae2
2868
aa23
2d71
2dc8
ad15
24c0
a97b
2d04
2dbc
3021
a6a4
2cb6
1670
2f60
a99e
ac1f
a9c0
2dd5
a800
a80a
2d45
2fcd
31af
3030
ae01
275d
99b0
a6f6
2db1
2e9b
2ee2
2920
2818
2d45
1dc8
2c54
a8e1
2ecc
2af7
27c8
2b90
1882
3185
a790
2bf3
a7cb
2ea7
29b9
30d4
205b
a8df
3041
2dc3
27b2
aa1a
302a
2b62
2c46
261f
ad6f
29cb
2df2
a311
aa04
a7cb
293e
3073
a6de
2653
a446
a3a0
ac27
30a2
305b
2c22
ac0b
0ff6
a491
2b51
9db0
24a1
20c8
a69c
1b77
2b51
24b0
a719
a2bb
24a0
aa73
a4a1
2ce4
1ff4
aae1
3050
2f38
2c55
223e
2cc9
230e
ae78
312e
a192
248e
29b0
ab6c
2915
282d
263f
a903
1dd9
2b0f
300e
2892
282f
22a9
257a
275a
ac5e
ab06
a0e1
2f5c
3057
227d
b117
ac98
090d
a7d5
2d0d
2a8f
2f73
0c93
2b32
2dc3
a56b
2f4b
a7b0
2804
a94e
30ba
309c
a90a
ab70
2f63
aa05
a6bd
2dd4
22e0
2ff2
2e54
2cd6
2f34
ae78
2ef0
aacf
ac4f
2180
2537
ac16
28da
28b8
291f
acb2
2e2e
aab1
2c11
ab47
2c28
2c71
30b8
2338
a690
25ce
2935
2da3
ae66
288d
a9ee
a94b
2f58
9c66
a2e3
2032
2f9b
2af8
2e04
308a
ab5d
ac93
2cf5
2c1b
ade4
2fff
306d
3475
1e59
2c30
2b45
2694
ade7
226e
a202
2108
888b
2c4e
2ecc
a617
9fef
a509
2059
2ba8
332a
259e
a833
ae25
aa31
1c00
2832
2810
2f70
249b
a41e
2c0a
aeaf
2981
ad6a
2cd6
2f47
1e14
2c65
16d2
adbc
22e0
2fe1
2043
1ebf
aeb7
3039
2dbd
2eb6
2842
2d5c
30cd
2bff
af25
2c15
3148
ac02
2b31
2760
a408
2869
2ec4
3093
a8fd
30ee
2b83
298b
b15e
302d
ac78
2efd
a797
22d8
2c1f
ac03
2d6c
3089
ac61
a007
27cb
ac9c
196a
29a5
a85a
a909
aa70
28ec
2a66
ad1c
abc7
a684
aea7
24af
23e2
a207
aa2d
2575
2351
2a9a
299b
2e20
a9b3
29fb
a788
2a5a
2924
2e23
9bf6
aa44
2d5e
a6e8
2611
9f68
2e98
121f
98ad
9fe4
adeb
a9ce
2d17
a240
a781
aa5e
2903
2fba
aa05
2cfd
1d88
2f94
1e0f
ac63
2c83
8032
ac9c
29d5
293f
2db7
af53
a5d6
ada6
adbf
245d
2c6a
a48f
a651
a9ad
2d64
a85d
a8dc
30ac
a098
2309
3067
aeef
2fd5
2c4c
3058
a8f1
a5a5
1ad9
2fb7
a42b
9829
a9e3
31cd
a89f
2d3c
2ede
273e
a469
2c48
2e60
aa45
3006
a458
2c12
2b51
291c
b00f
3036
26f4
2c8c
2dfe
2a2e
3199
a8af
2b18
3030
2ba1
1b82
ad4c
2dbd
2b55
30f9
2cd7
2ef8
2b7f
a90d
2e9d
ae50
a97e
92d4
2e5c
ac24
2773
30a9
3098
2520
2727
a7d1
319e
2fd2
31e4
2d16
316e
999e
2a63
afbd
2ea0
2fbd
2fc7
ac3a
a8c3
92ac
1453
2781
2c22
9d35
3417
ab34
2699
259b
a185
9d1e
281f
2902
2c3b
305f
2ca8
2979
aec6
3077
1e28
276b
a773
2bff
2bd6
addb
2e6f
2ec1
a553
8d44
aa34
2c60
2866
2c5e
2c40
2637
ab5e
318f
2fb6
ae20
a57f
a8c0
2f98
2ffb
a94e
aeda
259d
aa21
a4b7
226a
2c1f
afed
245e
9da8
ad18
2f95
31ed
2c2f
2ddc
ad8e
3032
ad7e
28ae
2e6c
313c
ad6e
a442
31d7
2c69
a1ae
337b
a71a
318c
302d
ad25
a0e9
3069
2f1b
abcd
2cce
9faa
abe2
a001
327b
2615
1504
28a1
a5a0
8738
aeb6
30d4
2537
2a6a
313e
b010
2f37
1c01
9bff
b005
a178
2a2b
3225
2e02
adef
abc1
a948
abe3
2ac4
3159
ab85
b362
2c52
30ae
ade2
a852
ad20
31e7
2bf7
2aa5
3134
2b52
a49b
acbe
34a2
a715
ae2b
2caf
ac83
ace0
2e8f
abd2
af3a
a02d
ac25
a54a
aafb
2484
ac09
2773
2822
2e62
2c28
a862
afda
a8e3
ad83
1d26
2cbf
a54e
283d
a204
a2df
2bfb
a826
2914
9e94
ae45
aee9
2726
a1f7
2da0
a832
9ff6
2b63
2b0f
a89d
a458
a4db
ae99
aee5
a71d
a216
a93d
2c56
ad6b
a961
aaee
aa05
a0fa
a03f
ab9f
2e99
8ac5
a841
2c49
2588
2db3
b244
2602
2c8f
9760
a805
2f1c
2f98
ac6e
aad1
2cb2
2c58
3246
b195
2b64
3101
2a69
2344
2d09
2c23
9c28
3150
1b06
239f
286d
2fd8
ac99
3068
2dcd
29df
2e69
ac50
2d9f
2cb5
2429
2c0e
2f20
2ee4
2a3d
a28f
a56a
297c
2b25
3230
2ab1
ac6b
2304
ad9f
a84e
ac1d
a018
ae3a
27a7
aa7c
302c
aab0
18f9
a657
2d6e
a1b9
19ec
2f27
b048
afe3
ad52
36fe
ae7a
29fa
acea
aaf5
a213
2079
adb0
a19b
2d5e
a711
b157
3031
b0a8
ada2
ab5f
b208
a820
a93c
aeee
b096
210c
ac06
27f4
ad14
b421
ad29
b0f0
afc6
2fb9
2596
27c7
99a1
a815
af2a
2c92
2b09
aefa
b084
9f62
a9db
9d69
afd9
16f2
a9f1
26f7
a8d8
a3d0
ac17
2577
24d5
b0a0
2712
a2d6
af46
2710
b000
a977
aeca
ac95
ad3c
2ea1
312e
30ce
acb4
2d06
a922
2402
2a56
a4b0
a85f
ad86
320f
2eae
2096
33c5
b04b
318b
a7c2
ab21
2c77
aa59
238b
2b9c
2fda
2bd0
2d8f
994d
2b82
2eb3
a860
2e88
a89c
25dc
3062
31e8
a93d
a4a9
2e9a
b05f
24cc
ad25
ad1a
aee6
2edb
2719
2e19
2f8e
ac54
2d5c
af6d
a901
30bd
2f2f
25dc
9ac2
a83c
2d64
2755
99bf
abb2
2f00
a3a2
a61d
a8dc
303c
1d49
a074
a7f8
a9ba
a0d2
302a
2ddd
2cfd
310b
aabb
a1e6
2d7b
2d29
33b1
b1dd
24ae
2f37
2d0b
204d
25ca
a8e6
ab89
2952
2df0
2cbf
a886
19b2
2a04
29d6
2af6
2912
ac5a
2c4a
2c0b
a7b9
2ee5
2c54
aa55
2b7d
06fc
a958
1fe7
2cbd
29ae
a687
2cea
ae13
2aaf
2ca5
ac98
2d74
2d2b
acfb
2b45
27f3
ac53
add2
a74d
2a9b
2715
9598
ad7e
a872
1ef8
2c63
2c17
a18d
2bc0
2785
23ac
2bc2
a3d5
a7f7
304f
255f
3215
2de0
a45e
ad99
2d82
2d60
2bcc
2484
9917
2a08
2caf
981d
a784
2a09
acee
2b70
2f4c
a8b2
217b
a1f8
3094
a421
8d6d
2c9c
9fc2
2db6
ad12
9c15
2d88
2fbc
307b
2e93
a28c
9ecc
1c79
2bf2
2ba3
acec
2e6f
3044
2d72
ac29
3267
2c03
2c0b
ac4c
2f68
2f9d
3217
315d
b110
3260
a8dc
2f7d
2074
3021
2da2
ab8a
2c86
300b
3058
a988
30c9
3222
3068
ad94
3267
2c3e
2dc7
2826
27f7
1dff
2e28
2d36
a9e5
3094
2b0d
2f46
2793
232a
b012
2870
2cd3
2116
2939
ac0d
3037
1914
3103
2ee3
ac87
2ce5
ad34
29c1
ae43
1ffa
2b55
3224
9de9
2b3c
3126
aa77
293e
1cd3
2923
acfc
2a5b
313c
313b
1f08
a6ba
ab19
2ded
2f92
2d38
31d6
a98c
302e
2c5d
29d8
2ac8
2d54
2b6b
2d64
1e90
a04d
2935
a1af
a65e
a114
25af
b1e2
2bae
9ee7
2b6d
a3be
2b09
3107
2bc4
a502
2d9b
abc2
26b4
2cff
234e
aa83
0eb6
2f0a
2e96
9b34
aba1
a6ed
2bb1
305a
2475
abd8
ada4
2c3d
2cf0
aa50
2f33
2812
25a7
26d0
a8d1
a604
2abf
253a
3015
2a32
afab
2db5
a249
ad1d
2a25
a6c9
2d91
2ef3
23dc
2fbe
ada4
9cb7
25b0
35f9
aafb
18f1
a535
2415
2494
28ae
9b39
abc0
2c5c
abc2
ae25
2d6d
ab82
2f3d
2b20
2c64
2996
aa93
298d
aeb4
a8b7
275d
1e51
aefd
3032
2516
1e33
a6ab
ac6b
a27a
af51
9ab7
a165
aac6
304f
a97b
2916
a93d
2ccc
ad08
29fb
af9a
30d3
2988
2a46
2dc2
a16c
a285
2b96
a4c4
30aa
2ba5
addc
2bdc
2c81
2b98
ae56
2d05
a961
ad8e
313b
30c4
20d2
2f4d
2c90
268a
2fa6
2b38
2e95
ace7
a492
aa64
2fad
1bbc
ad1a
a23c
aab1
2e0b
a3f4
a791
2daf
342d
2dcf
3065
2eac
2a10
2acb
2400
a8fe
30ed
252f
25ec
a428
adef
acde
2c1f
2dff
2e72
a523
2f56
2dc6
abbb
ab61
2d7e
2dc4
2dc9
2812
29d7
961d
ac8e
22d6
2729
2cc2
acf0
ab10
2ca7
2e9e
b0b9
2f14
23f9
2dd3
2ceb
a56a
2ebf
299c
2a62
a523
afa1
a61e
29d7
2e25
ab2d
2879
1fcd
21f2
2ef3
30cb
2bc8
2d33
98c5
ac3d
adce
a8a5
26c2
9e6d
328e
2a34
aa52
2af7
2429
3179
316a
2ee7
26f3
2291
282b
a974
2e81
254d
2e7c
2df1
ac7a
b0d3
1aa8
3003
2ac2
2edc
2c1c
a978
9fc1
303b
ad9d
a86e
2f84
2d3a
263a
a49c
2ba1
2dfe
2d58
b023
aff9
2c02
a875
3240
2e5f
b271
2f00
3058
2df3
30c8
a530
2ec8
b06d
1807
280c
2e16
a510
a546
2ecc
28c4
229f
3240
a5b8
285e
aa2f
adad
2d90
25bd
31d7
28c7
2fc7
259f
abd1
ac83
306e
ae52
2546
a673
2d57
a0d4
2bef
2f52
15ae
2ca8
2f0f
1fa4
a4ea
2e3f
aa4d
a331
9310
24aa
30f3
9f16
a855
25c1
af57
2ebf
2d8a
a012
2562
295b
2c9b
2e50
a999
a77c
a731
2efc
a1f6
3207
2c4b
a11b
a2bb
2f08
2b1b
295d
2333
2d4d
21a2
2470
3026
2c96
ad1e
a4a4
1aa3
24f8
ac9b
2a25
238e
2f62
2d43
a8f2
2db2
24ee
a7d6
2ec9
2e88
90a2
86c0
a011
2d65
ab65
1ae3
2012
9c51
a910
a23a
3036
a620
2c7b
2dc8
a3e1
a7d2
2bf0
3069
a739
2d97
304a
ad1a
2628
2c41
2ef6
a7bd
a7bd
aa98
266a
a8b4
206a
2927
2239
a4e1
31b0
2e8c
2d92
2de1
24e3
3055
31ce
b04f
2e5f
af31
2603
27ba
2f93
2d3b
302b
2f03
30f9
270e
3204
2a0f
295e
911d
a797
3048
202a
3393
2cd8
30b9
2c8b
304a
aaa2
3210
28b7
2f47
3002
248c
2b95
3010
2f3a
a1ba
2ff1
294c
2b75
25c6
ada2
a80e
24d7
a107
2b74
33b1
2d4d
2812
2dcc
ac41
2ec4
2b71
274d
abc1
298d
2851
2c24
a34d
a232
27e5
3286
2411
3302
3126
aab0
a940
2900
b0e5
ac2d
2a09
2a25
2a31
a802
9350
295a
288b
2e2e
2d48
2e33
ae49
2e28
30aa
abff
a862
299c
2666
ae7b
25ac
a8df
add1
adc3
a5cc
26a8
2f10
956d
9b8f
2de0
af0d
ac03
ad29
a44a
a66f
2d43
2eaa
a3ce
a643
9bc2
27f6
2872
a0c4
ab66
1e46
b025
aad8
285c
a723
1a30
1de2
aaff
ac50
1f50
ac51
2bd5
acb4
a9f2
2c2b
2159
a070
2ec1
1fa2
2cc1
b126
26c8
2f3e
2ebb
28e9
24a1
2fc5
2ea1
2781
a821
a88a
23c7
a7f8
3244
269a
a90a
aaf3
300a
31f4
247d
2c2d
2d29
2d29
a43f
2dbe
2fc3
95f2
2b5e
a9a1
2778
9f52
26d0
2c0a
206c
a742
ae6c
3088
2aa9
2f1d
296d
2f3e
a8fe
2b79
296c
2a12
305a
acd4
2ecf
2777
2cad
2dec
2912
1f0b
a6a8
a2d4
2e7c
a285
2795
8ffd
aeae
300d
b07d
a4ff
aa8f
31fd
a79f
2c40
2c39
99ca
2a6d
22c9
2325
aae8
a7fd
abc9
ac8f
a2d5
aec2
3042
28d7
a558
2712
2b79
2b17
27d6
2f4c
1f0e
273e
ac41
a8bf
302d
28c6
af44
2ba9
ae1b
30cf
262d
ab8b
a190
8013
2ec6
ac37
a36d
2bc1
ac79
2c4f
1f73
232e
a802
ab2b
25ce
a34f
27d5
287d
adaf
ace1
18cf
28bd
237d
2e1e
afb4
2dca
a9c5
2f06
acbc
1e76
29e9
28d6
2e2f
2a37
2cac
ad12
aa69
2d0c
aa6b
b016
a92d
2d4e
a697
312e
a8f6
adfd
934f
3011
28e6
277b
a807
ad7d
a3bb
acd1
af20
29a3
29d3
b1e2
2862
aa3d
a9ad
2dc0
2332
318f
a1c7
2b42
2590
1871
2f2b
1989
1e90
a023
a44a
94ac
2d72
2ccd
9d83
2c94
a9f7
2d13
2ae7
2ca1
a90b
a3a3
269d
b072
25b2
251b
ac76
2feb
2351
a4a4
2da2
a99e
a54a
2baa
b7f3
b139
a96d
2e97
a642
29bc
25e1
afb4
ad15
8f35
ac0c
328c
ae22
29b6
af18
9dbf
a82e
a515
2015
2a2e
ad1c
2d1b
9c32
2fa8
2ba5
a3b3
28c1
2b31
a6e1
aa2c
3378
ad6e
ad82
20b7
ab58
b46b
311f
ad4e
9f66
29e3
2a57
ab4b
a358
aea0
b055
aaa4
aa78
24ee
2e67
26a9
ab08
2c7d
a57d
ac35
a9fe
2d28
29fc
2c4d
9fe2
1ec1
a0ae
2ca2
2b8a
2958
22c7
270f
a834
2e54
3016
29a3
2c25
2b2e
a940
2565
a86d
2f56
8891
2df8
a9e7
220c
97be
a3e3
2a23
2c22
2e8b
2e32
aeb6
aabc
aa02
9c43
ad8e
25a7
2d39
2ceb
2cd8
ac00
9639
228b
acc4
117d
b022
ac6f
972d
ac54
a802
2ab9
2c28
2e0d
a833
ab05
2707
2295
a207
2dc3
a9c7
983f
9faa
2dd2
24a1
acbc
ac78
a5bc
2dc5
26cd
2a74
2e20
aef8
a769
31af
2dc2
a845
2a7f
a83c
263b
2a87
ace9
2ecf
2aba
a8c8
ab8d
304b
a7fd
2523
9f48
246f
aac1
302b
2300
2bfe
2d0c
25e2
2cc8
252e
afcf
2c38
2e2b
27a7
2d94
ae85
2b23
22fd
aa71
a8f6
2aa4
27ca
2e10
a8ce
25eb
2d01
248a
aa55
9e88
a926
a626
241a
26ab
a321
2099
2c46
2b47
2aad
acc6
2503
289c
243c
21c0
27a4
af30
ac2f
316f
2fa0
2080
b3c7
9d71
aa3c
286c
3037
2fb9
1a5c
2d0c
2f13
289c
a978
33be
29f6
3033
a458
2d93
a9be
2929
2c6e
acbf
310a
a683
a6b9
ab64
a170
2ad7
ac40
1c65
2907
2f88
a2a1
a79b
9e9c
26e9
2ba1
a97a
2ddf
2cde
288b
a440
2e9e
a942
2faa
9d09
acfb
2cb0
add3
2f9c
2d06
3074
a79c
af6a
3049
2fd5
af0f
2b43
abe4
2a39
281f
a2ab
2d78
2934
2a5f
2f28
2d95
2228
2ad1
2b5c
2ee2
a407
282b
af7f
2a8a
27e9
aac3
32b8
b08d
a833
296f
9b7c
ac28
2bea
2bf6
2b5e
2c90
a780
adc3
af3e
2e55
af09
2f4b
a69e
aa5c
a90d
2b05
2e75
25b5
a0ef
2d0e
a94e
2e1d
a8b8
2644
a5c4
2a31
a99f
2dc9
2bce
a9a0
a518
a568
aa88
2fec
2e6f
ae77
2488
a935
ac75
2cbc
2c2c
a91b
9f12
2fcf
ac2e
a49f
a9fb
2c0a
1cf8
ade1
2d14
289c
2c98
2965
2a3c
2f7e
aa83
aa76
20b7
23c6
287e
adaa
0c0b
3138
2d80
265b
16fe
24db
ada1
2e75
2b35
a91f
ac67
24d3
b127
2d1d
285f
2948
30ab
a5ba
29ea
2d23
a9a4
a844
a0db
206d
a88d
2e5e
2593
2b7a
3036
2e6e
2aee
ad2f
abfa
27b3
2d0e
ac8b
2627
21a0
a11a
29ca
a61f
ae73
2d55
b0c6
2c12
2142
2df1
2d67
2d44
23a4
1f26
b52b
28c6
affa
3179
300e
2e25
2ce1
2e48
309a
061e
ae65
30de
af76
1d09
1f7b
a6cb
276f
a4c2
316b
2d70
1ea5
2fa9
303f
2abd
98a4
3098
277b
a100
a859
2ad2
25df
2a6e
1d5e
22bf
2707
ac4f
3049
a47d
a68d
20d5
2f79
a92b
31a3
a545
ac7a
3010
2e1f
2fe8
a38a
2e32
a10a
2fdf
aad3
2630
ac91
a069
a444
2e64
26c5
a65f
2b15
2d9d
a69f
310b
b0e5
24a0
27fe
2d62
aaaf
aa9d
2d9c
27d7
2d1a
2d0b
2ce4
3191
acd3
2815
213d
a4cc
a508
2527
2ef0
2c2c
a803
2579
a6cc
a84b
2c20
291b
9f98
2c64
aad7
2d5d
18be
2e1f
2d66
2d71
2f74
aada
28bc
2bf3
2e5f
2816
2af9
2fcd
31aa
2e6a
11cc
3071
a504
2d28
3043
2a0e
a71d
a23e
2dbe
3084
2c70
9873
b0be
2956
a7cc
ad2e
a43f
2e6f
2fb5
3131
af2a
2454
28d0
2c92
279f
3214
303f
2b68
a548
3003
acfe
3216
a53d
2da2
3263
9f57
2fa4
2b0e
2b8f
a7e4
300c
2867
2ebf
ae84
28d9
270a
2eb2
30b9
3040
3078
b127
32d5
3018
3109
2ac5
aca2
2e20
20b4
2c09
a823
2a0c
30a8
3208
20e1
a7c0
2d47
2c4e
2abd
2c79
3182
23a7
2d78
2c07
2f57
1a68
9b63
b0dd
2f9f
26a8
343e
3079
a367
ab93
96ab
2fec
2c04
ac3d
a735
2c03
ad54
2c4e
2411
2e06
2bcb
a928
1944
29a9
a98f
a9b7
ac08
984e
a9cf
25ec
2ca2
2aa6
2f90
2ab9
af45
2aa1
2e4c
a2a2
2dbb
ae93
2d7e
adae
aa29
ab02
a531
a592
311a
a92c
28f9
a7d1
a0f6
a810
2885
ac6c
28ca
aeab
2df3
2ab6
2df8
acf6
2927
275a
3048
28bb
a9fa
a9cc
2cac
af93
1d88
ac2a
a9eb
2c04
2c0a
2efe
ac39
aa0b
28df
28b0
2dbd
2758
9d0e
2f93
ad74
241d
2411
a8df
2443
acc3
ad3f
aba1
a5ad
9c75
1c7c
3254
a56c
2e69
9e30
2653
21bb
2954
b1e3
ac1d
2f1f
2be0
2c61
2544
a95c
a285
acc2
a991
9b82
2cf5
2c67
9f9f
2cfe
2d65
ac97
2ace
a7bf
8c3f
ad3f
a92a
1a1e
2bbe
2daa
2129
2ab0
a34f
2ac3
a843
2936
97c4
2e6c
a24f
2dd8
ad59
2f06
2e5e
a97d
b06a
adf8
ad2d
2ed4
abc9
a062
2b5d
28bc
ac5a
add6
2b4c
303a
af31
256e
a69d
ae01
ab76
2b0b
ab4f
2f0e
2c6a
a6a4
9ad7
2929
acd2
a71e
27b9
2c4b
b0a2
2d04
2909
2d8b
aa73
a613
9789
a4d7
2c4a
2c71
ae7c
236c
2e69
258b
2c1b
2d2d
26ac
af15
afe1
2ddc
a9f1
a862
b07c
a7fd
2530
a946
ad95
2cc5
b087
ad2b
2ddf
95b4
aab6
2e75
29e1
2d93
22e4
2d0e
ac3c
a877
2ad5
23e4
a912
a88a
2d8a
2fb4
9484
2efe
abdd
2928
1f3d
2e0b
ae30
2ed1
31ff
2b8b
2dce
258b
ac5d
a19e
30c7
286b
a5ce
2fc7
ac3b
2bd0
a925
2dee
a510
287b
3013
abee
a75e
2c69
22be
aaf2
2f56
2875
3152
2b3b
2b4e
ac79
a43e
3031
3151
2d57
2070
302f
2c1e
30f6
2534
a875
ae85
2529
9f66
2e3a
a126
2e1a
27ea
2879
ae7f
2e44
9e6c
2d0f
295e
2310
aa41
28d8
2b9f
198d
2c42
27aa
2b42
a7d2
a89a
a653
a945
a1fb
2d42
aeac
30a3
2cc5
acaa
af05
23c5
2906
aa70
2c66
a816
2a51
a0da
294e
25ff
3092
2a9e
b0a7
a889
ad91
28fb
ad3a
1f12
311f
30d6
2d20
ae07
2c91
ace0
a8da
3123
30a4
293a
28d3
a425
306e
a005
2f48
2a7c
27a2
a61f
19dc
2851
a34d
2cf1
16d8
a454
2d52
a84e
2823
aa6c
9fd9
2fd3
9556
2c29
2e61
ae26
307a
a579
282c
29ae
ab35
ae39
20dc
14a5
2a28
9e47
ab20
2abe
a564
2d6d
a54c
2ca3
a2c1
ad61
abdb
300a
2abf
16e4
28d9
2b9b
9d23
2e35
2c04
2e82
a9dc
206b
2828
2c8d
2579
ae88
a1de
a946
a472
305b
2ee3
9d58
2d8e
301d
3104
21cd
2d6d
a891
2a60
aa09
2506
2e1a
302f
147c
23d6
9280
149c
30e1
2eac
293b
a2ef
301d
1dc4
a1fb
2d7a
ac8e
2c88
ac95
a811
2d47
287f
a88e
300b
33f8
2ab2
2cbc
a77e
a39e
2b4b
3072
ad5c
a172
243f
aca0
a103
1b65
21dc
2cbe
307b
24d3
2da9
30c5
2c1c
11a2
2fda
317d
a039
207c
a201
ae69
2e5d
ad97
a74d
3035
2a28
a42b
2439
2f42
a821
1fac
9ddb
29cc
30ed
30ec
2f82
2b75
2e6e
2d70
26f0
a43b
316a
2fc0
2e94
a662
281d
2d56
2adb
a5a5
2e07
abf0
a13d
9a0a
b003
30b5
2d4f
25df
30e1
245b
950a
9edd
22be
2d7c
acc6
307c
b25c
2971
a9df
2d1c
2428
a970
2a5a
2b30
2c3c
ac81
a3a8
a009
2971
a780
304d
3036
9fc3
2264
2a38
ad09
b105
2508
2926
a7d0
2991
2e12
2e4b
2b2a
ae3e
a578
2c9c
a9b9
2ccf
0cf9
2d58
2833
2ff7
3089
9cb0
aeff
af63
286e
a0f5
2ce2
2f19
25ce
26cc
a8b4
ab23
ac26
a93f
af25
a71d
23bf
a3ba
2e45
2e2d
28eb
aef9
a0e2
29b0
ad0a
ac9f
22ab
2a03
2951
2cf8
ab72
aa48
2f57
af5a
253b
2ba6
abd0
aef7
ae83
a876
2ad0
2363
2b30
a4b7
2826
a9e7
aa01
2a1d
1989
1e74
abe6
a625
ac33
a9f5
289d
28d3
0976
a5ab
2d39
275a
acd4
ae33
2c89
2cee
2c38
275f
aef3
2e39
ad62
2c19
ad84
a958
a25e
aca1
1ff9
283c
a923
aa68
b25d
ad41
acf6
2280
a9bd
2c06
2ef1
2b7a
a87f
ae2e
29cc
299b
2cc7
ad9f
a7d6
ad27
1dda
1d52
3193
aee0
2ab0
ade1
a5d1
a2b6
abbb
1797
2977
30f4
a5fc
ae09
a9bf
2975
a1f9
b14a
a888
aed1
a901
9bb3
abba
2d5b
a86e
8f00
29b4
ae2b
2ba4
1faa
2893
ad88
2f64
2e78
a9f2
aac2
2de6
2d86
2cc3
2d47
a233
a9a6
2e67
aba7
2db2
a87f
9db6
23eb
af86
2bc1
9c71
2853
9bd3
9f01
a90a
ad27
2796
29e3
996c
a83e
a856
2f5c
aa3b
2f3b
2bd1
2c42
2ba4
ad44
a11d
2ae9
9b72
2b87
ac22
28dd
2528
aa29
2d55
22ed
a96d
a46c
a9b3
2a5f
2860
2ab7
2d4b
a81e
29a7
995b
2815
1f2e
ada5
aab0
a511
ad0b
a8f9
27f0
acdc
b0fa
ac9c
b158
371d
b0d7
20b3
afd5
2474
add8
1ea9
ae17
ae9f
adb7
af48
b2c5
2319
ae04
ac1a
acef
af09
acba
b009
b006
a827
ace6
b0bf
2b7e
acc0
aff4
2fd9
a6e6
ab99
a607
aeff
a944
b11d
b092
af56
202a
ae1a
b054
aed4
b072
237c
ae93
2a3c
af26
a796
ad9e
24ed
1ce5
25e3
2cd9
a799
b15e
ae68
9a81
1acd
b036
a0e8
a894
ad6d
2509
ac2f
2c3f
2de9
2494
2f89
22ef
2953
269d
2ed2
2c32
2a90
2df8
a612
2bed
a951
acd9
28f3
a785
2cd2
a50b
2658
8dbe
2c1d
98de
1da6
2b8c
a8e2
2778
2b40
ad1b
aabb
9e6a
a593
2d41
aa5d
2c14
2882
25a3
2b61
ad76
9bd1
291c
a9f0
2cfa
a18c
ac50
b087
26d1
2bc5
2c52
2cd8
2c9a
abe6
282d
acdf
307b
23bf
263c
a9fd
2836
2a11
2d0d
9aec
2c6d
ac2a
1f07
a6a1
9e9e
30f7
2987
a998
2965
29de
b0a0
ae81
aade
aa1d
ac07
ad3f
acd6
21a4
a9e7
2675
b06e
2502
a2c1
28c0
2846
9338
a042
a5b4
1ca2
289b
a2aa
2a98
b018
a194
acfc
228d
a85d
aab3
2c23
ac91
2e34
2fd0
aac9
aa46
8711
2815
a8ba
ae6d
2d5c
ab14
2559
aeb7
2a9e
a202
ae77
add8
a44d
289d
2b12
a5dc
acad
b0a7
aff3
24a9
261e
21c7
b02c
adf7
2b58
2de9
2a7c
acca
131d
a829
214f
aae0
ad04
af8b
2a26
9e10
2686
270d
aac8
a1ad
25b0
2e4d
2de4
a0b2
ac5b
1bea
2f37
ad80
2ea2
ac3d
a0a8
3176
9c22
9e5a
ad96
a893
1af1
acef
27e6
ada8
a5c4
acf8
2aff
a9e6
2a51
ace2
1960
28e9
2a9b
2b83
ac53
ac9e
21b3
ae82
ae97
20dc
b0b8
aca6
afac
ab8f
ae17
2cef
2919
2c63
2d8a
a79b
2a6d
31b0
3071
b4cc
2207
a801
9c45
a4d5
2fb1
a763
2866
2fcd
2e86
1d28
347c
a8aa
3032
2ada
ad42
ac04
3087
2f72
2db3
30a3
a5e5
128f
adf9
302b
2a37
2bbe
3118
251d
a523
304f
327e
2c6e
3127
2918
ae4a
a8cc
2b0b
ac62
a731
a90d
3089
32e9
2f97
a463
2264
ae42
2d3a
314e
21f9
9cca
ad8e
a9fa
3087
a823
a711
1def
2d42
2e46
2bae
2ba5
3192
32a8
2dff
ac93
ac97
2c0f
26d9
307f
20fb
9aa1
ac10
1d8d
2fd6
19d3
30be
a846
2c6b
2980
0938
3073
2945
3010
aa28
3044
2e03
284c
28bf
22e1
2be2
2f7e
1436
2e80
2785
9c11
2d46
3031
3095
2d21
2d8e
2f04
2de0
24fa
a8d6
2f29
28f1
3375
9861
ae33
2319
a4ff
aadc
264a
a814
2df7
ae6f
a863
3021
25c2
2d4d
2852
a24f
2eba
300e
2fb9
3275
321f
2020
b0d6
3043
2683
2fa7
29a6
2cb3
aaa8
2d6a
2f06
2dd1
2679
2f58
ace0
2dbe
2cba
2677
12cb
2934
254e
aedf
299f
21de
2bf6
270f
2ab9
2d9e
287e
a5b8
aacd
29d1
acc8
2578
a432
2ff5
2dd4
b163
a353
1477
211a
1d68
240f
30d4
3352
a7a6
283f
a996
aecc
298f
2df4
306c
aa2d
b118
2f9f
a133
2b08
ad11
27f2
3005
2d9a
315b
28d4
2f9a
1e60
3089
2d91
308d
ac34
a15a
2a65
2ede
aa3d
31f2
2d88
301e
9c24
2c99
2e0a
9373
3289
2dad
aace
2da0
2f2e
a892
3089
29b5
2a74
adcf
2c40
ad20
300f
a3e8
2a7b
2eaf
a7c4
3068
2363
a995
2a0f
2e08
2c6e
2676
1fea
a0d4
3028
2d7e
2ec3
2dd3
2db2
2008
a8c4
a128
9820
3174
28e4
2d83
308b
1d86
afca
a544
2b0b
28f1
303b
33dc
28d6
a607
ae6b
271b
274d
243c
acb7
29dc
2cec
a98b
2f0e
9680
2fee
ab2e
9e51
2f27
2cfa
3187
3066
1027
a9ee
2c58
212e
ad77
a9ba
2d15
ac23
2452
a6a6
266b
2eb8
a5ad
2b99
3109
2c99
280b
298b
2c02
a892
2b9f
9cae
ac95
2cbb
2c51
29f6
1679
2a3a
2c94
2c24
a673
28c9
9e82
1670
2c46
ad85
2bf7
ac87
aa7d
2149
ab9b
26b4
2e2e
29a7
b0de
2007
2c39
2916
2789
ad8d
a8fe
9c5e
302e
3021
a961
30d2
aa4b
2b8f
2968
280e
2ac2
14e6
1fc1
2ba6
3068
2930
2c6d
a7e3
2e80
2c5b
2c45
a515
2a7a
2da1
2a8a
a6cc
310c
188c
2e4d
aad3
2fd5
9131
1e5e
2f35
2d76
304e
2069
28b9
2ff0
2f46
2d34
2da5
2b52
abd0
302f
b067
28c4
2f7d
2c38
2e96
a814
ab45
31de
ace2
2c97
a30d
2ce0
2b0a
af4f
2dcd
2e5b
2acf
2cb5
291e
2cad
acd3
298f
2db7
2cc7
2aad
302d
2d8b
2ff6
ae76
2a2f
2d25
2a71
2d66
abe6
2300
193f
2c04
15df
2d9f
2da6
a89f
ae03
a851
24bf
ad3d
253a
2af4
a9a8
2576
3176
2ed2
2f2a
302b
ae8f
9e43
2040
a940
a91a
2c32
a4ff
28b7
2d86
ac02
2182
ac57
abba
2b0b
2737
2c68
ad06
2982
a712
ad35
2e67
1f43
aa01
8cf0
3253
2d6d
2990
acc2
a858
a452
2b1a
ac1d
aa0a
ac42
21d7
a7e9
adb8
a948
2c75
a145
2c23
2daa
a01b
ab36
ad9b
212e
2d55
2b11
2c84
a62b
1f64
9f2a
2f61
2260
2cec
2fd2
aead
ac6a
2a96
2520
ad37
2c42
2108
23f9
2c24
2dee
27a2
aac0
a6c7
2177
ac72
ae4d
29de
a5cb
a61a
aed9
28a0
aa86
aa64
a9d2
2828
ab37
20ac
21ba
2556
ac0d
a432
2fd5
a943
2d45
2ba6
2f0b
a978
2d68
9405
2882
2d2c
1996
2c8e
ac1c
2b19
2fda
30b4
ada1
328a
a8ce
2e03
3059
2cf6
2e1d
2f1a
2863
ae05
2b24
ac8c
acc8
af14
a16a
a6d4
217f
a64a
a907
2c38
abef
2c7f
2ca3
ab5b
2d21
2da4
2e4d
24bc
27b4
a52f
2c65
2efc
3140
3138
ad2b
2e8e
2b81
275b
298e
871e
2bc3
ae41
a814
2f6f
a609
a505
af7d
30b3
a094
2d29
297d
2977
2cbe
a7c3
206d
2b22
aeee
a812
2680
98e3
2fae
aecf
2a0b
aede
2d86
34ec
9f87
2dd3
2947
afac
ad41
b137
a831
2d00
a7f0
25b6
243e
ab1f
3065
a44d
2813
1f53
ab40
a571
3166
2667
a959
ad0c
9ec6
24f0
2fa6
257f
a4e5
2d43
2e6a
acd0
23c7
2a53
28cb
aa58
a703
2c1c
a573
afb2
aca7
a52f
2608
a71e
1dd6
ae08
ac52
2060
a965
24d0
ade5
ac51
a52c
232b
32f6
2816
2050
23c7
acc9
a4ea
a918
188c
acf4
2207
ad0a
336c
adf3
a542
251a
a818
ab66
aca6
2f6e
2d22
aadf
311e
20a1
ae30
2dc8
2ef9
3077
2f2f
ae20
2572
2abc
ab1e
2836
ae12
85d2
2d70
2ea2
a00b
2ae3
2c4e
2b85
ace0
a736
293e
2d62
ae2f
9c99
2f28
2eae
2ba0
2c2b
30f9
a7a3
2f0a
ac37
25f4
b084
a88a
a564
2292
2dbf
2c89
9a4e
28b2
af1b
a335
b0b8
2f6c
220d
2d84
a305
25fc
2cd5
2d20
aca0
2b81
aec4
300d
2d5e
2c5c
2b1b
2fad
2d7a
21d1
2763
a941
ab78
a9b5
213c
2769
a6e4
abae
2c37
a9fb
337f
2d7a
9b17
1d43
2cf8
ac86
a864
1866
270c
200a
add8
2c61
2c20
2bb8
a460
a927
289e
2e5f
a61a
ad03
2d38
a83b
25d0
1b22
a696
29d3
af3c
1b06
ac7a
ad23
2815
2eb7
3134
a8da
af98
9f63
a964
02cf
2ea1
2fff
2d09
210c
3004
2e4b
19ac
2cda
222a
2f55
3076
a6ea
ab3e
2d84
250c
aad3
2926
2d34
2509
abb9
21c2
959e
a56a
a490
2df8
28a1
ae69
2aeb
2eb9
2804
2d63
a6fa
acbf
09a4
1625
a84d
1e05
2abe
2ba0
2b08
acbd
2930
ad1c
a706
2de3
2d77
98d5
b2c5
3094
2e53
a83d
29b5
ab30
9e4d
ab5c
2624
2ce5
30bd
18df
2856
b336
9cb7
28c5
2df7
2d9c
a3df
284b
28da
30f1
25aa
2c84
328a
ae46
2a05
1283
a51c
1665
a04d
2c3c
ac8b
2e24
2d7b
a5d8
a946
304a
a41e
2b67
a920
2c4f
a4fe
3181
2e73
2c73
2f69
2efe
a8a7
2a89
ac5f
2bb4
add8
9870
a5f7
2ccd
2c57
248a
a7ec
2be9
acd6
20d7
2d18
a8f7
3094
289d
2ab1
2c72
2c0c
ae23
a942
2481
2ea7
a899
a13b
2e51
a856
ab2a
a9f6
9a04
a536
291a
281d
24aa
28d7
2c34
a9d0
2ad2
2c74
a923
a5e6
a832
2955
2d23
a5fd
2f74
2084
2dd3
a3cd
2c8c
accd
a8e5
ab7a
a877
2cc6
a58a
25cf
acdf
a0ae
2df6
2e54
3032
2b02
a8e6
a1d2
a7a7
a994
2acf
a02f
2ae0
a4e4
2171
9c6f
a7f7
a6e9
2a37
a541
24cf
abb1
2446
3082
1e1e
2a0b
2b81
2ca8
a28c
3017
a298
2860
2d7c
21a2
2e56
2cf2
a431
2c9f
a075
2dc2
305d
2bdb
30ad
9eeb
aeb9
3227
a9d1
2fc1
290c
9efe
2d5a
a828
2031
a0cc
2d9a
ab2b
2b23
2879
2940
27b9
2da0
2eab
2328
25cd
2dc1
25cf
a90d
a18c
2802
26fa
2ca0
2d0e
a3e8
aaf0
2513
a435
2ada
ab75
abe6
9dde
aa4d
2805
2afe
27f0
2b97
aed0
2dac
a78d
ad2a
1230
a8b1
2688
2e43
1c04
2d79
2caa
307a
a553
a65d
2dda
a93b
2ca0
2e42
2f1b
a1c9
abb8
26f9
0e2a
ac25
2ec2
ad11
2d18
302e
a942
2c4a
a8b1
2fd1
2a68
2f32
2ef5
a981
a730
3010
acdc
9d70
a760
2ddb
2d5d
156a
25fa
2bd3
2cea
a6f8
acf0
24b6
2933
a2b8
2b17
2ac2
2cf4
2c1b
a907
a8c8
ad0f
2c9f
9643
9c95
2eb8
add8
2bb6
2f86
2ba7
afe2
2886
a9ea
29ed
293d
32b8
2ebd
ad57
b03c
a396
30f4
305d
2c29
a895
aecf
abf6
2c7f
2b07
aae9
3073
ac15
2138
2c27
28db
251f
288c
2f5a
2d39
ac4b
145b
b085
a3ac
ad45
2d6f
aae7
200d
2c11
a254
2832
23dd
2e79
2d5f
ad23
ab26
ad62
2ccc
2ff8
2de4
2c6b
2dc0
2c8a
3011
af9d
2453
298a
a199
a630
25db
af09
a871
acf2
a506
2bcb
a73e
287c
a98f
22f8
299b
ace4
26a0
2a06
2500
ae88
a809
2f5b
aa16
2dfb
2976
a555
abc4
a079
2599
a49c
2df9
ad4c
a95e
a133
2685
25e6
2c3a
2f81
2502
ac8a
29f0
ae38
ab01
2c54
ab51
2d3d
ae7f
23ed
29a6
a406
2c23
1c44
2bd2
2bb3
ad4d
ac79
2c3e
ac87
2cba
2a75
2bc5
ad15
adb4
a851
2d35
24a3
b110
a915
28d1
ad23
9f60
af85
19f7
2e16
afad
b0fa
ad48
a87c
285b
2e39
af14
a1a2
29da
21ad
2cb0
29b7
2af1
2c82
2e2a
3034
aa91
2978
9bfc
2db9
2975
21c6
1d0a
a78e
a4b8
a8db
2b8d
acef
2d14
2855
a49c
a949
308e
270f
ae77
2ac5
2a5d
2251
2a11
21c2
a2e2
aa0d
30b5
a0cc
2fe2
a00c
ac93
26b9
2cf8
9fbc
2c37
2e77
2bee
249b
a682
adc5
30bc
2a2a
2d7a
2a97
2d3f
2a3f
30e0
a974
1ca0
af3a
9309
9fd2
1f0c
a914
19d4
2c9b
1f53
2b54
ac8d
358a
297b
a664
1de8
280e
2d95
2d6e
2c04
ab65
a949
28b6
a524
2bd0
b037
ae5f
ac35
2569
addf
a263
2277
a96f
2bbc
11da
8920
a2f7
af28
3148
2a55
2d81
aa86
1a52
ac0d
25e8
2848
ac29
2eba
aaa6
ab62
aa12
a611
2954
acba
16a1
2598
2d27
aaf1
2c58
2f39
25be
a593
2a11
9f01
2dbd
b01b
2a34
2ba3
ae24
29ae
2ed0
31c4
ab3a
2601
30bf
2d5b
b0ac
2e28
9ef5
28c3
31a7
2df5
ab60
2bf4
a7c3
302f
a63c
28fc
aa7d
a499
3059
a4f3
2c67
2859
311c
28c2
2da1
2c99
9225
9fac
2dfa
a408
a21c
3059
2bff
3006
9e64
2a59
2c58
2daa
2db2
2bf8
269b
ac69
2dc6
af8a
2501
2f8e
30c1
2ed6
2737
25ea
2385
2e1f
29d8
1f38
ae03
2955
2cd7
3023
a778
20bd
2534
3100
a4b5
2cb5
3205
ac30
ac2b
1c78
312e
abe8
ac02
2723
ac43
ad23
29bc
1f02
203a
9647
aca5
b076
3028
aa43
2dc4
a98d
2e49
9d1d
25ba
ace3
af5c
28fc
2b34
a54f
8e95
a9a0
2e4a
a851
ad82
aaa0
a7b3
ae98
a0e4
a039
ae23
2d1c
ac23
2ada
9abf
2c3f
a0dc
1c45
ab23
2f4f
190f
ac2e
263b
2e05
ab19
b089
ac91
1f95
aa83
aeae
1fe2
ac80
2a02
aabc
2d0b
adad
26ba
a4c9
2d64
aa22
2b22
2f9d
ae1d
2c15
2d02
2e45
2c87
adcf
2f18
223a
ac64
ac1a
aced
a4e4
ac45
2593
2ce0
a962
307e
2c74
222d
3019
a62a
1c88
27e3
2fd9
2be9
ac4c
2a9c
2105
201a
2b5d
acca
1b96
2818
2fea
28ef
255b
2e11
2ef8
a895
2012
1b8c
2683
ae81
ab27
286a
ad10
a9a8
97b4
28a0
30af
aae4
a9b7
29c1
a067
2d2e
2d21
2c68
a909
3013
aecf
2c29
228c
33e1
af5a
ac5d
aad2
2587
a4af
ac5d
acd0
2073
a27a
9f1a
ac03
ac3a
1caa
adca
286b
ab8f
ac1f
abf9
aef6
ae04
1f47
ae96
2697
28eb
24e4
2b70
ac3f
a7a9
1c55
a7ea
2909
2455
aee7
abeb
2b6c
29ad
a068
af3e
2a21
a27d
b017
2562
24e7
2816
2807
a894
2797
aa5a
af26
b067
ac1d
a77a
ac28
a89b
1839
2631
ae40
a868
afd5
21d0
a468
2fc4
301b
2b0b
a197
280c
2c0f
1acd
2576
a6dd
aa52
2f3e
2e5f
b04f
2cca
2f27
30c4
a278
adce
a8a3
2c4d
2fdb
ad8c
27a4
2dfb
2c7b
25e6
0a1a
a818
aeef
9b53
2da9
27b2
af1e
3175
287b
2ee5
2986
ae06
2bf8
25f4
ad05
aea5
2f9a
a6b8
3244
283d
1971
a59f
acbf
a73d
1c94
2ea2
2d9c
b259
2b83
2ea1
1a21
a353
9e86
2f3e
2c29
29d8
2c96
9f65
2006
248a
af02
23b1
280a
305d
acaf
2d3f
2e46
a73e
2d19
2e88
1916
32f7
a3ca
a6e7
2cb6
2d6a
a888
adf4
3229
2fdd
a795
acff
a79e
2cd7
a32d
2ace
254f
2e05
29d3
28a7
2842
a40a
aca4
2bcd
2b3c
acd1
2cd7
2fac
ad39
271b
2e63
22d6
2c7f
ac87
2c27
250c
af9c
2472
20cc
acb8
aa64
2d8e
ace3
ab71
29f0
2e53
a59d
08e4
2f18
29e3
aa4b
3058
2ebd
3007
2acc
2cbe
3012
2ca2
2eb2
2f51
2d62
25dd
30fd
2c69
ab6f
2dbf
a4ee
24a7
2e98
a7b9
2c56
265f
aadd
2cf7
2cae
3072
2c71
306d
30bf
1c5b
2cb8
2f16
2d97
2df2
23b2
3008
28d6
2ec8
a600
2028
2c79
3155
2fd7
2e71
265f
2d60
210c
257b
20fc
3276
2c59
a919
1ebf
261f
2267
af33
275f
31c4
9fce
3055
ac8b
2622
30d3
2c9c
318f
3079
3151
a772
aca9
2ee2
2c1a
2e66
2900
240d
270a
9ef5
2d07
a157
1ca8
2d15
22c8
a6e8
9869
2d8c
29a4
313b
2e6e
2c07
2e3c
2d88
2edc
aaea
9ee8
b275
2fce
2a66
2be8
278a
2806
2e0b
213d
2f9d
3251
2965
ace9
25e5
aca4
2ac9
9017
2c4e
31ab
3117
ad4b
2b32
1bf4
aae4
31c2
9f49
aab3
2afd
3077
2674
168f
2e7b
a62a
1bea
106c
30cf
30b8
3047
311b
304f
ad44
2d6e
ad6f
2ac9
2f3d
2bb0
2769
a998
333e
2f69
2a54
33a9
229a
2c57
3041
acd0
2ebb
2c67
2c00
aa1b
30ea
2c3f
1d86
aabb
302d
2e52
9af5
2c91
ac68
2b40
ae26
325a
2a14
2ab6
2dc6
ac09
2686
2d76
2c82
a8ad
9b68
9f6d
30ee
20cb
aaed
308f
2c09
233e
30ae
2d00
2dbb
a4f4
3071
3167
2d25
aaec
acf2
302c
a089
aa9f
a3d1
9825
ac8a
9ae8
3245
28d9
1b8a
2c6b
2cf5
aa41
ac78
2ba3
307f
a4e6
2ad5
2853
02a8
2ce3
a207
a8a5
a4be
28bc
2822
ad7c
2470
a742
a16d
ad99
1ee4
a740
3111
a551
2afe
287c
aecf
24af
ad51
9ffb
9b4f
a811
3008
284d
2b8e
302e
2dfa
ac0b
2cc9
30a2
2337
2f37
ae43
ad9d
a16f
aaf2
2d7b
b13d
2d98
23b0
2cb1
2538
a4af
2bf9
24f2
2807
296b
3016
285f
2db0
acd2
a147
ad2d
2e47
2c78
a19b
2c92
25c1
2b69
2677
2a62
30b8
2485
301d
a673
aaf7
a573
ad7b
28f1
ac31
303c
3037
aca8
add0
3125
1569
2e03
21cc
3014
a6b1
2ce3
303c
3010
a8be
a688
a860
2a6b
ac4e
a412
24a3
2682
2c85
30c1
a951
2924
2e20
ae00
2e38
31bc
1d39
a867
a644
2d61
8f03
a62f
23c3
21d2
304e
2cf1
2bd6
2dac
2d8c
ac42
2bd2
1fe6
2c3e
a877
2419
2c43
0a87
2e96
27e6
2039
232b
ad49
3339
2793
2b3e
a949
a850
30d9
9ff7
210f
300a
2c07
a494
2420
2b12
14f7
ada7
2c4a
2838
9006
24da
1fd4
2bb2
ac7c
1d22
2cfc
a25f
3066
2ad1
2bdc
2c44
214d
2d88
306d
2d76
a5e7
2fea
28a8
30e3
2b96
ae2d
21c4
9f0b
2c41
2d2b
2c82
3017
a9d8
a73d
2498
ae7b
3075
a4c2
ab8c
28d1
94b2
ad77
a07c
2c90
19ff
ab21
a00b
a818
1fe1
2e70
28a7
a306
314e
955c
2d54
26ad
ac52
2536
1814
2b11
2cbb
ac8c
a870
acb6
a85c
af38
ad81
2cc5
a55e
2e6a
ad3a
294c
2d4a
1f4e
2d2b
afe3
9a0e
2c16
2e56
acbd
27a0
23c6
2fb5
252e
28e2
a5a8
2b21
aafb
3216
2be6
a863
abc8
2a94
9e7b
adeb
a861
276f
16f9
2df3
2e19
22dc
3035
2d4a
a533
aedb
a316
2c8e
30de
a953
220f
3208
2abb
2702
2fcc
a4b0
2e3c
acef
2c75
a846
2994
2cf0
a2e7
3197
2dd1
2e13
1e07
246d
a87a
2d25
291c
21c7
a640
aa0f
2644
2e6a
b088
2c3c
2265
1cb3
acb2
2f29
2a91
2829
319e
2a91
ac20
afab
2caf
a92f
a09a
acab
a8cd
a133
1df0
2d16
2a11
a65f
ad07
1fa9
27cf
2c6e
2eb1
306f
b0b1
1eec
9f0f
30ed
2b7a
30bd
3044
ac43
2e94
2fd6
a6f3
ac1b
29c7
2ff4
2f7b
9d66
142b
2ded
2d4b
31c4
a0b6
a889
a226
2403
ae7e
2857
2084
2f6a
ae0d
30b4
a129
1db8
2c0c
2a3c
2def
2941
a976
2703
3079
2d09
ac8a
2c4f
2b85
2d26
ab84
2f8f
2b1f
291e
2eac
ac50
a32e
221b
a74b
3086
2c06
ae21
a050
2ff2
2e93
2a9f
aa5e
ad4e
29a2
2d2c
29ad
3139
2a81
2b0f
9b64
2d36
2895
a8a1
2c92
2478
a4a2
1a63
2c3a
ad1f
298c
2962
a895
a787
2b34
2da6
a6c7
20b8
9d9a
2b51
aa44
0aa6
300a
a6a9
a255
a740
a558
a63f
a242
a8d8
2c81
a444
2384
af45
2c3c
2674
2ca8
a6a5
1a7f
1d74
2cb1
265a
abaf
307f
2cf6
2705
ae8e
ad7c
2cbb
2799
2cd1
2c43
2c8e
2cec
28ca
aeca
a5c6
a9cd
ab2e
a1e4
adaf
200a
31a8
2c9b
1ab2
ac7a
aabf
276c
1666
2932
18ba
273b
aca9
3009
2f03
aa65
3114
aa9f
2540
2dec
0a67
a912
21f2
2c14
a6a5
1455
22d9
ab08
a644
282b
2a8a
2c26
2e02
2e56
2e3c
2c9e
8e8b
aa54
20a6
1c2f
ad20
2df7
29b4
2a21
9a52
2f98
a881
32d1
a49c
ad0a
2c26
2cb6
9933
9cd1
9a17
ac22
ae95
2bd8
2fdf
aab7
2eae
2943
a47d
231f
2a99
2de0
24ae
212a
2515
2819
a41e
a60e
2ea7
a504
2c70
1fb5
a3f5
a6ea
a84e
2d1c
328e
2a40
a60a
30c8
28eb
2d67
a58c
300f
26cd
299c
2a96
a9ff
a90e
2df6
a115
30c4
a847
a86e
2f1f
3056
ac13
24f5
2aab
2a8d
1f51
a1ed
aa8d
a6d0
2a0e
99d7
2f3a
2fa3
253a
2895
a95a
ab4e
2412
2e96
2afe
2d44
29f8
269a
25c1
2753
2e98
9f57
309f
2eb9
b0c5
27e7
a7aa
2c38
a330
2e57
2c40
af7f
aeaf
2a2b
aab1
a56e
ad0c
ad2e
a0e3
21e5
a2e0
a26c
a6a9
27bc
a43a
ac41
2615
a2a6
add1
2d69
adf5
280e
2e55
283b
aacf
a697
a7a0
aa57
adfa
ac6f
2cae
2b39
2807
2d7e
27b4
ab0d
2af5
a4af
2963
2b2b
2258
abf0
1ed9
af63
27fe
a4a2
a3ee
2caa
9364
ae57
b03a
2c12
b0b7
acc0
abdf
1a23
2ec7
2c40
a1d5
2abc
2ab7
a664
9e7a
b462
b109
2be2
2e01
acea
b00e
3142
2976
2dd1
20b5
2e61
2ffd
ad68
aede
ad97
a98a
a5fe
a687
2ee0
302c
aefc
2d86
280f
a361
acc0
adcc
ac67
2b19
aced
2922
2d54
acc4
b026
b096
b024
b22d
227f
2d81
2b98
2ef3
2fa6
b0b2
19b1
ac06
26a6
ad29
a5f5
27cc
22a6
292e
acb0
2d1a
b0c5
ae2b
2482
288f
2546
adfd
a72d
b0fb
23ad
a1b6
a1c6
2d00
31ca
2e7b
2fbf
2f5b
3030
2f16
3006
21fc
268c
a458
2c05
a52e
3156
a335
a7d0
2816
2c1a
3018
a835
a15e
2fd1
2e5f
a562
ac35
2845
213a
2b94
2c1f
ac1d
2f02
afb1
2be7
27cc
a5c6
a1ea
a87e
2c5c
a7c0
ac64
af81
3026
2af5
2e3e
2f45
9565
2e63
2178
a8d6
30f6
2cd1
a0f7
b078
2816
31aa
a381
1db3
a448
2850
a7eb
2e36
2c9c
ad71
aea3
ae73
356c
ad64
ab38
ac06
2858
b193
2e76
2927
2308
a8e2
2c04
aef6
333b
afa6
a33e
b0b6
a4f7
ac25
aac5
28ab
af30
2ed7
a613
2a7a
ae29
26da
ad4b
a693
ad9c
2c2a
ac44
acf9
218c
ae85
244b
3143
ad3a
2d3a
aec1
2dd7
2c48
2861
b251
2fa9
1cbd
ab5c
aa2e
a844
ae40
a63c
2c92
2027
aead
b07b
ac95
25b4
24ce
addf
a8a8
2396
9e3e
a06e
2ab5
30b9
2f9d
a893
211b
2c01
2b77
28e8
29ae
a5e5
285a
250c
a3c4
aa04
25a4
a7e6
2e17
a8d7
2735
2917
296d
acf6
a48e
a93c
2cdd
a6b7
ac79
a8f5
ab2b
a526
2926
3110
2c05
2940
2ae2
2bbe
2afb
aab9
2af8
ade1
2e38
9d71
1d85
240d
a869
2c8a
92b5
2fc8
af16
a9ff
2dc9
2fec
ada5
241e
3044
3175
a353
2eca
a416
2fce
2e72
286f
a914
2bbc
2631
28b2
b037
ac64
ad02
a611
2932
284c
a92f
acb5
aec0
2612
a4f5
2e3f
a4f9
ad3c
09fd
a93d
ad42
aa1e
a4c4
2cbe
291a
14d6
256f
afcf
a470
af06
2573
2a05
2ae7
1e8c
a3be
add6
a8f2
a927
ac81
b061
2d9e
9f71
a734
af96
2f87
27ef
2cd2
aa55
ad66
adf7
ac3e
96f8
2a60
2e28
aa9c
ad4c
2e26
22d2
a56f
adab
2892
a5dc
a950
1c9c
ae57
2d4c
2d98
2e7e
a926
27c4
aa54
aaad
2e6b
24ab
25b0
2cca
aaa4
2e71
ac81
a7b4
260a
2a1e
2cf4
a690
2c24
2231
3018
aa1d
acbc
1eb3
a97c
b01b
1644
2d86
2e4f
a754
a154
293f
a1ec
1c86
9a03
27f1
3078
2a72
2670
a915
2c05
2d7d
306f
24da
a7ad
240b
a19d
ae24
2f3b
2ef3
2c87
2e35
295a
3044
2af6
2fb0
ad10
2f03
2c18
3031
2e65
2ce8
a62e
2dca
2481
9483
3200
2c55
236e
2978
a213
a41c
3001
2f5e
300e
2de5
ad71
2acd
309a
2858
2a99
2938
a403
28c6
a9e8
a38f
286a
aacd
2c51
a9fc
aa11
8d46
236e
2a53
2960
a92d
9e33
a80a
2e61
1331
2d06
b02f
2d42
2690
a3cf
2966
a15a
28b9
2cdf
2d8b
2a62
30fc
ac8e
9cc0
2d60
ab43
2d45
2a0f
2e51
2f69
1ead
ad8d
214e
2b7e
a4f0
9d6b
2c6a
306d
9d5f
3138
9504
2cbc
a311
2d4e
a050
2f3f
21bd
2929
aa08
30cf
2bee
31da
a883
239f
a477
ad42
297f
2a52
2c6f
2cb7
30bd
2a54
ad78
ae0d
2d98
b0ee
2a36
2cd8
2152
256e
acb6
2c48
3004
2d18
28c0
af33
2e66
a9b0
2404
2711
a8a4
2f68
305c
1c29
aa1c
9e97
2c89
2d1c
3024
23f9
ad0c
a8bb
2ca0
ad5a
ad26
22c1
1c52
2b21
2020
2fe2
2ce6
2d1f
30a2
2980
a853
3041
ac10
3021
2eee
2db2
2ff8
2de3
28f4
310e
2ce3
2b79
2f4a
2e68
3092
2afe
2890
2c93
32d5
2b81
a2ae
2651
2db6
280a
2c49
2d2a
2fda
305e
a426
30d1
20a1
3133
2df8
2d34
2753
29d3
28b8
2627
24b6
20c9
2d3c
2d50
2b07
2965
2be1
2ea6
9ab5
2940
28e2
2365
a533
2f5b
a1fe
98e3
ac39
1498
2951
27c3
2f50
288d
2f0b
26c4
ac07
2c98
2f7b
2ca0
acae
2df2
aa68
25da
2d9b
2454
a787
9c12
a856
2f9b
adb2
27a6
2c8d
2ae8
a9bd
2cce
a402
2c35
2538
94a5
2a11
2aa0
a46f
a962
2b4d
a20e
2cb8
2ea2
ae03
304e
ad5b
a745
a596
284d
3092
21dd
a99c
a6c4
a82f
265c
2aa1
2eb5
00bd
9045
a93e
2f1e
2a30
aa65
2e27
a908
12d1
1cef
2993
adcc
b043
2b34
ac59
25e6
2df6
a0d3
26b2
a486
abf0
ac89
acf6
a61c
a598
2e98
2997
a578
227e
2dce
adef
2b24
a7c6
2761
2c6f
adda
a1fd
a331
30a4
2b49
2361
9c93
2dfa
abf9
2e8c
2971
2e83
2c4c
ae13
2f74
3015
20c4
a886
29b1
2c0b
b0db
2d38
aa1f
a8e0
aaaa
300e
27f2
2db5
2d6e
ac12
2197
28b9
242e
2f35
283c
17d9
a0c8
a6b8
aba2
2c96
a96d
2185
2cac
26c6
2644
2f0c
2cb1
2324
a6b0
ad62
ad4e
ab4c
2aca
2dc1
2849
2fe4
a749
b052
2b01
ac6d
320b
137a
2966
ab44
29c3
b03f
af53
3229
24e3
a81d
ac9f
1c77
ae2f
a479
ac3a
318a
2d08
af17
9e9e
31bf
2c75
2b59
ac61
a836
2ad3
303a
2f18
2c42
3079
2ef4
b03c
2600
2cc5
ad11
b068
adb9
a7ac
2d43
2c65
a5c8
30ee
a7f7
a4b9
a8c9
aa54
1cc1
a879
2cf7
a0a7
ab53
aa66
2a80
2879
33bd
a6d1
2d37
2ac0
a262
ad57
2ce1
2d23
3007
a42b
ad7a
9954
a6be
a7c6
2ac2
2cc4
26ba
ad25
a5a1
2db4
2abb
a458
ab57
23cf
a8c4
991a
2807
aac5
24f9
1cb4
ad01
2c27
2632
25f2
2cdd
2d46
27f6
adee
2320
29de
a99d
2f58
a876
a77a
a8db
3008
2b0a
301c
3002
2e00
ac48
ad6f
257a
29da
abc7
acd9
a50c
2dcb
2db5
9489
2d2c
a6cb
2bec
2139
2eef
2ec9
ac5d
acfa
a6b0
2e4e
ad32
2aa4
a943
a63f
a281
2b86
2c5d
a7ed
237f
ae10
29b5
2c95
9e2d
ad87
0acb
aac4
2cdc
275d
2b7c
a40f
2d5c
2ab1
aca7
98b2
b187
1f0f
2d8a
a370
2040
a5f0
b003
aeb4
a9e0
2958
2f9a
2a60
28dc
2764
ad32
ac4a
2a73
2877
2af4
a593
2cb4
a846
2a24
2c47
2842
a865
aa5b
221c
2d77
2fcd
3050
2c54
9c29
2ff6
ac70
2bfd
adb4
2f68
a072
218e
2dc4
a88b
1fd5
0fc2
2829
2ea6
a479
304e
a970
a7ab
270c
aa39
aba0
ad5f
2853
2cc7
29b5
aebb
25e4
1b79
2aab
2e10
283f
a1c0
2476
2822
acf7
2840
2110
a85c
2e8e
2aa8
2a51
1cb0
287b
2e70
2f40
15b6
a7c4
2bfc
255a
94f0
a0dd
acff
a05b
2964
abb4
307d
9c73
24f1
ad8e
2d8e
a759
a4cf
a683
a3d6
2229
2962
a9f7
2d9a
25b3
2e06
2c4e
a588
3137
2c3c
29cf
2d35
ab0f
2817
3091
24a4
2d4d
ac5b
a9df
1ebe
2c73
2b2f
27dd
26b1
2647
2dcc
a92e
30a3
a829
2885
aafa
2a54
2279
a48f
a85b
2cdf
2287
ad2d
3085
acb0
2c3b
2036
25c7
a16f
a160
2ef5
a961
2faa
aeea
a9db
2664
2eab
2d38
a7f0
a55e
30d8
ad3a
2fbe
2e10
2e9f
26db
902a
2ce4
20e0
2dfc
ad8d
add3
2ca7
a74d
3026
2989
a49f
2825
ad72
2d30
aa30
aca9
a69b
a58a
2d4b
ac3a
2546
3008
2cc0
a4f6
a794
2dbb
30c3
2cce
2c8f
28b8
316f
2f9e
9b66
a4cd
2dc5
ab11
a96f
ad1a
23d1
a938
9f01
3119
3037
2f78
1117
2d61
2fb4
b327
3051
ae4b
addd
ad85
2d68
9d47
ad3d
26c8
2641
304e
a9ff
23d2
a574
2a32
a56e
2f9e
b2f2
26e2
297f
2d01
2b06
a270
216f
2800
2d22
301e
a4e4
2787
2e75
292f
ab13
a25e
2412
ae6b
28f6
2ca6
ac1c
2694
29b2
ae1a
ac2b
2ac6
aeaf
2cd6
2ab5
ab08
2b56
2755
232e
ac65
a992
a96f
2491
a56e
a723
2f52
28c3
a841
ac01
a8cf
a6c2
2e6a
2fc6
3020
a98b
acf2
928c
ade9
1ec3
2d84
2e31
b008
9f44
2f11
a81f
ad63
ad8b
a839
30b0
2822
a7f7
3071
9ed2
2e36
adc3
b100
2261
2bfb
2b3c
294e
ae62
2c10
accc
235d
2db9
2859
2d90
ac2a
a5f0
a4f2
1da0
2ff2
2e39
2c4e
acae
28c1
2cd8
2753
aa9e
a4df
a500
2452
2b94
a827
28fb
2d15
23b0
ad57
2b56
a8e6
238e
2cb3
2edc
aeae
9c42
2ca3
2b5b
29f7
a780
a4c2
28fa
96e2
1cfe
a886
a67e
abbf
ad71
286b
b026
2c02
af5d
2926
2b7c
ac5b
aebb
2951
2e6f
2ee1
aba1
ac46
2d34
ae59
a2a4
aa83
2e02
2d32
a812
29f7
ac08
1542
2f14
aa50
2682
a735
a75a
ab92
2cb1
28cf
2e63
a58b
a130
a84c
ac3b
240b
ae85
22d1
2405
2a88
28a3
aae9
3087
a052
2d2c
2a99
ae4c
29b0
2a32
2d6c
2c92
a1c2
a644
25f6
2d83
a157
0b12
8d29
a620
a6ea
ab38
9dcf
ac3e
2c2f
a35c
26e1
ae2f
ad9b
2974
1a9b
22ca
2a60
aefa
ad26
b02f
37e6
ac93
26f0
b143
b025
b01d
b096
a8ce
ad06
b0d3
ad71
b0af
3126
ad50
afe4
b044
ac93
a889
aaf9
aa56
accf
a675
b0b3
a995
b044
b0e9
2952
1c27
a025
2a50
b144
acf7
ae57
b04e
a3e1
2d5f
a17c
b0f4
b078
a273
a9cc
b19a
a9d5
2833
26fb
ac97
ac9e
a556
af59
ae1a
b18b
b073
a627
955d
2852
b1ec
a02b
a6d6
a88d
b1f7
a812
313f
a5b7
9d1b
b433
2e8d
ad4a
28cf
a86b
2bde
2c61
2ce1
1c76
a79d
a537
2b1c
ae98
a0f2
98ab
2ada
ae4f
2afe
2563
a05e
2f08
2cbb
2a16
2295
2c8c
a623
2ad7
1da2
ad72
a01f
349c
2793
28a6
a94f
2cc0
9d09
2971
2c0f
aa60
1eff
28e5
298e
2d20
14ac
243f
a67a
aac9
2b7c
302f
29f0
ad55
326b
ab1b
aba9
aa17
25c4
a815
a79a
2f70
2a59
2a08
2c01
25b4
ac61
1f42
a46e
1c3b
af29
2506
2aa2
a61e
2b33
adb1
aa27
a8a5
2c27
ac37
ad7a
a483
b008
187e
297e
2dfe
295c
ae83
ae6c
2c59
2ae3
ac4c
b05e
2e48
280c
2337
a56f
b24a
a6f1
264e
af1f
a61c
a949
3231
244a
2821
a540
2a68
2efe
2cde
2f3a
a7de
2ca1
ab60
9f0a
b036
ac0f
af83
2129
a05b
2cac
2f1f
aca9
2a55
29d5
9d45
29cc
ab42
afdd
ae51
260b
2fc9
2c1b
b088
2d22
a820
af78
2e24
aae8
2b0a
8fd8
2845
aec6
273a
b07a
2c2c
28ff
27d3
a53a
ab9d
2460
b00c
a95f
2c29
1917
a526
2370
2a53
2cc9
99c3
24cd
27f9
ad6e
a82e
29b6
a86f
3047
a692
a61e
2f1e
2c2d
19ba
3044
245a
2e29
95f0
28f0
9386
9ed2
adc0
ae68
2631
1adc
269e
a0d0
1b50
aeb0
a871
2c73
ac74
a3d2
a91c
9fb6
324c
30eb
b05c
a90e
b073
a82c
300b
2f96
aa48
2979
2f44
a431
954d
2556
2c71
30c2
a050
a955
28f6
259a
a827
2a70
2f15
2f3b
2947
2d85
2f1b
2c91
a3ee
30e4
2746
aad6
a8ca
2e6c
a43e
2e33
3068
b028
2968
ae9b
a7f9
ac8e
ab2f
2920
3108
2fef
2bb2
afd7
2cd9
ac54
a456
310e
2b3a
aa1a
2b7c
2d4a
a75f
ac13
8d37
a8a9
abcb
3325
2e74
2d81
271a
aa8a
8c8e
aa1a
2a1d
25b2
2fda
2ea8
a1a9
2fe4
2c96
ac03
ad08
aa5e
31ea
abcc
27ab
2c0b
3007
2d0a
2f24
2294
a79a
a4da
a5ac
286f
27ae
ad01
a8e7
ac24
ac48
2dc6
ac41
2d94
2d3e
a778
2b0a
24d4
2d3c
9dce
ad0e
acad
9534
28c1
2f83
27ac
2161
2d20
2698
9a2d
2957
2fe2
2d59
2f75
ab77
a049
a826
a61f
309b
2e0e
acd1
2e08
2d02
2413
28b5
a4ff
3412
2c56
2aae
2d70
a3a3
2560
a229
a8ce
ab90
2c01
a2c4
ad96
2897
2d5a
2cd9
aa88
a954
2a79
2725
ad75
2ac0
2939
a995
a873
1818
ab35
2a12
a896
1295
286d
a60a
aab7
98e8
2ee2
a910
adfb
a66d
a856
2e13
25d3
2e81
2f37
309f
a3b7
a8b2
ae21
ad46
a0fa
2c52
30bb
2857
940d
2566
2be8
afd7
257b
2940
2591
3083
2fbd
2199
2da3
2d78
3135
3402
2840
3011
a7e4
3059
3162
a45d
2d5b
2c3a
309b
a883
2c9d
30b9
2c3f
304f
2ab1
a872
2951
9074
1933
28d9
28af
26f2
2b2f
a6b4
ade3
a427
29b1
2aa3
1562
ae65
32b2
2cbc
99f5
2c9c
2ec4
aa2d
acfa
a6de
ad8e
2ca2
2cbe
2f31
214a
2cae
303c
1fa4
300f
30df
27ae
9dd4
aa5f
2df2
2b66
300a
2a07
22f9
28fa
296f
27bc
2ff4
2e79
1c94
a933
2529
2f34
1381
ac8c
a9d6
ac6b
2e7f
af2f
3358
a8e7
a431
2e66
a090
3076
2d03
ae06
2d81
25eb
a89e
ab45
2295
2d42
a3ce
95fd
3017
24a0
23d7
2e7e
2349
9caa
aaf5
25ef
afb1
2bf9
2cc8
2c15
2a4b
9f70
2c39
9cd5
1f35
2e80
2b9c
3096
9f01
a4f2
2a2f
9844
2960
aa02
a550
2699
2b96
2d61
a6da
1d95
af5f
2bb2
2efd
2c24
2712
2981
260d
2c14
9bed
9f9f
aeee
3062
a2d5
24c3
3188
2eee
1dc6
2c7f
ad54
32cd
2790
3197
2aaf
2864
2e86
a79c
286b
2d9a
2a19
301b
a0b1
2df1
a50d
ad50
2451
1e25
2fa7
a5e2
31ff
301e
a92e
26a4
a972
2344
2753
a925
2bef
1e25
2ace
305c
2745
1e79
aeb7
3020
28d8
237a
a895
2bb9
9d92
a010
a9d6
2d3a
28d0
2e5f
24e5
a89f
ac23
29a0
28d1
acd3
3078
1de5
3110
a2f2
2cc6
2845
1f81
29a0
2b19
a1a9
1f68
2949
b05d
adf1
3033
30d0
2fe4
289c
a4aa
2caa
a260
ad29
a275
ab36
ab15
ac4d
a50c
2e68
ad4c
1b17
2c74
2563
acba
2375
2f17
2ce6
2d5a
218f
2309
a41e
2d52
a749
21d1
2dac
9df1
30d0
2561
2bd8
2999
24da
2f09
304a
afec
ae49
2f1b
31e9
aeeb
9df4
ae25
abb7
2c90
a4d1
2907
ac57
a1da
2cdb
1e92
2e12
2f5e
9eb8
a968
aa7b
a812
ae20
2ddd
2cee
ad56
2a60
ad91
b033
a9fb
9302
2e4d
233b
b053
265d
b0d4
a135
a936
304f
155e
af94
30ae
a6a1
ae1a
ab6e
2cd3
1eaa
a650
acc3
2066
9bab
a402
2934
2b51
2d64
2c72
2c38
a0ac
285f
ac10
25e3
a43f
2dd0
23ef
29fd
2de3
27d0
289f
aeb6
965f
2651
2806
aa9d
302f
b027
aa49
abc7
a8ca
a848
1e04
311b
2c38
ac38
2206
ad5e
9cf7
8c47
ab0f
306e
2c22
a892
aede
a511
ac14
abcd
24e1
26d3
2e3f
ad34
2d94
23e9
291f
2aad
a421
b056
2f9e
2e7a
2bdb
30ff
9d22
23bc
acf2
aa2a
311f
2b79
2f05
23f8
ab6a
ac08
2ab0
2f61
3243
28e3
adf0
28d7
2699
9b94
a819
2cc4
2c0a
2c3a
2dfd
2c35
2199
a9e8
a173
2c89
28ed
2be6
2c5a
2808
2601
97ac
3160
243e
aab5
30c0
2953
24e2
2c0f
9cae
a6f4
2abc
ab3f
27be
af06
b0f0
a807
280e
ae6b
b01d
314a
2bc2
1cfd
28a5
ae45
a98a
a447
ad94
2d6b
281c
a70a
22e6
a699
a59c
a641
25b7
adfa
19df
a9f3
2919
ad85
ab3c
2925
ad8c
2c3c
ab2f
28c4
adda
2ac3
2639
a688
275d
ae02
2f78
25e8
b012
a461
29db
aafe
27cd
1c56
a742
aa14
1f4d
ad41
a04e
2a02
2db3
2828
290f
a588
a087
2a03
9605
aaa4
93ad
2be3
acb9
2037
a65f
acbf
aa12
b06e
aca5
284a
27e5
ad3b
2f40
2b82
aa41
2de8
21df
2a9d
2ef1
2c0f
a794
a1ff
9c33
aea8
af30
b040
2f42
2f16
2cc7
2491
afd1
18b2
9e4b
ae52
2d81
ad8f
2729
2287
2d7a
a410
0f36
aba9
a664
28db
1832
1d03
2abf
b024
2a3c
2bbf
9ef9
ad9b
19a8
243d
2c6f
b13f
2eb0
b196
9b59
2918
addb
2bc9
abe2
283e
3011
b020
2e4e
2c65
9a96
aa98
ac95
2526
2f14
a507
a83d
2587
2d5c
a364
a473
aef5
ac21
9f05
a87f
2acd
241a
aa36
2a87
a134
2e03
2226
976e
2ac7
2dba
2abd
a006
ae80
1e73
2c50
a9ed
9e7d
a2b6
af2d
254b
aed4
ac58
2b87
aaf1
a5e5
a3b6
aa39
246e
2a90
aa15
2d32
26a9
20bd
a87a
30f5
a05b
b1ca
2b2b
acbf
28b9
a242
2bf7
a916
2cc2
2bc9
2827
adef
2f08
ad18
314a
1b11
ac1c
2e0a
2d31
a82e
ae44
2cdb
a575
2d01
aeeb
2e2c
2424
27db
2c82
29ee
287b
2e3b
2db7
2e79
1e27
2c76
2125
a975
b050
2339
ad5d
2f3e
2832
2add
a428
a75a
9b98
9519
2c24
ab59
3017
2be1
b010
a5b2
3088
2afe
a4a0
a7dc
a8ff
2b98
3037
2740
30b4
3094
2c32
a9ce
a857
adfc
3070
2d1b
2eaf
a546
2cbc
31fe
abbc
aa84
31b0
ae77
a033
a7ad
ae3f
a8c1
2c59
2cf6
2b47
2d80
2806
2a59
a398
30e1
1465
a91f
2f94
245e
2f08
a5b1
2b05
2d15
2653
2e4a
ab93
2be5
a896
2946
2a13
2c0f
2b3c
2b34
255e
a078
27b1
ad7a
ac3a
2f54
240c
2a37
2d4b
9efb
9d6d
a780
aaa4
8e9b
3001
a462
302f
a667
a415
a70d
2d3e
3397
a85e
aaad
25f8
a816
2e10
2e48
a94a
2ed2
2c00
2485
26b1
2228
a4c1
26f7
ac0c
a80d
2e8e
2f0c
aa40
300c
21b8
ab6e
213c
212b
abb9
b00f
2960
2d77
2cda
b069
27be
2966
3078
9f2c
ae67
2e61
1833
2ba2
a387
2e7c
a8be
314c
29a0
ae8f
a0ae
aaa2
29d0
280a
2ff4
ad04
9bfe
2c36
2cb5
2b07
2eb0
1f6f
2ad7
aa10
285c
2e0b
a8fd
2b23
2ffb
9edb
1e8c
2cc4
2e83
2c17
29fc
26d6
a5e0
25a1
2d48
ac59
3148
aa2f
29ff
a9ee
ab1d
2a73
2987
29a3
2be4
8b6e
a318
300d
ae5c
1cbf
a7ea
2c5a
2d1b
2ea8
3020
9e9f
2c3a
a9ce
91cd
25d1
ae9c
abbe
ac02
a92e
2c7f
2fa5
ab52
2e28
a497
2710
a412
a626
aa9f
aca5
9e15
a907
2ccc
25b8
a645
ac5e
a663
1ef2
24db
8da0
2a7f
2cff
2a4a
294b
a477
b0d8
2449
29cf
2e2a
2ac3
25cc
a90e
2cbc
a965
21f1
ac26
a90e
acde
2cba
2f51
0baf
2f27
279d
2568
aa96
3073
2c31
2d1d
24c8
2aa8
a5cb
a804
a7a6
2fb4
aaee
2e87
a39e
ab0a
3100
23ad
a1d1
2c89
a53b
29b1
29d1
29f5
29dd
259d
a0d0
acde
201d
2c93
a275
3038
29dd
9c58
ad9a
252b
2f81
a9c4
2a7a
a398
2993
1e51
2ce7
2620
a834
ae85
ab32
2ada
2ad1
2af7
a868
af84
a4d9
29db
a285
a918
2f86
a961
2e79
313c
aebe
a877
a7ef
2c0c
2a46
2953
ae87
b029
ac9e
2d7a
2ee8
a769
ac1b
3081
aabc
2fa6
adf4
28a3
95a8
ab6d
a5c9
a6dc
1a06
3122
2e75
2766
1dd6
1d3f
2792
b246
2e43
a89a
2c6d
ac99
2913
a173
a898
289f
2ea6
29d3
af30
a7c3
9d55
3015
a1ca
2c75
2adc
a57c
aa18
a452
ad89
ae57
2c20
ab80
ae42
26e2
aa16
ad06
25d0
256b
2e35
2971
a127
af92
3003
2a8a
ac3e
2ac8
a3f0
26f1
a0e1
aa45
ac4b
1fe8
aedd
ad36
2ce2
a2d7
aabc
a75c
a782
a7a3
a54d
ad17
a1cb
2c37
a9a2
2ac6
2fc6
ae08
2d1e
28a9
ab14
30f1
a78a
8d36
ae94
a804
2d10
b03f
24f0
2c48
b060
abf0
2d11
214a
2a0a
abac
2638
ac4a
add3
3040
27d1
a0d8
2eb2
b318
2f7d
b001
2c43
286f
a84a
2984
2efc
24e8
abca
ac1f
2e8c
2772
321d
2e85
aa86
a076
2f99
2449
2f35
2fac
2987
2dbf
ad9d
2eca
a9ea
a7df
98ac
1cba
a32f
3417
2eb6
2ec7
28ed
28fe
29d6
2e19
273f
2ff6
a63f
2c47
2edd
2de1
2e9a
2c43
a669
2adb
a7ee
3097
a443
2f3a
ae36
aa52
2ef7
27b2
2d9c
ad79
2e39
2d6c
2d71
a8fe
a4b7
99c9
1e20
2fa1
a320
1eda
2c52
a9c2
1a05
28fe
2ccd
107a
28e5
9d6c
a58c
29d3
2c12
2872
ae8f
9c27
adae
238b
2cd0
2ea1
23bd
aa19
aafc
900e
b0c6
13f1
2ea9
ac31
2c30
28cd
ad04
2c99
2e7b
2395
afb3
24a7
2b42
25b4
269c
a816
a00c
ab3e
296e
2839
2aa5
2c64
2e41
2e16
ab3f
a9a2
2044
2aaf
2229
2db2
ab64
2df5
a075
a935
adba
206b
249e
3134
2e17
3383
1e67
2c41
ad06
2e9a
a4a3
9c52
9b65
31ae
2e76
2488
aa05
31f1
2efc
2e0e
1c0f
2a09
3072
2f57
2c81
89c7
a67e
1da9
ac44
1771
2edf
ac55
2aa6
ab60
2e05
ada0
2b90
29be
27fc
300f
a88b
2947
2540
290e
b01e
2e2e
3136
27db
2fda
a4cf
286e
ac79
ad02
2dd6
2982
291c
a42d
2c47
2d89
2893
2896
ad16
2e72
2492
9054
3156
2f5c
248f
a483
959f
2c5d
2083
2e8e
ad63
27ac
2b53
a690
2d57
a78f
291e
3124
aa0c
2c95
2f5c
b034
2a49
ab99
aa1a
ac96
af17
2b8b
ae00
2667
a0b7
214c
3084
ac26
2c76
251d
1ee6
302f
9d4a
ae88
aec3
2a89
2d07
2b12
2c0f
a6e3
a852
28a9
2d62
aa5a
8483
2b09
aa46
98d9
20bd
aef5
aa8f
2b60
aa8b
2ad3
a8fc
a6ce
ad4e
aab2
ad3f
0ea4
a730
a889
ab86
a7ed
3426
a880
a3ed
22f6
2c66
acfa
29a7
ab99
2cca
267a
2a5a
b0e0
2a30
29ea
aaef
9535
ab5b
2d77
2903
2a95
2b19
295f
a3f8
abed
a969
a5d8
2c2b
ac95
2966
a6c6
264a
a96b
a61e
ac5c
a87e
aba3
2c24
2dd2
b05f
aafd
290f
aef6
ac27
0cef
aabe
2f47
af3f
0f82
ab66
2c0e
a834
ad1a
2cb5
29e8
ae73
a1cc
b02f
a9aa
9a57
22c2
a8fb
a923
29cb
9e97
3299
ae40
2c1b
af13
aa17
aa6a
a818
2995
a359
29e3
2885
2f70
a6fc
a82d
9b17
281d
a747
af7c
2562
b073
2976
2f4d
a8a5
28db
1f73
ae3f
a7be
2ae5
a507
24d6
2ed2
aa77
a81c
aa09
22d1
a624
325c
a9c9
a7e2
a575
218d
ad50
a97c
a660
a851
a5af
ae49
ac07
a5f8
2852
a45c
b0aa
ad5d
2294
2a8f
a6bd
a804
2f2b
af1c
acef
b002
2c80
2ea5
9a26
ac66
2c0b
abbc
2882
2d4e
2f31
147e
a7f7
2d42
2e19
2c8a
b104
30a3
26fe
a64a
a0f2
a42e
2c11
30c5
288b
29dc
24fb
28b4
af25
1e96
aa70
28c6
a750
acda
29f7
b09d
ab5f
2d2c
a0f4
2bcf
aa1e
2ce9
acaa
a132
a847
1e87
a805
acbc
270e
2417
aec0
2e64
299d
24e9
2eaf
a85a
2cca
2c3a
9978
af89
2d11
29fc
a80a
9fdb
30cf
2bbe
2664
2970
99be
addb
2d0a
2881
2acf
acf3
ae3a
28a8
a689
a966
2a74
ab62
3427
aad7
ae5f
2796
1c44
2894
ab05
311f
2f54
2b50
2632
ab9b
2cf4
2cd0
2b11
3281
2f57
a9cb
a4aa
334f
a839
247c
a87a
aed1
2bb3
2def
2c03
aa13
30df
2ffd
1d01
3130
2c91
2ce5
a523
28ad
aa90
2e9b
a360
8c0f
32b1
ace5
ab6d
ae93
1db1
9dcf
a7ea
2fe6
ac20
adf6
30ce
abb8
2d29
303e
31c0
2c0b
2e8d
2c63
1e1c
2a45
29e8
b01b
2b8e
a9cc
30f5
241c
aa77
2c6f
2cac
2e3a
27a0
2c57
a8ba
944a
2574
a615
2a06
242b
ad4a
a07c
a395
2037
2e72
2e04
31cc
3004
303f
2e9d
a59c
2ead
2aca
3017
1d61
2fce
a51c
2f74
2b75
a5cf
2885
2a7b
2ae2
2730
2dbf
a954
ac90
2e4d
2df3
acdf
2d75
2b7c
285e
30c2
2ee8
3163
30bc
2c9b
2be1
aeba
aad0
a396
a099
3123
27f8
2dcc
30c4
32a7
2b66
a83f
2a55
2bbd
323a
3023
2e10
acbf
3097
2b15
274f
30bc
2ae8
a4e1
2f37
a279
1df9
9e8c
2afe
2f62
a8c3
a21c
30a1
2ba0
2d82
230e
2b2a
26f2
a20f
28e3
2b49
2f99
3012
300f
2a57
2acb
a6fd
912a
2dd7
28a8
30d7
ace1
20ad
a6f8
3150
ac9c
2ed9
b006
305d
2ad0
a472
28ee
2f02
2b3d
8c69
2a93
255b
1c2e
aa72
2e93
9f04
2ef2
abb7
2cdf
2f21
a435
2ef8
a2ee
2eea
a9cc
a6ba
aa24
29c0
3045
abe7
3130
2fa3
a5ac
26c0
22e1
a612
2dae
a863
9aad
2d7a
2f6f
2d5c
2e20
300a
2b51
ad37
ac27
2196
2bd1
884b
a98e
3091
3054
2846
ae8e
ac15
2c77
ab7c
297b
a1b4
28a9
1d05
2cb4
a6ce
2adb
aa2f
a45c
3182
2c30
2f82
2f53
2c1c
ae08
2e50
3296
2d3d
259c
a9c3
aafe
2b96
2e81
ae7a
28e7
a8e3
25d4
285e
23f5
a8f7
ae09
1d75
a7b6
a8ed
a5f2
a4c4
ac3c
2cd8
299a
291e
9ed8
ac61
304b
a244
9d7f
a9c7
2f16
2fce
24f0
2920
adf9
2866
253f
adc7
23d9
2e85
2885
a77e
ab43
3019
ace7
b16b
ad08
ac2b
2490
ac70
aecc
988c
2b4a
9cee
2890
049c
ad6c
2744
2c28
2dba
3024
2f71
2ab0
2601
b1f3
25cc
9547
2ec8
3055
a6d7
299a
1ac5
2e9c
216f
2b39
330f
b21e
32a2
2982
29e9
2ca7
a72e
2e5b
2d26
2f37
a638
a80b
26bc
2de5
aad2
a63b
313c
27f7
2dd4
2f64
279f
2cbd
2cd6
2965
aa0a
941a
a515
a53e
2df2
26d8
308b
308f
2d6f
9d71
0f03
add5
ab5b
307b
262a
261d
a274
abe0
2275
aef7
aa52
239f
2d97
3036
3054
30ee
2dc3
281d
a973
290f
a59b
ac96
2d23
2e8c
281c
3111
2d4b
adf9
3016
afa3
2e26
22b7
2ce8
ab2a
2152
210b
2678
2cc0
2549
10f1
a648
30ef
2c7e
301f
aca2
2a97
2422
a5b6
2a8d
2bf5
a44d
aebf
9e31
2adf
2882
309b
2009
2a78
3227
2278
2992
298e
3019
ae46
acd6
ac7e
301d
a6e0
a560
260b
2467
a745
aa8e
aab4
aa06
30d9
2f60
3023
3089
2f28
2c8f
ab58
26f3
30af
add4
ac23
2c5b
2bff
16e1
2e81
ae2f
2833
a9e3
9e55
949e
2eba
aa86
2850
a9ef
ac8e
246e
2b9a
ad30
2afc
a80e
2b53
2bc9
2257
28d9
ad44
9e53
ab14
a45a
a9ea
aca3
29d1
250d
2df0
ac38
a5b8
9fa8
ad4a
22e6
21eb
a619
2d37
150b
adef
2a49
2743
2405
2c80
2c4c
2e25
2daf
2da2
2b38
2a34
a74c
b077
2eb9
2c77
28e4
2f84
301d
9510
2c87
afc4
26f0
2c16
2895
2e69
ac01
2d68
2db1
2e74
00d3
ac4c
31b6
2bdc
a8cd
ac2c
2f57
2c8e
a65f
2ffa
294f
2bbb
261a
2ab5
2aa7
2b63
2e55
2f8a
3078
2565
2bad
2c93
2e5e
a4d6
1e07
aa02
aac4
30af
2ee2
3063
30fd
3025
a81d
24b2
30ad
28d0
2c3b
aa3c
278c
2fc3
ae1b
1eb5
257c
2486
2e0e
2cd1
28a6
2a63
26a9
2ef4
af82
30ce
2e0e
30f4
3043
2942
a5fa
2f3f
3013
2562
313b
28fa
303b
3176
2aa9
24f1
3147
2702
2437
2ebf
28a1
a170
2a9c
29dd
ae1d
2477
24f8
a754
a512
2f77
a0df
2614
18e4
2934
25a6
acc6
32ba
3092
20d3
322d
9e93
319b
27d2
a838
a95e
a882
2885
3435
2f0d
a015
2e0d
a9b5
ac83
29f5
2de7
a8ed
b024
31ce
3195
a433
3008
23ff
2f84
2c12
3213
2c2c
2cda
2bf7
288d
2b1d
aded
ab72
a56e
1f83
aa3c
1e9f
ac72
a8df
a836
2c18
2886
ab04
27a9
289c
202d
24fe
ac37
221e
ab20
a881
2fa2
a25b
ac0a
28da
a1f3
2c1c
aabb
2be9
9fec
2f16
af36
aa19
a4b4
2b6a
2f95
a5f7
28cd
2a96
ac6a
ad23
2144
2436
2f2b
ab15
a923
acf9
29ad
2af5
a760
1f0a
b001
aa08
2a14
ae5a
a973
acff
a9e5
a322
aeda
2978
26d4
2b47
ab71
21c7
2933
a88e
ac21
2b2f
2c96
2aba
2f4d
ac12
100e
aecd
accc
3357
2a14
a4d5
ab9b
2c67
271a
2b4e
ae01
a819
2db1
2aa8
a643
a919
1f1d
2a18
a0b3
a676
a5c9
a75c
24e6
1c45
2e9a
2e32
ae8c
a447
ae3f
2da8
240e
2890
2d65
2f19
a962
2922
a8a4
ab8d
ac5a
227d
2dd5
2e54
2d63
282d
2bdd
aaa1
2dae
2e3e
2da6
2d1c
322c
2560
26c2
230d
aad0
ad20
27d1
28e0
9c6e
a886
2bb0
2c8f
2146
2727
2d45
a824
25a0
2ca2
2cd9
a653
196d
abe9
2cb6
a980
ade4
2d76
2e7e
2daf
1d9c
2fca
2f43
2a68
9a61
af48
2296
b02d
2840
ab6a
a8a2
23bb
ad49
2d26
2b7c
a666
a3c4
2d24
2eea
ab77
3078
2803
2ae3
2910
2e2e
2ef9
a0cf
ac62
ac0a
274e
2f99
a6f6
2707
b028
9d50
2eb3
a745
311f
2820
2a2e
2b25
33c5
a87d
ad7d
a80b
1df5
2c3b
2a4e
aba7
a369
288a
2960
b0ca
30e5
ae61
a624
2bf3
2ab3
2ad2
aa50
a6c7
a886
ad53
26b6
2f66
ac5a
ae49
27a6
adb1
2e6f
a903
9af1
2d0d
aabb
ad4f
94c3
24dd
2c43
2f06
ad80
a636
ab3d
28a7
ad3b
3031
26e7
305f
b025
aa0b
9ea9
ad0c
2824
b42b
2b53
2e6d
2ed3
20c0
b02c
2f73
2031
adec
a6e3
2c92
b076
2c7c
b0a8
acf7
23aa
1872
2723
af72
2e48
285b
b038
aff4
2c44
2bbd
a9bc
b0ef
260c
ac6a
a7c8
aebb
2a03
2a41
1c45
308f
2c06
2ebc
2a3a
aff7
24ce
131c
a798
a3ff
3511
b003
acda
b008
aa6b
b1af
2944
a9dd
2558
2925
29b7
ae99
ac4d
ab3f
aa21
aea3
9d2c
2dbe
a9a4
abfe
2d88
3068
ae2c
ad6e
af33
ad30
2dea
a709
2c16
126a
aee9
31c2
2fbe
2f1e
b196
2fdf
ab62
2f52
a4de
2da9
23f6
a22a
28a8
2ce2
aef0
3204
ae1c
2fcd
a982
2865
aa43
2b05
2f74
ad71
2c7a
2d45
ac74
9b63
30d9
ad55
a58c
2947
2c2c
2690
2efc
2935
2fc9
92d9
1db7
ae2b
aefa
ae35
2e70
a827
2edd
2b4d
339a
a731
abd8
b035
29f1
21db
2f76
2e23
282f
2c89
2e62
2831
2cbe
2773
9851
317c
aa2a
31b7
2800
24fa
b0f3
ae84
2fff
221a
a8d7
af18
b064
a9ee
2bae
ab76
a89c
abad
a52d
ad12
2a80
af54
2c93
1f90
2283
b0ab
28b6
adaa
b06c
a005
a9b7
2c9d
ac61
2cc0
a011
2c83
a839
abc9
1daf
2e32
9852
19ae
af55
ad62
ac49
2252
af7b
91f1
afa1
9e54
b263
a46c
a95b
a297
2c2b
2c83
ab83
ad9f
283b
24ad
a943
ac0b
ad87
258d
2d79
aa44
ab32
20c7
2532
2f98
2fa1
301a
2695
2356
1b94
a5fc
28a7
2fa7
2821
1f0e
2fee
295f
a2f1
2b2a
b05f
ac08
3128
2d40
2ca6
a4b4
2e2f
27bb
2df2
a9d5
28af
2e60
29c0
ace9
a819
30c7
2157
2d3e
2c62
2fa1
305c
252d
3095
aca6
9bde
2c59
9c9c
2f54
2db9
2c37
2e52
2c15
1842
308b
2b2a
178f
2c41
307d
2e45
3180
2373
2c37
a81f
2d6b
afa9
2f3c
2deb
3253
a3fd
a742
a194
a5c4
2ef6
2404
b026
2a65
2c1f
acba
2f87
aa80
1834
2d1f
2934
acb9
2c12
29bd
ac74
ae48
28b0
ad6e
ac90
ac0b
aafa
2fee
28e8
ac58
2e00
aea5
ac4e
1e20
a05a
a98a
1a47
afb4
a291
a6a8
2c3d
aeb3
2e9a
9044
26ee
ac9e
2f13
2c3c
ad75
2532
ac8d
adf2
a768
2546
a84a
1dad
23ab
2e1b
270c
a94f
2507
2ab4
2187
a73c
20eb
1e9a
ae23
a85b
246f
24fb
3289
2c71
ac44
2c97
2658
a7f8
2cfe
a470
2b33
a8f9
2e3b
a865
9c51
2ea5
2459
2ace
a9f6
8f5b
2d0d
ad03
301c
25d3
2ac5
2c55
9ee8
2d7d
25fb
a759
230d
a9a6
b1be
a8f6
a4d1
3043
292f
2bb9
30f0
a6af
adc9
2414
ab24
abe5
1cfc
2cf9
2475
31aa
adc3
aaba
9e02
300a
2ba3
b073
2bfa
2c7a
281c
2dc3
aa79
2d59
26f9
2c14
2f52
3024
a49f
2dfd
2a52
2eb8
28a8
a005
ad2a
a5e4
3070
2ba9
ab0b
aa4a
aca4
1bae
ab54
2baf
28f9
a800
26bd
2c68
281b
a9a5
2a7e
2618
a397
9f75
20f8
20d4
2e6b
2eb7
2a2a
2e85
2ceb
2e81
a98e
2ccf
ab69
af00
2cbd
2cfe
2e9b
a226
a84b
ab88
2dbc
2528
25d2
3035
acb5
219b
acfc
2537
2c60
2b3a
ab0d
a212
adf3
2e2e
27c7
28e6
2a78
27d6
aab7
2982
a745
2fd0
aea8
2835
a026
2a12
274a
2c9b
309a
a3f6
a98a
2db7
2903
1f92
2c64
2ada
2f0e
26c2
28a2
2b77
2d19
a5c3
a62a
3030
2cc5
27ff
2312
2fac
268c
2f9e
a50a
2065
301b
2ed7
2e8e
a8d8
a798
174b
a836
2c5e
2cdb
29ec
2e1c
a86e
2818
3044
ab7a
abcd
2a9e
2e2f
2e57
2db5
ad04
265f
ace4
ae4f
2d51
2cdb
2d1f
2c24
2962
2d33
a658
2f2f
30b5
2e0d
ae22
a69f
2d1a
3062
2fe5
2c1a
30fd
2c54
287d
24d8
a96d
300f
b019
3380
3073
2ed3
2fbc
a640
2ec7
2cd6
27cd
3040
2f7c
ae4a
2e93
2efc
1d37
3213
2f05
2f40
30e1
3267
3026
2fa9
2963
ae13
2fc9
a254
29c3
a441
2e27
31a0
2522
302a
28dc
2b5a
a94a
1a60
31cf
2e6c
a2b8
ab4b
a757
3072
9cf6
2545
b18f
29e2
2536
2c76
2e6a
a5c7
a842
2b24
3069
973d
1cd0
a5d1
a634
2e49
2857
2009
29ce
a8ce
231c
9bd3
2f1d
aa39
2c2a
2c3c
2d6a
2f88
27cf
2b90
a448
3003
2b9b
a68d
a4be
a7d8
2599
acf7
2994
29a9
99d6
3126
2972
2849
a65d
aaf1
1f02
a3d3
2d58
a654
2d99
96f4
9de3
23d1
2566
a2f4
99ad
2a9c
ace7
2c4f
a510
2d70
271f
aa08
b086
a6b3
2aee
3009
aaf1
298e
28ea
2ccc
2ecf
2c8e
b592
a8c7
2c44
302d
2f57
a762
2bca
29c1
2ed9
2c9c
ac42
30c0
acd3
a77f
a931
a8a5
2c91
2c6f
286b
2c4e
2e42
1a50
28f9
2d52
2fe1
a88f
2ca1
2c17
aa59
ac22
2e2d
2ec6
2ad5
a5eb
2eaf
ade4
2d42
2c9d
299b
2e5f
2bef
294a
3195
26ef
28e7
2c73
2968
19ee
30b4
2d80
a4bd
2c2c
a841
267e
af81
2587
a71c
2d36
3030
9ee0
3006
a611
a709
ae6b
abc7
258f
1ffa
2a4f
ae95
b056
305d
ab2b
a934
2622
2c1d
26a7
2184
af19
ad29
aa5b
ad3b
af20
2f53
2f8e
a519
a661
2b9b
29c8
2215
1aca
2bee
ab8b
ac7e
a8cc
32d3
aae2
ad83
a909
adf4
ad0c
307e
304c
a41f
a70b
3042
ad29
af21
a402
2bd1
a7d3
add7
2da3
9fb0
a6f2
adf8
2f77
9873
a782
a988
1f1d
ad12
2b14
2a41
acba
1e48
3132
3031
2378
2d4a
2cec
2b8c
2e58
ad59
ab9a
2f28
2d95
292b
ac1f
ac54
3521
2b47
311c
2e21
2470
2db8
a6b3
a943
a2b4
2e9c
2912
a266
2c34
2e6c
ae3e
2f46
2fb3
acd3
2c28
32dd
3070
2dd5
a575
2657
2892
a5dd
2603
2dd6
29d7
2c66
2f3f
2bef
2371
2b09
ac01
a9f5
ab55
3176
2aab
291e
ae73
2afa
2c6b
ace4
28c2
2cc8
abce
a589
b03d
aa86
3027
26db
a5b2
a909
a72a
9fed
a5bf
272a
309c
20d6
2df1
a2f4
2c0f
a19c
23fe
a47b
30cd
28a2
297f
9cb7
29ce
2e92
2672
29e4
2d13
2052
2a98
313d
2a53
29ff
900b
a86e
3027
2871
2a93
28bc
2fd9
2c50
a871
a54b
a862
2d2d
aa1e
246c
2e22
2b0c
a42d
ad06
ae3d
ac77
a8b7
2ee8
3044
af71
9dee
308b
2b0b
2bd3
a604
2601
2925
98a6
a6c4
3060
2f60
2d1a
24e9
b3df
2e7a
253d
2edf
2f68
2055
29b1
2e6b
ad9f
2d2f
26d9
a887
2481
a331
a0a8
2615
aecb
2483
25cf
ad6d
a8a8
ad77
278d
aaea
8ce4
8f46
1ae7
273b
2b5b
2a0e
9e97
1429
2885
a191
a98f
b0f6
2c69
ae43
2cf7
accd
296b
ac45
a4e5
2f1a
b00f
2c68
a9b2
2d4c
1eb9
ac4a
26a5
2f0e
a4d1
24e6
ac09
add5
2819
2948
2f5f
282c
2df1
326e
2ddc
16c3
acea
2f16
2f98
321c
2592
a83b
1e76
a264
3092
279a
ae63
343e
ac33
322f
92da
9c59
16c5
aa9d
27db
1efb
2e7e
285a
2a09
2ec0
2ca7
ac67
ac71
3005
1cc4
a960
a046
259e
2ced
30e6
2346
a935
2fc9
2b22
3101
2d43
2f66
a6f1
31ee
1e86
a99b
2a64
2168
1d57
30c6
2e17
2627
2f52
2bdc
271c
166f
2e5c
2bce
2087
307a
2492
2c71
a738
2c12
2f46
a85f
a0d3
a48f
2e85
2d2e
a945
a039
a6a0
2fdc
a58f
adb3
3057
af9e
1d2f
aadc
2921
23ce
3035
2561
2c2b
a6c3
24fe
25ba
289a
8d95
2e58
916d
305c
285f
2d6d
2cf3
3048
a8d6
27bd
a745
2c5b
3223
3106
2fb3
2ff6
2c5d
2e49
308b
2cd3
2b59
2e1c
abdf
2e45
29a9
a8f9
a941
2c8a
3006
301a
9d32
2551
a96f
2fd1
2a6b
a701
28e6
2ea9
2196
2d54
b423
abc8
a3b8
27f9
2149
27d7
1e1e
2cb7
aa5e
294e
afca
2e23
1d59
2ea4
af41
28d1
2d1b
2285
a552
ae74
291e
a9c2
acb4
2f20
a474
abd2
2cab
225c
2d1a
2daa
2984
a208
a9f1
2fb7
2c8d
2e3a
ac76
290f
2fba
2dfd
a604
9e4f
340f
1de7
29c5
ae57
1c89
a5dc
2da3
2e43
26ed
ac81
2c4e
a949
a992
a754
ac00
2e5f
2c4c
1e38
2cbc
a972
1cd0
ae34
ad63
2d2d
a8e9
2c88
251f
a9ce
ab47
b02b
ab57
2566
25ba
2f7c
0d67
2e8d
ab1e
2a7f
2d29
a156
a2d0
2a1a
259b
2395
ad10
290e
2f47
28c8
aa18
acf1
accd
adcd
2d8e
2dca
aaaa
a93b
aeb4
26a1
2b3f
a585
ab8f
2ebd
2077
2df1
97ea
2d48
a8ad
aa1a
ac99
238c
a9e8
ae4f
ac89
b0b7
2e05
2e14
2803
a7a4
24c7
2c8a
283b
b227
28e4
2467
ac37
a84a
ab27
ad60
2c5f
25ab
a59f
1838
2a07
2fbe
ad08
2e82
2886
a2c2
1680
aeab
a324
ac5f
ad19
ab9e
2c76
2893
2bbe
29c5
1dd5
b0ec
1ba9
b081
2ed3
ab11
ae96
2d0b
305a
1cc0
2b14
a7b7
ac84
a96b
a5cf
ac45
225b
98a3
3004
a927
2c32
a3ee
25f9
a686
aad0
21f1
a4e9
ac9e
a412
28ba
28b6
ac81
a6c7
2d92
1c65
9d6c
2eb4
2bc9
abdd
aceb
b01a
9bc6
353c
a7cd
af29
a965
aff3
1d94
aeec
94a3
a94e
ad33
a8fd
ab8c
a747
aa28
b0fd
ac89
ae27
add0
a44b
ac37
ae89
ae3c
ab75
289a
af09
ae2c
2cbe
2967
aabe
ac25
abf8
ae39
b0b0
acc6
acc1
a66c
2fa3
9c62
b183
2405
af7c
b008
a5bc
afe6
2b26
a48c
ad65
af01
ac9e
ad0c
aa1a
b321
a606
2b72
25f3
ac77
268b
af0f
23ab
b0a5
b01d
a8f5
2f9e
a6cf
a79b
2cf4
a99a
2c59
a78c
ab32
3118
2715
2951
3050
2a7c
2d03
29ae
2c62
2583
a09a
accf
a60a
288d
2bb9
2e89
2c6e
a54b
aad5
2d66
2eaa
2d8f
2eeb
abd9
229e
ab98
2bb0
24ca
1f7d
2d6b
1e94
3012
2d32
2a5e
29a9
a9cc
2f78
acea
28e9
a88a
2aa6
af21
2aba
2878
a82b
2ca3
2ca7
2b7f
2c22
afe9
aac3
248c
1a96
2c56
97fa
2f4d
af95
a8b5
2bbd
2d8d
9bec
b13b
a307
2a72
2c21
25b4
aff6
29b7
a3b3
ac15
af2d
2a32
ad66
21de
19d1
2469
2170
a1d3
207c
2db5
a513
2a4f
a894
25da
ad52
30ab
af59
ae05
9ba6
b059
1e9f
aa00
9cf4
2a87
2c12
a092
ad9f
a4c3
25ae
a2b4
a717
b10e
9fb0
abed
adb1
ab67
2a6f
2a82
a6ed
20d4
2dd0
ac66
a957
2af8
ae6a
a949
2230
a779
8ced
22e8
2a0c
2dc9
ac58
1c9a
2f98
a401
2742
ae2b
ab54
2c75
acf2
2634
aa8f
a1f6
a9d6
ad2b
ae87
acf0
2163
a8bf
9da6
ac6e
a54c
acac
2f05
2ccc
2b21
2bc4
a931
a746
25a8
aa89
99f1
b00e
3127
a9bb
a9ec
ab09
2cd6
2941
2d5b
a570
a2c4
26d4
2d69
b027
2af2
a89e
a907
a9bc
2a57
2bf6
a5a9
23ae
aef3
aeb2
2410
ac36
aa7d
2c2c
3046
a926
ac1f
2943
250e
26d3
246c
b047
2e9b
1e37
2b35
22d3
2d95
2727
a93f
3092
a8f0
ac3e
9fba
2e00
3155
2099
aea3
a69a
9df6
2d37
2590
a25b
2ba2
2dff
a4ae
2a32
a73d
2b48
28fd
aa46
3080
ad68
8bfd
2828
2bba
2421
9c03
216e
2998
2c96
2961
ac78
2812
a81a
2ece
ad7e
2577
a350
ad3c
9ee9
2c64
ad06
a581
29be
242b
aa7d
286e
ac51
2fbe
acae
288d
2f8f
2c47
a26a
2eaa
aea7
ad1c
a9f2
2dfe
2da4
297d
2cca
2f35
ac3e
a5e0
ad30
a709
2f13
2661
2822
2daf
2b0e
2adb
24a1
ad54
2c98
22f2
2d92
2f41
2bcd
adf9
a9b7
2c98
232c
a531
a7a2
aff1
a84d
2cbf
2ae7
2a58
ab6c
2e1c
a489
a8fb
29f8
a80f
2503
2766
adaa
2718
a745
9d0d
2d56
a511
ac67
2f38
2243
9982
ad18
a982
ac1e
28d1
29f4
24ad
2fe7
2f35
24d5
2ef1
2acd
2aeb
ad71
a127
2f77
2f1f
2686
3029
25d5
a4a8
2acc
218d
2d9a
3007
2fce
2c4c
2ef8
1d1f
2c97
acad
287b
2e21
28cd
2c84
2677
a81f
2e35
29bf
2e2d
2f00
2b39
2c2b
2e36
2d30
2c7c
2861
2a8a
af31
2ca0
ae3d
2903
a0f1
2669
9ef9
9c3e
ae7d
a851
2898
1f6c
9391
ad8e
2b50
2bf1
2cec
ad30
2e40
9f80
2417
2309
a876
2309
2e15
2894
302b
3080
a77f
27af
2c31
2d9b
2c33
2318
2a4a
23fe
2a4f
213a
a4b8
ad90
30bd
308b
2d9d
a1c2
2b42
a8b2
af40
293f
3051
a1bb
ac23
2eb6
aad9
2ad0
305b
a9de
2e76
ae4e
211f
2fc4
2c47
31ea
281f
a992
a36f
2aaa
acf6
a809
2cae
2d8d
30ff
9ea7
311c
26e5
297b
29c2
26b1
18c0
a81a
30ca
3115
2c03
2ffb
aadd
30a3
abea
30f4
a730
ac7e
9fa7
2c3c
a8e1
2f1a
2589
a35b
aea1
a855
244f
2928
a378
a465
2119
a933
ae3f
2a42
1d2b
a95e
205b
95a6
2f60
ab24
1a35
2edc
a8e9
2793
29cb
b0ba
20be
abb6
aba6
2a80
2d3f
2fae
28cf
2c11
3015
1d8b
ae66
2e25
2cf0
250c
2965
3066
2c8b
30fe
ac48
ae93
a8f3
2c0a
a60c
23c7
20cc
a0b2
2c51
2d88
ac85
a416
a1b9
29da
9d39
2fbf
2c04
182a
a8dd
259d
2125
2f19
a8e0
30ab
26f5
a228
313d
302b
1cf5
2c3e
24de
2cfc
afbe
aa7f
27d4
aae0
2d1f
2aed
3100
a642
2c00
2978
2cb2
2cfa
a4c1
a845
9c54
244f
2e4b
2914
2f1d
2df5
aaa9
2f17
278b
2ce7
2b6a
1c85
aab6
2c86
27da
3110
2f38
2e40
ae3f
9f6e
1de1
2571
252c
2045
2c43
2faa
2ef4
2e08
ada9
a55d
a957
2d3c
2eb1
280c
2bd8
29c2
2def
9eb4
a783
2b0a
22d3
2364
2533
308c
2948
2a40
2e90
a243
2c71
9e5a
adae
3070
ac2a
24b6
2db9
2d4c
2a97
ab59
29ee
28c4
2e5c
2c91
2d94
2a13
abe5
2b1c
285e
232a
add2
2fbb
2ee6
2510
2d7c
ad11
2750
2a25
2e1a
ae9d
2f31
2fb8
2fcf
22c0
96f5
2e36
ade0
2a1c
2d83
3016
a9bd
98fa
18e7
2f42
ae87
2ce1
a6ed
303c
2c9c
263d
2d2d
300f
ae74
ae1c
25b5
29c9
2bec
aa55
2bd6
2e7b
2c55
1ca1
b088
2ea0
ab29
b0d7
2828
b0ec
15d4
2b92
2290
a2fa
acb3
2841
2853
2634
ad95
a39b
acdc
af98
290e
2ff5
2de4
9d4e
a122
a6f3
ac80
acc5
2afc
2185
3087
304e
29a7
1db6
284f
3069
a1b5
a7f2
acfc
b095
a65c
a226
2a88
1e28
a923
2706
1036
b29b
a6fd
2e3a
af4e
a193
2e24
a702
aaa4
2ece
2dbd
19a8
2e8a
1acb
ade4
aba8
2f68
a3d2
2bea
2a85
3227
2ade
ac2a
22bc
aef1
2d59
3116
2a9c
2f79
303c
a957
a895
95c8
2aed
2e62
2c51
a927
adc8
2ddb
a66d
2da8
2cf3
b05f
a83b
2db2
a63b
2fe7
2fd9
2c4d
2e32
add3
acaa
24b8
2c03
ab11
1e2c
241a
a305
2865
2bac
2d3a
a6d7
ac84
af85
2bff
2f81
2812
a8df
a81c
251a
ac15
ada7
3187
a6c8
a884
2875
aa88
248a
2385
26e3
afea
afd6
2ad5
aa51
a93d
2c99
a83d
9828
aeb9
af68
2cc9
2405
afd5
a8f4
25b3
292f
acc8
2b1b
aea4
2a36
ac1f
295d
3008
26c3
ab96
afc6
2d94
ac94
a970
ac77
a874
29e8
2c78
ab27
a30d
a2a1
a5b0
aeaa
b0a9
ae7a
2cf5
afdc
255c
28a9
922d
ae58
a4b5
29ba
ad74
21ca
2a93
25de
a160
a086
3061
a8da
a8e4
ad5f
b01f
2bd1
2e7c
a3a1
21f4
283e
aedf
2be8
2fcc
2c28
a92d
25ac
ad88
a071
ae03
a6f4
2c75
27f6
a7dc
ad54
255c
accf
afb3
2d27
a3e4
2d4a
90f9
ae9a
296e
2e3b
aa5d
aa27
ac25
25f4
a044
2481
2c6e
30be
a816
ac0d
a3c8
9e9f
24a3
a5ed
aa24
2d8f
242c
aae0
a83b
269f
a2d2
ad46
2db0
aed9
a52c
aae6
a6b4
2d95
2972
225f
2cce
29d5
93d1
2c7a
ac63
af8d
b04a
a83f
afa8
2560
2bda
a5ce
225c
a2fc
a946
2e25
a882
acc2
a9ca
28a5
a566
ac6c
2e2e
2124
aa48
26ec
a927
aa12
ac78
259a
a9b4
a313
2dfd
247c
a857
2f7d
ace4
2da6
2aff
9ed7
2ed9
a22b
2f4d
2ba5
2d8e
2c60
2af3
a18e
a7c3
2ab2
2693
9b27
ad3f
22eb
a953
a841
23a8
b170
ae01
a868
a050
a9de
ae15
9be3
aa7f
a281
30ac
a096
2fd2
2883
a8b0
a25f
a1f6
288e
295f
2ddb
a80a
308d
a535
2cac
2b03
b412
2c09
a0b0
2878
a6df
2c80
2934
ada0
a8e8
9fe7
ac31
2c8b
aeed
ac00
ad38
aa67
2d57
15b6
a37f
ad58
2c5f
261f
2f99
2ed6
2978
2020
ae3c
a55b
acfd
acd2
2cba
aa64
2dd3
2cd4
2cbc
29c5
2da7
2d7d
28c5
2c28
2d55
2c34
2d1f
a70d
1810
ab20
23f0
99c4
2d38
2ebc
29c4
aa39
2c9a
af27
2d5c
af93
a861
2d52
1ccb
2385
2293
ad49
2cbb
a7c8
27ba
2e5b
a816
2a57
2857
a415
1cc5
2b55
a207
2ee8
2577
2d82
aa33
2b8f
95d5
2c07
295e
22c1
28b4
aa51
a5ef
1ec3
287b
2ac0
9fb5
abc0
2673
a38b
29e9
21d5
a333
2e98
2e5b
291c
2732
2c11
9b23
2311
2e20
29f9
303d
19cb
2b2c
a6ab
2454
a917
a5b8
2b10
28fa
293a
27b6
2bb1
2e43
abc4
a1e4
a933
2ce9
30f4
2d88
a9a8
2d74
2deb
302e
2c0c
238e
2c93
2683
a43c
adcc
ac44
a60c
a54f
ade3
28c9
a076
a336
ad58
2664
2c54
28d9
2cc6
2ecc
2f0e
aed1
2c79
99a2
2b10
a8a3
abc7
307e
ab00
abc9
a4ae
2d86
304d
3004
a60e
2c93
2a96
a650
2c87
3031
a54b
2dbe
acda
2bd3
2b51
a118
2cb8
a57d
2445
2c06
2fe3
26d6
2e3a
a9b4
1d9b
b18c
2b2c
a3cd
a7af
9c60
2c78
a08d
2ee8
a780
acab
9d5d
aa5e
26a5
2c81
21a3
ab52
9f85
299f
aeb5
a8ca
221b
3065
2ea5
ab91
ac59
2daf
2ac7
2c68
2bf4
9e2e
2afd
a833
27d3
a23e
277a
a3c5
a5f3
aec2
a866
247a
2d07
22db
a886
274a
26ed
255f
2813
a4f1
2d94
1a2e
a4f6
a6ce
abb4
ac95
a917
23e5
2c2b
2f0e
a996
2f6b
a67d
2955
2c39
305c
ae3f
2e6b
a5bf
2956
a4d9
1f81
2fe5
2dfd
2fc3
2e33
2c4d
af3d
a8b5
32b8
aaac
9d7a
ab81
29b3
ab36
2950
30f7
a976
2c2b
a2dd
a509
219c
ac94
2d16
2d50
2823
223c
280b
242e
3052
2c5b
a73b
286b
2978
2a4e
27af
2f00
2de6
308c
2f35
2406
29fc
a4a4
16b4
2c7c
2558
a6d8
ab78
2967
2eec
250a
ac92
ac3d
3039
a44b
2df8
2aa2
ae5b
ac6c
ad4b
280e
2e12
a947
a375
acb1
afbd
2f89
a87f
acf5
2aeb
2b67
a063
2cd7
b0f6
a3f1
a33b
2e7c
2dd0
aefa
a637
ad7b
2f84
2c16
3197
a557
ab74
2f4a
2837
2b8b
abbc
3014
a9ef
2e7c
2120
9ed4
2f94
2ef8
a8fc
9515
2406
9d3e
2ec4
b4fa
3013
2b10
a8d4
a6d4
2ec0
ad1f
aac0
a9a5
9c94
2807
ab86
1fce
247b
2bf9
2bfc
aa35
ad61
2681
9ce2
29a9
ac20
a51e
ab33
a63a
ae4b
aab6
2ceb
29cd
1d49
ab1c
86d4
acaf
ac4c
af44
a473
aab6
a5f4
a412
2f65
2b0f
a942
2a47
2713
a972
aec9
2bea
297c
2e98
ae6a
aca0
2d1b
ae3c
2d05
ab24
2828
abc2
a759
a735
263e
ab47
aa9f
a89c
29af
ab79
2ce4
2d26
a51d
a975
28dc
acec
2911
2caf
9dd5
ac5b
2c6e
ae99
2c55
2cb4
2c7e
1d89
298f
2c9e
21e0
2df8
2da7
b156
2d0e
2916
9d3e
9fa7
3061
2eca
308f
2dd8
2196
aa6b
b00e
aa7e
a564
aa9a
aa46
2cb5
a852
a8b3
2c71
a99e
a2a1
2cbd
ad2a
2baf
2a4a
a472
a956
a1cc
2bbc
9e58
2eaf
2dd0
305d
2d02
ab78
2cac
abe1
23af
2df0
2d30
2411
2d55
2bbd
aed3
2f6a
b007
a37b
3018
2d29
2c39
2de1
a60a
310d
a805
2db4
aca2
251f
28d7
2a92
2e71
a0be
ac4f
3036
2752
acdc
abae
a947
ab6f
a55b
297a
2514
2d1f
2963
a88c
ad11
1afe
2b5f
2d90
a3bf
2da0
ad83
2dba
2004
a3b2
2d8d
adb4
ac2a
2f99
30e2
a16c
2b60
2b25
2bc9
a8c8
a450
acdd
1c36
2454
acbc
2535
a110
29f3
adef
a0cc
25f6
ad79
ac44
ae79
2c35
140b
ac5b
9f17
2943
a330
aeb9
acd5
2c55
2cfe
2da7
9f36
a580
a302
a47f
283d
2a80
2dba
3115
2fe7
2f29
a22e
a969
311d
2ad7
2ace
2e47
25c0
30e8
a29a
a7c0
a76e
30a2
2ee9
a402
1dd7
2041
2665
2652
2842
306e
29c4
ace2
305b
2c5d
2a21
2162
1c13
293d
b314
32ac
2f12
21dd
29ce
ace7
2c8e
a5ec
305e
a23a
a98e
2f1d
1c95
2cca
1cba
1484
2883
2ce9
2c5f
2b21
aee0
acf0
3074
3273
26b2
98a9
af22
2ef1
2dbd
30a1
3106
2c8c
a9bb
2b60
257e
2a44
a408
2a56
2c77
ae0e
2cf3
2c9a
ac7b
25dd
a814
a600
2735
a876
297b
a96b
2faa
1f60
ae0c
afa0
aa9e
a2a7
abc3
2ff6
1dc8
a725
32a4
9ee6
2c3c
ab0b
ac96
9e56
2a9f
98cc
2d52
1b7c
20ff
a43a
2cfe
24fa
2add
a46f
2766
a866
2b35
28b6
aa03
2805
a6a1
afa8
ac76
2fad
2c3e
ac93
2686
a877
2a1e
ab6d
ac82
a9dc
26f1
af64
a4a6
2725
310d
2ca3
a9b3
a62c
2c57
a61b
25b0
1d9f
28ba
2e28
ac4e
2229
b015
ac02
1c81
a783
2dc4
a6d0
ab6f
2b61
2098
2d0e
a021
ab0f
2082
2455
a23b
25a7
2c29
2d8d
af2a
2a85
aaf2
19e7
a929
29f7
2953
9425
19f9
9ecb
af6a
2df8
2828
301b
aa3e
2bde
b016
2d74
a5af
a55e
aaa0
2cc6
2b1f
289e
ade2
afbc
af14
2809
28d6
3113
2e3b
294a
21b1
28fd
34ba
adf7
2a7d
17f7
2009
a3af
2cb0
a0b6
a8c8
26be
2c8a
a990
2a9f
a465
2c86
ae38
2d7b
adca
2af3
1c46
afcd
2f89
ad19
abcd
2b2c
ac39
2671
a12b
ad4c
2d77
afd5
afdb
2045
aac2
2b13
aa38
a73c
ab9f
2b64
abdc
2096
212b
1b3e
302b
227c
a88e
afbb
a507
2a6d
2c0e
a893
b023
242c
2374
addc
aa54
94aa
a86a
2c13
2429
ac0c
2f4c
283d
2c8d
ad7d
2c84
abc7
279e
2d7c
29f9
a567
a966
28a7
2e96
2467
ab80
2afb
3144
2b41
aefc
2778
2bf9
309d
a9c3
a980
a779
aab6
2c08
247a
2c9e
a41f
a860
9f2d
1480
af1b
2c86
0c8b
2bce
2c7a
a74c
2d94
2d2b
2d2f
2925
2f2a
2a06
adae
2e86
acfe
a6c9
acdb
2c19
315f
26f4
acb7
ad1d
2cf6
2af0
1974
29d7
adda
2967
9bf7
aea9
9f6d
1ff0
9cc2
9e33
b0b7
acbc
ac0d
2405
ac33
ae65
2f5b
a2b6
2056
a8d8
2b1e
3161
2ebf
29a9
2a97
aeab
a238
2b9d
ac23
2f58
b009
2a76
2a76
a9fb
2d93
a8d4
2c4b
a832
a524
a36b
3070
a270
a86a
ac2c
a95d
adda
2e41
2fa0
2c27
28cd
a90d
ad6c
b07c
2c34
acac
3028
a323
2534
a6ad
2a9c
acca
9d32
2b23
2b85
2e15
2862
a6f5
2c24
2888
b05f
ac4c
3193
2f1d
21de
a7ba
2896
2da6
837b
a53b
24ea
a8da
3006
247c
2ce5
aba9
b1e3
a889
a10e
2bd7
2dcb
aba4
284a
2923
a3ce
2d85
2d73
2331
1b38
2d55
2bfc
acb5
2096
a698
21b1
ab5b
aeab
2c46
1c7c
2cc2
1b99
2bbb
2cc7
2929
9d4a
2e6f
30f6
256a
3054
a105
2ecf
2b4e
208a
236d
2f16
aad7
2c2b
2f80
2430
ac3d
295c
239c
23b5
2d2d
20b0
2a20
2dd3
21c9
3047
b180
9fd2
2404
2c79
2c90
2e8c
9fae
3063
2c93
2706
a8c6
2b86
2da8
2ecf
30fb
abb2
a9c8
307b
2c81
a74f
2d6f
2daa
2d3c
2051
9ef6
3010
ad06
2c58
2e66
2f37
b353
2b56
a86d
a1a8
30ee
a889
2300
ac75
2ef6
a9b5
2f13
2f82
24be
2ed1
ac20
ab37
ad65
1fc9
30cb
1e1b
aa79
b0e9
2cfd
3181
9b2e
30bd
acf3
2f8d
ac57
30f3
1ce8
2e48
a4ce
aa6c
acb8
151e
ad71
2cbc
2d4a
24fe
ac0d
1edf
2c7d
2fd5
b028
acc6
ac4f
2d31
3140
1cc4
2ef5
24b3
2a00
a455
28ae
a584
a40b
a264
3057
2cfb
ada1
a626
2906
2ec0
b189
2bb9
2ea7
23e3
3048
9dff
ac41
ae3f
14b7
29cc
27cd
a4b4
2fa5
9f70
ae72
acbb
249d
1f2d
269c
a8c8
a27b
b069
11ac
a3aa
2a12
a6b1
153e
a0e4
2e3b
2f70
2efa
1c2f
24fe
1870
2cb4
2863
2506
1fc3
289c
288a
9826
2b88
2f96
2ee8
a391
b131
ae06
b046
ac0f
1ffa
2d54
2401
2659
b01c
ae32
2aad
ae87
2cb8
a023
ae42
2c2e
2cb8
a981
a427
9c2c
a56b
aede
28cb
231f
a4ef
2fc8
1e6e
1d86
2fd1
238e
26ee
af67
a27c
ac12
205e
2c97
28ff
2cf6
2712
2594
a7ef
2e98
2c11
ab60
2c69
aae2
aa58
a2da
9e4d
213d
2a06
2d76
2fba
280f
2e5c
adcd
2936
2d40
2822
a497
2953
2a60
1fcf
287f
a10c
2d2d
a410
1a11
a346
a78c
287f
3239
2d29
2f72
2821
a149
a97f
215d
2880
1fc3
2af4
a697
a48a
2405
2b34
a71f
299b
2be7
a45a
9be2
ac12
8eac
2c59
2a23
a43b
a8f4
2c0a
147e
a9b8
aabd
2d71
3113
a5cf
ad10
29f5
a677
2507
a8ab
2afa
2933
2fa3
2842
2dfe
2ac7
2e34
2b40
a9e3
ab91
aa60
232f
2c05
a687
ac42
a18b
28dd
ac84
ac98
2d10
1a4b
a722
aae8
a9b6
2f06
2686
a400
2c4c
2e9f
247d
adbe
a4df
3072
ac9b
a9cf
233a
2b3b
aee9
ad20
2e35
b1d1
a812
1cf2
aff5
a5c6
26de
2d91
28e5
2f34
304c
2eab
b295
28ba
ad8b
ac0e
1834
a53b
ae64
280a
2986
2c1d
26b2
2943
2c0c
2327
2679
2531
2f3f
a9dd
aacb
a38f
aaad
3091
2a86
26f6
ac99
a693
2cbe
2d3a
2f43
ab08
97c1
a0e5
26f7
2c5c
2c82
2c6a
2156
ac7b
ac17
a95c
a8d1
2c7f
2812
a4a4
224c
a8f1
2018
ab24
258c
a8d7
a68f
967a
a6bc
a8a8
2d0f
aaf5
2d4b
ae52
2c76
2d48
24d9
a470
2fc7
2f47
aced
aa13
2370
2b56
2262
2c51
2ff7
9d69
ac66
b0f4
2ce6
2ec7
2b67
2c67
ab01
a19b
2ab9
2559
2ebd
2c25
adb4
2c10
af63
2b34
2d73
301f
2855
2dae
2484
a853
ac50
3010
9550
2cee
2720
2504
aeb6
a281
2c40
2911
30ff
2e1b
ab61
a84c
2c5f
2def
a5e7
aff4
2c70
a92c
a977
2f6e
3065
2bd9
a239
2d23
3039
2fbb
2dbd
3000
2ed7
304c
30e6
2cb9
a91c
2e87
a415
a89c
ac1f
2824
2ce2
a730
ad17
24b7
ac29
282f
a956
1f54
25aa
2468
30ab
2db1
2ece
3083
301f
31ff
a8d1
281c
1930
26e9
2c35
a602
a804
3079
2e09
30fa
ace1
2654
a354
2a0e
2e0b
acc8
9e36
2f0f
2862
2bbe
2e74
9c8d
2d74
a978
3053
2c2d
2bf5
30de
2d20
267e
ae7b
270e
30fc
2c84
2a98
2e84
ad15
a9b7
9b77
a949
2815
3223
2d8c
a2da
ac0f
2b3b
ae24
9ddc
30ae
30b7
2c96
1e2b
2d77
2a7f
ae73
28a1
abe4
3165
a433
3209
2e4e
aac8
ad4a
2973
2c2e
ac6e
28b6
abed
ac54
ab2c
271b
2cef
2d83
2b28
236c
aece
ac10
29fa
2801
afb9
a9c1
28d9
a6cc
b040
ac2e
a422
acde
2b84
ad77
29cb
2f37
2a01
23cc
2d85
aea7
a6b6
a705
2b28
2b81
ac23
291a
25de
150c
a92a
1d7a
2bf9
2616
2694
a9c0
2a8f
acaa
aab7
2820
acfc
28d5
a955
aaa6
260d
1f81
2830
aebe
1fe1
ad43
aa19
239e
24fc
11bd
a95e
adb9
2c91
ae5c
2b68
ab0e
a3e5
2d57
1c7a
2c65
9e88
287e
add9
2dff
2b6c
257b
ae88
956a
2cb7
2bfc
aa0e
aa1d
a2eb
2bf0
2e0f
af85
2430
ade3
2195
2956
2a52
2934
ad26
2415
2154
9fa7
b0fd
2fb3
aebd
2d73
291a
2dbb
2b9d
a406
2dbb
ac6c
2fb1
28b0
9d70
ac78
a941
aa89
29be
2d3b
ad81
2c5e
a08d
2b68
ae24
2f99
acbd
a54f
ac74
a7a2
a4a2
a680
30f3
ae53
2add
a83c
268d
1aa5
2a1e
244a
a9aa
289a
2b70
298f
2e3d
2d22
2385
2c3f
2603
29d5
ad63
2c7b
2fdf
2e57
aa73
ac5c
a9b8
289b
2abe
25ef
a87e
afc2
2d34
2d33
a924
2c80
26ea
27e7
96cc
a8b0
ac03
a9a5
313d
a868
2e50
ad64
ab26
1ef3
250f
2cf8
2c1e
28b7
2074
a6f7
a623
a3be
2d21
a8c5
2d7c
2803
30fc
30a5
aa73
aab1
ac79
3127
296c
ad95
a036
2155
2507
af22
290d
285b
a179
ac52
b012
acaf
2327
aace
2881
24ca
2809
ad10
af80
1b77
a1db
a94a
2c1e
ad90
a8e6
2f24
a5fa
2d10
2865
ac40
28fa
2fef
a8e1
2a34
a094
2d22
2aaa
2ce3
2994
ad2d
2cde
aa38
242f
a948
2d6c
af7d
2e75
ae5d
28fe
1de0
21ed
ad43
2ddd
23f0
af50
acdb
28e5
2875
a9f2
2c63
2a02
b21c
a719
b412
a0a2
af17
2aa9
20ce
22c9
2acb
29ed
aeca
af65
ac55
2072
271a
ab8a
2104
9e42
ad52
b034
a82b
2a13
a841
2dcc
2b79
2e4b
2cd4
a334
9783
a193
adf3
265a
2966
ae7c
aff1
ac53
9f41
ad9d
2f25
aa0d
a85f
9e11
28fe
b011
b0cc
a7f9
2d06
288a
2b88
2a62
aac6
1928
a0f0
2865
abd8
a7b3
9e68
213a
a82e
a3be
29c0
2c1f
b025
2e9d
2b2b
27cd
2311
2e43
a421
a9d5
2ebb
aa74
260f
ac82
2d9d
aa5d
ae9e
a656
a6d9
a98e
1331
aa2f
a13f
964a
2f18
ae02
2571
2e6b
aba3
ad4b
1b7e
9ea2
24fb
234b
3014
25ec
2cfe
27c7
2d93
a85e
2ee6
2954
af4c
adf7
a10a
24d2
2336
2949
a540
1d88
1ee4
ac3a
aae6
2d63
283a
2c66
2b2a
2b30
2ea6
ac1d
acbd
2e60
ab34
a00e
2ff8
25a0
9706
b082
ada6
92c7
3050
298e
26f3
993b
a3f4
adf0
2ed2
20de
ac24
2855
ab61
1e99
add9
ad6b
a911
aae9
2729
a4e2
2614
202b
a5f7
2e55
2c09
228d
27eb
24ff
30d5
ac26
21b5
2217
a3e6
291b
a8d8
aedb
ae60
2bbe
a4cc
2dc3
ab5c
29f8
2c37
aaa8
b1d8
2f23
aee5
a6e4
a760
24cc
2703
a421
2938
a762
ad67
afa2
a2c7
a027
2877
28df
2aaf
a1df
2d3b
2b7a
3008
2e9f
2acf
30c8
25a8
318e
1f89
3024
3142
1c55
30d5
2a80
290e
2d3a
266d
2872
3122
2c62
ad81
a17a
aa87
a84a
2f4d
3000
2f1d
28f0
9c08
265c
9f07
27db
2d35
2ae5
a077
2aa9
a2ff
2d7f
3139
ab1f
2b4b
a7ea
a28e
a8ea
30e6
219d
aeca
304d
9c50
315e
2d9a
2a7d
1d73
3090
2b5d
ac4d
9d0d
aa77
ad2b
a0c1
2101
2b7c
30c0
2b04
2ef4
2fca
14f7
2f9d
ad4a
acd3
b021
acc5
a3a8
2cce
2e7c
2db3
acbd
2a0c
ad65
a978
2e1a
2a9b
9c93
ae55
9f9b
1e75
a9f3
240e
aa61
262d
280f
adc6
16ff
aba3
2bc5
2a4a
aad1
a9fb
af54
248c
a450
2e01
ac60
affb
2d38
282a
22cc
9fc7
9f31
a8aa
acfc
aa1a
a04b
ae16
ad47
ae07
2e66
2972
28c4
aa73
a9e8
aaa7
1d6b
2543
a77a
1c17
237c
acea
2a8c
ad64
2d0f
2f1a
2cf8
2f23
a265
2f3f
a960
a915
a90f
299b
1c4e
27f5
aa8a
0d0a
a842
274b
3097
ae2e
2881
aaac
2a67
2901
aad9
a434
2e76
a1f0
accd
22a4
23aa
2d7f
245a
30ab
ac29
a48c
269d
a1b3
0943
1824
ac29
a659
2a53
aee8
2893
3049
2e09
2927
aed2
a723
a757
20ce
282e
a0aa
a174
ab7b
a81d
239c
2757
1505
af34
2c74
abd7
2cec
2cd7
2f45
2a0b
3013
2c2c
2ff4
a34f
1a5d
2e8f
ada4
316a
305f
28fe
a8b7
2cc7
af09
aa58
2a13
2cde
aca3
a6b1
9e1c
2e76
a70f
2f9a
304f
abba
8d20
270f
abe8
2e22
29aa
ac3d
306f
3035
2f29
2e76
a41a
a0e4
aabb
2aeb
2cb2
9f23
a92d
29bb
2c60
aeb8
2425
2986
3091
2793
2c6b
a9fa
2ace
2d53
2e27
2d18
a182
28e1
2710
ad60
29c9
243d
a9c4
2db9
3008
a6cb
2b45
ae64
a4a1
aaba
9edf
2ba6
a830
2ec2
2eff
2cfc
a4ec
2d22
2ec5
a695
2bb6
99b0
ab4a
2409
2c60
2fa4
2be1
2958
2ee3
2b89
a9d8
a5fa
2e9b
3063
275d
a955
2123
aafc
2cf9
2d67
304c
2204
afd9
320c
a44e
aa29
ac74
2f8f
3023
ab67
205d
ae93
a095
ac9d
2dbe
2c40
248d
27e4
2e3b
a897
2c58
2dff
a94b
a5da
3051
2c16
a524
2c8c
2db2
a57c
2bce
ae5e
2662
adc8
2ff8
2fab
a11a
2cb6
2e9f
a7bb
a145
2a6d
a412
ace3
31f9
2b3d
ad76
a19b
a583
2f87
ac45
2d44
26f5
292e
aed6
2ef4
2d5f
9e74
2ec2
a85d
30ad
ab47
302b
2fb2
2bae
a8a2
2a24
9c56
2b5e
2b5e
ac48
2c9f
2abd
2fb3
2341
a69c
2c1f
af39
2a76
315b
9a14
250a
2d72
1dfc
3094
add6
a0bc
a821
2d30
229b
30b8
2d5d
ad3a
2f6e
a76f
22b3
286e
b097
ab65
2a3a
222d
9f87
2b7a
2cdb
2f80
2c5b
b16a
b074
abc1
2098
a73f
acb2
2f9e
aec3
aba2
a7bd
25d6
2692
2aa4
2652
a7c8
2b9c
28d1
1f61
aa3b
2ad1
a0a8
2ab6
ac49
2c55
2f51
a90b
2d91
aae5
2b24
a9ce
2ce6
b21d
a44b
ae76
a813
af5c
29da
1ad8
0bdb
21c4
2cec
ab37
2fcf
af24
2363
9518
24ec
3016
98a6
294a
2e73
2bec
a864
283f
aa3d
afbc
2c11
a34a
2cb4
2164
aaa9
a8f0
2c72
a862
ac27
aebc
2bbc
2ad1
ab7a
a4b4
2da9
2c67
1916
2e60
3012
2d19
adbe
a85d
acc5
9bde
a020
a467
2b4a
272d
2cd3
a247
2c73
2c5b
29c6
2978
2994
2c29
a039
2652
2524
acb0
28f0
ad1b
293c
ae1e
29f5
2815
2da8
2223
ae71
2838
2828
2bbf
9496
237c
2d1e
2cce
3037
a8af
2cc1
289d
af5f
b178
b026
ac05
2f95
24af
a25a
2140
af71
a611
ace1
2ac6
ae91
abeb
2bba
2ad2
2570
b048
a3b6
224b
2ee4
278f
2d6e
aa3e
2769
26bb
11a5
3148
277a
afbd
2488
2215
ace9
256f
aacc
acb4
229f
29f2
2e74
aafe
2ee2
1ce2
28cd
aa0a
2a93
aee4
a99e
a8f2
2f95
2992
adfd
acf1
29fd
acd6
b072
263d
aefd
2e16
2c9b
a9f1
a2ee
b011
2f26
9ddf
2850
afd1
a6e7
28ae
2f49
ab78
2cc4
271a
a2cb
23e9
2642
ab5d
acac
2ab4
23ce
2fe9
2c3d
2b85
acd3
2dc5
2c26
abad
2367
9d50
a44a
2807
2afb
2926
2b9f
2a90
2bab
2d9a
2f57
276f
acb1
2be8
949e
3073
2d03
0e77
2826
2cc5
2ef2
1c22
25fc
a511
2987
280d
2834
300c
2d8b
219d
a065
a414
227b
a95a
aafd
2a76
3060
2c7d
300d
2dab
27fe
1d7b
2f48
2a46
a543
aa09
ab77
2ce0
2c68
2e35
2c6d
2f10
2b3e
2a1f
a52e
a100
2f3c
26e2
acf8
9af6
2e69
ac13
ad49
2a75
2b39
2d1c
b06b
21ed
2eb2
3053
2ef5
a7e6
ab4a
b192
3103
2c9d
2c5c
a812
29ab
a8f6
2caf
2cd8
ad9b
2c62
306b
a124
2a14
298f
a7da
af92
228c
30fe
207b
ac6b
ad85
2b5f
322e
af09
2e6d
a696
2c9a
ab13
2fe7
23dd
2f30
2b0e
27d3
a6ad
2b96
aa5f
2ecb
a662
2f0c
299d
29dd
2af0
2b0e
2af4
aa31
a733
9fbf
2e94
ade2
2c51
217f
2d29
2d4f
a874
2edc
2c16
ae8c
2f3d
2fe1
2fef
281a
18a7
a6cd
aafd
a87e
255b
2eee
2582
afe6
294c
a96e
a017
ab95
2f06
2cb2
a8bb
2e6c
ad9f
a592
a46f
2db4
a919
abb3
aaef
abe8
a725
a9e5
ae5d
2ddb
a560
a82a
a160
9f79
2c52
28f7
26d3
1fce
2a09
a67f
a9e4
30a4
2e15
188d
28c0
a461
301c
2fa5
a895
2b2c
27e9
2bff
2d35
20b0
2f2b
0c34
301c
2629
2e5b
9f92
251d
2812
a905
ad23
ac5c
2998
2bd2
2862
28c5
a9f7
2dd7
9709
9f3b
adc7
2d38
2e1b
aa4d
2ff6
30ea
2ca9
246e
2d1c
2089
28cd
2220
2cd8
2ba7
2c61
2863
21f2
acfa
adcc
acfb
269d
28ec
2f33
2b7b
31dd
219f
24cf
2bf1
ab6f
ac25
3151
286f
25a8
2b72
24f4
2859
2d05
aa18
3023
acc3
2b7c
ae9b
2d0b
a97b
ac93
a61c
1d68
2bb1
9a3d
a69a
2c67
2bca
aa20
2b28
b18d
2a06
286a
2f50
2711
2911
3137
2e39
289c
2913
300a
3131
2968
2f10
2a7b
2e6f
293a
2146
2787
a9c0
b08f
2192
3144
2b54
aed7
2b40
a727
9fb4
2a00
b021
ac00
a5f4
313a
29dd
30ea
2943
2ef7
2bc9
2edd
ab50
2a9c
9f56
a7da
1805
ac00
9e99
2847
a3f1
2d78
2443
ac50
acf8
2f40
2d6b
a61e
2f5e
300a
ab0b
237f
2227
a949
2c0f
a8b6
2cb8
a9fa
a817
a1d5
2df7
2a5b
a7de
ae26
a47e
2f09
2e50
1db6
2c51
1a6a
2790
2b84
ab04
30f9
2cff
2e53
2475
a4f4
2c1b
a714
215e
299c
af28
b059
a8c5
9c58
aa72
2562
a626
2da2
a87e
2e59
20b9
2666
a105
2c55
a8ea
a1cc
a881
adc2
29d9
216d
2a85
28b2
aea8
28c9
2a05
a095
a935
2437
ac32
a605
2ce1
2ec8
adc9
a88b
aee1
2ca7
a58a
ac3e
2176
2466
a1fd
2d61
2ffb
1bab
2a35
2e2f
241d
af0d
2ac2
2aa4
2d25
2b5e
ab88
3128
a4c6
a83a
140e
3079
8d3e
af74
af61
aa72
b00f
2a88
ad7e
a5d6
2ab8
25d2
ac52
29cd
ae15
2003
a01d
ac5d
1ec7
a37a
ac96
a95f
a63d
acac
a915
a3c4
18d9
ac65
305f
9e6d
a1d5
201e
ad25
290a
2cd2
ac4e
23f3
a910
a903
22b6
1a23
2097
2e08
a8ba
a8bd
ac3e
2c92
1d90
20bb
a303
154a
ad9d
2b3c
acfc
2974
2b15
add9
ab06
2906
2621
26bc
2142
2210
292e
aff7
2550
ab12
a850
2a76
a50c
2c86
2908
1bb6
ac58
2eaa
2e89
25b8
2cc1
276b
2e27
9ef9
acd0
acac
b184
aa6e
aff9
3308
b0ea
9b09
aa36
b084
afd7
9eb5
9ba7
ae38
b079
26ed
b102
a469
b19f
b0b2
21f3
a8d3
ac48
2933
a8c6
24a3
af37
9016
a89a
a773
af2c
2a7c
abe2
affa
b08f
b0c3
af87
2116
b030
b0c3
2f59
23c5
ad18
adb4
a28f
a41b
b130
ac47
ac36
24b3
b0f8
a95d
9420
a73b
ae2d
aeb1
a937
abc2
25b6
a530
ad45
2d55
2739
248b
27e8
ae69
a58e
2816
2f2b
aed8
2bdf
ae0a
2ded
271b
2de5
2cfe
2cfc
ae8c
a1f5
ac46
ae35
aaad
231b
301d
2bd7
a632
2ea8
2bbf
ae53
ab11
3060
2f27
2df6
288e
aef7
a178
a0bf
a3c0
9e68
aaa2
2a3a
ab88
25b5
aa24
af42
a7ac
ad50
2f2e
a93e
2966
2566
b044
a873
a6d8
2c23
af14
2d60
2c39
a4ed
2d10
aacc
9bae
2c1f
a997
2ba5
24fe
2b84
2eb4
2913
ab88
ae45
a811
2c7b
2ed7
a4d8
b1c0
af4b
a3a7
27a1
a135
ae62
9f98
aec0
aced
ae0f
2aa2
2798
a57d
a6ca
a9bd
ab3f
1bc0
aef0
26c0
2f2e
af42
2c1f
b008
2e4d
27d0
aa54
abe9
2a61
aedf
ab67
aa3c
aa19
a856
29c6
2782
a09a
9d10
215f
29f7
27bc
a6e5
2a1a
9dce
2e48
ae2b
230e
2a65
b00a
9fcf
b464
2c49
a642
304c
a6df
29d3
2759
ac48
9bd9
2da9
2b6c
ade0
aa8d
a583
a446
1dad
ac9f
2e4a
a880
2e9e
ad80
b01a
1480
2ce3
af65
ac17
aa87
2d8e
ac13
abac
2f80
29c5
b022
1ea6
2885
ac96
3093
aa4b
a96a
2abf
2132
a2ea
a3a2
2424
2b8b
26f5
ad35
abc9
0b20
a994
27f4
28e8
2ee8
2a1f
2b6c
195d
30c0
a21f
a6cf
b07a
a9bc
a276
25b1
ac05
aa52
a511
ac35
2b0b
2c9e
a63c
2900
242c
2fe3
a927
2cb0
9f41
3058
b066
abb1
a72a
2e13
2ceb
2ffd
2be6
2f08
3025
9c55
ae2f
250a
a55a
2f4b
288f
212c
ae42
2d10
a9ad
ade9
2da9
300b
2a3c
2e9a
2973
aa1e
ae87
2848
2e04
2b41
aee3
2582
99fa
3052
3097
aec5
2f53
ae02
a600
2993
2940
30db
2fc7
aa06
aaad
2c49
af9c
a494
300c
30c0
abe7
a91a
29a5
2b26
ae47
2e2b
a52d
291a
acff
2b20
a5b7
a6ad
2cc3
20a9
acb5
2559
b03e
a888
1ec5
aba5
a625
2876
2bcb
29fc
aa2a
a8ff
26c2
265f
ace7
2a2d
2dc1
a608
2c39
2ab9
2c7e
28ab
a3b5
2ca4
a505
303e
1638
28ca
2e00
ab25
a4d2
297e
2941
2e81
a9cf
af6a
31b1
2cde
24ce
2963
ac6a
2f2c
9ff9
295c
92af
303a
adde
211e
2f27
21b2
29a3
ae77
186b
2fdb
2f5a
aafb
ad79
a181
a96a
a95d
8699
2ebd
2e18
316f
a2e3
2e77
abf5
2817
2044
2cf1
1b45
2d29
2d94
2f88
aab1
b009
aadc
2b37
ac52
ad82
2504
2ec4
ac1c
9e22
2d74
2a93
2798
aedf
2ff0
2e09
2e2d
2a00
ac05
2aa0
b1c4
2c11
2af6
2a4a
a314
a9ae
22c7
aa1b
aa92
a98b
2ed6
3074
2c04
a5c0
ace0
ae05
2c5e
a865
2d5e
a4a3
aced
ac9a
a37e
294e
a410
2d74
9cf4
a28b
23c5
2f6c
2d58
240f
2839
26eb
2be1
2c42
a5c4
2f83
2813
2fde
2f6b
29cb
2a15
1e48
a976
28b4
ac91
2c5a
2f53
2b36
aae8
2f3b
a825
ab06
2cc1
2eda
a983
ae5c
2f84
22e8
a8c9
2ead
26dd
9cad
2175
301a
a4f8
2f7b
2b8b
a449
1d74
2b95
1f7c
1c51
300e
3117
2c3e
263f
a869
2af0
96da
94fc
3135
29e8
28cf
abdf
a771
2e6d
aec8
309a
ae23
2f13
26e6
2879
2c57
2d60
2828
2c2b
2791
2f5d
293f
a36c
296d
af7b
a277
2ccd
2843
a697
a84c
ac20
28b2
a6f8
30f5
a551
2dfb
2c4e
24f0
ab16
aaeb
aa37
aacc
ad21
2347
b006
2f5a
ad4b
2789
2ecb
9d4b
93be
1f5f
a6f1
9c33
30d4
acf1
2a7b
9891
abc1
a86f
2eec
ab61
2da0
abde
a71e
2cfa
aab1
2a9d
aee2
2d8f
310d
2c9b
ac5e
ac4a
aea6
24a4
28eb
2abe
2603
2f9f
a5e6
2d9a
2b4c
ac85
20f7
ab4e
307c
2623
2420
2c1c
2a4e
2fa3
306b
ab18
af43
ab9d
2cee
2fbe
29bf
1fae
25df
1c6e
ad6a
2cc0
3027
2529
2e8c
ac89
2fda
9f6a
29b5
ac3d
a563
2eda
2450
300e
2e35
2625
ab4c
30b7
2630
291a
a996
283c
2aec
b003
2e8e
29f5
2f5c
2cb7
ac21
2dc0
2ef5
2c9f
a7fa
2e7f
2e29
2ecd
213f
a867
2ffb
a1b4
a9c0
2c9f
a89a
2c50
2147
2e0c
2d97
a942
2d9b
2805
a091
2c91
27ec
a4d8
2466
ab51
afb2
2c96
3053
a7b9
279b
2f04
2a17
29ed
ae88
2c2a
2e32
ad00
2f51
299c
a964
2820
29aa
2b78
2d3d
ac18
2819
2c12
3064
25b1
a58c
ad17
2a89
2a14
b053
2cfd
2b59
28af
3075
ac2b
a9c7
ada7
295a
a9a1
2e71
2194
b1af
3078
2c31
28b9
28d9
283a
16ac
