// HAR Model  INT8 quantized weights (symmetric)

// conv1d_1/kernel  shape=(5x9x64)  count=2880  scale=2.7463874948e-03
a5
c8
05
35
c9
1a
cc
39
52
e0
19
f8
aa
01
13
ce
11
b7
c9
3b
dd
d4
4e
00
16
30
3a
0c
c6
05
c9
c4
3f
c4
5e
13
06
31
d9
31
ff
f9
09
1e
17
ec
1b
f0
47
e7
a5
1d
c7
41
36
03
df
d5
53
53
ee
c3
c2
54
d8
fa
c4
31
25
14
de
ee
fb
10
c6
00
11
f1
ee
bc
bc
d3
fe
f7
e8
fb
cc
da
16
df
d4
19
26
dd
05
fa
06
1a
e1
d1
13
d3
ba
d5
33
01
dc
38
ec
1e
e8
2a
e5
f7
ef
18
e3
ee
02
ce
09
21
bc
bc
be
e0
40
e3
ee
0f
ea
16
c5
eb
53
06
1c
d9
fe
df
11
1a
07
e5
f7
3f
10
fb
0b
06
15
eb
fe
0c
f3
24
cb
ec
0f
f8
f5
b9
f9
d9
2d
23
3b
1e
1a
0a
39
f0
19
f7
1d
28
13
02
dd
f2
e1
2b
ea
e8
dc
c9
dd
f5
de
1a
d9
bb
e6
e9
e8
c5
30
2f
d9
d9
e0
03
e5
1b
1a
0a
e4
f1
f7
fc
d1
d9
dc
16
ce
f3
f7
d4
31
0f
21
16
1d
f0
21
23
ec
0c
2e
b9
ae
21
fb
e7
ec
e1
fb
cd
ce
eb
ea
fa
10
c6
f0
c6
f8
e2
f5
1c
ba
c8
0c
16
25
af
1c
11
e7
0b
f4
cd
ea
1a
1d
e6
35
de
f0
0e
0e
35
18
23
26
18
1c
f8
2a
fe
11
17
f5
03
bc
e0
12
f8
df
0b
07
28
c7
06
39
10
14
14
08
3e
15
12
0f
db
f6
2a
08
0b
05
f4
f6
15
f7
cc
0c
fa
f6
f9
f0
7f
17
dd
11
2b
c0
db
fd
1a
fb
ec
2a
dd
15
32
17
15
ed
e1
ef
23
cd
00
0d
eb
38
25
50
16
cd
d4
d7
55
ee
f3
2d
e7
0a
05
eb
48
c8
07
e7
d0
e6
f1
08
d5
18
da
fb
4e
0e
07
e6
cd
1c
c6
e3
0d
d8
fb
ef
b6
e7
e0
2b
ca
ce
bb
a7
21
18
c1
10
db
fa
34
3c
c1
f7
b5
c9
ce
01
29
1b
c3
e9
e7
35
1f
b1
3e
b6
d8
21
15
04
ca
fe
21
9d
1e
f9
37
ef
5c
06
3c
d6
f5
10
bf
c5
1c
ce
16
1b
f5
a7
b7
48
43
f0
02
0a
08
c1
f3
11
27
f0
dd
e8
da
0f
0a
e6
1c
1d
18
32
eb
bf
d6
fd
21
2a
10
fb
fb
c6
00
07
c7
29
31
ed
12
1a
fa
fa
19
c7
e9
de
e8
29
de
fd
32
14
eb
f0
11
cc
d0
1a
ed
16
f4
35
c1
c7
dd
b6
08
fb
bc
07
ee
06
f8
fe
e7
d5
09
29
4b
05
f8
24
e9
1f
0d
34
01
36
05
17
df
cd
2d
da
f8
17
1b
12
fc
e0
ed
f5
db
cc
e0
fa
13
fa
eb
2f
05
c8
14
20
42
db
10
22
fc
36
16
f5
16
f7
ea
1c
fe
02
fa
1c
47
13
ef
de
c6
fd
24
0b
d8
3d
1e
c4
d4
3b
3a
fc
e2
1e
b2
05
28
4a
1a
4f
e2
df
e8
cd
0f
da
07
b5
10
e8
c4
4e
b3
f2
ea
34
3b
d0
f9
05
da
05
0a
1f
ad
02
de
48
d9
12
28
d2
b3
cb
d4
ba
18
d2
2d
58
fc
da
09
1f
f4
e6
03
f6
d4
eb
0f
e8
ec
d4
2a
d2
cf
e5
de
d0
e6
e9
04
e5
ff
e5
f8
bb
09
19
e3
06
dc
18
ae
c2
03
b5
da
2a
f5
26
cc
01
12
d6
d8
f0
df
b9
05
c4
23
0a
df
f6
26
f9
c9
eb
d6
20
1f
bb
0f
d2
f4
00
20
1c
0d
ea
24
e3
dc
40
01
1c
0b
d9
17
20
36
f9
1a
35
f9
19
bf
ea
e6
db
ec
bd
ef
17
e0
ed
d9
27
c9
f3
ea
02
e3
cf
da
2c
4b
eb
fc
e1
e9
31
d9
3f
18
0d
57
18
ca
ef
1e
fb
da
f3
e0
f2
2a
15
f9
e6
5e
f5
07
dd
ba
eb
0a
00
cd
c5
18
f7
e8
1f
ef
ea
07
cf
26
c9
1c
d2
14
e8
2e
3c
d1
32
e9
07
04
cd
ea
ce
07
e3
f8
15
d3
f7
1d
dc
d3
30
1d
04
f2
ce
da
e8
0e
e8
e6
d4
cf
1f
2c
18
fb
b6
d5
f9
08
13
52
f8
d4
01
1c
14
f2
27
f7
0e
ec
22
0c
12
40
f3
14
20
f4
ef
e4
1e
e1
fd
ea
ac
1e
d1
48
ff
30
0e
d8
f8
f2
16
08
f1
e7
05
07
36
e0
df
27
27
4b
0e
1a
d6
3c
e3
d1
e1
fb
e9
f0
d0
e6
02
d0
21
e3
03
f4
e7
d9
d2
1b
e6
29
10
0e
1b
41
30
d5
21
2f
04
fb
04
f4
ed
ef
f3
0a
06
f4
f5
2e
4e
e1
e1
ef
10
13
fb
e8
49
b7
e5
27
03
ff
fb
e9
22
fe
23
f3
ee
2a
e4
20
ef
1f
ed
2d
fd
d9
e1
c9
0a
0f
09
20
d3
22
c9
06
ee
b8
e8
1e
81
fb
0d
ec
28
b9
2e
bb
cd
e6
0f
cd
e2
8f
25
f8
e4
e4
af
0c
03
fa
cf
f6
26
b1
c7
39
d4
36
bd
f7
03
e9
18
d7
f1
44
f2
19
fa
fa
a1
21
0e
97
1e
db
ec
0d
b7
ef
06
1e
c5
22
0a
fe
03
16
d9
c3
0b
d1
19
e2
ef
14
25
e5
29
0a
d6
d3
dc
fb
ef
e2
eb
fe
ee
0d
0a
1e
09
09
19
03
be
09
b8
e3
fb
d7
04
07
f2
06
cd
ee
df
fa
d1
14
d1
08
f4
d3
eb
1f
e1
fa
2b
df
00
e8
cb
ef
f5
e5
f2
1a
e8
f4
be
fb
c5
15
41
08
e4
ea
24
fe
16
18
f6
fe
e3
0b
ef
fe
fd
fb
10
1e
dc
f5
d9
d7
e3
20
2a
0d
0d
16
f2
0b
0a
03
0b
23
ed
1e
fc
1d
fd
b2
2e
0d
0a
14
e3
f5
0b
10
e9
23
f1
0f
16
e9
01
16
0c
1d
29
e1
30
cb
df
2a
22
db
c9
38
f4
20
05
af
b2
db
de
01
2b
eb
2f
fb
b2
f8
e2
ed
b1
fe
49
2b
59
0b
05
c3
c3
d9
07
e5
e3
e9
01
d6
09
0c
1f
20
48
da
a3
c0
3d
a6
19
2b
17
db
f0
f5
f7
ab
23
dc
3f
2b
0e
d9
ed
e6
e6
d6
02
14
fc
04
f8
14
0a
17
c1
07
f0
f9
16
1d
d4
e4
1f
ff
fc
f9
df
19
d6
30
bd
df
0a
d9
2e
c4
f0
26
40
db
f2
01
cb
48
4c
27
e8
e7
27
dd
00
3c
02
59
2a
f4
ed
d3
12
25
0c
f6
1f
15
07
de
37
09
d5
28
06
0a
df
2c
de
c9
1a
22
2e
0d
e4
da
df
23
e3
cf
2b
32
f5
c6
f3
de
27
e5
fa
1e
24
f8
cf
ed
c5
e8
d9
1d
15
d9
e3
04
25
e6
09
18
ea
25
30
f4
01
e9
ff
1f
e0
e4
ca
ec
d6
f8
23
d4
d0
1a
ff
09
03
17
ff
fe
c7
ec
06
20
08
0a
23
d1
f0
fb
fe
00
ec
1c
c5
f2
db
ff
ef
46
29
f7
da
ed
1d
01
21
1a
f1
04
17
e9
05
15
cb
d7
13
ef
e8
dc
f8
10
cd
e1
e5
09
12
15
fe
1b
eb
f1
f4
29
fe
33
cd
02
f7
12
10
16
f8
b8
da
f5
eb
c9
01
f4
f0
dd
fa
01
ee
0f
e7
d0
0f
0b
05
28
fd
e2
f0
0b
e5
de
f5
f6
cc
09
f3
e3
cd
0c
3a
f3
1c
22
07
12
e8
ec
ee
07
3d
d7
ca
db
13
f4
03
12
d2
e3
fa
ef
eb
ed
31
20
ea
cb
57
0c
05
cd
e8
2a
ec
03
23
e5
cd
ec
37
fe
22
c2
33
e1
d6
27
bb
0b
d8
07
ea
14
35
d3
04
17
1c
df
be
ec
fc
02
1f
ce
f1
13
32
12
22
1b
c3
3e
59
bb
2e
f5
fd
17
07
13
02
d6
30
2f
0b
e7
2f
fd
fd
da
dc
b8
ec
bf
cb
c5
18
0e
49
f7
d1
b6
e3
c6
11
e2
42
de
d0
d0
9b
06
b8
fd
cf
3f
23
bc
89
07
c7
16
12
de
ab
e9
e6
ad
f4
31
a2
05
15
27
ca
fd
da
a3
05
f3
f8
b3
cb
12
dc
ee
bf
cb
20
39
2f
db
ee
d0
e2
0a
f6
ec
20
ed
3a
ef
20
2f
de
08
1b
12
fd
0a
34
d7
07
c6
04
0e
30
fb
e5
f6
06
da
e2
1e
28
fb
10
fe
19
eb
dd
15
ed
4e
f3
ca
06
ce
14
21
c2
13
12
38
24
f1
f6
cc
0e
2b
09
02
0f
c6
d1
bf
f0
17
dc
27
f8
02
00
eb
ec
1e
18
ec
e0
0d
eb
dd
08
eb
10
04
2c
0a
0c
06
ff
1a
e9
27
0b
f8
f8
ee
ed
d0
e7
d3
b8
1c
fc
10
e2
44
1d
e6
dd
12
e3
de
f8
fe
e6
11
1b
08
1c
f8
e9
12
f6
fc
d5
ef
ef
cb
fb
f3
b9
be
2e
13
be
2e
d2
d8
c7
2f
de
c3
be
c6
ca
fc
e0
ed
23
d1
1c
fc
fe
f2
d7
05
f8
1a
f0
d2
a6
d8
e9
34
f8
2c
d8
34
12
f5
e4
42
c0
b9
07
aa
1b
57
a8
e5
2d
f7
32
ca
d3
16
fb
11
dc
e9
f9
fd
e6
16
4e
0f
f5
d7
1f
d5
c8
44
18
0c
11
d3
2a
cd
fd
c2
dd
db
ce
1b
cd
ee
ed
f8
ef
28
10
ee
23
1e
15
13
cb
bb
e0
1c
22
f3
eb
02
3b
e1
24
ee
02
0c
3a
ef
37
d7
14
d8
d0
10
d0
b3
32
cc
f7
24
18
07
07
0a
da
0f
f4
36
1b
09
f6
db
f6
0b
25
10
f4
f8
0c
f3
14
ff
21
25
de
19
ff
2e
fa
e3
ef
dc
da
d9
e1
ec
e6
e1
14
0d
eb
f7
09
ff
10
30
e3
10
26
0a
ea
14
fe
e8
01
32
07
0c
0b
43
01
08
ea
4b
c1
0d
fe
e9
2e
1c
e2
fa
db
cf
ec
35
23
e1
e3
f3
1c
0a
02
07
e9
03
cd
ea
13
f4
ea
1e
12
15
fa
13
17
1a
03
2f
09
e6
de
ec
19
05
14
d0
ee
e6
ce
17
e9
d9
0b
fd
fc
f9
26
0b
05
39
df
eb
13
36
17
12
24
e9
df
c7
05
de
e2
b7
f4
00
0e
ac
ef
c3
02
f6
05
16
11
2a
36
c5
01
ff
fc
42
ef
f1
e2
09
ff
d9
e1
32
f6
07
f7
dc
12
e3
01
d1
ea
09
da
fe
09
e2
df
fb
1b
e2
12
f3
1f
f3
e9
02
05
29
00
ec
e9
a0
31
d2
04
eb
27
0e
1e
f8
ec
cd
e1
02
17
f7
10
dc
02
0f
10
47
f8
e7
27
fe
16
13
ec
1f
fa
30
ea
e4
08
04
d3
be
f6
06
ee
04
25
03
e8
30
24
d6
f8
fa
fa
cc
2b
13
23
e6
0f
e8
ee
08
e1
c6
fe
08
1b
47
31
02
26
e6
b8
d2
26
f5
bd
d9
d6
0b
dd
1e
f4
a7
95
da
c1
19
f7
12
d9
fe
c9
22
23
37
c9
03
e4
cd
ba
c8
c4
f9
b3
10
c6
02
be
2a
25
59
c4
fb
c1
e0
1e
c4
04
04
f4
f4
3a
98
c7
0e
e2
d1
c2
11
f6
e3
14
d0
fb
10
1f
29
da
f0
06
dd
18
1b
03
2f
fb
ff
43
d5
e9
ce
28
db
f8
eb
de
dd
dd
f0
f3
40
37
e7
4c
11
1e
ec
f9
df
ba
0e
1a
20
e1
63
34
f4
0b
0b
15
22
12
e9
ea
2a
24
08
ff
14
1d
ec
15
dc
28
fa
12
10
f5
dd
2a
dc
fe
07
fe
20
02
d8
13
e1
0c
0f
fe
f9
e5
1f
20
ff
0c
f8
0b
10
13
f2
ed
ce
f3
1a
f5
10
fd
d6
ef
dd
0f
0d
1d
ec
f6
25
dc
07
01
ce
e9
04
ed
fb
18
c3
0a
0a
f6
06
e7
16
03
0d
07
1a
09
e7
13
c4
00
2d
2c
00
33
4d
c1
f3
d2
14
10
27
ef
db
fe
e9
ea
fd
f1
06
d0
23
0c
09
45
30
07
ce
0c
32
e0
09
d2
f9
51
14
b5
3c
0f
de
13
0f
a2
f3
4f
dd
bc
48
fa
d6
f5
f2
c6
d4
25
37
d7
17
ce
18
09
d7
25
cf
03
2e
1a
ec
fb
f1
de
e3
48
14
fc
1b
fa
27
dd
3c
18
ee
46
3b
4a
c1
02
30
3a
21
11
32
d3
01
c9
d2
14
e5
ce
ca
dc
f7
2b
fe
e8
20
d5
07
d8
d9
3d
e6
02
06
26
3b
17
34
b2
d5
d9
f8
1c
32
1c
1d
eb
cf
06
e0
11
0a
f8
dc
ee
d4
fe
22
e2
1a
f2
cb
1f
05
2e
08
f6
00
f2
df
fc
de
b9
d9
f6
0c
15
3d
33
de
e6
ac
f3
20
f7
e3
e7
27
28
20
1f
c0
12
04
d7
ef
3b
e6
19
e9
c5
01
da
f3
e0
e5
1b
0c
d6
ee
e8
e5
24
f8
d7
06
ed
da
f9
0b
27
c8
f8
05
fc
2d
08
3f
e3
08
01
0d
40
e8
17
d4
01
25
f3
19
fa
0f
10
0b
25
f6
07
f2
f2
f3
e6
15
cf
f8
f3
13
f0
ff
09
30
07
da
34
07
16
07
d8
ea
e2
14
1f
20
2a
e5
01
f0
13
ff
f0
f7
d6
f1
0b
e9
ec
f7
c1
01
f7
ce
f3
f4
0e
e8
e1
d6
c3
2b
0a
03
cb
d7
0d
1c
02
2f
45
f5
07
c0
fb
e4
f5
0b
1a
1e
00
f9
24
c5
db
f2
ee
cf
23
ff
fa
b1
e0
f2
07
dd
e0
ea
fc
54
e8
03
d5
1b
fb
e0
35
21
24
c5
dd
e5
06
fc
09
2e
ff
f0
fd
0c
cd
0f
e1
ef
f7
04
0a
c2
1a
d8
05
0d
ed
16
dc
ff
fb
09
39
11
1c
2a
08
fc
de
ca
e8
24
21
06
f2
24
ed
b1
e8
f3
e7
f5
d6
f6
f9
1d
e0
c7
ee
fb
12
a4
02
cc
eb
d6
1b
cf
1a
05
11
21
f3
fd
dc
c1
e8
bf
1f
de
d8
d6
a8
e3
cd
fa
e1
fd
24
b6
c1
fe
d2
37
90
2c
fc
f5
e1
e5
41
e9
cb
ef
c7
0a
e1
23
fa
eb
e0
e6
30
ea
d2
c8
f8
2b
00
4e
f5
15
10
dd
e1
f1
07
17
c9
d9
c6
1d
22
e3
20
e6
18
16
0d
19
13
2e
f3
e4
f2
27
04
07
f8
e9
e8
15
dc
ee
ef
f2
bb
0e
fa
0d
fe
0e
0a
ea
da
fa
fc
ec
e1
22
e6
fe
3d
f8
f5
c4
0c
1f
27
20
d8
cc
de
14
1a
d3
21
05
ec
0a
00
f4
bd
0f
2d
fa
fe
42
19
1b
02
fa
cd
e0
05
00
2b
37
ec
ad
c3
0a
01
d0
1a
e7
f9
ef
09
23
f9
04
0f
cd
1b
0d
09
13
04
15
12
fb
04
d8
f9
f6
ca
02
45
0f
05
c3
cd
00
24
1b
f3
f1
0a
0d

// conv1d_1/bias  shape=(64)  count=64  scale=9.2183898284e-04
aa
d7
e2
d4
90
8e
d9
a4
b5
c2
a9
84
98
a9
ae
ad
a6
b1
81
aa
b4
9d
bf
87
96
94
9d
ec
ab
b4
a6
a3
a0
c1
9a
de
9c
df
8f
9c
9d
85
ee
17
a7
f5
c6
c3
9c
a1
b2
b3
94
ca
a0
ad
b7
b9
da
a6
9f
a7
a0
2c

// conv1d_2/kernel  shape=(5x64x64)  count=20480  scale=3.9120119388e-03
05
21
22
f8
f8
17
1f
f6
06
1b
fb
0f
17
09
41
f6
ea
14
19
08
17
e3
12
ec
13
ed
05
14
f6
13
17
e9
fc
46
15
17
f8
16
0d
0c
f5
1b
fb
0c
18
2d
1f
fa
1f
ed
f3
0c
1f
09
e7
09
f2
e8
f5
fd
f0
1b
04
14
ef
ed
0e
04
f9
e0
f9
f9
fa
1a
fb
11
15
03
1c
fa
09
ef
fd
fe
22
fd
14
15
f2
f6
dd
f8
f2
27
03
f7
f1
18
15
07
12
f6
09
08
ed
09
2d
17
07
fa
fb
e8
0b
12
02
ea
ee
03
06
0f
11
12
f0
e5
f3
12
f2
03
0a
f0
ee
3b
1d
19
ee
f6
fd
11
04
f6
0c
f6
ed
16
da
0e
e4
f8
14
0d
f7
0c
08
04
19
f3
f1
0a
fa
13
12
e5
01
19
0e
fb
0a
1d
f9
f4
03
f1
ea
e9
1c
f0
0c
00
09
07
ff
0e
c7
ec
f8
e4
f2
e5
0f
0c
f8
f8
13
30
04
c5
f4
ec
08
2a
ff
fe
20
2f
f0
f6
22
fb
2a
0f
0d
08
07
20
01
20
f8
16
03
12
f2
e3
fe
f6
27
f4
0a
13
1c
1b
d2
1e
e1
0c
ff
ef
02
28
f7
01
05
e8
10
09
1e
00
e3
19
07
ee
fc
ea
fd
0b
05
0d
21
0a
02
c1
19
f4
0d
1a
29
1b
ff
14
08
fb
f5
cd
13
1b
1f
11
21
37
17
ff
0b
0e
11
06
1a
14
26
08
f8
19
26
16
21
08
e9
f7
03
fc
1f
20
09
02
0c
f2
26
18
13
03
0e
f0
15
fb
14
f1
17
05
29
20
fd
2d
16
23
0f
23
16
0b
19
1c
01
00
13
03
24
fb
20
f5
02
1b
12
00
0c
17
e3
2a
0b
18
e8
12
f9
f6
fc
02
1e
f9
03
f8
06
04
e9
09
ff
1f
e6
24
fd
0e
23
0c
19
07
18
20
05
ee
00
25
0c
e2
f5
dc
02
0a
fd
28
22
0e
36
35
09
01
1c
22
ff
16
1d
27
03
0b
35
21
23
1b
ee
11
08
1c
0a
2c
04
14
eb
08
ef
08
20
f3
1f
f9
17
17
12
17
20
17
f9
0c
ff
fc
16
3b
04
0d
fa
0e
f8
13
2c
fe
09
13
1c
e8
08
08
18
26
13
10
f6
f5
03
29
05
02
08
ff
f2
ff
f1
ea
fb
e2
01
1b
fe
27
f9
f3
fd
26
fa
00
20
05
d5
08
d1
22
e7
ee
1b
ec
f0
0b
0b
19
0b
fd
12
f4
28
0e
e9
15
22
fb
08
fe
07
ea
1b
ec
f0
12
1b
05
14
f9
0e
03
12
11
f7
fa
00
f5
0b
fe
0d
fe
14
27
1f
f3
05
ec
ec
e4
17
1e
15
ff
f6
2c
0f
10
12
12
ea
1b
1f
0d
13
06
16
f5
2a
06
09
fe
f9
1d
f0
0a
f8
26
fb
12
01
e9
f8
04
0f
fb
05
04
0a
fe
fd
f7
08
05
02
0f
0a
f4
2d
08
1a
bc
f3
11
00
05
16
fc
0c
0f
09
08
26
06
2a
00
15
15
14
08
16
2d
f7
fb
eb
00
18
08
16
05
0d
f7
38
01
30
16
ee
04
e8
f7
e9
16
0e
38
2a
fb
1b
05
00
1a
13
fe
24
0b
04
e3
04
d9
28
f8
03
01
fd
11
08
0b
fd
07
f0
00
f5
12
ec
e7
14
0e
16
e8
fd
e0
ef
e4
fa
16
f4
04
02
e6
07
06
e3
02
f2
e4
f0
18
f9
e7
d8
06
f1
0e
15
ea
01
fb
e3
e5
0c
07
ed
12
07
07
ef
06
07
12
f8
ea
ec
ed
ff
0a
fd
ee
12
10
f4
28
09
17
09
19
06
f2
00
36
28
ec
17
fb
2c
fd
0a
15
17
04
ea
03
0f
e5
0e
07
22
0d
ff
05
2b
f0
1b
01
05
01
fb
01
f7
0a
08
03
1c
f5
27
05
e7
0e
0c
05
fe
01
f5
0a
15
e6
fc
0d
0a
15
dc
28
f2
fc
17
14
f6
f1
18
f9
e3
2d
f8
ff
ff
f2
19
f2
ed
00
fb
dc
09
02
12
13
19
02
e3
06
03
1f
0c
06
ea
12
f3
f3
fb
e1
f7
0c
0e
10
0e
14
f8
11
12
08
1b
13
fe
20
f6
17
20
f8
fa
02
f8
02
13
ff
e7
0b
fd
f2
07
19
00
08
fb
06
f5
f7
e0
dc
18
f1
e8
11
f1
03
05
db
f4
09
eb
e6
07
e9
e7
06
d2
14
0d
ea
22
d9
fd
f9
db
ef
1a
09
e6
09
05
02
07
e6
02
eb
0b
03
1c
00
07
e9
e2
02
ee
0c
0a
04
ed
0e
1a
ed
e0
10
f9
1c
22
eb
f4
0a
f8
08
fb
ef
f0
e5
03
12
fa
00
fb
e7
13
18
fe
f4
16
10
f9
f0
dd
f1
e5
10
18
eb
0d
13
11
ed
0c
07
05
f1
07
e5
fe
0c
18
11
e8
f2
f6
e2
15
e5
e3
10
03
f6
f0
f5
0a
ef
0f
13
03
19
04
09
18
e3
07
fb
0a
0c
0d
17
f9
0a
19
fb
00
fe
13
ea
02
18
f9
27
ef
1c
f9
19
06
fe
05
0b
07
25
1a
fd
1e
1e
f7
dc
02
fc
0f
0c
0a
37
19
01
f1
f9
19
1f
2b
00
0e
24
f4
f7
0d
e8
f7
07
1e
0a
16
07
10
fc
f3
17
10
1e
16
00
f9
03
0a
06
41
fb
04
01
0b
f2
17
1b
fd
13
04
0d
eb
15
04
f9
22
f9
fd
38
f8
1b
f5
18
fd
05
f3
06
0e
09
f4
16
17
ec
05
f5
14
17
21
f9
13
00
1d
f5
f0
f5
17
f8
f8
15
1f
2d
21
e8
07
ff
f9
17
1a
1b
0a
08
15
01
11
f6
1b
0e
08
0f
01
2c
f8
10
f8
1b
0b
27
02
f6
22
17
08
f4
21
0f
11
06
ea
0c
18
fc
f4
f8
0a
24
f9
06
fc
fc
ef
25
23
11
f0
00
fb
0f
ff
05
02
f9
01
0f
05
f9
fd
05
f3
fb
14
02
f2
22
1d
11
03
13
04
e6
29
fd
05
0b
f1
0a
08
06
f6
01
0e
20
09
08
03
05
07
ef
f2
fe
1d
23
03
d7
ee
00
f8
14
0d
1e
00
0e
17
fb
1d
f8
08
f5
26
25
f6
f1
1e
f4
f9
17
03
20
19
13
1d
e6
1c
f2
ef
03
05
f0
0a
09
0a
ed
19
f3
10
f1
11
12
26
04
f9
06
0a
17
e6
09
f4
f5
1d
ff
fd
02
1e
0e
18
24
f1
ee
14
10
e8
20
23
47
02
11
0f
07
e8
03
fd
03
00
11
1b
fa
fe
fb
02
0f
39
06
f8
e7
f4
01
08
08
1e
05
fc
10
e5
0b
ea
13
1d
02
12
00
e9
03
1f
02
02
e5
22
17
1b
09
15
26
10
e3
10
2a
f0
0e
07
fc
09
1b
25
f6
27
0f
0b
d5
21
ee
1c
f8
03
10
f0
16
24
ef
fe
08
ee
01
0b
f7
f6
f3
0a
0d
ec
f0
f9
e5
05
04
fd
f4
05
04
0d
0b
18
f5
0c
f8
0d
0a
19
ff
f3
15
f9
06
fe
1a
00
ff
fe
e8
f4
14
fd
f9
f3
0a
1f
f4
14
01
1e
02
ee
12
00
ee
0c
0a
17
e3
fa
e9
e9
04
12
fb
fa
f5
16
f7
f6
25
fe
04
23
e4
1f
11
23
f6
fa
01
1f
fc
ff
f4
2e
f7
15
1b
07
fc
11
19
f3
20
fc
10
0f
0a
e0
22
07
12
18
0c
2d
f7
0e
21
0f
01
eb
17
0f
28
13
1c
0f
f6
1a
e7
f5
00
19
ef
07
25
25
05
07
f8
2d
1f
2f
14
2b
ff
0d
e1
1a
1f
1f
ef
f6
00
00
07
11
ff
41
f2
07
06
fd
ff
08
0a
11
23
13
0b
e5
24
02
07
f9
10
10
e9
1a
1b
fb
00
f4
11
09
11
11
06
f1
2c
1f
e8
fb
f7
1e
20
f5
e5
06
f4
fb
03
10
e0
04
ff
ec
1e
2f
11
17
ea
22
ea
09
1a
2a
ea
fc
2f
12
fd
3c
f9
2c
21
eb
fe
23
1c
f0
13
fe
f0
fe
34
06
00
09
fa
00
e5
27
05
0d
2a
e0
1d
01
ff
e0
fd
0c
31
18
e8
f1
f5
f0
0e
2b
f1
c5
11
25
e9
f7
ec
2f
10
0d
2a
0f
fb
ed
4a
f9
e7
13
ee
ed
1a
f0
e3
fe
ef
fb
f2
05
f0
07
08
19
11
f7
e1
f6
ea
01
13
fb
08
fd
fd
10
f8
0a
fe
e7
e4
07
fd
16
f8
fe
0f
0e
f7
fc
fb
e6
e4
f9
fd
f6
11
ea
f5
f2
f4
fe
fe
f1
1a
00
f8
11
06
17
ce
06
12
00
f8
1c
1e
ee
f2
13
11
32
d3
0f
28
0d
04
14
11
ff
2a
01
04
09
1f
ee
23
17
0c
1a
ef
16
13
04
10
1c
1c
0c
fd
fb
0b
0e
31
0d
ee
04
ea
f7
f0
fe
e7
08
f3
21
f3
01
fa
16
fd
01
1d
de
e0
eb
70
e6
0c
ec
f2
fd
02
e9
fd
15
f9
d5
21
db
ea
f1
d0
f8
f6
e4
db
03
f0
08
ec
be
eb
d9
e1
1f
06
08
ff
f8
e3
12
0e
e4
dc
fe
f4
ff
e1
00
f4
07
f6
fc
f0
05
05
db
07
fd
e3
07
e0
f5
e5
ee
eb
1a
29
26
ed
14
f6
04
0d
fb
f7
ea
30
1b
02
3e
de
2c
f8
f2
12
f3
04
0f
1f
10
16
ff
0f
1b
f7
1a
f7
06
23
2f
f6
fb
1a
dd
05
eb
ec
e4
1b
07
18
1e
ef
15
e2
f6
26
1d
06
ff
f8
16
07
ff
f1
1c
fc
fa
f6
22
01
fe
f8
f5
fe
21
17
14
28
f3
fd
16
15
3d
d1
05
1d
14
02
06
f6
f1
0b
18
13
f7
01
0c
0c
0e
0a
ef
11
10
f8
1c
11
f3
0f
00
f5
02
13
0b
f9
14
e8
0d
13
ee
16
15
ec
0f
08
ef
e9
f9
0d
07
00
ea
f7
02
12
10
fd
0f
08
04
0f
fc
f8
22
05
31
17
fc
ea
16
15
10
05
ff
0c
13
ff
f8
0c
ec
0f
1d
f7
03
fd
25
fc
00
12
fe
17
ec
ff
16
1f
24
1a
fd
fe
01
10
0f
ec
1a
22
16
ef
33
10
10
ef
1e
1e
31
2b
d8
33
f6
1e
02
21
17
f1
12
20
23
f5
26
31
23
ea
33
11
17
08
08
01
19
15
f4
25
0e
1d
08
04
df
09
13
03
0a
f0
22
01
28
1c
ee
14
eb
0b
e7
02
0f
31
ff
0e
29
f3
0a
01
0a
ec
0d
2a
2a
02
f9
f2
18
1e
15
2f
f5
21
11
0c
0e
15
0f
16
02
fe
0a
fd
fa
fd
06
d1
0f
fe
0f
fc
0e
28
10
fb
16
f1
07
14
04
f3
00
1c
1a
ff
f1
f9
0f
23
04
f0
e9
11
14
f3
1d
08
06
07
f6
fa
0d
05
21
0c
e1
17
fd
ec
0c
f9
16
1c
04
1f
e9
ff
06
5f
f2
01
fb
04
05
09
ff
f1
11
f1
e7
16
f1
1d
0e
12
0b
f3
0b
e5
f7
07
02
e4
22
05
02
f9
ee
fd
e3
ff
fd
f2
22
f5
0a
f6
13
ec
0c
e2
27
0b
0d
17
fd
fd
0f
fb
25
0f
e9
10
12
0f
e7
14
f5
ea
2a
26
02
1d
12
07
1f
0e
1a
ec
fb
f3
1f
01
ec
fd
f3
18
fc
f8
17
43
17
23
1b
0c
0e
04
f6
27
05
06
fc
e8
ed
10
18
1a
fb
1d
17
f1
f1
16
17
17
08
0c
00
ee
03
07
13
ec
f2
13
1a
da
1c
04
17
14
fb
1b
0b
0d
fb
e2
fa
0c
19
f2
09
02
03
1c
26
10
15
ff
ef
e9
f7
07
fe
34
0c
f3
0e
04
2c
2b
1c
07
03
08
f5
1a
05
1a
18
ee
d9
01
20
0d
1b
10
f5
fe
22
ea
f7
1e
15
06
fb
0f
18
15
df
e0
10
f7
32
19
cd
1c
23
18
26
fb
1b
dd
01
08
18
fb
fb
1b
0a
03
32
fa
09
f4
e9
16
06
2f
0a
1f
06
f0
ee
23
e7
05
fa
15
fe
10
1d
00
13
1c
02
fb
19
f3
fc
00
05
28
fe
f7
06
e3
1b
16
fe
05
0b
12
19
f5
f9
f9
1c
fd
30
11
fd
fd
1c
0e
0b
04
15
03
04
21
12
ec
fb
01
05
ee
0c
04
1d
15
f6
17
05
f8
1b
1a
00
00
fe
16
f1
01
02
ff
f6
fd
22
fa
12
17
fc
f8
10
23
f9
16
22
ec
06
11
1c
f8
f8
f3
06
f7
02
0a
03
fb
2d
1a
16
17
05
23
2e
de
19
e3
06
08
1e
15
21
1c
28
07
30
0c
0b
00
f8
22
02
3d
13
26
12
22
f3
30
09
1d
20
05
0f
20
1d
fd
20
0b
0f
06
e9
f8
05
fd
0f
3d
15
08
17
ef
1b
0f
07
f1
0b
09
11
fc
fd
08
34
04
38
29
f3
f6
0a
d9
ef
0c
0c
0c
f8
00
0b
09
19
15
19
e7
19
25
f0
f7
0b
06
e6
06
f6
e9
e9
fa
07
1c
00
ff
17
e4
f0
eb
fc
fa
15
1b
fc
fa
ff
08
09
fe
f1
02
df
f2
09
f9
01
01
f2
ef
02
ef
10
ed
f4
11
03
fe
1b
02
13
d7
07
1d
1b
0a
05
1f
1a
07
f8
f7
04
f8
32
07
f6
f2
20
30
04
11
15
15
fc
17
1f
00
0f
f5
07
fe
07
10
02
f9
e6
24
0d
1c
0b
1d
f6
0f
0b
0c
23
ed
1b
07
13
18
0a
02
f9
fd
1a
fd
08
00
e5
20
dc
fb
f3
30
f8
11
11
ff
0d
03
04
f2
f8
f0
ee
fd
e5
22
0a
fb
07
0f
0e
08
1d
02
07
ef
f7
21
0a
e3
0f
e8
26
06
f1
fd
00
1b
ef
fc
0f
ee
11
02
04
f8
f2
06
fc
08
09
e9
ed
01
09
04
18
e1
17
f4
1c
ed
02
0c
0a
19
0c
13
ec
f3
14
f3
df
f6
15
f9
29
f6
e8
00
20
0a
07
f8
ea
fc
ed
e4
0b
0c
d1
09
f4
f5
17
04
2c
fd
0e
06
01
1d
01
02
fe
fc
00
16
13
ff
12
f4
14
0e
12
f6
fc
07
dd
06
05
ee
20
04
fb
16
f5
fb
0f
81
d6
f5
1a
fa
0b
06
e1
ec
00
f0
34
e8
0b
e4
ff
f8
fb
02
0c
ec
14
ff
1f
0f
fc
09
0e
f9
f4
3c
ea
ea
02
f1
b9
29
eb
fe
0c
0d
f1
fc
e6
dd
f3
f3
05
1a
07
f2
12
fb
ef
f4
15
0c
11
fe
02
fe
13
0f
0b
03
07
f8
19
21
0b
11
0e
f6
05
f7
1d
00
18
f4
03
00
fc
0c
11
1a
19
e5
f3
f4
ff
ea
06
15
14
13
f0
00
03
ed
00
df
ee
00
ef
f8
0d
11
18
f8
f2
07
03
fd
17
f4
ff
fe
17
05
ed
ee
fa
17
07
0d
18
e4
f9
2d
17
f7
0d
f8
06
0d
ec
1b
0d
f6
f1
22
f8
05
fe
04
f3
21
03
10
14
06
13
05
e1
11
19
08
16
e6
0e
03
f3
f6
0d
08
18
f6
06
14
05
f3
fe
f6
fa
04
07
fc
02
11
0f
0d
ed
05
09
04
03
08
e3
ef
2b
1e
02
c2
ff
f4
09
22
1f
01
14
1c
09
f5
3e
0c
22
fc
16
f5
0a
12
ed
28
f9
f9
f1
fd
0e
ef
01
0a
1e
fd
f8
fe
07
0f
f5
17
13
09
fc
1a
f6
1f
ff
ec
13
e9
1e
14
24
f8
e2
22
1f
e4
0f
f0
0c
08
fd
16
0a
0d
1d
16
03
0e
0f
1b
fc
08
e2
0d
08
f2
36
dc
f8
0b
ff
ef
10
10
0f
12
f9
e9
e3
19
e4
1d
f9
f3
f6
0e
1a
06
fe
14
f5
18
f7
06
fa
0c
f5
17
10
f5
fb
fb
f3
20
1a
e6
05
f6
ee
13
11
f6
fe
1f
ef
fb
f4
10
01
e9
14
09
12
0b
0c
1e
f3
f3
02
04
09
e9
00
2a
16
06
00
05
ea
1a
0e
f6
ee
05
d7
14
09
0b
25
fa
0c
15
f5
f7
fe
02
f7
19
06
0f
22
1a
0e
eb
f0
08
14
ee
06
03
fd
0c
fa
e6
15
da
10
03
18
16
15
04
02
ad
0a
e0
2c
20
19
13
19
25
00
e6
27
e2
01
02
f9
07
fb
2b
16
02
1f
22
0d
ff
25
07
fe
f7
0e
06
0d
01
03
07
ef
22
fc
f9
02
1e
f6
2d
fb
ee
20
18
20
fc
19
fd
1f
f2
06
ee
fe
fc
1a
07
fa
0e
16
f9
28
d9
05
08
15
f3
f3
16
08
14
14
14
2c
ed
08
03
fb
fb
05
1c
11
f8
05
f9
f7
10
0a
fe
12
f2
15
01
18
16
16
1e
f2
09
10
19
08
0e
1f
2d
1a
00
23
fb
15
22
0c
f9
fd
17
24
12
ff
da
0b
f8
eb
fc
1a
1f
29
e3
04
0a
12
08
31
22
0f
fb
20
ec
31
fb
17
33
fe
1f
0e
0f
f8
20
09
1b
e6
0a
07
1b
26
22
24
d7
37
21
28
0e
ed
18
02
10
f8
0c
25
30
02
f8
15
11
0d
12
2c
04
16
10
1d
01
ff
d9
1e
07
44
24
fc
f1
00
20
10
ef
f9
10
eb
11
04
18
10
f6
01
0b
f5
f5
f0
ff
f4
06
13
0d
1e
0d
e3
0d
19
fd
17
e6
16
e9
f4
f2
fb
fa
29
f6
0a
f8
fe
f8
09
ee
0a
e5
18
0d
18
ec
0a
07
22
09
f4
f4
13
e2
01
ef
f4
10
10
1c
ef
f4
0a
09
17
07
ff
1e
ea
04
04
f6
04
ed
eb
f1
fa
ff
01
33
fb
1a
fe
06
03
0b
d1
f0
1c
10
11
05
f5
fd
ed
f5
ff
14
12
fe
14
16
ee
0e
f8
00
eb
f6
01
0f
17
03
0d
fc
0e
f7
0a
00
1a
fd
17
eb
1c
19
f5
dd
e8
eb
1b
f0
fe
0f
09
ef
e9
0f
22
e3
05
f9
e8
f1
0e
f1
1c
12
f9
ff
0a
ed
f9
08
11
db
14
0a
16
f3
fa
00
fb
11
12
e6
04
1a
06
10
15
07
e4
e1
17
f4
f7
dc
f8
05
f5
ea
13
dc
eb
17
00
f3
1a
0c
16
03
14
ef
f7
0e
04
f6
f7
16
1f
00
1c
f0
0a
02
18
e7
1b
30
0f
17
06
ef
fd
26
09
fa
1f
ef
10
f6
18
fb
09
21
f0
f9
12
03
f2
1d
09
2a
0e
0f
ee
fc
21
2a
15
02
21
10
28
05
f7
e6
05
fe
19
fd
18
08
09
e6
19
fe
14
0b
04
f4
0a
0f
01
11
08
0e
f8
f7
fa
f5
fd
15
e5
25
13
ed
e4
04
0a
f3
12
f8
0d
fe
0b
06
25
0d
db
f7
ea
0a
eb
02
29
27
14
e8
12
ed
f6
29
25
0a
0a
fc
23
fe
1d
0d
08
fa
01
09
fc
14
00
fc
15
f7
08
f3
fe
1f
00
11
19
e7
24
fb
08
0b
f2
e7
02
00
0c
fe
f2
0d
fb
16
fb
13
fd
eb
f0
20
0d
00
0a
0f
ff
19
10
1a
f4
02
08
12
05
e6
fd
f5
fc
23
1b
ff
16
21
28
03
16
f7
0d
f4
05
18
21
00
04
00
00
27
1b
0a
fd
21
01
fd
16
ee
12
ee
f8
15
09
f7
20
40
0d
13
f9
fc
0f
24
eb
fd
04
ee
fd
01
03
13
24
05
17
26
10
00
1f
2c
fe
02
fd
e6
19
ea
f9
22
0c
fc
04
1d
f8
02
ff
0c
27
27
1e
0f
1a
16
07
fc
2b
1f
1a
fa
08
15
0e
fa
18
f0
fd
ff
e0
26
15
06
27
04
00
fe
03
16
ed
24
cd
0b
f4
14
04
f5
0d
0e
11
ee
fc
fe
0b
f9
22
22
fe
03
0c
ec
d8
05
0a
f8
0b
18
19
0e
e7
fb
12
f5
13
00
15
08
20
24
ff
e4
e3
09
fe
14
1c
06
07
f7
f2
ef
f6
e3
f9
04
fc
19
19
0a
e4
fe
0b
ec
ee
03
0c
0b
14
f1
f3
1d
e3
05
0f
f0
e4
e6
f7
0e
04
0e
fb
08
f4
f4
0c
01
02
f0
fa
ef
f4
09
0a
00
fa
15
07
ed
e7
12
14
11
07
e4
19
eb
10
ea
f5
fd
ee
02
08
f6
f3
cd
eb
ec
03
f5
10
1c
0f
f7
e7
0c
0b
13
ea
f8
eb
01
01
2d
e5
0d
e9
fa
fd
f1
00
0b
28
fa
e8
f5
0b
fd
d6
f7
e5
f6
ff
f1
15
f7
00
0b
e7
0f
02
09
ea
1e
1a
f4
f3
18
16
13
15
fd
f5
1a
f1
17
f7
ff
04
e2
0f
ff
09
ff
fe
f6
eb
08
0c
ff
f8
f7
1d
f4
1d
10
11
0f
eb
fd
0e
ff
0f
ef
0a
05
f4
15
03
f5
fc
f5
0d
09
0d
15
f8
0b
ff
08
02
e9
f3
fb
ec
f6
08
ed
d8
ee
d5
72
d9
02
e1
04
e9
02
e8
e6
e9
e3
ca
04
e8
f0
ec
e4
ed
e0
e0
f8
ec
da
0f
ed
e0
1f
f9
f1
fa
e4
f5
d7
dc
e3
02
e8
dd
e5
dc
04
e6
0c
e3
f8
ea
05
01
06
13
f8
d5
e6
ff
01
de
fe
f7
ea
05
ef
11
18
05
1e
03
0b
07
1b
11
0d
18
fa
10
f5
ed
0a
f8
13
fb
06
00
10
ff
01
0f
f6
07
0e
ec
f3
fe
fa
15
f3
10
09
06
0f
ea
ff
0a
f4
14
fd
ef
dc
07
10
11
13
12
f0
08
ed
24
04
06
f4
08
0c
14
ff
12
ef
02
f9
fe
28
0b
f5
0b
0c
db
e6
f2
f4
f0
eb
ed
03
f4
06
dd
05
fd
09
09
00
fe
fa
01
09
fd
0d
df
fd
ec
03
f7
f3
11
ee
19
1f
f2
f3
00
08
f7
e6
15
f2
05
e5
0d
fd
e6
e9
fc
09
0e
fa
ed
db
e0
05
06
03
df
e8
0f
18
0d
ed
00
f8
03
f2
ec
e2
0c
fe
07
07
f2
fd
06
19
18
fe
ef
01
1d
ea
1a
ef
fe
2c
ff
fe
ea
f7
01
ec
08
e9
fa
ec
0e
f4
0d
ec
01
0a
0d
0f
ef
ee
03
e6
e6
02
da
ed
e1
f1
e8
14
0a
12
16
f8
0d
2d
23
b3
03
f8
ff
fb
1f
f9
09
1f
1a
01
48
f7
22
0e
eb
f0
24
1e
17
25
fa
00
e8
21
0c
0f
29
05
fb
22
34
12
29
0a
e7
f6
0e
ee
f9
f6
24
37
1e
fc
03
e7
15
2a
03
ff
ea
f4
24
f8
f9
01
15
19
0f
0f
2c
35
18
ee
ee
10
07
24
02
ff
f0
01
1f
01
26
f7
12
0b
00
24
0b
20
f4
22
18
09
09
03
10
1e
00
1a
08
ff
15
21
25
14
16
1c
17
05
f6
1d
0a
3c
ff
e7
04
fb
f2
06
f8
18
e6
f7
21
06
15
09
fd
1b
20
1f
34
31
02
d9
22
07
1f
0b
13
f3
16
1c
17
06
1d
ed
17
13
06
00
0a
05
e5
0b
03
10
07
0d
16
09
fa
f2
0c
ed
05
fc
20
17
d5
fc
00
03
01
04
27
3a
f8
08
f5
e5
0b
18
23
f4
d7
1e
fd
0e
ec
08
20
16
2b
0a
1e
02
24
16
24
ef
fd
0d
1b
f4
2f
16
21
ff
12
18
00
34
17
f2
16
1d
f7
24
0b
0d
e9
11
ec
20
fc
0d
1b
f8
23
04
f5
0c
18
12
06
02
fe
21
16
1b
17
17
02
f6
fd
ff
2c
0a
16
24
01
e1
fb
0e
0a
22
3f
0a
fa
e6
07
07
04
ed
0c
14
f5
1c
00
20
f2
fe
1d
14
2c
23
00
f4
11
03
ea
f5
14
ef
04
f9
06
1b
fa
0f
28
12
08
0b
10
f7
0f
ff
ee
13
11
0c
00
0c
12
11
fa
0a
fe
00
11
ea
10
ee
f3
03
f1
07
19
0b
d9
02
11
0a
08
ea
f6
ff
21
21
f5
27
f3
0f
0b
08
0d
00
02
0f
23
0a
12
f8
1a
11
11
fb
0d
16
0d
f9
28
01
19
f2
1f
00
02
1d
16
22
02
09
20
1d
15
17
0f
f0
21
dd
0a
1e
11
1a
f8
f1
2f
ec
12
fc
13
0e
e3
17
19
0e
13
0a
13
ed
0b
17
13
0d
21
16
20
e6
0c
15
0d
16
f0
03
01
10
00
16
17
f7
e8
f7
05
eb
05
0e
f5
05
2c
1b
1d
21
e6
fe
02
f6
f6
11
fb
09
16
f0
03
ef
f1
0e
07
12
ec
0b
f9
eb
1a
02
f4
00
33
16
0b
ed
f7
fc
0e
f0
f4
ef
03
f8
e9
f5
12
fd
11
17
fe
f2
ea
03
15
0e
12
fa
02
fe
1d
03
14
1f
e5
ee
0d
05
eb
11
03
04
11
18
08
f3
f9
03
ee
e7
0c
fa
fa
e5
09
f3
f3
f4
08
f2
02
03
05
f0
fc
1f
f5
15
0f
1c
f5
16
00
09
15
01
12
f0
0e
1f
26
ea
34
f6
18
23
14
18
1c
09
e8
0e
ee
ed
e4
fd
f9
03
fa
f6
11
f0
12
13
f1
14
17
19
05
08
fb
12
1c
2a
2a
eb
1a
0f
07
0b
00
0f
e7
f8
1e
fa
fb
e2
26
fe
15
0b
0b
13
f8
02
0e
e4
f8
06
ff
1f
e5
0c
e5
16
4f
fe
17
0b
e1
eb
d6
f8
14
f8
06
04
f2
23
fc
08
02
f2
fb
2b
06
f5
ec
fe
05
1f
05
fb
15
1a
ed
04
0d
0a
f3
f9
10
fb
e1
ed
fb
06
f9
01
e8
ef
02
f5
05
e8
ef
fb
04
38
08
02
04
ed
fb
f6
01
ec
03
ec
3b
e8
fb
05
f8
f1
ed
1e
15
f2
29
02
e7
17
1c
24
1d
e8
05
0d
f2
08
e8
00
16
1a
fe
0e
11
0f
ed
f9
0a
16
e7
ff
1d
1b
0f
11
28
f8
1c
ef
06
dc
f7
fb
03
17
12
ff
09
e4
fc
da
1e
03
16
fc
06
13
14
ee
0f
e5
20
15
11
0e
1f
16
03
07
f6
f1
f5
03
07
f9
f1
11
f4
3c
16
ff
01
14
ee
f7
01
07
02
e9
11
10
0f
fc
f6
09
19
fa
ec
15
f8
06
01
f9
0c
e3
01
ee
eb
08
1b
2a
f6
e2
fe
f5
00
1a
20
14
03
20
19
01
13
03
1d
24
f9
f2
16
05
f2
0a
15
05
f1
03
00
fb
fb
18
09
e6
0e
1b
08
16
f9
ed
00
00
f7
02
0d
0f
0e
ed
0a
ec
f9
18
16
ff
ca
25
19
f8
0b
f2
fe
f1
06
14
26
01
09
c6
ff
0a
18
16
fc
09
0a
27
06
12
34
e7
0c
00
fb
00
fe
11
ee
19
16
fa
f5
22
fc
0f
f6
11
fb
2c
1a
12
1e
1c
f7
0d
ef
0f
e9
ff
fa
13
11
05
f8
10
ed
02
14
f6
25
09
0d
12
10
e7
f5
04
1b
f7
fd
19
f7
f2
f4
ff
fb
0a
08
05
0a
11
f4
0e
12
f6
fa
f8
0b
15
fa
1e
02
17
fc
12
ed
f6
f1
f7
13
fa
06
ed
fe
18
19
21
0e
f6
fd
f8
f5
0e
fe
0e
fb
03
ff
f8
f9
0c
fb
05
f1
04
24
02
0c
0f
13
fd
21
fd
09
16
03
19
14
fc
12
fe
17
23
10
25
fe
e5
31
f4
1f
0a
fe
15
f8
02
fe
16
f2
0e
09
0a
08
16
1b
04
06
17
06
f6
fd
08
07
12
14
fc
f2
05
fc
0e
f1
f0
ff
f3
08
0e
08
0f
e5
17
f8
eb
00
f7
07
19
01
16
13
24
fb
fa
17
f6
12
19
1c
fd
f1
07
00
ef
1b
ec
14
21
f6
11
f7
1f
0d
1d
1c
f5
f9
20
ed
ff
f9
17
15
00
06
10
14
f9
ec
05
0a
fd
0e
0d
14
10
f6
f6
ec
12
00
ff
1b
e9
0f
1e
0f
e1
09
f4
0c
0a
36
1b
eb
de
fc
28
23
11
f7
e5
f0
12
0e
f2
24
f0
03
11
0a
05
09
1d
15
ef
00
dc
fc
eb
16
f2
02
10
fd
08
04
1a
15
eb
f2
ea
13
20
18
12
17
12
20
e2
04
0b
fd
fa
06
e4
f7
ec
fb
10
f9
09
f5
03
0b
ec
07
0c
05
e6
f8
1d
f4
18
0b
fb
f0
fe
06
fb
18
eb
f5
fd
07
06
11
1e
05
ee
0c
e7
f2
11
f1
15
e6
04
0b
fc
11
01
10
0f
eb
ee
11
ee
13
0d
10
ec
e9
f7
15
05
d8
f6
0a
eb
fe
e2
01
18
e1
d8
eb
f7
09
19
e4
fd
0c
03
13
0b
0e
12
19
22
f3
0b
ff
17
0b
03
01
f8
fb
f6
0f
ec
14
09
fb
f5
24
07
e6
0e
0d
03
0c
03
fd
f4
26
fe
1f
fe
ee
07
14
fe
11
1a
10
05
fa
e9
26
0c
16
0d
15
0c
27
f5
01
e3
00
fe
02
f6
01
12
02
0f
ee
59
0b
fa
01
08
16
16
10
f1
f5
09
fb
10
de
e7
ef
05
e9
fd
03
f5
0f
00
00
fd
e3
2a
0d
16
f3
01
f0
06
09
ef
1b
f3
f1
f4
fa
0b
ed
00
06
15
f2
11
1d
06
fa
0c
fe
17
df
0c
0f
e7
0b
1b
2e
f2
06
26
15
db
19
fe
0a
2d
18
f1
10
f8
21
fa
0a
f3
fb
23
fb
12
09
29
0a
16
12
00
fe
18
fc
fd
23
10
20
fe
0d
11
17
17
10
07
ee
17
e2
05
1e
26
1b
07
06
04
18
0c
02
e8
0b
13
21
f9
02
05
28
fb
13
30
ef
ef
01
29
f0
f0
07
ef
eb
0b
02
02
00
ed
dc
21
f3
17
f5
19
ff
06
ec
e3
0a
0e
fb
00
f5
19
f7
ea
f3
f8
e6
fe
fe
e7
14
ef
0e
ff
11
fe
01
f2
1d
01
ef
06
18
f2
dc
ee
02
f3
e5
02
ee
0c
f3
14
e9
07
fb
16
f4
0e
1e
e8
10
14
19
12
e9
1c
03
ee
f0
ec
fb
ef
06
13
f5
24
12
03
21
fa
01
08
1f
10
ef
0d
03
02
0f
ed
01
08
20
0a
05
18
1c
f7
02
01
07
e6
f2
09
ec
f5
00
09
25
f2
f5
0b
fe
15
14
12
f6
21
e5
11
03
3f
e3
ef
f2
06
fb
ef
ed
02
fd
fe
f0
ef
01
e9
09
f1
f0
f0
e4
e8
02
e6
07
0a
05
0f
ef
f8
01
f8
0a
04
e4
f0
0f
0b
fe
e3
0c
fd
df
05
05
08
08
f7
08
f3
e3
dd
f0
f9
ef
f7
01
06
e7
f7
e1
03
fc
1f
21
0e
fd
08
10
01
05
f9
f3
1d
19
de
13
1d
26
fd
e9
f7
11
1f
ea
08
18
12
06
00
f8
e4
ff
17
08
e4
2c
09
1c
0b
e8
10
06
ec
e5
1e
f9
32
08
01
fa
ed
f9
01
1a
16
cd
0f
1a
01
fc
fe
1d
11
0c
12
fe
02
05
e4
04
08
23
ed
15
19
f9
14
1a
01
38
fc
f9
13
16
f7
e8
31
1f
f8
ec
f8
13
fc
0e
05
18
0c
09
09
fc
ed
10
0e
ed
13
1f
eb
07
1a
03
12
ee
11
05
e2
04
02
ed
f3
16
ec
f1
0c
19
fa
00
1c
0c
f3
23
1b
20
0e
13
21
13
1b
1d
15
06
28
12
f1
17
fb
05
1a
f8
11
06
f2
14
13
24
12
23
26
01
13
1c
16
18
04
20
0a
1b
fa
02
12
2b
1f
1a
06
15
03
05
02
34
11
f6
02
06
03
e3
07
2e
fe
23
ee
06
27
12
2c
24
2a
f9
ed
1b
10
1a
0a
04
07
fe
14
fd
01
14
03
f9
ff
16
0b
2a
1a
10
19
16
1b
f2
fe
cc
1f
0d
10
08
08
18
03
1e
32
0b
ec
06
ed
0e
00
11
2d
29
eb
0e
01
f2
2e
fe
f3
0e
24
06
00
1a
fa
01
00
26
26
22
29
22
eb
16
ea
0e
1d
0f
07
f5
3a
1e
0d
3d
03
11
22
ed
1b
12
10
f4
27
11
01
f3
21
19
ff
12
ee
0e
e7
33
0c
0d
17
f0
07
16
12
f7
ff
fe
27
02
f2
24
10
04
25
14
17
fb
23
2b
15
f2
ec
21
fe
f3
fc
ff
ee
ff
32
0a
01
12
14
f4
ee
0f
24
fb
0e
09
00
14
fd
f7
fb
09
08
ea
04
f9
fd
ea
02
f9
28
fb
0e
09
e5
05
eb
fe
ff
f8
20
09
0f
21
18
f0
13
25
04
1d
e7
ea
fd
f2
16
d6
16
04
13
05
fb
10
05
08
0b
21
09
17
ed
fd
eb
19
12
fd
12
06
0f
06
0d
26
05
21
fa
f2
fb
ea
0a
ef
22
22
ed
e9
29
00
18
03
21
f9
14
22
20
f7
f9
f7
0d
ef
fc
05
06
12
26
f5
0a
18
e8
19
2e
01
f7
fa
15
00
fa
04
03
22
14
10
17
16
ef
10
02
11
f7
04
11
00
1a
08
02
04
eb
3a
08
0e
f5
f7
27
fe
03
20
10
fb
04
0e
00
e9
11
08
00
05
02
0f
ee
01
14
fd
23
0e
10
11
03
16
23
16
fa
20
09
27
0f
e7
03
fe
11
15
12
21
f4
f9
05
e6
24
fb
f1
0a
00
ea
fe
12
01
f2
fe
f8
02
1a
09
fc
2a
00
15
07
ef
05
01
0e
13
ee
f7
ed
f7
e3
ea
13
fb
1a
eb
0b
15
02
15
e1
ff
10
19
ed
08
04
1f
05
0a
fa
0e
f2
31
10
f7
f0
0d
fe
e8
f7
07
00
18
18
03
22
15
fb
e5
fc
12
27
f5
03
30
0d
07
1f
fb
19
ec
12
f7
0b
14
fd
2d
17
18
02
04
f7
15
0a
03
fa
f4
06
1a
dc
11
03
01
ed
1d
0d
08
2d
0d
f0
e1
13
f6
fe
ed
f6
fd
01
14
0c
fa
ec
02
08
12
1b
23
db
02
fe
27
0f
26
22
ef
1a
1f
f9
f0
0c
20
1e
ff
00
18
15
2e
fe
f7
fd
04
e6
09
02
1e
e8
26
fd
01
10
0c
18
0a
f5
07
24
14
ee
11
0f
15
f1
1e
0e
0a
1b
ef
fc
03
f9
24
10
e8
fe
20
1a
0d
f3
eb
0b
15
0b
2a
0d
0e
ff
15
09
f7
12
04
fb
01
11
ec
0b
0b
f7
f8
0e
17
f9
02
ff
0f
f3
00
20
f9
fd
f9
fb
fa
fd
f6
12
fc
04
e3
11
06
13
f9
01
01
13
06
f1
24
14
07
e6
ea
13
08
13
11
12
14
0a
e5
fa
f4
f2
fd
e9
02
2d
12
01
ee
f3
07
00
0a
01
07
ed
20
1c
f3
29
f3
05
18
00
f6
03
10
f9
00
03
f2
fa
08
0d
11
18
19
19
12
00
f3
02
01
ec
18
0b
0c
ff
1e
f7
36
fb
ec
11
13
ff
ff
ff
f0
e6
10
1f
f3
1b
0b
fc
04
0d
17
05
03
05
08
fc
fa
1b
fb
12
02
fc
f9
f7
14
34
0c
fa
26
0a
16
fa
20
07
0b
0d
f4
f6
18
fd
26
f7
f7
1c
23
f0
05
0d
0d
02
fd
f3
f9
0c
ff
1d
1f
05
09
f5
f1
04
1a
0e
15
0c
07
06
07
1a
fe
25
1b
da
08
f8
11
fc
19
11
e2
e5
0c
f3
fb
ec
eb
fe
03
fd
fd
f9
08
fc
ef
06
fd
e9
16
e8
08
19
08
f2
f9
f8
f3
e8
ee
13
0e
08
16
08
f2
0e
fb
0b
0e
03
f0
02
e2
08
fb
fc
13
00
e7
de
10
da
ed
f0
01
1b
11
fd
0d
0d
fa
fe
ba
d8
10
18
ec
e0
2a
0b
17
02
19
20
ea
e5
ea
f5
fa
f9
1b
21
e4
16
08
fc
ed
e9
ee
0e
ec
0a
15
ed
df
db
df
cf
03
16
0f
1c
1f
da
01
f0
07
eb
fa
08
03
0a
ed
14
da
e7
05
09
05
e8
f9
d8
04
fd
fd
14
2e
1a
1f
1d
21
1c
20
03
07
fc
10
fb
2b
fc
f8
08
10
21
f8
fd
1f
19
fb
ef
09
03
0f
10
f0
1c
e1
10
08
fa
fd
f7
11
f8
ee
e2
21
0e
19
1d
00
1a
03
f6
28
13
fe
dc
08
2d
fc
01
fc
09
f8
19
12
ea
e5
e6
57
ea
f2
f0
09
d3
1a
0a
04
f6
10
e4
3a
e1
fc
da
fb
ef
f2
09
e3
1b
fa
0d
e7
07
eb
f9
ea
11
ef
ec
03
e6
04
2a
eb
15
e5
17
11
09
ce
1f
01
f1
f4
f7
e7
fa
12
02
e5
dc
ee
06
05
e9
f7
04
fe
fe
0d
26
1e
f7
03
10
0f
0a
0b
fa
09
05
fc
f4
06
f8
18
f6
07
0a
0b
ec
fb
f6
13
f9
ee
f6
f2
fb
0a
28
10
0a
0e
0f
0e
f3
0e
e9
19
ff
01
04
f7
12
00
1f
e4
f4
17
20
e9
04
22
2c
fc
1b
fc
1f
1a
09
f6
0f
06
09
de
ee
ec
fa
0a
09
f6
ed
e5
06
fb
19
fb
eb
00
f6
eb
f4
fb
13
0a
00
05
e1
fc
e4
05
0c
0e
02
fc
e9
f6
f6
ee
dd
16
fe
f9
e2
1e
08
13
f3
ea
e8
ef
00
0d
19
f3
eb
19
03
fb
e9
09
fa
f5
01
e7
15
16
1a
f6
08
f3
f3
1a
05
06
13
f3
1a
ee
f8
06
0c
14
f9
11
03
21
f4
ed
02
f5
df
00
16
19
f9
fd
0a
fd
01
ff
08
24
0d
06
f6
10
16
23
05
f8
04
fd
e7
1d
1c
12
19
0b
22
0e
1f
ec
1c
10
21
1a
14
fa
17
04
00
30
11
04
0b
fd
fc
20
1d
20
18
ea
0e
25
09
0d
0a
fc
0a
f4
fc
09
f2
11
f4
f4
00
04
0d
0b
f6
fe
f8
19
00
14
df
15
07
fc
0b
fd
09
13
16
0d
28
ee
ff
15
f2
15
0c
19
1e
02
ea
03
0f
fb
ff
12
23
ff
2a
00
13
fc
15
fe
1d
03
0a
f4
26
10
2f
f7
04
fc
eb
0b
0d
12
13
26
0d
ea
e8
16
d9
0c
13
03
05
ed
11
20
14
09
e3
1a
f5
04
07
f7
1e
23
01
f4
fe
12
14
21
04
ec
f7
12
eb
eb
03
01
0e
02
1f
14
14
25
0b
f7
22
f0
21
1c
17
20
18
0a
28
14
0f
1d
1a
25
0e
09
12
37
0f
fd
06
17
08
11
15
1f
23
fc
26
02
2a
18
15
07
0c
09
06
05
02
15
15
0e
0b
10
1b
ff
0a
0a
04
fb
1d
fd
ff
ef
00
0b
08
1d
09
1c
07
f0
12
1e
12
ed
18
f3
06
16
04
f8
ff
f7
1e
e9
08
12
0e
f5
13
fc
11
05
00
0c
0d
fc
f5
0f
fd
13
1a
e8
22
eb
f9
fa
09
25
03
f5
f9
f8
06
0d
1b
00
00
f6
1c
0c
f3
19
f6
00
01
0b
e9
de
0e
ef
06
18
fe
07
fb
f0
ee
ec
fa
fa
1a
0b
fb
03
17
e8
0e
f8
07
12
e9
fd
fc
25
0f
04
ff
18
f0
1a
0b
1a
11
e8
1e
21
02
f7
0b
10
d9
15
f4
f6
f3
20
08
17
16
f0
03
09
04
1d
08
00
fe
f9
f1
12
f5
03
13
07
06
1c
13
04
f9
ea
eb
f1
0e
17
09
20
f9
dd
0e
ee
30
00
0b
f1
0c
de
e3
31
05
f8
ee
01
e7
fc
ef
2c
14
e4
fe
2e
12
0f
ef
f8
0e
22
1c
11
24
1c
de
06
13
ec
dd
e9
f8
15
12
fa
27
f8
fb
f6
f3
01
f7
14
fe
f1
f3
0d
09
3e
f9
15
0d
fd
eb
13
15
20
fc
ea
ff
f9
f8
0d
13
07
eb
fa
17
0d
fc
f1
04
f6
ff
08
f2
05
01
ec
11
06
06
13
15
08
e8
04
0c
f5
1d
f7
f9
f6
20
0e
21
20
18
ef
ea
05
0c
f0
ed
fb
17
17
00
15
f9
10
03
1c
1b
ef
ec
f9
19
eb
0d
f5
fa
fd
0f
11
f8
04
e8
0b
12
fe
ea
00
f2
13
07
0f
fc
15
0d
ed
ff
d4
02
16
fc
02
fa
e0
e5
f4
0b
1e
0d
0a
07
eb
ef
0d
09
0e
fa
13
f7
0c
11
09
f7
f3
03
16
1f
22
11
ff
20
ee
10
e9
1e
fe
03
17
f7
02
00
08
1b
fc
22
f5
f8
07
f4
f1
eb
09
13
0b
e5
06
01
0d
18
08
fd
04
08
ec
08
03
f7
1a
0d
0d
01
09
1a
1d
00
f8
10
05
00
fe
ec
fe
0b
f1
24
ff
05
ea
16
f9
fb
f9
fc
03
0b
f4
16
06
18
11
fa
2a
11
0c
15
f2
08
24
05
15
ef
f4
02
12
0e
08
07
06
17
f6
25
f8
09
f2
0d
03
fb
f7
13
03
eb
24
ed
11
02
06
fd
fd
1c
f5
1f
e4
f4
06
1b
15
f8
fb
27
eb
1f
18
1a
07
00
14
02
18
ea
e9
13
f9
21
0b
fb
08
ea
15
f4
ed
f9
fa
15
ef
05
20
13
fb
f8
17
26
13
12
09
2b
1e
ff
fb
17
f2
f5
ec
04
f6
fe
29
22
1e
00
15
1f
c7
22
e7
e9
ea
16
ff
eb
07
06
22
f4
04
fb
0c
fb
1e
c9
07
0b
14
0e
fd
03
08
14
21
fb
08
1a
0a
f2
fd
04
e6
0a
13
f0
07
0b
e8
ef
0e
e5
13
0d
f2
0f
07
04
ee
f5
f5
05
fb
f9
1d
0a
f8
f0
f6
f9
1a
1f
21
f5
ec
00
e8
02
16
19
e0
fe
1c
f8
ea
ea
f8
25
08
f8
23
fe
19
e9
d8
03
10
0e
0b
e7
10
ed
04
17
09
16
ef
fa
fb
01
20
19
11
ed
09
13
07
f3
fb
fb
04
0f
f8
0a
14
04
eb
0f
f6
04
13
1b
e5
ff
13
0f
0c
f9
fb
0a
00
01
f7
fa
f1
ea
09
df
10
e3
0a
0f
ef
e5
0b
1a
1b
f1
ef
15
e7
fd
f3
18
15
f8
0c
f0
00
1c
f3
07
f9
f9
f1
13
0a
1a
fa
fd
f7
ef
04
e6
03
04
0d
09
f2
24
fe
15
0d
e7
0b
0c
16
12
fd
fa
06
16
fd
00
00
fa
f9
f2
ff
ef
11
fc
07
e7
ea
0b
01
03
0d
e4
eb
df
7e
ee
07
d6
df
df
db
f6
ec
d9
ea
db
29
eb
e0
de
ee
f7
f2
f3
ed
fa
da
f5
de
d9
0b
01
fe
0d
d6
ec
e7
de
fc
15
fd
d8
dc
fd
f4
d3
f4
08
07
ee
ee
fb
e3
e8
d4
dc
fa
00
09
d1
fe
f9
f7
d0
f8
2a
fa
ff
bd
1a
eb
0a
f7
10
11
13
01
f8
fb
0e
e6
fe
ff
0e
e7
0e
05
fe
1c
13
0c
03
12
fa
0e
01
ea
fe
4a
08
09
f5
13
ff
0b
10
f3
02
0a
0b
14
00
04
fa
f2
0f
21
0c
eb
33
f2
f1
f4
06
f8
f8
1e
0d
0c
10
06
ef
02
fc
01
e3
05
0d
fa
0e
e9
f4
f7
11
ef
ea
fb
e0
01
0b
18
0b
e6
e6
11
0e
ef
dd
19
08
04
fb
ce
f9
06
e4
fa
f5
31
04
08
fb
0d
1c
13
1d
f8
12
f1
fe
de
f0
e2
03
fe
13
1c
ed
0d
0c
ff
0c
f2
e1
e7
06
1f
10
dc
15
f8
e2
19
f2
0e
00
09
e5
07
dc
11
0a
08
fb
f1
04
e0
f5
11
01
fb
04
0d
13
ff
05
08
ea
f8
0b
f7
22
f9
fa
1c
11
01
22
04
19
00
0a
00
fe
e9
e6
06
01
07
fe
01
e5
f7
12
ee
fc
f6
fe
32
27
dd
f6
dc
f8
20
1e
f3
0b
1d
fc
00
05
12
26
fe
f5
0a
06
f8
0d
1c
1d
0b
16
1c
12
fc
27
07
f2
f6
1a
fc
19
23
df
0b
e6
f8
ee
f2
0a
28
20
0f
e1
13
ef
fc
28
0e
f4
0f
15
f9
f0
00
f7
f0
39
1a
16
07
f3
00
f4
0c
06
1f
1b
fd
20
12
f0
ec
f3
2f
f0
08
10
20
14
1d
03
f8
fb
fa
09
08
ec
f6
ef
ef
17
ef
16
15
f9
0e
05
15
ff
ec
ed
00
09
1e
08
03
14
07
ff
0b
1f
15
1e
f1
fe
f8
fa
25
18
ed
18
14
04
09
fb
41
11
0d
16
fc
05
fd
f6
f1
10
fd
ea
09
15
13
f3
f5
0d
07
ea
0d
0a
f5
f7
01
f2
0c
f7
00
09
fa
f3
ff
1b
f6
e8
fa
f7
18
06
1a
1d
25
fc
f7
e8
eb
fe
11
26
09
00
05
10
e1
05
0a
06
24
1f
03
17
16
2a
40
08
20
f8
23
2b
fc
15
11
25
f7
12
26
11
22
0d
f7
0b
00
01
0a
09
07
0e
f9
e8
fc
0b
0d
00
e6
35
13
ff
12
1b
f4
ec
f9
ea
13
13
1d
03
13
22
02
20
27
08
ff
f3
18
0f
20
0c
03
0a
0b
08
20
1a
01
f6
05
1d
00
ee
f4
ee
1a
e3
3b
f6
fc
1a
fe
24
14
e8
16
06
f7
f1
03
15
fc
00
21
05
04
1a
04
ff
f2
06
e1
10
13
10
0d
fe
11
ff
02
1a
0f
25
fe
fb
0c
ff
0b
f4
fb
07
0f
15
f9
01
e3
0f
1c
11
07
0b
06
10
ff
fe
e4
23
fd
05
2c
1c
01
12
eb
36
08
2d
0d
09
1a
f8
09
16
0c
21
fe
18
fb
eb
04
02
1f
fa
30
21
f6
07
f5
04
07
f6
10
02
0e
23
07
02
e5
21
0a
04
f7
0f
ff
fe
f4
15
0a
19
05
f7
ef
0b
0a
ed
24
01
28
fd
13
09
02
0b
0e
fd
02
0b
dd
e8
22
26
20
09
fb
13
fd
eb
fd
f2
f2
ef
fb
1a
eb
01
12
05
ed
04
1c
14
15
03
04
fc
15
f9
03
17
ff
26
05
10
0b
05
1c
22
e0
e7
1c
2f
e4
ff
e7
f1
12
fb
0a
ef
fd
13
02
18
1d
fe
f5
f3
f8
e8
17
14
eb
0d
ea
de
f4
00
19
04
dd
06
d9
fd
f6
22
00
e2
25
f9
e8
f1
13
02
fa
ed
02
ff
fc
0a
0f
16
12
11
fe
09
f0
06
fc
17
04
0c
18
08
09
e5
00
06
08
f3
21
df
f3
f0
f6
f7
02
29
11
ef
03
eb
ff
00
f2
23
11
f7
e5
fb
f0
f0
05
07
19
eb
16
04
0a
0d
fc
dd
1e
1a
10
28
ff
04
ec
f4
29
0f
1c
04
f1
f0
0d
1d
32
0a
e8
0a
07
ff
f8
13
10
11
18
11
03
f4
fd
12
0a
10
11
08
06
00
2b
04
f3
26
0b
05
10
ff
f9
0d
f2
08
e4
d9
f8
08
e6
df
2a
0f
01
09
e7
f5
fc
ea
16
08
f9
03
f9
fa
fa
06
e8
01
f4
0a
ea
f2
0a
ea
11
f2
0a
e9
0e
06
f9
07
e8
1e
06
df
fc
0c
f2
08
01
f9
f4
02
eb
fe
0c
17
08
0a
fa
fe
0c
00
f3
00
10
ed
02
fa
ed
f4
dd
ed
09
08
eb
1d
0f
f4
18
03
0d
1c
10
f8
fd
ff
e5
e3
de
1d
1c
13
05
e1
01
fe
e7
16
ea
07
03
16
fc
00
f1
fa
0a
01
01
0d
df
0c
0f
fe
ea
01
04
12
d6
1b
d3
ff
0a
e9
10
f0
08
20
df
19
12
ff
f3
ee
05
1c
fb
f8
06
15
fc
fc
e4
f0
fe
f7
0e
04
f4
0d
fd
18
03
00
0e
17
0d
fe
e6
02
11
f4
fe
fd
e3
05
e5
ef
0f
f2
fa
fc
f4
04
0d
f4
15
07
02
f7
28
fe
d2
0e
ed
09
fd
10
f6
13
10
08
e8
1c
ec
2a
01
f0
18
15
f8
e7
13
fb
14
e4
19
04
08
12
0c
09
19
17
1a
02
12
03
f5
de
04
eb
1d
08
0e
fc
f9
ff
00
11
f1
21
10
e0
fa
24
0e
fb
f8
f6
0f
22
07
26
25
11
f4
f7
e8
23
14
1b
fb
13
30
f1
f3
2d
e6
fe
f8
e7
f7
11
14
0f
16
08
0d
fc
27
00
f6
1e
04
1c
fa
0e
14
06
19
f1
10
f7
0b
0c
10
0e
0e
05
fe
08
ea
ef
1d
04
0c
15
fe
ff
f9
f3
00
20
fc
21
fa
fc
f9
15
3d
f7
f3
06
f8
18
19
f5
1b
10
05
07
03
fb
07
f0
f8
1a
1c
f4
20
03
f1
03
03
f1
e0
0b
16
13
dd
08
0b
24
fe
e6
19
01
0f
fc
1a
f7
2a
0b
e6
fe
f3
0c
08
20
ec
ff
11
13
0e
1b
02
0e
f4
09
18
f6
0e
20
fe
02
13
1a
10
0c
07
fa
06
15
ef
2a
f4
0c
f4
f2
0d
0b
0b
10
00
fc
20
e7
01
f8
11
14
1b
21
fe
11
f4
00
06
e6
f1
f0
f6
12
1f
f1
19
fb
07
fc
fa
f3
ed
fe
f6
13
06
fa
ef
fa
02
05
00
0d
14
0d
0b
fc
d9
04
0c
19
0e
06
f6
13
f5
03
ef
f6
ed
13
1d
00
1d
08
05
f3
24
11
14
05
0d
fa
f8
f8
1f
f2
1a
fc
f2
28
04
fd
12
fb
0b
0c
0c
0c
06
fe
ed
02
12
fd
22
0c
ff
ea
05
1e
f4
0d
fc
0b
02
14
06
f8
e6
f2
0e
0e
0e
f7
e2
fb
0c
fd
f6
1e
f5
1a
2a
e5
f7
f8
10
0d
0b
e6
df
ee
16
1c
f9
f0
24
f3
1f
e8
09
00
f1
fa
f9
01
29
1a
07
01
01
08
ce
19
f7
12
ee
0a
fd
f7
09
1b
0c
e3
f8
ff
21
fd
12
0e
fb
f4
fc
ea
e7
10
f1
e7
07
f4
ec
06
05
19
0b
fd
e2
20
0d
ef
0e
fc
07
fe
f3
ef
02
e5
eb
14
fd
f3
f9
f9
f8
fb
ec
fd
11
f5
0e
1f
e8
14
09
f2
27
f8
00
e6
f8
14
de
05
11
dd
f0
14
03
0c
f1
06
ef
e9
22
08
fe
1b
c7
1e
e0
11
09
f7
0b
1c
05
f0
f0
1a
07
31
1a
f3
fe
1e
04
1d
1f
0b
17
ea
1b
f4
f8
ff
01
fc
41
1b
1b
0a
0a
0c
18
07
20
fa
11
1b
17
1a
11
fa
0e
f8
25
fc
1d
e7
f3
1c
08
16
ea
19
16
16
f6
fb
ff
02
1e
fc
02
11
f5
01
0a
13
00
0a
ff
fa
0c
10
09
e6
ff
e9
04
13
1a
04
f4
f2
00
da
00
1b
ef
11
0a
ec
12
1a
04
e1
05
0e
06
07
f8
fe
f2
0b
08
0d
12
19
18
f2
f5
02
0d
03
17
f1
18
fe
f6
e9
02
05
2a
18
3c
02
11
ec
1a
fb
ff
ff
2d
1a
05
f4
2f
1c
18
01
0c
24
1d
12
00
fa
01
ef
00
1b
ef
0d
f1
18
ea
0f
0b
08
20
f7
0b
05
0a
df
19
2a
08
1f
fb
09
ee
ec
17
0b
0a
fc
11
16
09
09
ec
1a
05
00
2b
1d
05
fb
00
11
02
1a
ea
08
0f
f9
15
f8
0a
29
f4
12
1d
de
0d
f1
f4
ee
e4
0f
e8
06
fe
03
24
ef
12
05
02
21
ff
e6
e5
0d
14
0e
10
f9
f7
09
15
f3
00
0e
f3
ff
02
e4
f3
0f
f3
0e
f6
f9
eb
f3
eb
00
f9
f7
f1
f8
42
f7
fc
03
12
ec
0b
f1
13
06
0d
d9
0c
0c
f2
00
f1
16
0a
0d
0e
0b
fc
f0
f5
fa
11
ee
0b
f9
06
f5
fa
ef
f7
f1
11
17
dd
f2
0a
e4
ef
00
f3
1d
e3
00
f1
10
f8
ec
13
0c
e6
fd
df
f5
ff
03
f6
f6
0c
fe
35
e7
10
e4
f4
f3
f8
0b
fc
0c
09
1e
f9
f8
ff
08
f9
e2
05
dc
0b
1d
f7
0a
02
e7
f8
0e
fb
05
1b
f3
f8
f4
03
fa
33
f4
f8
fb
03
eb
f5
fa
f7
fa
e7
f0
fa
09
fc
db
eb
03
0d
f9
f8
1d
e4
ec
e0
12
1b
ff
ee
10
f1
09
15
1d
00
f8
15
18
12
d8
25
07
fa
fe
fc
10
26
09
0c
05
09
e3
02
f3
0a
f9
ed
0c
db
f1
15
fe
10
f4
14
ed
fd
f7
02
f8
ed
07
04
e5
1a
0b
05
1b
f7
13
11
ff
e2
14
0c
f8
fe
26
0f
06
0b
ff
e9
14
09
0e
ec
e7
09
f9
f5
0d
f1
42
f2
e7
08
01
09
f2
29
1d
0f
06
f1
14
13
0e
34
1d
f4
fb
3a
f8
04
f7
e5
0f
18
10
f4
27
20
01
29
12
14
fb
09
f3
1a
fc
00
35
ec
f1
e6
01
ff
f8
20
f0
e8
26
f1
15
22
2e
10
1a
12
02
0d
0c
df
0f
f4
28
04
f3
12
13
19
08
11
f7
00
05
fa
0c
04
eb
fe
fc
02
1a
18
2e
20
22
1a
fa
1b
0e
21
01
1f
fb
1e
0f
fa
09
0d
0e
07
17
f5
ee
19
18
ed
16
0f
09
26
1c
2b
26
12
10
e5
f2
fc
fe
29
08
17
26
35
0f
f8
0d
0f
32
21
18
ed
25
0e
07
26
0e
fb
1d
fd
01
fe
0e
1d
f6
fd
25
0f
16
04
0e
07
fd
0a
0f
1e
21
20
0d
0e
f9
00
17
09
27
ed
02
f9
2a
ee
1b
e0
23
0e
fc
0a
1c
0e
00
0d
05
01
f3
1a
fe
1c
f1
13
1c
fc
1c
fd
1c
f4
f9
f4
0b
22
f0
29
1f
fa
07
03
fa
17
f7
ff
16
1e
15
18
20
0f
eb
ef
03
10
00
f5
24
23
09
e6
f0
12
f1
0b
fd
09
01
13
f9
0e
f4
fc
2c
11
1e
1d
10
e8
19
35
15
06
f4
f2
0f
1a
e6
0a
f6
06
09
04
f6
e8
01
f8
f6
fa
fb
ef
13
0b
0a
fe
ef
22
fd
ff
f4
1c
1f
05
0a
e8
09
05
e9
04
1a
09
f9
f1
21
ec
d5
ec
ef
05
ee
e5
ff
0f
ff
09
00
ea
07
11
17
21
1e
0d
06
d0
06
00
1b
23
f9
0b
01
1a
03
0e
38
cf
35
0b
0c
13
f9
19
15
1d
fa
f8
07
18
f2
fa
2a
08
17
1e
08
13
13
0b
f4
00
fb
fb
18
07
24
24
16
ff
00
e9
f1
24
06
06
fd
f0
03
e4
f3
04
16
22
23
27
17
08
f5
0a
fa
ee
15
1a
08
28
15
e8
21
e1
19
03
14
f2
03
03
06
13
05
00
fa
27
12
21
ed
0d
04
fa
0d
10
fc
e5
fe
0e
09
25
02
0d
31
03
0b
0b
21
e7
ed
ee
21
f9
fb
06
04
f9
f3
f3
f4
27
1d
21
24
1d
12
f1
07
25
e9
ef
11
10
00
1a
e7
08
f4
fe
00
1b
f3
09
f4
ee
04
0f
eb
0e
f8
0f
10
03
0a
eb
fe
f2
fc
f4
ed
0c
05
18
ef
fa
fe
eb
03
03
fa
15
00
e8
0d
07
04
12
11
19
17
16
0e
0c
f9
dc
1b
12
0a
1e
21
00
12
e1
07
10
09
1a
f0
16
17
1a
00
ef
2e
10
f6
ef
1d
12
fa
20
0b
0f
06
0d
0d
0f
19
1e
24
05
0f
12
19
fb
02
f4
f2
25
1b
23
28
21
f8
05
25
0a
11
f4
08
1f
e8
02
05
05
18
13
09
0d
07
1c
e2
26
18
28
22
0b
fa
1d
21
05
2a
0a
22
2c
0d
05
2a
07
04
1b
09
fd
0d
0c
e8
04
05
f9
fb
1e
fe
06
01
0a
06
ed
36
25
02
31
fe
2d
08
f8
f5
f7
09
43
1c
fe
18
f5
ee
0c
18
f6
df
2e
2d
fc
20
04
1e
10
31
11
13
10
09
0e
e8
f1
fb
02
f4
02
ee
f6
f8
10
09
f2
08
09
02
05
ef
03
f2
f7
1e
fd
f0
0a
fd
10
f3
10
fe
1c
e3
f4
fb
0f
1e
fa
0a
0d
ee
eb
03
04
1d
f2
f6
ec
0b
0e
f9
02
e0
f4
0c
e7
f5
ec
f4
fc
e5
0b
07
0f
f1
03
0a
f7
f0
0e
12
0d
1d
f0
00
e5
ed
3b
0c
fb
f1
12
07
0f
e8
f8
17
0d
fa
f6
02
0c
fe
fa
fa
f9
05
01
1a
19
e6
fc
e7
17
04
09
16
1c
f5
0a
f7
f1
ef
03
17
19
16
08
10
f3
17
19
17
14
31
05
07
04
f2
ec
08
0a
ff
f7
0f
12
03
07
15
f8
06
13
13
fa
01
f0
13
f5
e8
16
1a
17
01
1f
1d
0d
ff
e3
03
df
08
f1
f7
04
eb
15
0f
fa
fc
15
1c
f1
24
08
0e
0a
19
1c
fe
ee
f0
07
1e
f9
07
df
ff
1b
f9
29
08
0c
0e
3e
f7
ea
f8
01
11
0d
f1
fc
09
0b
da
27
e7
fa
10
0d
0e
f3
f9
f7
eb
07
1e
ef
e7
08
e9
1a
f6
ff
14
f3
eb
00
05
11
1c
ea
fa
f2
09
eb
21
07
23
df
f4
fe
ec
08
bd
0f
1a
1b
02
df
1e
02
e8
f9
12
dc
12
db
ec
04
01
07
e2
19
09
de
e0
11
0f
f5
d9
06
ee
f8
e5
0c
0c
01
24
10
1b
0c
e0
05
00
f8
fc
51
e0
ed
e0
f3
d3
0b
f4
05
0a
0b
e6
ef
f2
f4
e5
ff
17
f5
f0
16
23
e7
ea
e3
eb
18
f9
10
00
e4
2e
1f
1c
d3
1f
f1
1d
fb
17
04
fd
09
13
e4
30
e8
1f
f5
09
f3
0e
1e
ea
12
15
ee
ff
27
eb
fa
0b
11
07
1c
0a
1f
00
01
e7
e4
e7
1a
f8
1b
0f
3d
f9
f0
de
0c
03
1e
19
08
12
19
08
13
07
ff
2c
f4
2e
08
05
d8
e6
20
03
f6
e4
dd
f4
0f
f1
f7
f1
fb
ec
0d
e3
12
02
03
db
09
e9
dd
fe
f5
12
ef
13
fe
12
f8
f0
01
19
ff
01
e3
ea
ef
03
e2
00
e2
fe
cd
fc
f5
fd
11
12
f1
ea
08
05
f5
f0
ea
06
16
f3
f2
02
05
1e
1e
21
07
04
01
fa
09
1f
08
02
20
0b
fd
0e
dd
f0
29
15
13
fb
19
08
18
f4
09
19
0b
ec
f8
26
03
15
11
1e
23
05
25
ed
ff
11
ff
1d
17
11
19
10
01
24
0e
00
11
24
19
2c
04
11
f8
16
e1
1d
18
33
fc
f9
fd
fa
1c
04
df
0d
10
ed
1e
f3
01
14
0a
ed
10
0b
ee
e7
09
ea
ee
f0
f2
20
0a
ef
18
e5
ef
02
fe
f5
01
e1
fd
f9
11
e5
1a
00
07
ee
1c
11
ea
05
ee
e8
f9
05
f7
01
04
18
07
f5
05
0d
03
f9
02
02
e7
f7
04
05
34
12
ef
12
06
f8
14
fc
0e
f6
19
f7
ff
1b
04
0e
f4
00
14
ec
21
06
0e
11
fe
16
06
f9
04
f5
d2
f6
fb
22
0a
0f
27
f9
e9
04
f2
f0
01
14
04
2d
e9
f3
ff
20
0f
dc
10
12
08
17
f3
15
07
10
1d
21
fb
18
0d
1b
09
fe
eb
fa
23
0f
f2
f3
ed
01
f1
0f
0a
f8
07
12
08
f5
0d
06
fc
fe
02
02
1a
1b
0c
1a
14
1a
f5
13
f1
e4
13
14
1a
fd
f7
f1
17
05
06
22
ed
03
ec
05
11
0e
f2
fd
e8
19
08
0a
0d
08
f3
0b
f9
1f
e5
08
fe
0c
07
12
25
fc
f5
17
0a
02
12
0e
1c
07
09
0f
14
fa
fa
21
13
08
04
1f
07
1e
fb
02
21
1b
1a
f6
f8
00
f8
11
13
0c
18
f7
08
22
f1
f0
0d
19
19
17
ec
06
ec
e7
15
13
14
11
0b
15
fa
1d
26
18
e8
f9
14
23
20
10
28
11
09
05
f5
20
df
3c
24
1b
1f
fa
1b
13
08
22
1e
e7
1a
1c
01
31
1c
1d
27
33
21
1f
0b
e8
1f
fd
0c
fc
19
2d
05
21
0a
0f
f5
01
2e
1a
fd
f1
f9
24
ff
05
d4
0c
05
12
1a
fa
f7
0e
23
00
01
fa
fa
19
09
02
0c
f6
04
ff
1c
f4
11
11
16
1e
08
0f
fc
20
0f
f9
fb
f8
06
ec
0b
0b
ff
29
0b
09
fa
f2
02
fc
15
fa
16
00
ff
04
05
fd
ff
0d
ec
11
fb
16
07
f4
dc
f9
0e
20
f2
0b
0a
13
1b
12
a7
f6
11
21
1d
f9
10
0b
1b
12
ef
26
ed
f9
f6
f7
12
12
09
11
19
01
0a
15
1f
f7
12
10
f3
ef
19
1b
0e
fa
1b
e8
15
12
0b
19
10
0b
2d
07
0a
12
0b
01
26
16
fb
11
f8
06
e2
06
f9
15
21
fe
20
fa
f9
e6
f0
06
02
0d
e6
dd
23
f2
f6
06
10
07
03
e4
eb
f3
eb
e4
1d
1e
fb
fa
0f
0c
03
01
10
f1
ee
f6
37
f2
ea
f6
e8
ec
24
22
fc
f9
22
eb
e4
fc
10
f8
e9
17
fe
f9
e8
1e
ff
f9
f5
02
ec
0e
0c
ed
02
2a
21
04
15
14
0f
19
eb
f1
1d
16
0a
f0
ef
52
0f
29
18
04
17
f9
f5
fd
1a
0a
fd
11
1a
e7
1d
1f
ed
11
37
23
17
fb
06
09
fa
06
17
0c
12
1d
10
04
0e
f0
f4
f1
2c
0d
0a
e6
0e
12
ec
0a
13
f0
fa
de
f3
21
07
fa
f6
f9
fe
fa
07
25
02
18
fd
10
fd
04
fc
26
09
0b
ff
0c
1a
06
0c
14
02
0d
2a
0d
0c
00
f7
21
09
0d
09
1f
11
f7
fb
f7
15
f4
04
18
0e
fc
ec
e7
ee
f7
1c
22
e2
ff
24
0e
10
fa
06
0a
ff
f9
23
1d
14
05
c1
1a
05
1b
1e
02
0b
1a
ea
15
07
f7
04
fc
fe
06
e5
05
06
ea
f7
ea
08
f2
00
00
01
07
0f
0c
fe
00
09
fd
f5
d8
12
e7
14
ed
0b
ef
fb
1c
e0
12
f5
15
02
ef
07
1c
fb
05
f0
e9
08
0b
1d
08
18
33
17
00
ec
1c
1e
31
06
f8
02
fd
24
08
e6
44
ef
31
00
ff
00
f3
08
02
1a
09
0c
1b
13
ee
ee
20
01
f5
fe
06
14
27
04
f6
1f
0e
28
15
1e
f9
2f
02
f5
0d
03
01
26
18
06
1d
10
07
00
19
10
02
24
05
12
f9
10
1d
f7
fe
fb
1a
15
f5
fe
f9
1f
fa
e9
23
e2
01
f2
0a
04
22
05
11
f9
05
06
09
00
19
00
23
09
16
14
22
f6
08
f9
11
31
28
1f
20
11
19
24
13
0f
18
f0
19
0b
f6
f6
12
20
21
ff
05
f5
1f
0d
f9
0a
1b
03
15
be
f0
fc
08
03
08
02
13
f3
0b
e1
19
01
1b
e3
0a
14
03
fb
e6
0a
f4
ed
1c
fc
f0
13
03
14
17
0b
fd
f4
1f
12
19
ee
0a
1f
18
fa
fe
41
01
0c
e7
01
fa
17
19
07
ee
11
f5
f5
f9
f0
19
11
02
13
f5
01
e7
ea
15
f6
12
05
f4
f1
df
f1
05
06
1e
00
1a
f2
0d
15
fd
fd
0c
06
04
ec
0a
1d
0a
f4
ec
ed
e9
16
17
f3
f6
e5
07
0e
fa
f1
1b
02
18
00
15
f7
f4
ee
04
f4
e7
ee
da
18
18
08
f8
05
12
08
cf
0a
04
ef
f7
f2
eb
11
06
fa
01
0c
1f
ec
1a
09
fd
00
e5
fc
ef
ec
f1
12
09
0f
0c
01
d9
01
dc
1b
f2
e6
14
23
01
0e
f8
ee
f5
fa
ef
03
ff
20
f6
11
fc
06
f9
f2
03
fb
ee
fc
09
09
ee
f9
16
01
ff
1b
10
f0
ec
df
ff
54
f8
e3
f5
e0
01
e4
00
f5
eb
f6
f1
f9
f4
d8
ee
e7
e9
fc
ef
e6
e7
f1
09
e4
e7
13
0b
f3
ef
f0
e7
db
ed
ed
fa
1f
ff
d4
04
e2
e0
fa
e0
0e
fb
ea
e4
ee
ec
f4
c7
fa
0f
06
ee
07
e4
04
db
df
f6
1e
f9
f8
14
f5
11
f8
f2
29
07
0b
22
0d
14
0b
12
06
fe
ed
fa
09
0f
1a
12
fb
f2
16
1b
16
1c
f0
03
f1
0f
05
02
16
02
21
15
0d
0b
f4
1e
ec
0a
f7
0d
e4
0d
09
f8
13
13
0f
11
e0
f2
05
01
11
00
1d
e2
f7
0f
16
ff
d6
fc
0d
10
06
e0
0b
fc
f0
e3
0c
ea
03
01
04
03
fd
02
17
fb
0d
f7
06
eb
25
e3
e8
ff
dd
02
f4
ff
0d
10
fe
ea
fb
06
fd
f9
d8
fe
f0
e9
f1
0d
0d
f9
02
17
ee
f5
0e
e6
f5
03
f9
00
03
0c
17
ef
01
1e
fc
07
e7
f1
12
ec
06
f3
fd
f4
eb
e6
ec
03
f7
ff
ee
fb
ed
1c
13
0e
10
f6
f9
06
f3
ff
e0
29
f5
f4
f2
13
0a
15
fb
fd
07
16
df
0e
f7
f6
f5
0d
10
fa
04
e4
e5
04
ef
f3
11
22
f6
f0
0b
05
07
04
de
1a
02
0e
03
16
07
f6
24
f6
ef
fe
18
2b
02
e5
f9
ff
15
06
fd
0f
18
fb
0c
f9
0f
0a
f3
24
ea
00
08
0f
04
ff
03
0b
12
0b
ee
08
f8
1b
ea
05
fc
eb
fe
12
ec
fb
0b
04
f3
09
ef
1f
ed
09
1e
11
fd
1b
e5
ec
f4
18
17
0b
13
1d
ef
fa
eb
f9
1c
06
08
17
0e
0e
05
eb
12
03
16
1d
10
e8
f5
12
04
fb
f8
e0
f7
13
0e
0d
f1
18
fb
f6
0c
f8
05
07
e9
07
f9
ff
15
fb
ee
1d
03
ff
ec
f5
f0
0a
0c
05
20
1d
05
1c
0e
0e
ea
fd
1e
1c
07
21
06
fb
0e
03
16
20
1f
11
1c
01
12
ed
09
18
0a
12
06
f8
19
0b
19
1c
0e
11
19
15
12
09
0d
e3
12
e7
0a
fe
06
fe
ff
e6
f7
09
02
00
ea
0f
10
14
eb
19
fe
04
04
f7
04
18
09
21
24
f9
08
11
16
11
04
0d
04
0d
03
fb
ea
26
24
16
fd
0e
f7
e3
0a
22
fd
ef
1b
f2
0e
23
f4
1a
e7
03
1f
11
2f
08
f5
fc
0d
ec
f8
13
16
28
fe
29
07
0b
0b
07
01
f8
26
29
10
20
f2
25
f0
28
f9
ee
fe
11
f6
1c
06
fc
e6
f7
04
0a
fc
fc
03
f6
e7
0c
01
f5
02
00
1d
f2
01
1b
f6
08
0c
da
02
f1
f1
0d
15
1f
0a
10
21
01
e6
19
14
05
0b
23
12
28
ef
e6
f6
10
fa
04
02
fe
11
16
ee
fc
fd
0c
ff
1f
10
01
f6
06
03
1c
f6
25
07
fd
2a
21
01
11
05
14
e1
f3
08
f2
14
0e
28
fa
10
0b
13
14
fb
f7
ff
04
19
0a
1c
18
f3
1c
08
14
0f
01
f3
12
08
28
1d
19
e7
fe
01
05
05
02
11
1f
1c
18
e9
fb
f5
15
1b
08
10
0b
18
fe
f8
0e
03
04
05
24
0b
0c
1a
fd
12
fe
e9
23
ef
05
17
15
0d
f1
0c
0a
19
12
16
0c
f0
0e
09
04
e9
1f
1c
05
16
ec
07
0c
18
e6
1d
1f
1f
03
00
19
e9
0c
16
21
f5
ff
01
1d
e6
13
f9
22
12
06
15
20
e6
e8
06
0c
10
f3
10
1a
11
01
dc
1a
f2
d9
08
d9
00
0f
03
fd
ed
08
09
06
ea
fc
ed
e2
0a
20
18
ff
fd
f9
ee
ed
0e
03
24
22
0b
01
09
23
fd
f8
ec
db
fa
fd
0d
02
f6
07
00
cb
f9
19
e3
fd
19
f9
f3
1b
17
01
1a
01
e8
f1
1e
fc
10
0d
31
0e
ef
03
e4
15
29
0d
1e
22
f5
f7
00
0e
19
11
f6
e9
17
fa
17
14
dd
f8
17
fa
20
1f
11
19
e9
ed
05
10
f2
02
04
fc
09
0f
15
f9
ee
e2
10
1e
08
f6
f8
05
f0
e9
2c
f9
f7
09
f3
05
04
07
e0
e1
0e
f3
f6
12
f8
ff
e5
e2
13
04
e1
f6
06
0a
ed
0e
e5
0c
f0
0b
20
07
f1
e1
16
ee
f5
ee
f7
0c
12
f2
fc
fd
fa
e5
db
e6
14
e1
05
09
00
e7
fb
0b
ea
03
0d
06
fd
fe
23
f6
f6
eb
df
10
1a
fc
03
08
e5
10
1f
11
f6
06
ea
fe
e8
f9
12
08
f8
eb
05
ed
e1
15
fc
15
00
e6
0b
19
f3
f4
ef
06
fe
04
12
26
f8
f0
fc
fe
05
fa
f4
16
04
f2
f8
07
fd
eb
17
e5
fb
f2
f9
16
0b
03
13
0c
00
12
ee
e2
de
f8
e1
05
10
fa
03
fd
f5
19
f7
ed
f4
09
fb
ee
19
03
f3
07
f6
f4
ee
06
f5
fc
18
04
f7
1e
ec
17
0e
fe
1b
fd
1d
0f
16
11
0e
fd
f8
0d
07
ff
eb
03
f5
f8
04
d5
e8
f7
fe
f4
e8
ff
f3
fd
25
fe
1f
09
f7
fd
fd
09
0b
17
f8
24
fb
13
0e
bf
10
fe
09
f9
12
0a
ea
f6
fe
ef
12
e4
f0
eb
f3
15
00
fc
eb
11
06
1e
1b
0b
02
e7
fb
ec
ed
13
f3
17
13
13
0c
17
16
0a
11
15
11
14
f9
01
f2
04
ff
15
1b
0c
f4
12
e3
15
e2
f7
15
01
04
03
eb
13
f8
08
19
f8
0d
09
fc
01
0f
fd
1c
05
16
f4
0f
00
10
0b
03
09
f3
fa
02
09
0d
fe
f1
06
fc
0c
03
fc
1a
19
0a
07
10
ff
04
18
0c
22
01
0e
f9
04
f6
fa
0e
0a
0a
08
0f
19
f0
fd
f6
14
28
16
f5
16
18
21
10
04
12
07
fc
e9
ef
fa
fb
e8
0a
fe
fc
eb
06
11
0a
13
1b
1c
e5
12
ff
0e
f7
f0
24
f2
f0
fb
16
22
20
fa
12
0d
fa
12
21
fb
17
ed
10
0f
fd
13
fb
04
10
20
07
19
f5
01
d4
0e
fc
f8
ff
12
fe
1c
f9
ed
ff
f3
07
12
03
f1
fe
0b
e5
f6
03
23
1b
f1
ef
17
0e
12
10
fe
0e
f8
08
fd
07
fc
fa
e5
f7
04
14
03
f7
07
07
05
08
fb
16
01
fb
f9
f1
ee
f6
04
11
1c
f5
1e
fa
0b
11
23
e7
1a
fa
0b
fb
02
20
18
1f
19
11
e3
f7
36
f3
ff
f1
0b
f2
0b
28
f5
11
fd
fb
03
ee
14
15
08
03
08
04
23
11
f9
09
0b
0d
08
1c
18
24
1d
04
0c
fb
00
12
05
f9
f1
0b
1c
05
ee
ef
22
fc
18
0d
e7
ee
eb
08
18
f5
fc
ed
e1
1e
f7
ec
0e
0f
fe
13
d8
fc
fc
1a
17
e4
fa
ea
1e
10
2d
fb
f1
1d
08
0f
f1
21
f4
1a
03
fe
1e
1c
f6
00
04
ff
1b
b0
21
0e
f6
f9
1b
ec
f3
f5
ff
08
f1
02
04
10
10
f4
eb
06
ff
0b
f0
fb
f2
fa
e7
f3
14
0c
01
f2
00
ed
ef
e3
fc
f3
fa
fc
1e
0e
f6
0d
07
f5
e5
10
0b
1a
e6
ee
14
e7
14
f2
08
f1
f9
f9
06
f1
f3
f7
0b
f1
14
15
fb
f5
0a
ec
0a
13
ff
ef
12
e6
11
13
12
01
0b
12
03
18
17
d5
14
0a
ff
fe
23
1b
24
17
03
f3
e0
f3
fb
f3
f3
13
f7
f7
12
f5
fd
13
eb
0f
0d
fc
f5
fd
0f
fe
1b
17
23
14
f1
13
f0
04
18
15
04
15
0f
e5
1e
e0
fc
21
15
11
17
fa
28
f8
17
ed
05
0a
0d
1a
fe
ef
22
07
ed
f1
f5
f1
fb
0b
05
14
0b
f7
ec
01
0f
16
fc
16
ea
17
02
fc
16
e9
ef
1e
27
fd
0f
0e
10
f6
fc
ed
01
04
ed
05
fd
0c
e8
fe
06
ea
ef
e6
11
00
ef
fe
0b
fc
e5
ed
11
14
17
fe
fb
fd
fc
08
0d
17
29
20
1d
fd
f5
29
0e
0e
19
06
27
fd
f8
f9
25
1c
fc
01
02
06
06
09
23
0c
ec
23
11
0c
03
01
0a
c7
35
1c
03
0c
ec
12
fa
23
fd
f5
1c
01
13
01
00
09
14
11
0e
e5
ec
24
34
07
ff
e4
1c
17
25
28
12
f5
0f
05
0d
fc
0d
12
e8
14
12
ee
06
f8
fa
07
f7
0b
f5
1f
02
e8
e2
f3
fd
f0
20
01
f9
35
fe
11
f2
ee
fe
0d
ff
15
01
02
fc
14
05
0e
fc
07
f7
0e
09
f4
08
f9
e1
ee
1f
11
ee
07
f7
0c
f1
ee
f4
07
e2
fb
07
28
13
f5
fa
11
fa
06
01
09
19
ef
03
df
f0
01
f8
17
f9
f1
0f
02
14
fe
f2
02
04
fd
06
11
16
e3
0d
f2
01
f6
0c
0b
00
01
fe
e2
18
08
21
f4
10
df
16
fa
fb
f3
13
0e
09
e8
e1
e4
08
0a
29
19
0b
03
0a
4c
e8
0d
00
02
fc
13
fe
f6
07
12
f5
0d
fc
12
e7
16
e9
0e
01
e1
1e
ec
f0
0e
ef
06
fd
eb
16
e1
e1
02
f3
0e
f4
f9
f1
0f
f0
02
03
01
21
03
f7
e1
fb
0d
10
f7
df
04
04
e9
f3
00
f7
10
04
f0
1d
08
12
ea
12
f0
08
16
0c
fb
f5
09
1a
04
f1
0e
2a
0e
e4
07
10
25
f4
f5
f9
f3
10
04
12
fc
f7
fe
00
e4
12
00
10
12
f9
16
15
15
0a
1d
0c
e9
1a
ec
f9
ed
10
2b
07
ed
ec
14
0e
01
0c
e9
0b
ff
e5
fe
02
ff
fe
da
ed
f0
04
ef
e6
1d
fd
02
f6
0e
2b
1b
0b
0d
e5
fd
0f
ef
1d
e0
0d
0d
f4
16
f6
11
f8
fb
fc
23
fd
f7
ef
f5
e9
19
1e
11
0a
f6
ea
dc
11
ed
21
fc
05
f9
0d
ed
ff
0e
0f
18
09
f9
11
09
dd
ef
2d
1c
03
f8
09
17
00
fb
05
f6
20
04
14
f1
d1
f7
fd
10
17
f1
09
0a
fc
16
16
04
01
15
10
ed
02
f9
03
f1
e5
11
01
13
01
0f
13
0a
ff
1a
28
05
23
fd
1b
0f
02
04
1c
f2
11
1e
04
ef
0b
04
04
15
02
0c
17
03
22
d4
fe
04
12
12
1a
fe
23
12
07
f6
0f
17
1b
28
f1
f4
24
12
f9
16
17
15
02
fe
20
ec
11
1a
1d
c5
0f
f7
fd
27
f7
03
ee
1c
f5
1c
1e
05
1b
f0
f2
ea
02
26
02
f3
d9
14
2c
ff
26
ec
1e
ef
28
01
19
fb
f3
ed
00
ea
13
15
05
f0
02
12
1f
df
ed
ef
15
2a
01
1c
05
0c
fc
09
fa
fc
fd
23
14
ea
fa
0a
1b
d4
0f
1b
04
22
ff
ef
e7
00
0c
08
fb
1f
fe
e6
ed
05
02
07
f6
fd
dd
00
fc
0c
f9
00
fe
19
1e
1c
01
05
01
13
09
05
02
09
09
ff
0f
1e
1c
fc
d7
e8
de
f0
02
15
04
06
df
e7
0d
e6
13
fe
e7
11
13
f5
fc
ff
fb
e5
0a
04
fb
1f
02
01
1f
04
07
e2
fd
f0
02
12
0a
14
07
06
f8
1a
10
f1
12
f2
f3
fd
fe
03
0c
16
1f
08
19
e9
0a
15
08
fb
0b
0d
02
09
fd
15
fc
01
fc
f8
09
32
15
1e
08
fd
f5
03
09
02
0e
f9
fb
04
0e
f9
0b
10
fc
ff
f0
00
11
0c
fc
f6
10
00
f5
f3
16
29
fa
ec
0c
fa
05
f7
0e
0a
1e
09
18
0e
19
0e
f4
f1
f3
04
10
f9
ef
fd
0a
ee
ee
14
01
f9
f2
f5
1c
07
fc
11
1a
04
e9
fb
23
ee
f4
04
0e
e4
ec
19
d2
f8
01
e0
fa
07
16
0a
1d
22
1b
cb
09
ea
f0
01
fb
e6
08
0b
10
07
0b
10
04
06
05
1d
f4
f2
fc
f3
24
0d
07
ee
f9
13
15
1d
f2
00
fe
07
11
12
12
03
ee
f0
f5
f6
12
08
fb
03
f6
02
f2
06
f6
f9
00
f9
f7
14
f2
15
e7
12
15
05
fc
1f
1d
ec
f4
04
0f
03
11
20
ff
ee
d8
14
1b
0f
12
f2
fd
0d
05
1b
11
e9
10
e2
0e
16
21
09
17
05
f7
ef
20
00
14
07
05
e5
fd
11
0a
28
18
f1
f7
11
18
fa
e0
12
f6
f5
1e
23
10
fd
15
22
1f
17
20
1b
22
27
13
f6
1a
fc
f7
f0
08
14
f9
ec
05
ef
08
f5
02
06
04
25
17
1b
24
21
30
f6
08
01
07
11
fa
f8
24
18
28
ed
06
fc
0c
18
ed
fe
1c
09
0f
1a
ff
16
f5
23
11
10
27
14
06
e6
07
28
12
0d
1a
ec
f5
ff
f5
08
31
16
fd
f0
0e
e7
ff
25
26
12
02
16
0d
e6
09
f0
2b
fc
30
19
f2
eb
0b
11
ee
09
f0
ef
f2
07
14
16
0e
04
e5
f0
0c
08
e1
f5
0a
f9
de
ef
fc
ed
0f
ea
0c
1d
0c
04
16
e5
f9
f9
0e
0f
ef
0a
06
00
f6
01
10
06
07
f5
0d
ed
f3
08
ec
0a
f5
f3
06
02
08
e5
02
eb
f4
04
05
00
f5
e9
12
e7
0f
f2
fc
15
01
12
fe
09
e9
18
0f
05
e6
00
13
10
f4
f4
fd
10
18
e2
04
e8
03
0b
0d
0a
eb
04
03
fe
d8
1f
e5
16
0a
17
0f
fc
17
ee
1f
09
ff
ee
f6
f3
0b
15
ea
11
fe
0f
e7
1e
ed
fb
ee
f8
fb
fa
28
e7
0e
f8
07
01
0c
04
f5
09
0f
0b
19
15
04
11
06
0c
ea
12
1f
19
f3
ef
f5
09
0d
06
f7
e1
15
15
f6
12
07
08
00
f7
f0
f5
2a
f7
19
ea
f2
02
05
14
10
09
02
f9
fa
fc
14
f6
16
08
28
25
f3
f3
ee
29
0b
ea
fe
03
05
e4
0a
09
fd
ef
df
ed
04
f2
09
05
08
ec
e2
01
fd
f5
10
ea
f6
1d
fa
14
09
ef
0a
20
f6
0c
fe
14
0d
14
0b
eb
13
f4
04
f5
16
e2
1a
e7
0a
01
03
eb
17
04
e3
ed
0a
09
f4
12
0c
cf
f9
bf
fe
e4
0d
02
03
0e
0c
e5
e2
ef
02
07
f1
03
fe
eb
de
f8
0c
f8
17
0f
19
13
fc
00
fd
e8
06
0b
e6
e0
ef
fe
ea
1d
f4
f7
fe
0a
e0
da
f8
14
09
0f
0d
f2
01
fe
09
f0
f8
fe
03
f8
fc
0b
10
df
1a
0e
08
04
19
fc
f4
1b
f3
06
ee
16
f3
e6
fa
f9
f5
00
f4
fd
00
1c
e8
05
1a
f1
eb
01
fe
05
04
21
06
14
08
16
f7
1c
0b
e3
e8
fd
05
04
0b
fb
01
02
ef
f2
16
08
12
0e
0e
1b
f0
ed
19
f2
fe
20
06
00
dc
e9
00
22
0b
07
ff
fc
e8
1b
02
ef
09
f1
02
e9
ea
f6
f2
07
fb
06
02
fa
19
10
03
08
05
27
ef
03
03
fc
0a
f6
e5
e7
0f
fb
17
f1
0c
11
f3
d1
1d
e4
f9
f9
05
07
fc
0a
f9
ea
e2
fd
fe
09
0a
0d
fd
15
0f
20
1a
0e
26
06
2c
02
21
2a
01
27
0d
0a
15
06
09
29
12
ea
fd
f3
f7
1d
20
1c
0a
ff
06
fe
08
15
0e
fe
0d
fd
16
2a
f2
0f
f8
fd
f6
27
03
e5
22
ff
2b
16
0d
01
24
0f
ef
ff
f3
eb
fe
02
0f
26
0e
1c
1f
00
1e
eb
ed
df
ed
fc
13
1a
17
ed
0c
ea
f5
18
0d
ff
e7
fe
02
f4
04
f3
06
08
e9
00
f1
10
0d
f2
f4
e3
05
fc
18
ef
e0
15
08
03
fe
fe
f7
ec
f4
fe
e8
eb
e8
1a
0b
0a
f3
f4
f3
01
05
f9
01
04
ec
0d
ea
14
1c
14
1d
fd
1d
f5
f6
f6
0b
01
08
f3
00
f7
07
25
e7
09
f3
0d
0a
f2
fc
1a
fd
ed
03
04
16
04
25
ef
fb
07
fd
00
01
ef
fa
0d
e4
09
22
18
0a
e5
f9
f9
02
08
fe
fd
f1
f8
04
07
00
e3
12
f0
14
13
1d
0c
21
11
20
fc
01
1a
e9
2b
23
0a
f7
13
e4
f3
0c
13
ed
f9
fe
1a
f9
1e
22
f1
00
07
f0
18
0b
ef
23
22
1d
1a
fc
fe
f3
0e
13
fe
f6
0b
11
e5
04
0b
24
08
12
f4
0e
15
19
14
fd
0a
07
eb
0c
04
f4
17
20
f9
0f
e6
fb
f3
fe
0f
f8
1b
1c
14
fb
14
1b
f9
0f
ff
f1
04
11
1f
10
0b
1c
0f
f4
fa
1a
23
07
f5
03
f2
14
16
22
03
e1
30
fc
f4
ee
1e
21
f1
02
e6
fe
ee
17
11
05
08
19
f7
11
18
f5
fa
22
10
fb
12
17
fb
10
e7
06
e9
20
1f
fd
13
1a
f8
fd
0d
fc
ec
30
0e
ea
fd
fa
1e
ef
15
07
0a
e5
1c
15
fe
1b
f7
25
f1
21
1f
0f
f7
0c
ff
0f
0f
ef
12
0d
1f
04
f9
10
e3
0d
2b
ff
05
16
01
25
e9
fe
f8
15
03
26
15
eb
1e
f9
03
09
db
f1
0c
03
fe
0f
13
1e
11
d5
dc
f1
02
f9
ed
1e
e5
f1
f8
06
07
0d
06
f8
0f
0a
02
f4
0e
fe
0d
ef
11
1d
f6
16
f2
0e
f4
14
cf
fc
e6
f8
e3
0c
01
00
03
14
f2
1f
e3
04
00
05
21
ff
0b
1a
10
f7
08
f4
e1
10
fc
13
03
f3
f6
12
f7
ef
e5
0f
0e
f1
fb
17
12
01
19
21
14
e9
f7
ed
ff
fe
fc
0f
07
13
fd
12
11
0c
0b
0b
11
fe
06
05
ed
0a
ec
0a
e8
0c
08
17
03
e6
08
08
0f
00
04
14
13
22
f7
13
09
e3
d4
df
f0
1e
05
fd
03
e2
fa
ed
0e
e6
f0
0f
0e
05
de
fc
03
1c
08
16
f4
07
07
00
2a
07
e1
05
03
ec
05
f2
ed
03
0c
1a
f2
1b
01
0a
f4
0d
e4
f5
f6
1e
0b
e8
ec
0c
ed
dc
06
e4
18
12
f4
fd
e0
1d
ff
09
e1
f9
09
1d
f1
13
07
fd
04
06
f1
ed
0d
04
20
11
0f
ed
17
11
f1
04
ff
fc
08
0e
0a
0f
0d
0f
16
1d
07
ed
10
00
24
14
00
08
13
1c
01
06
fb
0b
08
08
20
16
03
fe
fc
03
f5
f2
0d
23
12
20
17
08
01
1d
0d
fb
f4
f1
13
12
19
12
1c
0e
0c
fb
fe
1d
07
ec
ff
1a
f0
eb
0d
0e
14
dd
03
1b
23
1c
f8
f1
d4
28
12
11
f8
0b
f6
13
13
ea
12
23
fd
0c
0b
f8
e2
03
28
02
ee
ea
0f
31
e4
1a
f9
12
f2
20
04
1d
0e
08
f9
0f
f3
1b
fa
1c
0b
0c
0e
0e
0e
f4
f9
fe
1a
e8
11
03
15
15
f7
1b
10
e6
1d
1f
20
08
01
f9
f2
f7
05
1c
05
e0
0b
f5
fe
f1
1c
13
f7
1a
ea
fa
fc
17
f6
f1
f2
f0
f9
f4
e7
17
fb
f8
fd
fe
11
0a
07
02
0c
fa
f4
25
18
01
09
fc
21
1f
f7
0e
08
10
15
02
1d
00
21
06
19
fe
05
08
f6
eb
ef
0b
10
09
0a
f4
17
00
fe
e9
15
18
f3
20
27
13
04
14
02
0a
03
13
0f
11
09
03
ec
e9
ec
07
0a
1d
0f
2f
03
05
10
f1
ef
2a
09
06
0f
05
09
14
f4
21
ed
0f
e6
14
f5
ee
fa
01
0f
ff
f9
12
10
f4
0e
d4
0c
09
1d
07
0a
2a
19
09
0a
20
29
0b
1c
0d
1a
0a
03
08
f5
dc
03
2a
0f
e5
0e
f9
fe
0c
df
f0
fa
2a
0c
27
0b
1c
10
1b
f1
0d
fe
f8
01
f0
fe
09
fc
16
04
ef
ec
1d
16
fa
1d
20
f2
04
03
f5
10
f7
13
f4
f8
fd
18
0d
f8
e7
fc
1c
19
01
11
01
08
0f
f2
28
14
19
04
fb
10
f9
03
0b
e3
dd
f6
ff
f3
05
fa
16
f7
19
02
06
fd
11
f6
fd
f7
e9
0c
03
0d
09
e5
0a
0c
fe
f6
04
ef
fa
13
1b
e9
f7
e5
13
fa
ef
03
04
fd
15
20
01
0c
19
04
e4
0d
0d
15
0f
f1
29
fb
f8
00
24
00
e2
e3
f3
e0
0d
ea
fa
0d
06
ef
0c
e8
02
fe
ef
02
fc
ee
f5
fa
ed
f6
fc
01
ee
23
fe
fd
02
eb
0a
13
ef
04
f6
f6
03
01
02
18
f7
f7
ef
12
01
02
fc
00
ea
0e
ec
0b
0e
e9
f2
0a
06
07
03
03
0a
e0
05
f2
f7
0d
fb
12
0a
01
ef
1b
1a
06
13
07
19
fe
ed
ed
d4
f3
e0
38
d9
ff
f4
dc
e1
fe
ff
e7
dc
07
d8
fc
d3
da
03
f6
ef
0a
f6
05
e3
00
f7
f9
e3
0d
f0
e0
dc
da
e2
03
df
da
1d
04
ec
e9
fd
fc
d7
ef
ef
05
d8
f5
00
f9
e7
e5
f6
f1
06
fb
eb
15
07
05
08
e6
fa
08
1d
e5
10
e8
18
07
18
14
14
e6
fd
ef
e7
f3
04
21
10
fa
1b
0f
e7
f2
23
1d
18
09
e4
fd
fe
fc
fe
f3
0c
f1
06
f4
e3
f8
eb
1d
f6
0b
05
de
f7
f9
11
e4
15
11
fb
14
f2
ff
10
f5
0f
05
0f
1b
0a
f1
e7
f8
12
1b
fb
d2
e3
fc
08
fd
e7
fe
e5
ec
e8
0d
08
fb
f9
f5
f2
01
e4
07
1d
e3
10
e0
19
08
f3
f0
0d
e5
f1
f4
f4
f7
0c
07
fe
ff
03
0c
08
f9
0c
ff
19
e7
04
0d
e0
fe
ba
11
fa
22
f9
0c
07
ef
ff
17
0f
e9
f3
fa
fc
01
ee
19
f7
1a
ea
df
00
14
e2
f0
f3
16
f0
f1
1e
0c
df
02
09
ee
25
f3
f5
0d
03
fd
fc
04
0f
07
eb
f0
00
f5
08
0a
1c
0c
0f
01
26
fd
f9
dc
f5
fd
06
f0
f3
fb
ef
0e
12
fa
0a
04
20
f6
13
fe
23
dd
f1
f9
18
14
20
10
1c
21
ff
e7
05
fb
1d
09
03
e7
14
f5
e8
17
20
0c
1a
0b
f4
e6
09
18
0e
e4
06
ff
23
25
e5
1d
e8
fa
0b
0a
27
1f
f4
f3
11
e2
fb
20
26
f0
f6
0b
0e
e7
19
fb
0a
ec
0e
fa
f9
13
02
ed
05
de
f7
02
f1
fa
09
10
0c
f4
f6
07
06
ec
0c
17
fa
11
0d
12
09
fc
13
fb
22
00
0a
18
f2
fb
0b
0a
1a
f4
e2
2d
13
05
0b
ee
1d
fe
0b
00
22
e9
03
1d
03
0b
e6
01
1f
1d
f2
ea
fd
f5
f5
00
1b
18
2b
fd
1a
f0
08
02
14
01
15
16
1e
f3
e0
f2
0e
ef
ea
05
1b
f0
fe
16
0d
08
e5
20
18
19
0c
f0
0d
d2
10
0e
0d
fc
f5
03
f4
f3
f5
1b
24
10
fa
ed
e8
11
f7
15
fb
ec
ee
fc
0b
fc
16
ff
fd
04
1e
15
04
08
07
10
11
fa
1e
08
1f
1e
0c
0c
02
f5
09
ee
11
1d
0e
f2
1d
f8
f2
13
1b
f5
e7
1e
03
f6
1b
07
ff
03
21
fb
1e
0f
fc
01
0f
02
01
20
29
11
06
f7
0e
00
00
2a
0c
0a
f0
f9
1a
e5
25
e7
1c
07
09
11
15
08
11
08
1d
0a
fc
0b
e2
fd
13
09
f9
f7
f0
09
f9
28
fb
18
11
05
f2
f2
f4
f2
ec
04
e0
1d
eb
08
1b
ff
00
02
f9
ff
27
ec
0d
ff
f1
f7
1c
f1
16
f0
f9
14
f3
0d
e5
16
28
12
ef
ef
e5
05
0a
0d
06
1e
fa
16
0f
ee
02
f1
24
06
04
10
0d
1e
23
f2
e3
f1
14
1f
0b
02
06
01
ea
13
21
05
1a
ee
1f
fe
0b
ef
fb
1b
04
20
19
06
f1
26
06
0a
f5
08
0e
e0
1a
0c
1d
13
f0
17
1c
12
f8
1a
19
1b
03
f7
20
fd
f5
12
f7
11
03
18
16
f5
16
08
fe
12
08
fb
04
f1
e1
12
23
f8
08
1c
0c
0c
e6
11
19
ec
1d
0b
f5
08
0b
0f
15
f0
08
10
23
06
fa
ec
0d
0c
dd
14
0f
09
24
ef
f4
e9
0b
f5
1a
03
d3
24
11
09
0a
08
00
02
24
10
22
fb
11
10
12
01
03
1d
f5
21
11
0d
17
14
d4
fb
f3
f7
0e
0b
04
f7
f6
d8
07
fb
18
09
04
11
1d
05
e8
f4
ec
07
eb
03
f6
fb
14
09
19
1b
23
ec
10
ec
22
09
29
1a
0e
ed
12
1c
04
dd
1b
09
07
ff
07
fd
ec
18
0a
ff
0d
f4
18
17
01
1d
ef
07
07
15
f8
06
24
02
11
11
18
ea
02
fa
f8
10
f2
10
15
1f
f4
f9
01
ed
2a
f5
18
0e
0e
13
0b
08
ed
14
00
10
1a
05
1f
f6
fe
04
ed
07
e7
f9
17
f1
fc
fe
f1
ed
22
2b
f0
da
f5
e2
08
f9
10
e5
f2
09
e3
f1
e7
03
0e
11
f6
eb
fe
e2
fc
eb
1d
05
13
03
e8
08
00
26
fa
ee
e6
f8
fb
f6
de
f1
ee
1a
09
f1
16
02
f5
e2
e1
f0
fc
e9
16
18
04
0c
1c
e5
02
f2
0f
f7
ff
1c
f0
f9
07
08
11
09
0f
0c
06
09
e6
07
fa
f1
14
fb
dc
f4
e7
ff
0d
f1
fa
f0
ee
fe
18
ea
14
ef
f8
12
0a
f6
1c
f4
08
fa
d7
0c
f9
0b
13
13
fc
03
fa
e8
f8
16
fe
0a
13
ec
e1
fa
17
ea
f6
dd
f4
13
ed
19
f8
dc
e7
0f
ef
0c
f2
df
f0
05
ec
f3
0a
ef
01
e9
f2
0f
f1
f7
03
04
fb
e4
02
07
1d
f0
f1
fb
f5
00
02
02
19
05
04
14
07
20
1b
f8
fe
07
e0
ff
0e
fe
15
13
f9
f5
16
fa
fb
fc
0e
05
00
f8
ee
e5
ec
f5
03
f8
1c
01
17
f7
08
ed
ef
07
14
1c
1e
16
ef
e3
f9
f4
19
14
ef
08
ff
fa
06
02
05
1c
f3
12
ff
ea
f6
ef
fd
e5
1f
15
11
0e
f4
09
00
1a
e1
f0
00
fd
17
e6
0e
f1
f0
01
fd
ee
e8
20
15
13
15
ee
f3
12
fc
fc
14
f4
fd
f8
fe
fc
f3
1a
06
12
0a
24
fe
0d
f6
1a
25
0a
ec
15
f7
06
ee
ff
02
f5
e2
0a
02
02
f7
fb
04
17
17
00
04
13
ea
02
f9
fd
ef
f5
1b
f1
fa
e5
03
13
eb
1a
08
ff
04
f5
03
08
f3
04
12
0d
25
20
fe
1d
10
ee
fb
ea
fe
1d
ff
14
04
fa
15
e9
0b
0a
ff
21
ff
f2
f6
05
ea
08
12
ef
fb
0c
16
f8
11
0e
0a
c3
08
21
27
16
ff
ff
eb
09
ec
01
04
f2
17
f3
1a
f9
06
1e
fd
04
cf
12
1f
ea
11
ff
f9
f4
07
09
f2
04
f2
f9
14
07
11
0a
03
01
02
0e
ff
fd
eb
ed
25
29
f1
f1
1d
f4
e4
f4
15
03
09
0f
ef
06
fa
08
00
09
f2
f4
02
25
0b
0e
14
04
e4
01
fa
f2
21
f0
18
fe
ff
fa
11
05
e9
fc
20
ff
06
f0
f9
f4
02
11
26
15
09
e3
01
ed
03
15
ff
1a
15
fa
0b
09
f6
0e
05
16
ff
23
1d
1f
f9
12
fb
11
10
14
eb
fc
01
1c
10
d6
fc
fe
1f
0d
e3
03
0e
fd
ff
20
22
04
21
11
16
02
f7
24
fe
0e
01
26
13
0a
00
e2
1a
04
2b
1e
07
ed
10
0c
07
fd
ff
f4
0a
18
fd
0b
f7
06
16
f4
f0
e8
0e
16
20
e2
0c
fc
fe
01
27
e6
f5
0f
f6
f1
11
23
07
19
e5
fc
eb
1c
0e
eb
ff
13
11
c7
29
15
31
e3
09
00
e0
17
fd
01
0d
f6
ed
03
f8
12
f0
fb
0f
0a
03
fa
0d
f7
fb
05
ef
ec
ec
f1
f8
0b
d6
04
ef
0a
03
10
f8
ed
f2
05
f2
ed
ea
0b
fc
24
ec
f4
06
0b
12
ee
12
05
02
0d
0a
07
12
ed
fd
14
1c
00
f4
0d
e8
07
03
f5
e9
01
15
e7
04
fa
f6
f0
f5
f3
1d
ee
11
f2
f7
06
f8
17
f4
13
25
06
12
f4
04
f9
16
0a
00
f6
fc
1c
15
1e
fd
1a
19
f8
00
f9
09
15
0a
f3
f0
0b
18
20
f0
fb
ea
f5
0c
1e
0d
f1
fa
ea
13
02
14
1d
19
07
26
0d
0b
e0
05
13
1a
1f
2b
23
16
ed
fb
12
18
05
01
0f
fd
03
13
e0
13
09
0a
03
f1
0b
14
13
f6
14
f4
f9
1b
fe
07
f3
ec
12
0c
17
14
e5
fd
20
fd
f4
0b
05
ef
ed
00
ff
11
09
f4
13
ec
07
12
0a
f1
09
ee
1b
00
fe
fb
0a
0a
fb
20
00
1a
26
05
f5
00
fe
f6
06
12
00
05
0c
27
ec
fe
fa
18
1d
f7
02
25
fb
ee
02
1e
f6
f4
24
10
0a
fd
01
0e
fa
0d
08
1e
fc
ea
06
e8
fb
e5
23
1f
f8
04
ff
f3
fa
eb
17
16
e7
fa
27
ff
e5
17
05
1b
1a
0c
29
f0
06
f0
f6
15
09
f0
fb
ed
1d
19
07
0d
f5
d8
e5
e2
0c
00
10
fd
e9
11
f8
09
f4
0c
08
fd
2f
0e
17
11
fc
12
0c
ef
13
09
fd
05
ff
08
fb
26
d6
1d
03
0a
fd
1c
fb
e4
14
0b
ed
f5
e2
07
08
1a
fa
07
12
e6
f6
ed
18
00
fa
0d
e6
f4
0d
eb
0d
f5
0e
f1
fb
e2
0e
f0
0a
11
0f
f5
06
fa
04
ea
06
fe
04
11
07
16
06
f0
07
f3
06
05
00
ed
f0
ff
0e
0d
e7
1b
fa
07
fc
fd
14
e5
13
06
14
17
fd
e0
eb
1e
f1
ff
28
12
fb
0c
05
04
ff
04
00
f2
14
fe
e2
10
ef
dd
0f
f6
ed
03
0d
0c
ed
ee
e7
0b
08
fc
14
f8
09
f2
fe
fc
0d
f5
fe
01
e8
1f
03
ed
fe
e8
0c
f3
03
1c
eb
09
f5
f7
02
fc
05
d9
fc
f3
f1
fb
12
f5
fb
f9
0a
00
f1
02
f4
00
ee
0b
f8
f7
f7
16
04
00
05
15
0a
09
05
fa
f9
0c
e8
ec
06
f3
0a
02
1a
fc
05
15
fc
10
cd
12
fe
15
0b
05
04
0b
01
09
f3
06
0b
fb
f2
02
06
15
02
04
fc
02
f4
0e
0e
0b
12
0c
14
0e
22
fb
fc
0e
cf
f3
f5
1c
1b
fc
18
00
f2
07
02
02
f8
ed
f9
09
f9
e7
09
f6
fa
02
eb
04
00
02
27
06
0c
e8
2b
01
fd
01
08
01
31
18
f2
00
0d
05
e4
03
06
16
00
fa
f9
f5
19
0a
ea
02
05
18
f5
0c
19
08
09
18
fd
06
15
12
0f
15
04
fe
05
01
24
21
15
03
f7
03
fd
0e
0c
1e
f7
09
ff
26
fa
16
f0
26
06
1c
13
03
eb
1f
0a
18
23
f5
26
1d
15
f7
00
21
fd
16
0b
2a
04
16
21
0b
fe
cb
0b
21
17
24
f4
10
06
0a
2c
0c
ff
0f
fa
14
fd
09
1b
2b
15
29
1e
1f
f6
04
0b
14
11
0f
f7
01
0f
eb
0a
f2
22
fe
18
f3
08
07
1b
00
05
1a
21
19
1e
f6
10
fc
f6
e5
f8
0b
06
fc
0d
f5
ed
f7
01
04
0a
ea
01
0d
e8
13
fe
1a
1a
40
24
06
20
0a
cb
e8
f1
f0
1b
13
21
00
2c
fa
09
f2
fa
04
0e
ea
18
f6
f7
01
21
21
f4
0f
f6
01
0f
f2
f9
1e
fc
1d
f6
08
16
01
23
05
fa
f4
13
fe
fc
0b
fc
fa
09
05
2f
20
0c
08
fa
03
10
19
e8
fb
f8
1a
05
07
13
15
0d
12
0e
fe
04
03
00
10
1a
f9
e9
de
f5
1e
0b
ed
1a
1f
e6
e0
f9
fe
fb
12
eb
06
0f
f5
fb
fd
fe
22
f2
f2
0e
0f
2b
f6
05
19
06
27
09
24
0a
fb
0f
ea
13
ef
e3
df
f1
1f
15
ff
07
f7
1a
f7
08
1f
08
31
d1
16
10
f9
08
f2
fd
09
1e
0d
00
0b
16
23
0a
fb
06
12
f5
ef
22
1d
02
0f
11
26
f6
19
04
0f
0e
10
11
1b
1c
ee
2e
fd
fa
f2
01
11
0e
06
ef
29
ed
06
1c
1b
f4
16
05
ef
f7
ef
fe
09
26
11
ff
eb
ef
ea
d8
07
05
fa
f1
e3
26
18
15
ea
ea
18
f7
02
18
ef
fb
eb
0b
fb
fb
13
06
2d
f3
09
0a
f6
e4
fc
0f
0e
fd
11
fc
ef
22
14
15
1d
0f
f8
f3
e8
f1
11
10
07
05
ee
10
f9
02
11
fd
ff
21
f8
13
d2
e9
f6
13
06
f2
03
eb
01
ed
fd
11
fd
f9
0f
fe
01
04
10
f8
f6
17
03
0c
f3
09
f5
f7
e7
13
e6
f0
21
15
fe
d6
19
07
10
f4
ec
fc
f0
10
f3
f6
01
0b
0f
16
f0
08
15
0d
14
19
f9
06
1c
dd
03
00
1e
04
2b
0b
fc
f2
14
f3
0d
ed
28
0e
f4
27
0c
07
0c
12
e4
fd
f3
15
f6
0f
fe
30
f9
f7
05
0b
1d
0d
e7
02
07
19
10
12
d5
08
14
f1
0a
f1
f8
1c
19
16
f2
f2
17
ef
ea
fa
13
0d
0d
0d
21
ea
ed
ef
ec
1f
26
16
01
19
13
17
0a
00
1e
df
1a
1b
0f
ff
0c
17
26
04
eb
f6
20
0d
01
f6
1c
fb
f6
2d
27
22
0c
08
0b
13
00
1e
0e
ef
f5
22
16
21
fc
02
05
15
12
fd
12
f0
0f
10
17
0d
0c
29
22
fb
03
fc
fe
00
0c
12
2b
0f
f2
10
e2
f6
e8
f2
fc
df
09
f0
0a
f8
0c
f3
02
e9
d0
08
e9
07
eb
f6
e2
0b
0e
03
1f
00
fa
0d
17
02
14
e8
03
15
17
12
e4
e6
14
13
fd
01
ed
14
f1
01
07
f6
08
0a
f5
eb
01
18
19
e4
ef
e5
fe
e7
12
fc
12
f3
08
fb
01
eb
ff
03
14
f5
12
24
02
1d
01
14
0a
f0
00
f2
ec
19
fa
f1
f1
07
11
f9
15
05
fe
02
05
0e
0f
18
14
16
ff
ee
f1
0f
f0
00
f5
0a
f8
04
11
13
01
e2
fb
f4
fc
ee
f5
ed
22
08
06
0c
17
03
0f
fe
f0
1d
ef
fb
ff
e5
17
02
f3
1e
fa
1a
19
ea
c9
fa
ea
0b
fc
0e
0f
0f
f6
eb
fc
f3
eb
00
f1
fb
0e
06
05
f4
ef
16
19
fb
0e
0a
fa
f7
f2
0d
29
db
09
01
f5
ea
f9
f1
f4
06
22
eb
14
e9
ea
fd
18
09
ed
ff
e8
eb
e8
27
0b
f0
f4
0a
05
fa
10
ee
fd
04
df
fd
12
0a
06
f5
1a
0e
f4
12
10
12
ed
f1
e6
01
fb
0a
f4
e9
10
f1
1f
f0
22
03
f4
f9
14
0c
07
f3
02
e5
f6
f6
f8
0c
fc
0f
cf
fd
f8
e5
01
0d
01
ee
24
19
12
e8
02
da
ee
f1
1f
05
05
22
f8
01
ea
f0
f3
ec
fc
e1
d9
fc
e0
e3
03
fe
f4
f0
1f
e6
f3
0b
13
e0
eb
21
e6
f6
03
ed
e5
0f
fe
fb
fe
f6
f9
e0
f6
e8
18
08
f2
05
01
e9
00
da
da
eb
0a
26
ed
23
c6
f7
0a
fc
f8
f0
11
f1
0e
07
0e
15
0a
12
06
00
f6
07
1c
07
f8
fd
1d
1b
0d
1c
17
01
e3
f7
0f
ea
1d
ff
21
06
21
09
15
08
dd
fb
ff
10
fd
22
04
00
00
ec
14
f4
0c
15
08
04
e6
04
13
ec
15
f1
1e
17
ff
0b
e4
01
04
30
fd
dc
f3
eb
ed
f5
08
e7
f1
e6
f8
d8
02
ff
fe
ef
f1
f4
e1
ea
f4
04
06
e9
e9
10
0f
f1
fa
05
ec
06
08
15
0d
ee
09
e3
0d
0e
04
ca
fd
f6
09
e3
ff
f5
01
fb
ec
ef
0c
10
00
f9
08
01
02
02
1e
20
21
fb
14
00
20
27
1e
25
24
12
13
08
0f
f5
0e
10
ef
ef
0e
e8
ff
28
12
1d
27
10
f1
03
24
05
09
f1
2d
15
1c
18
de
05
ee
13
1e
12
17
1d
10
e6
33
0c
12
25
0e
07
0b
10
30
0d
20
ed
26
ff
f3
15
16
06
1e
e8
09
e6
0f
10
08
1b
16
f5
ff
04
ef
02
f8
f4
fc
f7
09
eb
e2
14
05
08
09
ef
04
1f
fc
11
f7
e9
fc
e9
05
eb
06
1c
e3
07
00
16
ea
f2
eb
f5
fc
f8
f7
13
ef
06
07
11
10
e2
0f
f6
fc
07
1c
f8
08
e3
f9
12
14
e6
fb
03
14
09
07
1c
0a
fa
d4
0e
f6
23
f6
05
0f
e7
0f
13
1e
fb
10
02
ec
fa
18
0f
18
0c
f8
15
1b
f2
f8
12
f2
17
0e
f5
16
f8
06
f8
ee
f4
18
ed
1f
ed
fe
f9
f8
0d
0d
16
f5
03
1a
1b
23
f4
0a
2a
f7
f8
f9
0c
01
23
fa
1e
14
fc
02
0d
1b
fa
ed
14
10
01
f4
f4
1a
1c
f6
fd
f7
01
06
ed
0b
0b
1e
f0
0a
16
da
39
16
f3
f8
fd
0b
ef
0a
f9
39
ea
03
13
f4
06
f6
17
1e
fb
1d
f0
06
10
01
1b
fb
f6
05
cf
fc
ea
fa
09
0b
18
f8
e7
06
13
1e
f0
22
02
f5
0b
1a
15
ea
09
05
fe
04
17
00
fd
21
17
e5
08
fd
08
f8
0b
06
27
15
f2
fd
11
0c
fa
0f
14
13
0b
f6
12
15
fa
f4
ee
f4
12
f4
de
0a
24
29
fb
1a
0d
1c
d5
0c
ea
15
1d
0b
2f
11
1d
00
0f
fe
f3
06
17
1a
13
f7
0c
f3
11
0c
13
f0
f4
e5
02
fd
fb
0e
17
05
0b
fd
10
f0
0a
07
13
04
22
1c
f0
11
0d
03
fa
f2
02
fe
0e
25
f9
16
fc
07
07
30
1e
2a
10
f6
f8
fb
18
09
09
1a
f5
fb
1d
f2
19
01
e6
ee
04
09
21
09
0c
16
ed
fb
02
fc
10
fb
19
ee
0f
12
f3
fb
fd
ff
15
ec
04
0f
0b
f4
fd
00
f3
0c
06
21
fe
26
02
2a
ee
e4
f3
f6
f1
17
fa
f5
02
0a
1c
f1
0f
fd
f2
0c
ea
12
07
18
11
05
12
f6
11
fb
f1
e9
e9
f1
18
15
eb
f2
f4
f5
f3
fe
ee
f5
02
f0
08
f3
f4
0e
12
13
05
0b
ff
09
12
f7
10
16
07
1b
ff
13
10
ff
ed
08
fa
08
f3
14
f0
15
05
f8
05
fc
0a
12
17
f6
f5
f2
e6
e9
07
02
fa
dd
1e
fe
ed
f6
07
00
ed
d6
08
0e
e8
f0
e3
f0
dc
f5
0a
ed
ea
10
01
01
fe
f8
0b
d5
eb
0a
f7
ea
2a
15
e2
06
06
ee
f8
0a
f7
e1
09
0e
ef
06
17
11
f8
fe
08
e6
05
05
1e
fb
eb
0b
0f
f3
f9
0f
f1
fe
0e
0d
fe
1a
f9
1e
e5
fa
03
f3
11
ec
f5
0d
11
13
ff
f9
f9
00
fe
ed
0a
fd
10
0e
ee
e9
fd
14
1a
de
00
ea
ee
06
1b
12
fa
f6
09
0c
ec
00
10
08
f4
f1
0f
1f
08
1b
f0
10
fa
18
09
fa
fe
20
da
f6
05
fb
fa
27
15
0a
f3
09
07
fe
fd
00
20
ed
03
1b
17
0c
02
1e
0f
fd
1d
e2
14
1f
fb
f7
c9
06
1a
24
f7
0f
05
e3
0e
fe
08
23
02
02
00
fd
fd
ff
11
02
e9
fc
0b
1f
04
f2
f2
23
f5
2b
09
fc
11
04
f8
f0
f3
f2
f6
f2
10
16
e9
1a
f7
e3
01
1b
f8
f2
0d
14
ea
03
1d
08
fc
fe
f1
02
09
00
f6
12
d8
03
06
00
ef
e3
14
06
16
06
f0
07
ee
04
f9
08
f5
05
07
f4
fc
fb
eb
f3
0a
f1
f9
05
19
1a
01
05
f1
0f
f2
05
07
0e
f7
f8
0c
1f
fc
11
ff
e8
02
f3
12
e5
0a
f1
f9
f9
1b
f9
fc
09
ec
fb
f2
1c
ff
0f
fe
05
04
f9
0c
07
0c
09
16
18
21
f7
eb
1d
e7
25
10
ec
21
0b
1d
20
ef
1c
03
fb
01
1a
0c
0b
19
0a
05
fb
02
2b
ea
fb
f1
f8
25
19
13
22
01
d0
0a
f0
04
f7
01
05
f1
ee
f1
1b
10
02
16
ef
1a
f4
15
fb
fd
ec
10
ec
09
13
1b
18
13
12
0d
2a
c2
11
fa
14
f4
05
12
0d
22
2c
fd
fa
f5
e9
04
1e
15
f9
fd
0a
0d
f3
df
10
fc
11
fa
21
19
12
fd
16
e2
07
04
07
00
f5
18
f9
fa
fa
12
1b
e9
1b
07
e5
04
0d
0e
ef
0f
17
03
15
16
01
fe
0f
f7
f7
1d
18
12
fd
e9
0f
01
f9
06
11
e9
df
00
16
0c
f7
10
0b
18
ff
02
fe
f0
f6
05
f9
03
06
0d
01
fe
ef
e8
0a
f3
e5
e6
fa
0c
07
25
21
ff
e5
f0
ea
e8
17
0b
f1
fe
f1
0d
f8
15
e9
00
f7
e4
16
1b
19
f1
0e
ed
1b
f2
02
f6
da
ea
fc
03
f0
03
e2
12
15
12
0b
0c
0c
04
1b
24
18
f1
09
09
f6
df
0b
f7
eb
24
fa
e8
0e
f7
f0
f3
f4
f2
ff
16
05
e6
ef
0e
f0
17
f3
14
fe
f6
1a
e3
e9
d9
f9
12
f9
e5
e2
10
e2
fa
f4
11
f1
00
0a
01
1a
08
fe
07
ed
f8
ec
08
0e
10
17
e8
fa
11
1c
15
01
df
e6
49
e3
f4
e7
ff
fe
df
ea
10
d9
ee
e8
f7
e8
f1
f4
e7
fe
ea
ff
09
e7
e6
12
de
ea
0a
e2
01
f6
cc
ed
01
dd
07
13
0f
e1
05
eb
e1
04
d9
ff
f4
fe
ec
df
07
08
03
d8
de
f2
e8
ee
fa
d6
f0
e1
0a

// conv1d_2/bias  shape=(64)  count=64  scale=9.5463626263e-04
a4
b9
bc
6d
fc
c7
bf
bc
b5
fd
a2
f5
f5
dc
81
06
aa
a2
9f
ea
f9
fe
c9
c6
d8
a6
f0
ac
b8
41
bc
af
dc
f7
e5
9e
bc
b7
34
fe
f5
ca
f7
b0
e8
94
09
d7
d3
e6
d1
ad
0d
dc
a5
be
fe
f4
a6
00
cc
cc
9a
fb

// lstm/kernel  shape=(64x512)  count=32768  scale=3.9742865900e-03
ef
e3
2c
1a
0d
0c
ec
04
0e
0f
ea
e4
11
e5
f6
07
00
f4
0b
09
f5
02
19
fc
fd
ee
db
fe
23
13
2a
f8
03
ed
e1
ff
18
fa
db
e0
f9
15
0b
f5
06
f7
03
fc
1a
09
18
ea
ff
e7
0d
18
11
df
e5
2b
17
1c
eb
fc
fd
08
eb
14
e1
f8
e9
0e
01
0e
06
0c
fa
f1
f2
0d
ff
0b
06
ef
39
ff
e8
0e
f6
0e
fa
e8
28
11
18
e6
fc
0b
f1
fd
06
11
06
f7
0f
fb
ef
ef
0e
e9
2c
07
f0
12
e1
ff
11
ff
01
ff
08
0a
dd
04
08
0a
03
02
f4
16
03
04
1a
0f
04
fa
30
25
02
fc
16
15
ff
10
15
0f
0c
0c
1f
1e
f9
13
0b
1f
10
1c
2c
04
20
fd
21
f0
fc
f1
12
f9
03
25
1b
13
10
1e
10
fd
1d
0a
f8
05
1d
e2
1e
04
ed
16
f8
39
f6
16
00
fd
11
fd
15
27
f6
14
16
0f
06
f5
da
18
03
2b
e8
ff
f4
34
17
1a
04
08
f6
f7
eb
f4
14
17
02
e2
11
ef
18
e2
d6
31
fd
f2
fa
05
25
0d
0e
f4
e9
09
fa
e9
36
20
0c
ee
ed
10
0f
26
03
f8
22
f1
fc
fb
03
2f
13
fb
f8
f0
ff
df
ed
e5
28
0b
ea
f9
17
f3
dd
fd
09
0f
fc
17
f1
f5
e7
eb
ff
19
fb
e7
ef
18
fe
10
07
fd
dd
fa
14
0f
11
22
fb
07
fd
f6
04
04
0b
fd
e2
f6
03
0c
ee
f0
08
17
fd
f8
f0
f3
02
e7
0d
e1
09
de
fe
0d
19
f3
f9
e1
fa
02
f4
0b
0f
f4
17
01
fc
ff
1b
1a
ec
e5
37
0d
17
f6
f3
1c
f2
e7
da
fe
09
11
11
e5
26
07
1e
df
06
18
f6
0c
ef
1b
fc
0f
2e
fe
04
f2
f4
fc
e5
15
0d
fb
eb
f1
f1
13
1d
f5
fc
f6
f1
f7
0a
1c
f6
e2
f2
14
13
2b
e6
04
fd
f6
13
fa
dc
f9
f2
13
04
18
14
f6
fd
1e
00
14
13
1f
f4
f2
19
13
fe
e8
f3
0a
15
15
08
06
df
12
ff
fa
fe
0d
0e
07
04
fa
ee
24
00
f9
08
0e
16
22
fa
fc
10
22
06
ff
08
21
01
23
e4
f4
f8
e4
1e
e2
e6
e9
db
15
17
2b
e8
f7
44
03
f6
2d
22
04
25
fb
2b
07
22
0c
fd
30
1f
17
f2
e5
11
fb
02
12
02
fb
ef
f9
11
22
0f
0f
06
ff
10
20
2a
17
26
f5
d2
27
2c
19
e5
f6
ec
f2
1e
16
0b
ff
09
21
0a
f8
f2
e7
f9
ef
f3
f8
fd
00
fa
f6
0e
e7
0f
17
07
03
02
fd
22
f7
14
0a
f7
e4
07
ff
0e
07
db
eb
19
ff
0d
17
07
19
06
05
24
22
f3
00
22
13
1b
1f
09
dd
ed
19
21
fd
f6
04
ea
13
d2
19
ea
05
ec
10
e0
e9
f1
16
fc
eb
e7
1b
f6
10
e9
f9
37
10
0b
06
16
f9
f6
f4
27
03
f9
06
f6
e7
ff
07
fd
04
17
fc
05
f3
06
14
00
f9
01
20
ef
fe
0e
08
17
ff
01
24
f3
02
00
f7
09
f9
f9
13
f4
21
20
29
f9
ef
d6
09
0e
12
00
09
f2
0c
29
e7
f2
ee
16
14
09
e9
00
ef
ef
12
ff
07
1f
07
30
12
02
f3
fb
e5
13
f2
1e
f8
fd
e8
25
ea
ed
f6
0f
05
f5
fb
02
0a
1a
0e
16
0f
02
23
fe
14
25
03
f4
21
06
2a
02
06
24
ff
eb
ff
e9
f6
0e
11
eb
11
00
1d
17
f9
f6
f3
fe
ec
11
0b
f5
f1
1c
e9
08
08
23
f9
0b
20
1c
fc
23
fa
ff
f8
16
fe
fe
21
f6
f7
1e
11
0a
10
e5
18
23
1b
0c
08
f9
1a
0f
f1
f2
fa
00
1a
f5
07
1e
f3
f6
05
13
07
f6
07
02
10
0c
05
15
f3
10
27
dc
fc
e2
0d
fa
1f
f0
ef
fb
fb
01
f4
e3
22
fc
f3
06
18
09
16
fe
0e
1f
f0
e8
25
de
18
f4
2b
e4
12
02
f2
ee
12
09
f6
13
f2
ee
07
27
ed
f2
0c
f2
e7
e6
de
f1
09
05
ed
fe
13
f7
fa
f4
f3
f1
2a
03
fc
04
d8
28
f5
ea
12
e8
10
ef
ee
e6
ec
13
1c
fe
0e
0e
01
1a
fd
f9
19
e4
f6
f7
04
ef
09
2c
e4
ee
f0
ee
f7
e4
08
12
e9
ef
f7
04
0b
1a
12
0c
0a
f2
e2
1d
13
10
0d
fe
0f
f1
2e
db
ef
f9
ee
1e
f2
03
15
ec
fc
f2
f7
ff
f1
01
2d
04
2b
18
07
0f
05
e7
fc
e9
02
14
16
16
27
23
10
e2
ff
01
07
06
f8
11
02
f0
f2
f6
1e
03
f0
14
15
17
1f
0a
17
e4
14
0a
08
e2
01
f2
0d
12
e3
d6
ed
22
ec
01
de
fe
12
22
05
fe
e7
3a
12
ea
22
00
1f
17
07
0f
f3
23
ff
0b
18
fe
fc
13
09
0d
0f
ed
0f
dc
15
0c
f8
04
24
ea
0c
f4
f7
0c
25
31
10
0b
d9
e8
1f
27
14
f7
1b
f9
0e
07
ff
22
00
ef
11
09
14
06
12
0a
f1
ec
e0
f1
e3
fe
12
f3
0e
fd
0c
e0
0a
0c
1a
e8
f5
25
f5
08
09
f0
e7
15
07
dd
09
1a
0d
22
1d
14
fc
0a
21
15
2a
22
0a
0d
f6
16
ff
e7
f6
e8
07
01
05
ee
f2
ec
2a
e7
25
f2
0c
ef
f6
ed
08
fc
2f
03
e4
03
19
0b
2e
14
05
0e
13
ed
04
11
f7
1d
f2
32
02
0d
13
02
e7
fa
1b
0f
07
08
f0
05
e8
d1
01
12
1f
09
27
f7
f0
e1
eb
f0
f7
09
1b
1e
04
fa
ed
18
07
ea
10
17
1c
02
2a
fc
ee
eb
23
07
f6
0e
0e
ee
2a
2c
fe
11
00
f7
11
f8
1e
f6
00
0c
12
18
fd
34
fb
35
1a
20
f2
16
fb
2d
f6
0a
25
2c
0c
10
f2
0e
19
21
0d
f4
29
10
ec
33
0b
15
ff
05
3a
1d
09
11
09
21
0a
14
12
f3
0e
f9
2d
0a
06
ef
07
2b
07
f5
f2
da
45
2e
2e
12
0d
06
fd
f7
18
f0
15
02
e3
18
09
10
00
e7
1e
f8
13
1f
01
20
20
11
f7
05
08
e9
05
f8
2f
0b
ed
02
05
17
28
16
fa
0a
fb
f0
e9
16
1b
e6
08
f3
00
10
df
fc
e4
00
2a
02
e2
0a
e5
fb
ff
05
fd
11
01
e5
fa
f5
f3
fa
f7
0b
ff
1a
25
05
0c
e3
28
ea
08
04
f3
1a
f3
17
e7
02
ed
f6
f6
d7
fe
e9
13
e3
fe
2a
12
06
ee
25
e2
f1
e9
f0
f6
0a
de
1f
e3
05
f8
f5
ec
fd
e5
12
f2
fe
04
1d
f6
f5
07
02
06
17
f2
e8
08
12
0e
fc
e9
d7
1a
f0
f0
f5
d9
14
04
0e
f6
17
e5
1e
08
03
16
e7
0d
09
ff
ed
f4
29
f4
f8
e3
e9
0d
09
10
ff
f5
0d
23
eb
fa
30
f5
1d
ea
05
e0
fb
26
0a
f6
e2
03
15
0a
ef
e5
de
fb
0e
f9
d6
f4
d1
12
f8
e5
19
0e
ea
06
16
f8
0c
06
eb
07
f6
13
fd
0e
f2
0d
10
25
0b
00
d6
ef
10
fd
f8
0f
0b
22
fd
fe
1f
27
f5
ee
f5
0b
17
23
e8
1f
e4
0e
0a
03
0d
1f
18
1e
0a
da
d6
fd
f7
fa
f5
0f
07
19
17
17
15
df
2a
00
20
16
e6
fa
04
e5
24
11
14
13
f2
16
fb
1c
da
07
0c
11
fd
ed
f7
12
f3
f9
15
2d
e0
17
fc
08
f1
2a
e7
17
23
d5
e1
f6
ff
0e
f7
fd
23
5f
39
2f
14
15
4b
df
1e
20
2c
09
1e
13
08
20
32
e2
f0
2e
0f
f8
09
ea
fd
fb
f4
0e
4f
f1
5d
e6
d4
0c
f3
19
3f
23
eb
f5
fb
df
5e
b8
01
43
14
cc
f7
41
ff
e7
31
ec
20
1d
e6
ee
05
be
db
f1
d6
ff
ca
df
f3
48
f2
ef
22
01
3d
2d
f4
52
09
03
23
f9
11
2e
b9
d2
d0
04
e9
09
f0
14
32
f9
08
e0
18
12
e2
e0
fe
28
58
47
2b
11
50
f5
c9
d9
11
4c
92
03
d8
e7
db
14
11
19
fd
10
de
20
22
d2
e9
11
05
fb
4a
3d
1c
2c
28
da
32
c5
12
03
0e
06
0f
01
ff
17
0b
e6
0a
44
05
e8
f3
00
1c
fc
df
0b
2f
ee
79
fd
ec
1f
04
1b
1d
29
26
13
20
e5
55
b8
f1
45
2f
f5
f3
37
0d
e3
4f
f1
ea
20
fe
e2
0b
90
ff
f8
bf
ec
c9
27
f8
51
f8
f4
22
d8
19
3c
f5
4e
21
2f
17
4d
1e
06
dc
e4
a8
23
d9
d9
f5
f3
27
fb
24
d6
0c
f2
07
13
09
01
45
57
1e
f1
37
e6
f6
e1
1c
25
91
0b
e5
c9
ea
f5
02
00
2e
f0
d5
1f
56
be
cb
f7
05
f0
ed
ee
1d
a6
0c
1e
ad
b8
13
f9
e1
d6
bb
e5
02
e6
32
e3
12
d0
3d
ee
0a
10
22
f0
e7
0e
b5
f7
bc
19
10
df
f4
ff
2b
24
01
fb
ff
2a
db
d8
e6
3a
28
07
29
1e
10
41
e8
21
df
06
f9
f8
f4
4f
06
45
e0
d1
e0
13
e1
c0
e4
0f
01
20
1b
d7
13
c6
ff
19
d8
0a
de
1d
1b
1c
c2
0d
f5
bf
2c
d3
14
08
22
4c
10
dd
00
1a
06
d8
58
cd
26
cd
ca
bd
c9
ec
00
e7
e0
1e
b4
16
ef
ff
ec
f0
d9
2a
1a
4c
b3
2e
e2
05
26
f5
05
40
3a
71
4e
f7
37
cc
07
10
2e
19
30
ba
e7
23
1f
04
08
36
2e
99
c9
fb
57
f0
d5
11
45
c2
3f
01
db
ee
11
d5
fc
35
fd
ff
04
ca
6a
ce
13
5d
0a
cc
f1
60
e2
f4
5c
cf
ef
59
cd
df
08
d3
d9
c5
d9
e8
a6
db
15
43
d3
d7
0f
e2
44
1e
f4
42
2a
17
f7
7f
1b
13
ea
bc
cf
21
a1
d4
d1
f5
0d
ed
47
ae
4c
c9
fd
ed
d6
39
53
56
f7
f7
26
e6
dd
ea
10
4c
bb
08
0e
bd
ed
fd
07
1a
f5
de
c8
2d
35
b9
ef
04
1b
c8
01
0f
22
04
1f
f3
07
03
f6
29
09
0d
eb
0a
06
05
0b
0d
f5
20
f6
e3
08
fb
e9
1a
fc
20
1f
14
20
fa
2d
09
11
de
17
09
e2
e4
18
0a
1e
09
e7
fb
f8
0d
f5
0c
17
f3
15
ee
16
f1
09
e1
e4
26
15
17
f7
f0
fd
0b
01
25
0c
f4
f7
02
dc
02
01
1a
e3
d9
f1
02
f4
0d
eb
0f
34
13
0e
fa
1a
11
e1
dd
0f
f7
00
08
e6
e6
16
1f
18
10
f5
07
eb
dc
e2
f0
e0
07
0d
08
e0
e2
08
f5
f7
09
f5
10
f4
0a
f8
f3
00
26
09
fe
1c
f2
fd
fe
1a
0b
f2
04
08
f7
0d
fd
f0
34
fe
ec
ea
15
1a
12
13
1d
07
0e
eb
17
24
15
26
0c
31
f3
05
f4
fc
0b
1d
13
05
14
23
09
1b
0a
e4
06
1c
29
1d
fd
fa
f5
25
0b
f7
1e
11
31
0d
03
2a
09
f5
1a
19
2f
d8
fc
fe
ff
fb
06
07
f4
08
26
0e
ee
e9
44
2b
16
e9
f5
11
0e
01
f0
08
11
04
ee
19
14
30
01
09
17
1f
08
18
1a
29
01
16
fb
fc
15
ee
09
05
39
fd
08
e5
18
20
0d
31
f0
13
15
0e
0c
15
24
07
21
00
eb
11
f1
e4
04
ee
10
08
eb
04
f4
e9
20
f9
f3
01
2b
0f
e5
12
f8
f8
1e
11
f1
0a
1f
e6
ff
fb
0a
ec
06
f9
12
22
08
0e
13
09
ee
f6
0b
f0
1c
02
19
e6
03
f8
f9
dd
e3
0c
f1
0a
f1
03
fa
03
d4
ee
f9
06
e1
00
fa
07
e0
fb
ec
16
f6
14
e4
17
0a
16
11
f6
f9
05
f5
1f
02
08
fb
ea
fb
fb
ea
da
fa
07
0b
fd
04
1a
ff
17
fd
08
12
f7
de
06
16
f3
fb
1c
eb
ef
fd
0d
0b
eb
05
fa
12
0a
09
ea
16
29
f1
09
10
ea
e8
17
0b
fe
fb
fd
fd
f9
15
0c
ff
f9
ed
17
dd
df
fb
ec
f9
1f
ea
ec
fe
e8
05
ec
24
00
ff
16
f6
fe
fe
ec
0a
0f
fc
08
1d
12
fb
de
10
05
e8
20
e2
f9
02
04
fa
10
1e
18
ee
09
22
23
15
fa
13
e8
1a
0e
fa
f5
1d
eb
21
12
ec
f2
08
fd
0f
f3
ed
09
15
1f
11
10
ee
03
f1
0d
11
02
ec
17
d7
20
02
09
e4
e7
0a
06
28
0d
e4
17
fd
eb
d3
e1
10
f0
f9
00
2c
ed
ff
f1
03
03
16
0c
f9
24
f2
07
ef
04
2c
10
1f
13
01
0e
18
0e
13
fc
1a
f1
01
eb
09
fe
fe
ed
05
20
0c
15
fb
ee
12
0d
f6
e9
11
f9
1b
e8
15
23
0e
06
01
09
0f
18
02
ea
03
09
0d
10
f7
12
10
04
14
1b
12
f4
ef
1f
0a
1b
f0
12
f1
0d
0f
0e
e2
17
fe
0f
19
f3
12
16
14
ed
e2
07
03
ef
2c
00
e6
11
19
02
02
f2
00
01
f1
05
10
fa
11
f5
dc
13
0f
1d
0b
df
fc
f0
fb
1d
05
04
f7
fb
f6
e5
f4
ed
09
18
fe
f4
ea
01
ea
f0
23
ee
0c
0b
09
e9
04
08
0e
1c
ee
09
24
f8
11
2d
09
0d
f1
02
00
1c
06
07
2f
16
07
05
f4
04
11
1a
20
03
04
ed
f6
1d
21
03
18
37
ec
21
fa
07
f7
1e
26
f3
13
f6
14
2e
f1
ee
00
fa
06
fc
11
fb
f1
2d
14
12
17
13
03
08
e0
11
f4
1a
f5
0d
14
fd
fa
04
19
0a
ef
f0
f3
0c
2d
fa
f8
13
15
14
00
f2
ef
0d
1c
0d
0d
f4
f7
21
f0
14
f8
22
0b
11
17
f2
0e
25
35
23
08
0b
fd
e6
f8
ff
07
01
29
fd
f2
e9
1a
f9
1e
03
08
0a
f3
04
ed
e7
01
01
fc
0a
f3
26
e3
e6
18
d9
18
17
e3
05
01
fe
fb
ed
01
12
23
e6
e0
04
e1
06
f8
22
f2
15
fa
ff
e1
06
f5
0a
fb
0f
fd
21
26
e9
e6
f6
e5
f1
f6
e7
01
f2
1e
e6
0d
20
09
f6
0b
f7
f2
fe
e8
fa
fe
04
11
f2
e1
f8
0f
0d
ee
ef
ff
ef
0b
19
07
f7
e6
e7
18
e3
05
fe
1c
10
fe
17
f7
f6
f8
e0
02
02
11
d4
10
09
fb
f8
0a
10
dc
0d
da
10
01
fc
07
da
ff
e1
ea
08
07
07
0b
0d
fa
e8
0b
04
09
24
fb
fd
fd
05
f5
05
0e
02
ef
ff
31
23
21
f9
e7
fb
07
06
e6
18
ff
f9
ff
ff
02
f9
25
20
fc
fa
0d
29
0a
19
02
50
12
1b
13
10
1d
f2
eb
f7
fc
22
09
13
18
23
f0
f6
fd
1f
0e
0d
2b
19
f0
54
f3
f5
1e
03
ea
01
11
1e
ec
0f
0d
fe
16
03
2a
f5
2a
0a
d8
20
0e
03
18
2f
0d
04
1a
1e
18
f9
ff
ea
f3
f9
fc
08
02
09
e3
19
fc
3c
05
e4
31
f7
fd
07
20
14
0e
1e
03
09
0c
12
20
07
2d
eb
14
f9
19
e5
0c
11
07
f5
ea
0e
ec
ff
2b
0d
f9
fb
f9
0d
27
fe
eb
ec
0a
08
ed
fa
ed
ee
1f
03
e2
eb
06
0d
1d
f7
0f
0e
03
f5
18
03
01
f9
f3
0e
0c
08
e0
f6
e5
05
ff
eb
03
01
02
12
15
05
12
04
f9
f5
22
16
0d
18
f0
1b
15
06
03
05
10
09
fb
f9
f7
f8
02
ea
16
fa
16
fb
00
f0
fd
ef
0a
e2
da
fd
ec
0f
18
e2
f4
15
0f
17
13
ec
f7
08
fd
07
fa
01
fc
02
f2
15
ff
02
1c
24
01
fe
e0
d6
06
08
00
fa
13
d9
08
06
f8
f9
0d
dd
fa
fb
04
e3
ff
1b
0e
0b
fc
ee
16
17
fa
25
15
ef
0b
02
f6
09
15
00
1f
02
01
fc
0f
02
01
f3
f2
0a
13
05
20
01
19
1a
1f
13
f3
02
ed
06
f3
06
29
15
23
1b
f0
0d
12
ed
11
fd
16
1b
21
01
e6
14
10
f8
1e
13
1a
fe
00
fb
14
0b
f6
fc
0c
f2
ff
0c
14
07
08
ea
f8
02
12
ff
e8
03
21
28
02
e4
f4
18
18
eb
1c
f7
fe
24
e8
0e
11
2c
f8
fc
fb
13
1a
22
11
03
0d
e8
ea
e1
17
ff
f5
1c
21
f8
f0
ea
fd
f7
21
2c
f8
07
fa
ed
f4
02
18
ec
18
ee
02
f7
ef
e4
ea
16
22
ee
fc
f6
f7
12
fb
08
fd
fe
1d
ff
02
08
f1
02
f8
1e
10
ed
1f
db
f0
fb
ff
08
eb
19
f0
1a
f6
04
02
fc
01
0f
09
01
01
ea
15
d6
18
fc
f0
e2
00
29
d9
0e
fb
13
de
1d
01
26
03
01
de
f4
e8
10
f6
11
0c
0f
11
1b
d9
14
0c
f6
ef
0f
f0
05
06
16
f2
1c
16
02
08
f3
ea
06
e0
0d
f0
f4
fc
14
e4
1c
f0
fb
02
fc
10
0e
1c
0a
fb
04
07
13
f3
fd
10
f2
1a
f3
fb
ed
f1
f9
e6
23
0a
13
fc
e0
f2
f9
07
f1
16
de
00
18
1b
00
f8
e3
f2
f7
dc
e8
f8
d8
d9
21
18
05
04
15
0c
09
1f
0e
20
02
ed
15
06
ee
08
e5
22
04
26
14
0e
fb
05
0d
ef
0e
e2
1a
0c
0c
09
16
05
1b
e8
eb
11
29
fb
17
0f
15
09
01
f2
f9
12
02
00
06
fa
e4
f7
0e
d9
f1
f6
d8
fe
18
05
ff
04
13
11
08
ee
12
0c
1b
fa
0f
ee
22
02
10
18
0d
20
08
0b
25
ff
e4
e2
fe
28
e8
f1
ff
0b
ea
04
08
fd
03
23
ed
f9
01
fc
f9
ff
06
28
00
1a
12
0a
1b
15
1c
e9
03
0f
16
ff
ec
eb
05
f4
0a
f6
eb
df
14
f9
ed
e2
f7
0b
04
f9
e1
11
ff
f4
1a
f9
25
ff
08
0f
20
02
ec
eb
e9
14
1e
f9
fd
05
0f
18
1e
25
0d
f6
ff
17
f5
0b
04
11
0b
09
25
16
10
07
01
25
f2
05
eb
08
f2
ff
f9
18
da
12
07
fa
05
fe
fa
09
f3
fa
27
15
e6
e8
ed
e3
01
ea
00
fd
17
04
05
e3
07
1b
22
00
21
ff
12
fb
d9
fe
fb
11
f5
f4
e2
e5
0e
e6
15
fa
f6
13
ff
04
fa
fb
1d
18
f5
05
fa
ea
04
fd
23
f3
f6
11
0d
18
2a
ee
e8
14
2c
08
ec
e6
23
09
f1
11
04
07
0c
32
fe
05
25
01
30
f3
1f
f7
02
00
fb
05
09
26
1b
09
1a
ef
e3
20
f7
ff
fa
27
f4
f6
1c
0a
17
03
ed
37
1c
10
06
04
00
2a
01
22
fd
f9
0c
09
e9
e9
f9
f1
fd
04
fb
05
ff
2c
2b
13
fb
fe
f5
0d
0f
e8
fa
10
07
d7
fa
fe
09
f9
f4
0f
00
16
1d
22
19
f4
f7
fb
f7
07
11
0e
fa
28
ed
09
0a
22
17
13
09
14
18
ff
ed
fe
06
f8
06
18
fd
dc
26
f1
eb
e3
17
0e
f2
fa
1a
02
fe
09
f4
f1
14
16
e3
ea
fa
e5
17
01
f8
16
eb
01
ef
18
f2
20
d3
0a
13
18
16
17
f2
12
10
e7
fa
12
e8
06
de
25
f8
0e
18
07
e1
ed
1e
07
f2
ff
0b
f5
20
fe
ed
e2
f8
df
e7
ff
f0
0c
ee
f6
e5
0c
ee
05
ff
f8
fe
18
1a
07
e6
f1
2d
12
12
11
ec
f5
ea
0e
f2
08
fe
0b
e6
e2
04
0a
1a
f9
e8
f3
06
e8
04
ff
fb
ea
01
e3
00
e4
dd
f7
df
fb
14
e9
05
fa
f4
e9
0f
fe
00
01
ef
ea
fb
0a
f7
0b
e3
0a
1b
26
0f
11
ee
e9
27
de
e2
fc
d2
e4
f3
0b
fe
0e
f6
0b
ef
26
fd
01
07
11
06
f8
15
f7
08
28
28
0e
f3
e8
f4
e6
11
eb
f0
e1
f5
1e
e5
e1
fb
ff
25
07
f5
0e
f4
0b
f5
f1
e5
23
f0
fb
11
02
f4
0d
04
05
0e
0f
f3
f9
14
ff
f0
f2
1d
18
fb
d8
ea
06
ec
e8
12
e8
0c
d7
10
0c
2b
c6
12
17
10
2d
1d
e0
1e
f9
0b
f9
f1
16
e7
1a
f0
26
ef
f5
eb
f9
f4
17
0e
fe
03
f9
ec
f6
10
03
08
f4
f1
fe
0e
29
20
f4
fd
00
1a
fe
fa
d9
00
05
fe
e1
e3
ef
f1
02
01
f4
00
0a
eb
f6
e8
0b
fe
fd
10
10
09
fa
02
03
05
0a
07
e6
07
07
0f
10
fb
f5
f3
1f
1e
02
08
de
18
f3
08
17
ed
ef
07
06
07
f0
e0
f1
f7
28
ee
20
f8
eb
e2
ed
f9
0f
13
04
f9
f5
dd
23
0f
06
03
f3
23
0f
f6
10
ec
e5
05
e7
14
10
0c
10
f1
1f
fc
08
1b
18
15
14
1a
d2
f6
e5
fe
f2
0f
04
04
0e
0b
ec
f8
07
11
fb
fc
04
f8
08
0e
fd
ee
ec
15
fe
20
26
0e
fd
ff
02
fd
04
16
02
fe
10
30
05
03
f8
07
09
ea
02
fc
15
e5
1c
1e
19
00
16
12
e9
05
13
ee
e3
06
04
0f
ff
2f
e9
23
05
06
19
2b
05
13
06
17
dc
07
22
ff
28
11
10
13
e8
01
06
10
17
fb
3a
e6
2b
f9
27
01
0c
ea
f3
13
2a
ea
18
ea
4c
04
22
e7
00
04
ee
ee
f2
01
f6
20
d4
25
f7
36
fd
e2
12
1b
13
24
1e
fc
12
0d
fa
f5
09
00
17
22
2a
e0
f2
e6
07
f8
ff
04
04
fd
f4
0b
15
09
1e
0d
14
e7
02
20
eb
e4
df
0b
fa
f9
ef
ea
12
09
0b
f5
f2
1e
1f
e6
e6
e8
0e
0a
08
fb
f0
fb
fd
0d
07
f3
28
01
08
fb
06
18
00
1a
05
14
df
dd
04
d4
11
e7
2b
dc
f9
0b
ec
f3
fe
21
f6
f8
ed
f5
f1
1d
ff
22
ef
08
ea
ec
ff
f0
f6
fc
e3
f5
0e
08
e7
e9
0f
f4
1e
ff
08
e8
ef
29
f9
03
ff
f0
00
ef
fc
09
ea
ff
f6
fa
e8
04
e9
fc
fd
f8
08
ef
01
ea
23
db
03
03
e3
eb
ee
0e
e9
f8
03
17
06
f4
11
da
f9
13
11
18
fb
ef
d7
f5
0e
0f
ea
e4
f3
0e
fa
ff
ed
0c
ea
0e
ea
e4
07
f8
05
e7
eb
0a
09
ed
19
f2
1b
ef
18
0f
0b
15
f1
0a
f5
eb
09
1d
03
22
ee
d5
13
05
f8
13
0c
f2
1a
01
fd
01
0c
22
dc
19
21
01
11
02
12
ed
13
0b
e9
03
16
ee
1e
f5
e2
eb
f2
21
fe
01
db
ef
e5
fd
fd
f9
f9
08
03
fd
e5
fa
1e
f6
f1
1b
e3
05
0f
fa
12
1d
21
0b
0a
15
10
f8
06
05
18
fc
16
07
2d
df
08
e1
fb
1f
20
16
f0
06
00
fc
ec
0f
06
e8
12
0f
ef
1b
18
ff
f6
ea
1e
fd
13
13
ec
d1
f6
e6
ef
e9
dd
f0
01
0b
ee
f0
e7
ff
fc
fe
0a
01
f4
2b
0c
0f
07
e8
e8
fc
09
f8
05
00
16
f8
0a
07
16
09
fd
00
f6
13
fe
f9
e4
f6
11
ed
06
f8
1b
0c
12
e1
e2
05
15
f5
15
eb
f7
e8
f3
e4
eb
dd
17
03
06
14
e0
1d
ff
13
df
16
03
00
f7
f0
07
0b
f1
10
e6
1b
fd
ff
f4
0f
11
2b
05
26
13
13
03
dd
f0
f7
f6
ed
fb
d6
07
ed
fe
fc
fe
04
19
14
de
ea
eb
14
02
00
fd
10
fc
20
27
06
ec
04
ef
2a
1b
2e
e9
f0
07
ff
ec
f9
fd
25
11
20
1c
28
f1
fa
31
07
03
29
10
2f
e3
fb
02
f9
0d
f6
3f
01
0b
04
fb
18
e8
00
05
1d
01
f5
ff
eb
01
2c
10
ec
26
0a
2f
0a
f1
fc
ec
02
f0
fc
30
fa
1b
1d
08
04
fa
09
ec
06
1b
07
0c
e4
34
27
02
f0
ea
ef
13
f7
04
f4
13
0d
e3
14
fc
0e
00
f3
06
13
0c
0e
06
fd
f5
fb
dc
fa
19
ff
15
00
2b
05
0c
00
02
06
25
15
f6
02
f5
ec
07
f5
04
ea
10
08
0a
10
f7
fe
08
f8
02
f8
fb
f3
00
14
f8
11
f6
17
03
f9
0f
0f
f8
eb
13
17
13
f0
15
e1
0f
ef
0f
f6
df
26
08
15
17
09
fa
fe
0a
fd
18
e8
0c
ff
fc
ec
11
05
f8
de
f9
fc
db
19
fb
ed
e8
18
f5
0f
fc
fa
ea
e8
04
03
13
15
f1
12
0a
fb
e6
f6
2d
ff
f0
00
0c
db
f6
f0
02
1c
f6
00
19
06
09
08
ea
15
01
08
ef
20
fa
18
e9
0b
f1
ff
f8
ff
1b
d9
f7
fd
08
0e
e4
e4
03
fb
07
0a
ef
01
ff
d7
f5
28
ff
1f
e5
f7
d6
07
02
f7
f3
01
e5
0a
13
fd
09
d4
0e
24
f7
eb
00
fb
d6
f5
0c
00
dd
0d
2b
e0
1c
e0
ea
19
e7
fc
1a
fa
09
0a
2c
14
00
09
e6
e3
ec
eb
14
f2
e3
0e
f1
01
fc
fd
0c
22
fb
fa
ed
f4
0d
da
fe
f3
fe
f6
f1
e9
13
f2
00
1a
ed
f3
db
f1
fd
13
0c
0e
fe
07
08
e7
fd
19
f8
0c
dd
f7
e5
f2
ef
fe
09
0e
ec
eb
f6
18
10
ec
13
2d
de
00
01
da
10
0a
f9
0d
12
00
ff
e4
f5
f3
f7
e7
0a
f1
d7
04
15
1e
14
ec
00
f8
0d
ff
11
f1
0f
f3
26
f8
1c
ff
fe
06
e8
fc
0f
14
02
ff
fb
fa
ff
f6
f4
ef
f7
1b
06
03
12
02
0a
21
10
ed
f0
fd
0c
ee
df
e6
15
1d
f1
fa
18
04
f4
0a
0a
18
ed
2e
f5
08
04
fc
e3
05
f8
1c
0f
f2
fe
e6
31
fc
2d
ec
0b
e8
09
fe
f7
08
24
f8
15
ec
f3
e9
1d
19
d8
00
0e
f0
f6
e8
f3
eb
f4
09
fd
05
ee
f4
07
11
0d
fb
24
02
02
ec
e9
f0
1b
01
14
2a
04
dd
0c
05
17
10
f7
d8
14
06
eb
ec
e7
ff
f6
fa
0e
1d
12
ed
01
f1
f5
0b
1c
23
07
24
04
e4
2e
ff
06
09
ed
0f
0a
27
0d
22
f2
05
21
0c
f0
10
0e
14
fd
02
09
ec
02
1f
ed
0d
16
1e
05
04
f1
0f
2f
16
23
06
22
fa
04
41
f5
20
16
fb
25
00
fb
04
fc
fa
fc
23
0b
18
15
0f
15
01
f4
f6
18
fe
27
f0
15
e7
30
2b
0f
18
db
f6
0b
18
04
fa
03
2a
df
2c
01
2e
09
f8
23
fd
17
f1
25
2b
f3
08
0e
fc
f9
13
00
06
2c
d7
16
f6
0a
1a
1b
20
f7
23
e8
1a
fc
f4
17
f2
04
16
01
f4
02
f0
0d
e8
fa
04
e2
0f
0d
f8
0f
0e
01
0c
0a
fa
11
0f
00
e6
fb
f7
fd
13
09
08
17
fb
05
eb
0f
f6
1c
06
fc
10
f8
0c
f5
f0
e7
ee
fa
07
f1
02
0b
02
f8
05
f9
fd
0d
f0
f6
fe
e8
1c
de
12
fe
0f
01
12
0b
0d
05
13
15
ff
ee
00
ec
f7
11
f5
11
fd
20
e1
ea
f0
ea
00
02
f3
fd
fc
fc
00
ef
0b
00
ed
f6
1c
ef
0e
f7
ef
ff
01
0e
e0
15
0a
eb
17
f5
eb
07
ed
0b
f8
03
0b
f0
f6
ff
18
05
0a
16
fe
fd
ef
ed
f4
30
ef
fe
11
f1
07
1b
03
d6
fb
1c
18
05
09
ef
e2
c4
0e
15
f9
02
fd
2f
f3
e8
0e
12
0e
12
09
05
17
1d
11
ff
07
2b
0f
e2
e5
fe
ef
0b
1e
fc
ee
1f
f9
f5
13
e6
f9
04
de
2f
01
0e
f8
10
ff
f2
fa
e7
14
fd
fd
00
f5
f4
08
ef
f7
e2
fb
01
f2
fc
18
ef
05
dc
0b
de
13
e7
01
01
08
e2
0f
f7
3c
f6
f2
34
0f
07
ed
06
15
f6
13
14
e4
0a
f5
f5
e7
15
d5
f4
f2
25
00
02
04
0f
f8
ef
16
ed
12
01
e6
fb
12
00
0f
fb
0d
f9
e6
0b
f7
17
18
ec
fb
03
ea
cf
ed
cd
2a
27
0b
f3
16
18
f6
fd
21
1e
eb
04
1a
ef
fa
04
ff
f4
00
e2
12
17
ec
e9
1f
e5
dc
fb
f5
fa
e4
0d
ea
03
fd
fe
1e
ec
f5
01
e2
1d
e7
f7
f8
e8
10
34
01
20
f4
eb
01
1c
fc
01
fe
d7
fc
c4
d8
f3
1d
1f
d8
05
0c
1d
f8
1c
e4
f0
db
f1
37
2b
f9
17
ef
0c
e2
2b
ea
ea
0a
f9
ee
ec
1e
ff
08
1b
26
f6
e0
ed
d9
00
fb
32
fc
0c
13
dc
f2
16
f4
0f
d9
27
fc
19
ef
0b
f9
2c
02
f1
11
0e
18
eb
f8
0c
13
df
c6
e6
10
1e
f7
fc
0d
13
16
1a
5d
14
18
02
1b
e8
0d
fc
e1
e6
e2
17
1e
f7
15
ed
15
06
f9
eb
2c
1b
dc
19
01
18
02
24
03
01
00
3e
f5
fb
ef
0c
18
1d
14
28
e2
f9
31
2d
e6
00
00
21
39
f8
0d
e2
df
35
1a
12
f4
12
f5
12
f9
33
e5
0d
15
d8
1d
2a
15
0b
e1
4c
1e
11
09
ea
22
0c
f3
e5
06
04
fc
2c
1c
14
01
ef
f9
0e
0e
0c
22
01
ef
de
e1
04
1c
22
bc
13
16
19
26
05
ff
e3
17
08
07
f6
e8
1f
ff
09
0c
ec
d2
1c
1e
10
da
e9
eb
ff
0e
16
0a
12
15
13
21
07
0a
f0
0c
fc
f9
0c
14
18
f2
0c
1e
1f
ee
ed
f5
0b
f7
21
14
e2
10
f8
01
0b
03
0a
23
db
12
ee
0a
11
e7
01
1c
07
ee
08
f8
e6
f2
f9
13
03
f0
eb
00
12
01
ff
ef
02
0e
1e
f1
21
f3
00
f9
e4
d0
e4
24
12
fa
f3
07
ee
f7
26
d7
23
0f
06
29
08
08
d4
23
e1
05
0b
fe
02
12
32
f1
ed
f3
d8
09
d9
13
0a
d9
e1
e0
0e
17
09
19
e9
eb
e5
1f
0f
de
e9
fd
ff
12
e3
d8
0b
02
40
29
05
e7
1b
ea
12
2d
1d
0c
1f
01
d0
fe
0f
f5
f1
07
25
2d
11
f1
08
10
f6
ee
d0
0d
d7
bf
12
ed
06
0d
14
06
fa
0a
02
0b
1d
d1
de
e1
f9
32
ea
e0
13
02
25
12
f3
01
fd
1e
fb
06
d8
d4
32
1f
0a
fb
11
2f
e0
e9
f1
f9
01
ff
cd
45
e8
fc
f6
de
14
00
27
cd
07
fa
dc
f7
09
21
ea
e1
11
08
13
01
f6
ee
1f
f5
28
f6
02
29
f6
de
f7
11
2c
ca
df
19
15
16
05
fd
0a
de
f5
0b
28
16
f8
02
fa
03
dc
e6
f3
fa
f8
13
01
f0
f8
ea
0b
ec
fe
f9
f8
0d
fa
1c
eb
0f
f8
fd
ee
00
0a
e8
0f
10
0e
e8
f3
ef
1c
f8
13
03
f2
02
05
22
f8
14
f2
ee
10
f7
0c
fe
fc
df
28
e9
24
fe
19
e0
12
f9
0f
eb
06
e1
e3
07
ee
11
fb
eb
0a
23
1c
f7
e6
f0
0c
12
f8
f6
0d
ea
11
fb
f3
0e
f7
22
fd
1a
07
12
e3
d8
f5
f9
08
04
fc
e6
f4
f0
f0
f0
e1
f0
1f
fa
f3
f8
ff
1b
16
f0
12
04
f6
0f
20
fa
fe
fe
f5
04
16
2a
06
f1
05
27
08
fd
f1
f6
10
22
08
1b
ed
09
13
f5
1c
10
fc
32
f9
fc
f6
f3
09
1c
ed
02
0e
26
08
25
02
12
24
f9
fa
ee
05
0c
08
29
01
05
fc
f9
21
21
ff
0e
19
fa
0c
07
2b
dc
1a
f8
13
17
e2
0e
0f
27
18
ea
14
f6
13
2b
05
09
f4
20
f7
e7
f0
ed
0d
20
ea
0d
e8
11
10
ff
19
1c
fc
08
15
ff
21
08
db
f9
12
00
f4
ee
0e
ff
f2
02
09
22
20
0e
ef
f3
f0
02
fc
f9
24
ff
f8
f6
f0
23
ec
f9
fe
0a
12
08
fe
11
e0
e5
1b
00
f0
f9
fb
f4
f2
fa
10
0a
15
19
eb
12
1a
e4
00
ec
0d
ec
0a
19
0d
06
0e
f7
13
f6
ff
f5
25
e0
0e
e3
0a
e1
1b
0b
ec
f0
f1
0f
db
10
f7
ed
e9
fd
f2
f4
0a
05
f6
f8
fa
1a
e5
01
03
ec
f1
ef
e0
e8
fd
1f
0a
1e
0e
f0
f4
1d
05
fe
0a
fd
07
0d
e5
f6
0a
0d
19
f6
ef
22
eb
07
f7
f6
10
f2
f2
f9
27
f4
fe
fa
0d
0e
ee
01
0b
01
fd
20
e9
01
1e
f9
05
12
ff
f6
e7
ed
f2
0d
21
10
f3
de
e7
ec
03
13
e4
f3
f2
f8
f1
d7
fa
e0
ff
04
f3
f4
ff
09
15
0b
01
ff
03
15
fe
15
e9
e7
e9
07
2a
f7
11
06
f5
eb
f9
10
fe
ef
06
04
2b
ef
f2
04
1d
00
f2
05
1c
12
0e
eb
0b
ea
09
11
ee
e4
16
ea
29
e8
ea
fa
12
fe
e8
e7
0c
f7
f1
16
07
fd
0d
f1
e9
f7
e4
eb
14
fc
fa
21
04
0a
f9
f0
17
fc
2c
11
06
15
e2
0f
ef
df
2f
fc
01
0a
2c
f3
01
06
1a
19
f7
ef
f0
00
e7
dc
f4
fc
2c
13
ea
f3
ea
fd
f8
f2
17
fc
1b
f5
ff
03
fd
f6
02
25
16
fc
e8
fa
02
16
0d
f0
17
09
0b
34
24
06
f7
12
16
e7
e6
f4
e0
0d
ff
fb
04
ff
f8
18
04
f7
f8
0c
04
f8
ff
08
09
f4
01
f3
0d
fa
0e
ff
0c
12
04
01
e9
fa
15
f8
04
2d
08
07
f5
00
17
0d
19
0c
1c
02
ef
16
ef
eb
ed
1b
14
02
f6
18
1a
3f
f4
20
ee
ff
10
f2
0e
19
13
f4
00
09
0e
f7
07
17
1c
0f
07
eb
1b
1e
04
00
0b
09
fe
2d
fb
f9
06
f3
0d
f5
0e
ec
06
08
fc
1b
f3
09
f3
fd
ed
f4
fd
f8
08
fe
18
12
e8
f5
07
f6
0a
fd
08
fc
16
05
ee
0e
f2
15
10
fc
fb
f7
0d
ee
01
0d
09
f3
fa
f6
e3
15
13
e5
08
16
ed
f9
01
08
fa
f1
fb
15
01
ef
ff
ea
f8
fc
1a
e9
f1
f9
07
f2
f6
f0
fd
e7
10
0d
f0
fb
19
f0
0b
18
f9
f0
e7
04
04
07
ff
ee
ed
10
f4
1f
0c
ff
0a
19
03
18
f8
ee
06
00
f9
e2
f9
02
0d
0c
1f
f3
fa
0e
ec
ed
0a
07
10
f8
fa
12
0e
0c
f4
ef
e8
06
14
f2
16
12
16
ea
fa
f1
f8
04
f9
f7
00
f6
00
ec
f1
ff
f7
01
f8
03
09
ff
f4
04
ff
02
18
ee
10
12
f0
07
07
fb
ed
f2
f8
0f
0c
f1
f8
11
11
06
f4
06
08
fc
ed
1a
0d
ee
fa
07
fb
f5
e6
19
e5
f4
fb
1b
f6
fe
02
ed
e9
e9
08
02
10
ed
f2
02
f3
12
01
02
10
ff
fd
14
06
0a
eb
f2
f8
fc
f0
fd
04
f8
10
0d
f8
14
17
f7
ec
f5
e6
00
e2
03
11
12
e9
0b
f7
f0
fd
ed
f9
f9
09
0f
01
ee
fd
13
f4
fe
ee
e4
f8
e4
19
eb
f9
11
f6
00
18
09
ec
01
12
18
25
eb
10
0d
ef
ef
0e
15
14
e8
f8
f3
f7
f7
04
02
0b
16
fa
ea
03
02
18
ee
f0
05
0b
10
1f
ff
10
11
ed
e6
00
fa
1b
17
f4
0d
0f
18
0c
fb
ed
fa
f8
dd
fd
0a
12
0e
07
f6
17
eb
eb
f3
05
e7
09
ec
0f
df
02
04
0c
08
fa
10
06
f3
09
13
0e
03
fa
03
16
f2
17
13
02
f4
e4
17
13
ec
ef
f1
ea
fc
f3
1e
f1
f5
ec
fc
fc
f3
06
ec
fd
1e
06
19
f2
16
e3
05
ed
04
e9
00
f7
05
f3
f3
0f
1a
fc
19
05
16
0d
f6
34
08
f9
1a
fc
ee
de
ff
c2
ea
f5
eb
0c
d7
d9
0c
f5
da
1b
1a
0a
fa
18
2f
fd
16
f6
e8
e1
07
1a
f8
0e
05
1e
e2
2c
ef
f7
ec
07
0c
13
02
19
23
15
f4
0c
ff
f8
e7
1e
24
0c
ec
e3
09
f5
fd
12
05
f0
e1
1a
ef
d4
37
26
df
c6
ef
02
08
fe
dd
ec
31
06
25
11
44
17
15
03
28
0f
ff
11
e4
16
13
fd
f4
0c
28
04
f2
e9
0d
e8
fd
e9
41
03
09
27
e5
39
1c
0b
de
20
32
e3
d2
01
fc
35
f5
f8
01
13
1e
fb
ff
1e
db
0f
2f
28
16
18
0e
23
28
ce
17
0c
0d
07
0f
19
15
ec
ef
12
18
19
35
1d
04
2d
f4
f3
ee
e1
0e
f9
1d
04
38
0a
ea
00
04
ff
f8
ff
1b
08
fd
fc
0c
1c
2e
fc
0a
13
31
01
05
30
2f
0d
18
07
ee
03
40
2c
18
22
04
f9
18
05
fe
e6
ed
1e
15
01
f8
ec
23
1d
25
10
1e
18
1c
0a
13
1a
1b
1f
f6
1f
15
0e
ff
fa
45
0f
e9
06
ff
18
01
ee
3f
33
f3
1f
f1
15
15
37
02
1a
08
ff
d5
14
03
22
16
22
ec
0f
fd
ed
00
e9
30
2a
0e
df
e1
e9
fc
1a
eb
ef
17
2c
07
fd
fe
ef
ed
f0
ed
13
1e
1a
e8
19
06
25
df
0c
1a
14
0a
0e
20
14
f8
c9
11
09
fa
f0
d6
24
ba
fc
fe
ef
ea
06
17
f6
ed
de
12
fe
12
e5
0b
e7
eb
05
30
dd
39
df
fe
d2
f9
0c
28
ff
0b
ed
1f
e7
3e
1a
00
fe
47
fd
fd
20
c9
0e
e3
ca
ec
f0
ec
07
dd
0d
fd
fc
02
fb
03
1b
e6
f9
e1
29
00
0d
28
f2
fd
e3
ed
e5
c7
22
0d
ec
00
0f
fa
04
2d
0a
fa
06
27
df
28
fd
12
e3
ea
08
11
26
c1
20
21
42
3e
c2
ec
3e
b9
1b
27
28
17
e4
ae
4a
47
3f
10
62
e6
2e
22
16
08
20
ed
34
3b
6b
fd
1b
e4
23
fe
cf
ff
12
3a
08
13
43
2b
56
23
a4
30
79
30
49
42
21
04
37
41
1f
f1
25
13
52
fc
02
c9
e1
39
1f
c5
c0
bb
fc
26
2c
f4
08
33
fd
32
46
3b
32
20
fd
52
1e
fa
fd
e5
52
54
0e
e2
c4
1b
16
d2
2a
24
2e
c4
eb
37
2a
16
26
f4
36
06
47
49
31
23
d1
a0
1e
25
48
23
26
15
20
2e
05
24
20
14
1a
10
1b
1b
14
0e
17
f1
27
1a
03
fc
e2
21
23
f2
ef
01
29
f5
0a
15
12
0e
e5
fb
0a
04
fb
0e
07
f1
fa
13
03
18
11
07
2d
09
05
22
0e
16
1e
10
04
26
ee
16
f7
10
07
0a
30
eb
0b
f7
f7
30
16
0c
12
21
06
17
17
0e
0a
29
27
fc
ea
28
0f
d9
13
11
0d
02
0d
fd
f8
15
14
00
12
2c
11
e7
fa
2e
07
03
00
28
04
0a
06
1b
02
f8
05
f1
10
0a
09
df
10
18
fd
f2
1e
25
2c
28
06
ee
0f
f7
e6
05
fa
14
fb
fe
f3
2c
fc
04
0a
13
e6
eb
32
f0
23
16
00
ee
11
31
15
0f
0a
21
1f
04
f2
15
ea
13
09
06
fa
0f
f4
18
0b
f4
ef
f0
e9
25
15
15
16
0c
fa
24
06
20
0e
20
15
fd
e9
fe
f6
00
ea
0b
fb
16
ff
04
35
1f
0a
04
16
04
0b
0b
1a
e4
0d
f9
1d
f6
2f
0a
1c
02
e5
06
02
fb
03
e2
fa
10
06
29
f1
1b
0e
06
f5
03
02
1a
2f
14
07
27
01
00
fb
1f
05
04
f6
f4
f0
05
1b
e7
10
fc
14
ea
07
01
f5
f2
14
f8
e9
fe
f9
f3
f8
f8
f4
cb
e7
00
db
07
f7
09
17
04
f5
f6
05
1a
ec
f7
fb
ed
06
f4
10
1d
21
00
12
f2
ef
ff
1c
ed
0a
fe
1e
04
f9
fb
e8
e8
0c
19
f3
e6
10
08
eb
10
03
ea
10
1c
fd
fc
f5
08
03
1e
11
0e
e9
08
f4
f7
0f
12
02
f8
f0
eb
05
02
ff
17
18
1b
1d
fc
16
07
11
f7
14
0c
10
0f
00
05
17
10
0d
ea
f9
f7
05
03
0c
15
ff
e9
1c
fe
fb
0f
08
f3
04
07
f4
fe
0d
f3
17
f6
0b
f1
18
15
0f
04
24
19
0c
20
10
f7
f9
20
f3
0e
f5
1c
d3
e7
22
18
00
ed
fe
dc
16
0e
f2
11
32
2d
0a
f2
f4
3e
f0
bc
fe
0c
b4
1b
dd
ff
0a
02
25
fd
f0
d3
fe
ee
e7
49
d9
fd
2e
fa
f6
0e
1e
df
04
46
cd
25
43
c5
d4
02
da
d6
09
cc
ed
c9
ec
2f
fc
dd
fb
3c
15
29
39
f0
1d
4e
34
1f
4d
1f
e1
19
04
ff
f6
e6
ce
d5
04
fe
f6
1b
f1
01
0d
d1
e4
e6
03
15
30
26
cf
3e
05
0c
da
14
17
d7
e8
13
ec
d8
d5
d1
be
be
fb
c3
2d
53
bf
1c
f8
df
fc
0f
f6
2e
f4
22
13
09
03
0f
03
17
d7
fc
f6
0e
f2
d7
f1
10
08
08
d1
08
05
f0
ee
e9
17
eb
02
13
fe
10
fc
fe
d2
04
03
f6
e4
f6
0a
1f
ea
ef
f6
fb
1a
fa
1e
e8
fb
25
12
eb
e7
29
fe
02
28
f9
e8
f0
d7
ea
0d
de
1f
ec
f4
e7
ff
c9
0d
1a
d8
e3
d8
f2
13
07
15
e8
13
25
14
fb
30
05
0f
f5
ed
2a
23
f4
f3
ed
09
e5
2d
ee
f4
18
25
e5
f8
ec
0b
e0
02
27
26
ec
fa
d8
22
04
1b
03
1e
18
e5
ef
09
06
09
f8
27
11
f5
f8
09
df
32
ef
fe
08
34
02
f6
17
02
24
f1
d3
f1
10
fe
26
fc
01
25
10
29
1f
ec
08
33
fa
db
2c
db
ee
01
ec
ef
02
17
0e
f4
1d
fb
d4
18
12
fc
01
02
15
ec
0b
ff
20
f4
11
40
08
0b
11
1f
15
23
03
25
d1
17
2b
3a
f9
fc
de
ff
14
fc
0e
d6
e9
35
0f
f7
db
f4
1c
03
f1
1c
e3
27
1a
e4
28
16
09
00
05
16
35
08
ee
fb
24
08
e0
fe
11
08
f2
f5
fe
1f
e0
dc
e9
34
f4
08
04
ee
18
00
f6
18
22
14
f5
04
0f
e8
1b
f6
e0
fb
21
ff
09
fe
0b
ec
f8
e5
e9
fe
f9
f6
ed
e1
04
fe
09
11
fd
f9
0c
f0
ff
f7
27
fb
04
ea
ec
eb
f2
0d
11
04
ee
f0
0e
07
f0
ed
0a
fd
e6
16
23
e5
fe
f9
07
ec
11
fa
28
df
f2
e3
fb
ed
fb
eb
15
03
17
f9
eb
0c
de
db
f6
17
12
ec
03
18
07
03
03
f9
30
21
f1
2c
fe
0b
00
f5
e9
d0
11
1a
ef
03
06
fe
10
ed
e9
00
12
fb
17
21
ff
02
04
e5
23
f7
18
d6
0c
17
0c
e0
ed
ed
04
f5
09
0b
f3
eb
ca
d1
10
ed
df
08
09
de
18
26
d2
eb
e7
07
24
e5
be
e8
ff
dd
27
f8
fe
13
cd
14
13
14
db
31
d8
e3
fc
fa
f4
ed
f2
16
1f
04
0e
03
dc
f9
ed
cf
18
d3
dc
e2
f3
0d
c7
29
ff
e0
ea
16
11
4a
d4
29
de
ff
21
dc
de
eb
f7
0c
0c
11
c4
e2
00
af
fa
e9
04
fa
17
0a
ec
ff
54
d3
18
1a
ea
23
1d
fc
1b
12
fa
f6
e4
fd
29
f0
d0
ea
18
1f
e8
fa
0a
1e
ea
00
12
20
db
ec
d8
0f
df
1e
0c
1c
18
ef
ce
21
2a
1c
f8
e6
0e
f0
fd
21
10
14
0d
06
0a
26
0c
ec
20
11
f7
d3
fd
df
f6
05
f4
fc
15
f3
08
e4
f4
f2
00
f0
fe
f1
f5
08
06
07
fd
0a
f6
f9
fd
08
27
e7
dd
0c
00
f5
0a
07
ea
ed
06
fd
00
1a
0d
e6
db
08
e8
e1
dc
e8
f3
f7
e8
f6
ea
ee
d9
f6
f0
09
f1
ea
e1
e1
ee
fb
ef
15
f1
0b
15
04
ee
0d
e0
0b
e7
e7
29
13
0d
e8
eb
07
df
02
1e
00
02
21
fb
f7
fe
ff
02
2b
10
f6
e3
d7
ed
f4
f6
db
03
e7
ec
d9
f9
25
f4
1a
da
0f
13
0e
e4
f0
ec
22
00
e5
2f
0b
1e
ec
0d
32
0a
fb
fb
e2
19
0c
f4
f0
20
12
04
12
2d
e5
21
13
ff
f6
fd
10
07
f8
08
23
0a
07
0d
da
22
ee
fb
19
36
fa
e7
01
f5
f9
0d
07
20
fc
04
3f
19
ec
0d
1d
e3
23
07
f7
e9
ed
35
17
e6
f4
05
ff
18
eb
f6
da
eb
21
34
13
f4
fc
16
f7
e1
08
ec
0b
1f
d8
16
18
29
f5
d6
33
20
18
05
04
0c
0d
f1
ed
e2
21
ec
2f
f5
1a
d4
dd
fb
23
05
fe
10
1b
00
09
fd
21
10
29
d8
25
02
05
18
ea
fe
f0
24
f5
e4
ef
f6
14
e5
ee
ee
e9
ff
07
fc
0c
fb
e8
0b
08
eb
e9
f9
fd
08
fb
fe
ef
14
00
fc
ed
fc
f5
09
12
ea
04
fb
ef
f9
f2
fb
f2
12
26
f7
f1
ea
0b
29
f3
f7
fe
fe
ee
05
07
f7
0f
fc
03
17
06
10
f4
07
f3
15
ef
18
fd
1b
f9
0f
0a
fb
06
0a
fa
f7
0c
08
07
f6
0b
de
0c
e7
fb
04
02
fb
ed
16
0e
f4
11
e9
1a
01
09
00
09
e5
d7
ea
ea
19
e7
e8
03
f3
1f
f2
f8
06
ee
e8
f2
fc
04
15
f5
c6
d7
fe
1a
fe
e9
e8
ec
13
0b
05
f6
00
0d
08
df
e1
e4
f2
e1
ff
12
ef
f4
1f
fd
0d
fd
05
1c
eb
de
07
0c
f9
e3
04
33
1d
09
12
e8
dc
df
d9
da
00
dc
d0
19
f8
04
0d
15
ed
f1
08
f1
02
0a
f4
0c
eb
06
f1
f4
0c
02
f9
08
fc
02
fb
f7
1b
da
0c
f4
e7
0c
fb
f7
f0
fe
fb
ce
f4
f3
d6
14
f2
e3
3d
fa
2b
fe
db
f9
22
16
dd
ea
f5
f5
e8
fd
0c
0e
f3
0a
e8
18
d2
e8
ef
0e
0e
fc
26
f6
f1
e6
04
16
17
1d
d4
f8
00
0c
16
00
1f
ff
00
18
f7
20
fe
e9
02
06
e7
08
f7
e8
14
0e
02
10
10
ef
ec
01
10
f2
11
11
19
0b
05
ed
15
09
06
03
ea
e2
fe
f9
ee
1a
0f
ff
06
04
21
17
14
03
fe
fc
f1
f5
17
f3
e5
18
0c
04
e4
f8
e0
05
eb
21
10
18
f9
f9
13
eb
da
ff
03
fa
18
f3
f0
18
ef
d9
f2
20
06
e5
10
0a
db
0f
04
03
1e
01
03
fa
ef
f4
19
16
17
e1
0e
f3
df
20
0a
06
04
0e
e3
ff
fb
e5
fb
eb
df
08
fc
0c
ec
f9
f7
23
04
1c
f7
f6
1b
01
f7
1c
dc
00
16
14
2d
ff
0f
1f
02
09
0f
ff
13
f8
09
12
0e
00
f8
19
19
2a
19
07
1d
0a
00
fd
ee
f6
fd
09
27
13
11
17
22
f8
e6
09
0b
01
1d
11
16
00
06
10
0b
fa
1b
34
1d
00
04
e7
19
21
1a
0d
e4
f4
f4
00
02
15
00
eb
05
28
05
f7
e9
16
06
24
12
01
17
16
12
ee
03
00
0c
e6
13
e9
26
ed
08
f3
07
13
0e
00
09
01
f7
fc
ef
28
ef
08
0c
20
dc
0b
f8
1f
fa
18
0d
0e
14
11
00
ea
04
03
ea
f9
e4
e7
04
f7
df
00
f9
1f
10
fa
0c
0c
0e
ec
ee
ff
09
04
dc
e0
17
f4
f3
f5
f5
eb
19
02
df
f0
f0
fd
fa
f9
f6
ed
13
04
0e
e5
05
f9
ed
0a
ec
26
e6
0c
eb
0b
19
f8
ed
13
fc
f7
05
0b
02
ef
f6
e5
16
0e
10
f9
06
da
1b
f7
ee
19
16
eb
f0
02
e8
0d
0f
0e
1c
f7
e6
ff
12
e6
02
f9
ed
17
ec
ed
fd
fc
ec
14
17
02
03
e6
ff
e5
f4
f7
e6
fa
e8
1a
f7
07
f5
18
ea
04
fa
11
00
08
03
0e
e8
03
ec
fb
12
ea
03
fb
e5
f3
09
10
16
f8
fc
19
13
28
1c
ed
ea
1c
ef
09
05
0a
ef
00
fb
02
06
11
02
2a
df
2d
f1
19
03
03
1c
ea
e7
08
1c
18
f9
03
f2
ff
ea
12
18
e8
f5
01
f7
07
11
0b
f9
1d
07
03
e4
14
07
17
f6
fa
12
21
fd
ff
08
23
ef
15
0c
e7
0d
ef
f9
f5
f2
f5
f6
e0
04
16
fe
db
08
f3
f3
e6
0e
f2
fa
fb
28
e8
29
0b
f4
ef
11
0e
fb
17
29
0f
fa
f3
e5
32
e8
ff
16
08
fa
f1
